0000000000001cd2fffffffffff79c65 0000000000050561ffffffffff3c4988 0000000000091184fffffffffed9f248 00000000000adb67000000000056dc04 00000000000cb5c5000000000223934a 00000000000cac0bfffffffffe95ab02 00000000000733ceffffffffff647400 000000000001ed2affffffffffb89127 000000000000d25effffffffffda4425 00000000000000000000000000000000
00000000000191c8ffffffffff8f42eb 000000000005969affffffffffab9f9a 000000000006e8bf0000000001903b05 00000000000a8c900000000000b0350e 000000000008530effffffffffefb37f 0000000000033a94000000000012fa1b 0000000000014171ffffffffff24c592 000000000000dde9ffffffffffaf3dd1 0000000000002aa0ffffffffffed9769 00000000000000000000000000000000
0000000000039323ffffffffff18407a 000000000007244effffffffff144edc 00000000000937b10000000001575b9f 00000000000a635a0000000001c29ad1 00000000000b2466fffffffffea64cea 00000000000676ddffffffffff0ef6d0 000000000001681d0000000000a6278d 0000000000009c2500000000008d59a5 000000000000389b0000000000512635 00000000000000000000000000000000
000000000003a490ffffffffff59c319 0000000000081d5e00000000005fc648 00000000000fe64e0000000001188eed 0000000000153d43000000000089177b 000000000015a571ffffffffffb67d47 0000000000140dddfffffffffffc34ad 00000000000e14cd0000000001fe43c5 0000000000079ab1000000000262eb8d 000000000002335500000000012f98c5 000000000000ab3800000000007f7787
0000000000022953ffffffffffe5c448 00000000000628f0000000000180fa7c 00000000000c845a0000000003bb1df7 000000000013063c0000000002fedaca 000000000013d504000000000115db98 0000000000154f2500000000010fd5ca 000000000013cd10000000000135e8fe 000000000011315e00000000014c8487 000000000009eddc0000000000f36a76 000000000004590e00000000004309b6
00000000000069a400000000005d376d 000000000004e1a50000000001c0ecf0 0000000000090efa00000000043d2cd0 00000000000c0e8d0000000004f3b3b4 00000000000a57f6000000000352236c 00000000000c474600000000017e5441 00000000000d93ae00000000018ccdab 0000000000115fb600000000021ee28c 00000000000d766900000000005e66f6 000000000006ec70ffffffffffcc092b
00000000000000000000000000000000 00000000000230fa0000000001e7e0b8 000000000006f20500000000029b7cd2 00000000000cbce6000000000268bde8 00000000000aefd000000000014008a4 00000000000518cf0000000001360559 00000000000611730000000002ae9d17 00000000000e73ee0000000000f15610 00000000000e1f4bffffffffff99c620 0000000000075016ffffffffff409ee2
00000000000000000000000000000000 00000000000000000000000000000000 00000000000411d100000000026aa09d 00000000000c1a0f0000000000d66e7a 00000000000f84cb000000000122ece3 00000000000cee8d000000000192e456 00000000000a2eca00000000001a7a3a 00000000000c0902ffffffffff81f94b 00000000000b89eefffffffffd996e78 0000000000062e47fffffffffeea3169
00000000000000000000000000000000 00000000000000000000000000000000 00000000000000000000000000000000 00000000000174240000000004001bea 0000000000088e51000000000381eec6 000000000008f76e00000000040ec829 000000000007bcd30000000000c8132d 000000000007d8b5fffffffffd8223ea 00000000000533d8fffffffffe4f47b3 0000000000020f76ffffffffff72af3c
0000000000000cdafffffffffffbc911 00000000000000000000000000000000 00000000000000000000000000000000 00000000000000000000000000000000 00000000000000000000000000000000 0000000000008c360000000001f2f1ae 00000000000000000000000000000000 00000000000000000000000000000000 00000000000000000000000000000000 000000000000ab2dffffffffffdedc0e
