0000000000000000000000000134f670 0000000000000000000000000253ee0f 0000000000000000000000000293ea8a 00000000000000000000000002a208e5 000000000000000000000000026e7c66 00000000000000000000000002303a07 00000000000000000000000001ff9db8 0000000000000000000000000178ab95 00000000000000000000000000d81bcc 00000000000000000000000000479ffe
000000000000000000000000003b1863 000000000000000000000000018cc6ba 00000000000000000000000002d1009a 0000000000000000000000000397c9d6 0000000000000000000000000381f8da 00000000000000000000000003731a8a 0000000000000000000000000361b22c 00000000000000000000000003693bbc 00000000000000000000000002d8ed2b 0000000000000000000000000165e8dd
00000000000000000000000000ac4c24 00000000000000000000000001399db1 0000000000000000000000000252c723 000000000000000000000000022feec1 00000000000000000000000001d8866c 00000000000000000000000002588a0b 00000000000000000000000002a83969 00000000000000000000000003e476c1 00000000000000000000000003499f92 00000000000000000000000001efc486
00000000000000000000000000a15e06 000000000000000000000000014fd493 00000000000000000000000001d9e653 00000000000000000000000001e37305 00000000000000000000000002931f7c 000000000000000000000000024044a7 000000000000000000000000034c2f4e 0000000000000000000000000383ccc2 0000000000000000000000000378e76d 0000000000000000000000000262f5f6
000000000000000000000000002c3343 000000000000000000000000006be2a4 0000000000000000000000000080c420 00000000000000000000000000a2d629 00000000000000000000000001045179 00000000000000000000000000d5651e 00000000000000000000000003038963 000000000000000000000000039995b5 000000000000000000000000036bd5e4 00000000000000000000000001dd2b29
00000000000000000000000000000000 000000000000000000000000000230e3 000000000000000000000000000cf33c 00000000000000000000000000958bda 000000000000000000000000004328f5 00000000000000000000000002596128 00000000000000000000000002cecb59 00000000000000000000000003a8db4e 0000000000000000000000000336dc25 0000000000000000000000000054d887
00000000000000000000000000000000 00000000000000000000000000000000 000000000000000000000000005c7a3b 00000000000000000000000000765e3d 00000000000000000000000000f07eee 00000000000000000000000002f66f6d 000000000000000000000000038d6354 000000000000000000000000034244b8 00000000000000000000000001c2cc34 00000000000000000000000000000000
00000000000000000000000000000000 0000000000000000000000000020e54c 0000000000000000000000000094d0ee 00000000000000000000000000278e23 00000000000000000000000002cf759f 000000000000000000000000032ee4a0 000000000000000000000000037cc0df 00000000000000000000000003323575 000000000000000000000000002f4d9b 00000000000000000000000000000000
00000000000000000000000000000000 0000000000000000000000000075097b 000000000000000000000000006b0176 00000000000000000000000001f12e55 00000000000000000000000003705c8a 00000000000000000000000004538562 00000000000000000000000003dbf9cb 00000000000000000000000001422336 00000000000000000000000000000000 00000000000000000000000000000000
00000000000000000000000000000000 000000000000000000000000003d460f 000000000000000000000000006f2b4a 00000000000000000000000003368766 00000000000000000000000004300508 00000000000000000000000004410917 00000000000000000000000002caee71 0000000000000000000000000005fdfe 00000000000000000000000000000000 00000000000000000000000000000000
