00000000000000000000000000000000 00000000000000000000000000000000 00000000000000000000000000000000 00000000000000000000000000000000 00000000000000000000000000000000 00000000000000000000000000000000 00000000000000000000000000000000 00000000000000000000000000000000 00000000000000000000000000000000 00000000000000000000000000000000 00000000000000000000000000000000 00000000000000000000000000006a1a 0000000000000000000000000001575f 0000000000000000000000000001ad61 00000000000000000000000000015072 0000000000000000000000000000bca1 000000000000000000000000000037a3 00000000000000000000000000000000 00000000000000000000000000000000 00000000000000000000000000000000 00000000000000000000000000000000 00000000000000000000000000000000 00000000000000000000000000000000 00000000000000000000000000000000
00000000000000000000000000000000 00000000000000000000000000000000 00000000000000000000000000000000 00000000000000000000000000000000 00000000000000000000000000000000 00000000000000000000000000000000 00000000000000000000000000000000 00000000000000000000000000000000 00000000000000000000000000000000 00000000000000000000000000000000 00000000000000000000000000009c1d 0000000000000000000000000001daa9 0000000000000000000000000002b55f 00000000000000000000000000026059 00000000000000000000000000015aff 00000000000000000000000000008eb3 00000000000000000000000000002e29 00000000000000000000000000000000 00000000000000000000000000000000 00000000000000000000000000000000 00000000000000000000000000000000 00000000000000000000000000000000 00000000000000000000000000000000 00000000000000000000000000000000
00000000000000000000000000000000 00000000000000000000000000000000 00000000000000000000000000000000 00000000000000000000000000000000 00000000000000000000000000000000 00000000000000000000000000000000 00000000000000000000000000000000 00000000000000000000000000000000 00000000000000000000000000000000 00000000000000000000000000008e5c 00000000000000000000000000024f1f 00000000000000000000000000038ec2 0000000000000000000000000003230d 00000000000000000000000000020ba7 00000000000000000000000000007b1e 00000000000000000000000000000d5b 00000000000000000000000000000000 00000000000000000000000000000000 00000000000000000000000000000000 00000000000000000000000000000000 00000000000000000000000000000000 00000000000000000000000000000000 00000000000000000000000000000000 00000000000000000000000000000000
00000000000000000000000000000000 00000000000000000000000000000000 00000000000000000000000000000000 00000000000000000000000000000000 00000000000000000000000000000000 00000000000000000000000000000000 00000000000000000000000000000000 00000000000000000000000000000000 000000000000000000000000000016c6 0000000000000000000000000001f858 0000000000000000000000000003ea55 0000000000000000000000000003d56b 00000000000000000000000000020999 00000000000000000000000000008840 0000000000000000000000000000039a 00000000000000000000000000000000 00000000000000000000000000000000 00000000000000000000000000000000 00000000000000000000000000000000 00000000000000000000000000000000 00000000000000000000000000000000 00000000000000000000000000000000 00000000000000000000000000000000 00000000000000000000000000000000
00000000000000000000000000000000 00000000000000000000000000000000 00000000000000000000000000000000 00000000000000000000000000000000 00000000000000000000000000000000 00000000000000000000000000000000 00000000000000000000000000000000 00000000000000000000000000000000 00000000000000000000000000011bb3 00000000000000000000000000032b55 0000000000000000000000000003d6b7 00000000000000000000000000028bb4 0000000000000000000000000000cc76 00000000000000000000000000000000 00000000000000000000000000000000 00000000000000000000000000000000 00000000000000000000000000000000 00000000000000000000000000000000 00000000000000000000000000000000 00000000000000000000000000000000 00000000000000000000000000000000 00000000000000000000000000000000 00000000000000000000000000000000 00000000000000000000000000000000
00000000000000000000000000000000 00000000000000000000000000000000 00000000000000000000000000000000 00000000000000000000000000000000 00000000000000000000000000000000 00000000000000000000000000000000 00000000000000000000000000000000 00000000000000000000000000000f4e 000000000000000000000000000200b5 0000000000000000000000000003c026 0000000000000000000000000002dc61 000000000000000000000000000111ce 00000000000000000000000000000000 00000000000000000000000000000000 00000000000000000000000000000000 0000000000000000000000000000011b 00000000000000000000000000000000 00000000000000000000000000000000 00000000000000000000000000000000 00000000000000000000000000000000 00000000000000000000000000000000 00000000000000000000000000000000 00000000000000000000000000000000 00000000000000000000000000000000
00000000000000000000000000000000 00000000000000000000000000000000 00000000000000000000000000000000 00000000000000000000000000000000 00000000000000000000000000000000 00000000000000000000000000000000 00000000000000000000000000000000 0000000000000000000000000000c7eb 0000000000000000000000000002d316 000000000000000000000000000358b9 000000000000000000000000000208ce 000000000000000000000000000047df 00000000000000000000000000000000 00000000000000000000000000000000 00000000000000000000000000000000 00000000000000000000000000000000 00000000000000000000000000000000 00000000000000000000000000000000 00000000000000000000000000000000 00000000000000000000000000000000 00000000000000000000000000000000 00000000000000000000000000000000 00000000000000000000000000000000 00000000000000000000000000000000
00000000000000000000000000000000 00000000000000000000000000000000 00000000000000000000000000000000 00000000000000000000000000000000 00000000000000000000000000000000 00000000000000000000000000000000 00000000000000000000000000000000 00000000000000000000000000016163 00000000000000000000000000035945 0000000000000000000000000002e19e 0000000000000000000000000001605b 00000000000000000000000000001d66 00000000000000000000000000000000 00000000000000000000000000000000 00000000000000000000000000000000 00000000000000000000000000000000 00000000000000000000000000000000 00000000000000000000000000000000 00000000000000000000000000000000 00000000000000000000000000000000 00000000000000000000000000000000 00000000000000000000000000000000 00000000000000000000000000000000 00000000000000000000000000000000
00000000000000000000000000000000 00000000000000000000000000000000 00000000000000000000000000000000 00000000000000000000000000000000 00000000000000000000000000000000 00000000000000000000000000000000 000000000000000000000000000046c9 000000000000000000000000000211cf 00000000000000000000000000037145 000000000000000000000000000275e4 0000000000000000000000000000dbdb 0000000000000000000000000000016f 00000000000000000000000000000000 00000000000000000000000000000000 00000000000000000000000000000000 00000000000000000000000000000000 00000000000000000000000000000000 00000000000000000000000000000000 00000000000000000000000000000000 00000000000000000000000000000000 00000000000000000000000000000000 00000000000000000000000000000000 00000000000000000000000000000000 00000000000000000000000000000000
00000000000000000000000000000000 00000000000000000000000000000000 00000000000000000000000000000000 00000000000000000000000000000000 00000000000000000000000000000000 00000000000000000000000000000000 0000000000000000000000000000c429 000000000000000000000000000289b6 00000000000000000000000000030b17 0000000000000000000000000001da9f 0000000000000000000000000000838e 00000000000000000000000000000000 000000000000000000000000000029db 00000000000000000000000000005fe4 000000000000000000000000000097fb 0000000000000000000000000000a5d6 00000000000000000000000000008a0e 00000000000000000000000000005740 00000000000000000000000000001ae6 000000000000000000000000000000b8 00000000000000000000000000000000 00000000000000000000000000000000 00000000000000000000000000000000 00000000000000000000000000000000
00000000000000000000000000000000 00000000000000000000000000000000 00000000000000000000000000000000 00000000000000000000000000000000 00000000000000000000000000000000 00000000000000000000000000000000 0000000000000000000000000001243b 00000000000000000000000000027c02 00000000000000000000000000027f46 00000000000000000000000000018162 0000000000000000000000000000ae5b 0000000000000000000000000000dd20 00000000000000000000000000012804 000000000000000000000000000161e5 00000000000000000000000000018538 00000000000000000000000000019e36 00000000000000000000000000016ed9 0000000000000000000000000000f5c7 00000000000000000000000000007c86 00000000000000000000000000002023 00000000000000000000000000000000 00000000000000000000000000000000 00000000000000000000000000000000 00000000000000000000000000000000
00000000000000000000000000000000 00000000000000000000000000000000 00000000000000000000000000000000 00000000000000000000000000000000 00000000000000000000000000000000 00000000000000000000000000000000 00000000000000000000000000014573 00000000000000000000000000024536 00000000000000000000000000024ee2 0000000000000000000000000001d90a 0000000000000000000000000001dc0f 000000000000000000000000000238e2 0000000000000000000000000002301b 00000000000000000000000000020a4b 0000000000000000000000000001e0b8 0000000000000000000000000001d8bf 0000000000000000000000000001cf83 00000000000000000000000000016f66 0000000000000000000000000000f706 0000000000000000000000000000764e 000000000000000000000000000016d2 00000000000000000000000000000000 00000000000000000000000000000000 00000000000000000000000000000000
00000000000000000000000000000000 00000000000000000000000000000000 00000000000000000000000000000000 00000000000000000000000000000000 00000000000000000000000000000000 00000000000000000000000000001407 00000000000000000000000000014ab0 00000000000000000000000000021a9c 0000000000000000000000000002bf96 0000000000000000000000000002e1c7 0000000000000000000000000002e481 0000000000000000000000000002be66 00000000000000000000000000023e7a 0000000000000000000000000001e580 0000000000000000000000000001611f 000000000000000000000000000189aa 0000000000000000000000000001b27d 00000000000000000000000000019a0d 00000000000000000000000000014f48 0000000000000000000000000000b706 000000000000000000000000000032c4 00000000000000000000000000000000 00000000000000000000000000000000 00000000000000000000000000000000
00000000000000000000000000000000 00000000000000000000000000000000 00000000000000000000000000000000 00000000000000000000000000000000 00000000000000000000000000000000 00000000000000000000000000003472 00000000000000000000000000013012 00000000000000000000000000023b9b 00000000000000000000000000033b86 00000000000000000000000000033b2a 0000000000000000000000000002d59a 0000000000000000000000000001ebc9 00000000000000000000000000012309 000000000000000000000000000106cd 0000000000000000000000000000b3f5 0000000000000000000000000000ed2f 0000000000000000000000000001c7fd 0000000000000000000000000001e0b7 00000000000000000000000000015d89 0000000000000000000000000000bf4b 00000000000000000000000000002e9f 00000000000000000000000000000000 00000000000000000000000000000000 00000000000000000000000000000000
00000000000000000000000000000000 00000000000000000000000000000000 00000000000000000000000000000000 00000000000000000000000000000000 00000000000000000000000000000000 0000000000000000000000000000506f 0000000000000000000000000000ec34 00000000000000000000000000022c7e 000000000000000000000000000332eb 00000000000000000000000000029a39 0000000000000000000000000001b195 00000000000000000000000000008320 00000000000000000000000000004834 000000000000000000000000000071b9 00000000000000000000000000004ac7 0000000000000000000000000000ffd1 0000000000000000000000000001cf1a 00000000000000000000000000025020 0000000000000000000000000001883f 00000000000000000000000000009cab 00000000000000000000000000001ce4 00000000000000000000000000000000 00000000000000000000000000000000 00000000000000000000000000000000
00000000000000000000000000000000 00000000000000000000000000000000 00000000000000000000000000000000 00000000000000000000000000000000 00000000000000000000000000000000 00000000000000000000000000005aa7 0000000000000000000000000000cfba 0000000000000000000000000001a1e8 0000000000000000000000000002951d 0000000000000000000000000001c0eb 0000000000000000000000000000e872 00000000000000000000000000005a09 00000000000000000000000000002354 000000000000000000000000000013bb 00000000000000000000000000002d6d 00000000000000000000000000011704 000000000000000000000000000282ee 0000000000000000000000000002a502 0000000000000000000000000001a50b 00000000000000000000000000008d59 00000000000000000000000000000c9f 00000000000000000000000000000000 00000000000000000000000000000000 00000000000000000000000000000000
00000000000000000000000000000000 00000000000000000000000000000000 00000000000000000000000000000000 00000000000000000000000000000000 00000000000000000000000000000000 000000000000000000000000000049eb 0000000000000000000000000000dbbd 000000000000000000000000000153a4 0000000000000000000000000001a52c 00000000000000000000000000016566 0000000000000000000000000000f743 0000000000000000000000000000bf36 0000000000000000000000000000542a 00000000000000000000000000000000 000000000000000000000000000085e5 00000000000000000000000000022b97 00000000000000000000000000035948 0000000000000000000000000002f027 000000000000000000000000000167f1 0000000000000000000000000000496f 00000000000000000000000000000000 00000000000000000000000000000000 00000000000000000000000000000000 00000000000000000000000000000000
00000000000000000000000000000000 00000000000000000000000000000000 00000000000000000000000000000000 00000000000000000000000000000000 00000000000000000000000000000000 000000000000000000000000000054b1 0000000000000000000000000000d48c 0000000000000000000000000001169e 00000000000000000000000000010681 00000000000000000000000000012134 0000000000000000000000000000f97f 0000000000000000000000000000ee56 0000000000000000000000000000ba8b 0000000000000000000000000000cb17 000000000000000000000000000217a8 00000000000000000000000000039260 0000000000000000000000000003dfa9 00000000000000000000000000022de5 0000000000000000000000000000a01e 00000000000000000000000000000000 00000000000000000000000000000000 00000000000000000000000000000000 00000000000000000000000000000000 00000000000000000000000000000000
00000000000000000000000000000000 00000000000000000000000000000000 00000000000000000000000000000000 00000000000000000000000000000000 00000000000000000000000000000000 00000000000000000000000000002f1d 0000000000000000000000000000b44d 0000000000000000000000000000b78a 0000000000000000000000000000cb8c 00000000000000000000000000010ef6 000000000000000000000000000133c5 000000000000000000000000000105b4 00000000000000000000000000015fe8 00000000000000000000000000027ef6 00000000000000000000000000039c3d 000000000000000000000000000404f6 00000000000000000000000000028bd5 0000000000000000000000000000c209 00000000000000000000000000000000 00000000000000000000000000000000 00000000000000000000000000000000 00000000000000000000000000000000 00000000000000000000000000000000 00000000000000000000000000000000
00000000000000000000000000000000 00000000000000000000000000000000 00000000000000000000000000000000 00000000000000000000000000000000 00000000000000000000000000000000 00000000000000000000000000000000 00000000000000000000000000004c07 0000000000000000000000000000d0bb 0000000000000000000000000000be8c 000000000000000000000000000111ec 0000000000000000000000000001413d 00000000000000000000000000019d82 000000000000000000000000000215a4 00000000000000000000000000031111 00000000000000000000000000034d55 0000000000000000000000000002242c 0000000000000000000000000000a944 00000000000000000000000000000000 00000000000000000000000000000000 00000000000000000000000000000000 00000000000000000000000000000000 00000000000000000000000000000000 00000000000000000000000000000000 00000000000000000000000000000000
00000000000000000000000000000000 00000000000000000000000000000000 00000000000000000000000000000000 00000000000000000000000000000000 00000000000000000000000000000000 00000000000000000000000000000000 0000000000000000000000000000077b 000000000000000000000000000077e0 0000000000000000000000000000e2cf 0000000000000000000000000000cdbe 00000000000000000000000000014eec 0000000000000000000000000001c1a8 00000000000000000000000000022a52 00000000000000000000000000020df5 000000000000000000000000000111eb 00000000000000000000000000003d0b 00000000000000000000000000000000 00000000000000000000000000000000 00000000000000000000000000000000 00000000000000000000000000000000 00000000000000000000000000000000 00000000000000000000000000000000 00000000000000000000000000000000 00000000000000000000000000000000
00000000000000000000000000000000 00000000000000000000000000000000 00000000000000000000000000000000 00000000000000000000000000000000 00000000000000000000000000000000 00000000000000000000000000000000 00000000000000000000000000000000 0000000000000000000000000000162d 00000000000000000000000000007d91 0000000000000000000000000000d07e 0000000000000000000000000000f1eb 00000000000000000000000000013557 0000000000000000000000000001060b 00000000000000000000000000006516 00000000000000000000000000000000 00000000000000000000000000000000 00000000000000000000000000000000 00000000000000000000000000000000 00000000000000000000000000000000 00000000000000000000000000000000 00000000000000000000000000000000 00000000000000000000000000000000 00000000000000000000000000000000 00000000000000000000000000000000
00000000000000000000000000000000 00000000000000000000000000000000 00000000000000000000000000000000 00000000000000000000000000000000 00000000000000000000000000000000 00000000000000000000000000000000 00000000000000000000000000000000 00000000000000000000000000000000 00000000000000000000000000001549 000000000000000000000000000058cf 00000000000000000000000000007fd4 000000000000000000000000000042b8 00000000000000000000000000000000 00000000000000000000000000000000 00000000000000000000000000000000 00000000000000000000000000000000 00000000000000000000000000000000 00000000000000000000000000000000 00000000000000000000000000000000 00000000000000000000000000000000 00000000000000000000000000000000 00000000000000000000000000000000 00000000000000000000000000000000 00000000000000000000000000000000
00000000000000000000000000000000 00000000000000000000000000000000 00000000000000000000000000000000 00000000000000000000000000000000 00000000000000000000000000000000 00000000000000000000000000000000 00000000000000000000000000000000 00000000000000000000000000000000 00000000000000000000000000000000 00000000000000000000000000000000 00000000000000000000000000000000 00000000000000000000000000000000 00000000000000000000000000000000 00000000000000000000000000000000 00000000000000000000000000000000 00000000000000000000000000000000 00000000000000000000000000000000 00000000000000000000000000000000 00000000000000000000000000000000 00000000000000000000000000000000 00000000000000000000000000000000 00000000000000000000000000000000 00000000000000000000000000000000 00000000000000000000000000000000
