00000000000000000000000000000000 00000000000000000000000000000000 00000000000000000000000001331192 0000000000000000000000000232d56a 00000000000000000000000002332234 00000000000000000000000001b8b2a2 00000000000000000000000001a12f1c 000000000000000000000000017150cf 000000000000000000000000006254c7 00000000000000000000000000000000
00000000000000000000000000000000 00000000000000000000000000496d05 00000000000000000000000000beec18 00000000000000000000000000dd9160 00000000000000000000000000431b8c 00000000000000000000000000000000 00000000000000000000000000000000 0000000000000000000000000024481f 000000000000000000000000003077fc 00000000000000000000000000000000
00000000000000000000000000000000 00000000000000000000000000b12637 00000000000000000000000000594aaf 00000000000000000000000000703c19 00000000000000000000000000000000 00000000000000000000000000a13dd2 00000000000000000000000000a7b6dd 0000000000000000000000000001998d 00000000000000000000000000000000 00000000000000000000000000000000
0000000000000000000000000032b5a6 000000000000000000000000006827b7 0000000000000000000000000088edb3 00000000000000000000000000e311cc 0000000000000000000000000247039f 0000000000000000000000000279788e 000000000000000000000000021f9efc 00000000000000000000000001db8ec8 00000000000000000000000000ee0d99 000000000000000000000000000e5314
000000000000000000000000004ef663 00000000000000000000000000000000 0000000000000000000000000075d707 0000000000000000000000000201f377 000000000000000000000000052bea62 000000000000000000000000061cccd3 000000000000000000000000058f8521 00000000000000000000000005d079d9 0000000000000000000000000488c2ae 0000000000000000000000000191fb49
0000000000000000000000000031453f 00000000000000000000000000066ca7 00000000000000000000000000baa866 0000000000000000000000000159e6f1 0000000000000000000000000400c733 00000000000000000000000003403680 00000000000000000000000002386e71 0000000000000000000000000392637f 000000000000000000000000044e8614 00000000000000000000000002f344d5
00000000000000000000000000000000 0000000000000000000000000020cdac 00000000000000000000000000000000 00000000000000000000000000000000 0000000000000000000000000191480d 00000000000000000000000001fd6462 00000000000000000000000000000000 00000000000000000000000000f085d9 0000000000000000000000000217fb3f 00000000000000000000000002ee254d
00000000000000000000000000000000 00000000000000000000000000000000 00000000000000000000000000000000 00000000000000000000000000000000 00000000000000000000000001e44d62 00000000000000000000000005bd5cd8 00000000000000000000000003ad6896 0000000000000000000000000208378f 0000000000000000000000000179cda5 00000000000000000000000002318304
00000000000000000000000000000000 00000000000000000000000000000000 0000000000000000000000000008a9dd 0000000000000000000000000073b900 00000000000000000000000002e000ab 0000000000000000000000000549167d 00000000000000000000000003cac207 000000000000000000000000003b4e0b 00000000000000000000000000000000 00000000000000000000000000795aca
00000000000000000000000000000000 00000000000000000000000000000000 00000000000000000000000000000000 000000000000000000000000005ee2b0 00000000000000000000000000000000 00000000000000000000000000000000 00000000000000000000000000000000 00000000000000000000000000000000 00000000000000000000000000000000 00000000000000000000000000374b1b
