00000000000000000000000000000000 00000000000000000000000000000000 00000000000000000000000000000000 00000000000000000000000000000000 00000000000000000000000000000000 00000000000000000000000000000000 00000000000000000000000000000000 00000000000000000000000000000000 00000000000000000000000000000000 00000000000000000000000000000000 00000000000000000000000000000000 00000000000000000000000000000000 00000000000000000000000000000000 00000000000000000000000000000000 00000000000000000000000000000000 00000000000000000000000000000000 00000000000000000000000000000000 00000000000000000000000000000000 00000000000000000000000000000000 00000000000000000000000000000000 00000000000000000000000000000000 00000000000000000000000000000000 00000000000000000000000000000000 00000000000000000000000000000000
00000000000000000000000000000000 00000000000000000000000000000000 00000000000000000000000000000000 00000000000000000000000000000000 00000000000000000000000000000000 00000000000000000000000000000000 00000000000000000000000000000000 00000000000000000000000000000000 00000000000000000000000000000000 00000000000000000000000000000000 00000000000000000000000000000000 00000000000000000000000000000000 00000000000000000000000000000000 00000000000000000000000000000000 00000000000000000000000000000000 00000000000000000000000000000000 00000000000000000000000000000000 00000000000000000000000000000000 00000000000000000000000000000000 00000000000000000000000000000000 00000000000000000000000000000000 00000000000000000000000000000000 00000000000000000000000000000000 00000000000000000000000000000000
00000000000000000000000000000000 00000000000000000000000000000000 00000000000000000000000000000000 00000000000000000000000000000000 00000000000000000000000000000000 00000000000000000000000000000000 00000000000000000000000000000000 00000000000000000000000000000000 00000000000000000000000000000000 00000000000000000000000000000000 00000000000000000000000000000000 00000000000000000000000000000000 00000000000000000000000000000000 00000000000000000000000000000000 00000000000000000000000000000000 00000000000000000000000000000000 00000000000000000000000000000000 00000000000000000000000000000000 00000000000000000000000000000000 00000000000000000000000000000000 00000000000000000000000000000000 00000000000000000000000000000000 00000000000000000000000000000000 00000000000000000000000000000000
00000000000000000000000000000000 00000000000000000000000000000000 00000000000000000000000000001f02 00000000000000000000000000004771 00000000000000000000000000005ee0 0000000000000000000000000000932c 000000000000000000000000000076fe 000000000000000000000000000055d7 000000000000000000000000000028b9 00000000000000000000000000000990 000000000000000000000000000001aa 00000000000000000000000000000000 00000000000000000000000000000000 00000000000000000000000000000000 00000000000000000000000000000000 00000000000000000000000000000000 00000000000000000000000000000000 00000000000000000000000000000000 00000000000000000000000000000000 00000000000000000000000000000000 00000000000000000000000000000000 00000000000000000000000000000000 00000000000000000000000000000000 00000000000000000000000000000000
00000000000000000000000000000000 00000000000000000000000000000000 00000000000000000000000000006ec4 0000000000000000000000000000e07d 00000000000000000000000000018545 0000000000000000000000000001fe64 0000000000000000000000000002146b 0000000000000000000000000001cf31 00000000000000000000000000017ca6 00000000000000000000000000011ed7 0000000000000000000000000000da19 0000000000000000000000000000b4ea 0000000000000000000000000000af68 0000000000000000000000000000af68 0000000000000000000000000000af68 0000000000000000000000000000af68 0000000000000000000000000000a504 0000000000000000000000000000783e 000000000000000000000000000056f4 000000000000000000000000000024c0 00000000000000000000000000000000 00000000000000000000000000000000 00000000000000000000000000000000 00000000000000000000000000000000
00000000000000000000000000000000 00000000000000000000000000000000 00000000000000000000000000007829 00000000000000000000000000014192 00000000000000000000000000019943 0000000000000000000000000002869c 00000000000000000000000000031468 000000000000000000000000000358a1 0000000000000000000000000003497b 000000000000000000000000000315c0 0000000000000000000000000002e8c4 0000000000000000000000000002a9af 00000000000000000000000000028d5f 0000000000000000000000000002966c 00000000000000000000000000028b17 00000000000000000000000000029239 00000000000000000000000000028138 00000000000000000000000000021eff 0000000000000000000000000001828a 0000000000000000000000000000fd6e 000000000000000000000000000054cc 00000000000000000000000000000000 00000000000000000000000000000000 00000000000000000000000000000000
00000000000000000000000000000000 00000000000000000000000000000000 0000000000000000000000000000212d 00000000000000000000000000001513 0000000000000000000000000000580b 0000000000000000000000000000c217 0000000000000000000000000001cea2 00000000000000000000000000025566 0000000000000000000000000002c966 00000000000000000000000000030e40 00000000000000000000000000033c06 000000000000000000000000000347fd 00000000000000000000000000032544 00000000000000000000000000033c92 0000000000000000000000000003267e 00000000000000000000000000036a9e 00000000000000000000000000036ca0 000000000000000000000000000333a1 0000000000000000000000000002cce7 0000000000000000000000000001ec8a 0000000000000000000000000000f604 000000000000000000000000000032fa 00000000000000000000000000000000 00000000000000000000000000000000
00000000000000000000000000000000 00000000000000000000000000000000 00000000000000000000000000000000 00000000000000000000000000000000 00000000000000000000000000000000 00000000000000000000000000000000 00000000000000000000000000000000 000000000000000000000000000008da 0000000000000000000000000000500a 0000000000000000000000000000986c 0000000000000000000000000000e8a5 00000000000000000000000000013f61 00000000000000000000000000013315 00000000000000000000000000013da5 00000000000000000000000000016179 0000000000000000000000000001d766 00000000000000000000000000027fc4 00000000000000000000000000029f74 00000000000000000000000000029ecb 0000000000000000000000000002352d 000000000000000000000000000159ce 00000000000000000000000000006f04 00000000000000000000000000000000 00000000000000000000000000000000
00000000000000000000000000000000 00000000000000000000000000000000 00000000000000000000000000000000 00000000000000000000000000000000 00000000000000000000000000000000 00000000000000000000000000000000 00000000000000000000000000000000 00000000000000000000000000000000 00000000000000000000000000000000 00000000000000000000000000000000 00000000000000000000000000000000 00000000000000000000000000000000 00000000000000000000000000000000 00000000000000000000000000000000 0000000000000000000000000000022c 0000000000000000000000000000ba5b 00000000000000000000000000013290 000000000000000000000000000187ef 0000000000000000000000000001af8b 0000000000000000000000000001c3de 0000000000000000000000000001298b 00000000000000000000000000006b02 00000000000000000000000000000000 00000000000000000000000000000000
00000000000000000000000000000000 00000000000000000000000000000000 00000000000000000000000000000000 00000000000000000000000000000000 00000000000000000000000000000000 00000000000000000000000000000000 00000000000000000000000000000000 00000000000000000000000000000000 00000000000000000000000000000000 00000000000000000000000000000000 00000000000000000000000000000000 00000000000000000000000000000000 00000000000000000000000000000000 00000000000000000000000000000000 000000000000000000000000000063fc 0000000000000000000000000000e402 0000000000000000000000000000e5a5 00000000000000000000000000011cda 00000000000000000000000000015b1c 00000000000000000000000000014aa4 0000000000000000000000000000c564 00000000000000000000000000002e10 00000000000000000000000000000000 00000000000000000000000000000000
00000000000000000000000000000000 00000000000000000000000000000000 00000000000000000000000000000000 00000000000000000000000000000000 00000000000000000000000000000000 00000000000000000000000000000000 00000000000000000000000000000000 00000000000000000000000000000000 00000000000000000000000000000000 00000000000000000000000000000000 00000000000000000000000000000000 00000000000000000000000000000000 00000000000000000000000000000000 00000000000000000000000000007475 00000000000000000000000000012523 00000000000000000000000000010c56 00000000000000000000000000012204 00000000000000000000000000015067 00000000000000000000000000016f88 00000000000000000000000000012361 0000000000000000000000000000775f 00000000000000000000000000000326 00000000000000000000000000000000 00000000000000000000000000000000
00000000000000000000000000000000 00000000000000000000000000000000 00000000000000000000000000000000 00000000000000000000000000000000 00000000000000000000000000000000 00000000000000000000000000000000 00000000000000000000000000000000 00000000000000000000000000000000 00000000000000000000000000000000 00000000000000000000000000000000 00000000000000000000000000000000 00000000000000000000000000000000 0000000000000000000000000000453e 0000000000000000000000000000f4fd 000000000000000000000000000135eb 00000000000000000000000000010e80 00000000000000000000000000011f90 00000000000000000000000000015ab6 00000000000000000000000000014f2d 0000000000000000000000000000d93b 00000000000000000000000000002c58 00000000000000000000000000000000 00000000000000000000000000000000 00000000000000000000000000000000
00000000000000000000000000000000 00000000000000000000000000000000 00000000000000000000000000000000 00000000000000000000000000000000 00000000000000000000000000000000 00000000000000000000000000000000 00000000000000000000000000000000 00000000000000000000000000000000 00000000000000000000000000000000 00000000000000000000000000000000 00000000000000000000000000000000 0000000000000000000000000000032d 0000000000000000000000000000877c 00000000000000000000000000010873 0000000000000000000000000000e8f0 0000000000000000000000000000e5a7 00000000000000000000000000013892 0000000000000000000000000001586e 0000000000000000000000000000ef89 00000000000000000000000000006dba 00000000000000000000000000000ed0 00000000000000000000000000000000 00000000000000000000000000000000 00000000000000000000000000000000
00000000000000000000000000000000 00000000000000000000000000000000 00000000000000000000000000000000 00000000000000000000000000000000 00000000000000000000000000000000 00000000000000000000000000000000 00000000000000000000000000000000 00000000000000000000000000000000 00000000000000000000000000000000 00000000000000000000000000000000 00000000000000000000000000000000 000000000000000000000000000031a7 0000000000000000000000000000b08d 0000000000000000000000000000ee21 0000000000000000000000000000c519 0000000000000000000000000000ecae 000000000000000000000000000147ff 00000000000000000000000000013505 0000000000000000000000000000b244 0000000000000000000000000000107d 00000000000000000000000000000000 00000000000000000000000000000000 00000000000000000000000000000000 00000000000000000000000000000000
00000000000000000000000000000000 00000000000000000000000000000000 00000000000000000000000000000000 00000000000000000000000000000000 00000000000000000000000000000000 00000000000000000000000000000000 00000000000000000000000000000000 00000000000000000000000000000000 00000000000000000000000000000000 00000000000000000000000000000000 00000000000000000000000000001bab 00000000000000000000000000008c95 00000000000000000000000000010acb 0000000000000000000000000000f8c0 0000000000000000000000000000d854 00000000000000000000000000011b0f 00000000000000000000000000014b53 0000000000000000000000000000f291 00000000000000000000000000005970 00000000000000000000000000000000 00000000000000000000000000000000 00000000000000000000000000000000 00000000000000000000000000000000 00000000000000000000000000000000
00000000000000000000000000000000 00000000000000000000000000000000 00000000000000000000000000000000 00000000000000000000000000000000 00000000000000000000000000000000 00000000000000000000000000000000 00000000000000000000000000000000 00000000000000000000000000000000 00000000000000000000000000000000 000000000000000000000000000006e3 00000000000000000000000000006c01 000000000000000000000000000110a7 000000000000000000000000000155f6 0000000000000000000000000001119c 00000000000000000000000000011e2c 000000000000000000000000000147a2 0000000000000000000000000001261b 0000000000000000000000000000af74 00000000000000000000000000001055 00000000000000000000000000000000 00000000000000000000000000000000 00000000000000000000000000000000 00000000000000000000000000000000 00000000000000000000000000000000
00000000000000000000000000000000 00000000000000000000000000000000 00000000000000000000000000000000 00000000000000000000000000000000 00000000000000000000000000000000 00000000000000000000000000000000 00000000000000000000000000000000 00000000000000000000000000000000 000000000000000000000000000000f3 000000000000000000000000000051bb 0000000000000000000000000000d0c5 00000000000000000000000000018af2 00000000000000000000000000014307 000000000000000000000000000121ab 00000000000000000000000000015abf 0000000000000000000000000001526d 0000000000000000000000000000f00d 000000000000000000000000000057bb 00000000000000000000000000000000 00000000000000000000000000000000 00000000000000000000000000000000 00000000000000000000000000000000 00000000000000000000000000000000 00000000000000000000000000000000
00000000000000000000000000000000 00000000000000000000000000000000 00000000000000000000000000000000 00000000000000000000000000000000 00000000000000000000000000000000 00000000000000000000000000000000 00000000000000000000000000000000 00000000000000000000000000000000 00000000000000000000000000000ef5 0000000000000000000000000000ab14 0000000000000000000000000001682d 00000000000000000000000000014367 00000000000000000000000000015626 00000000000000000000000000012ff6 000000000000000000000000000161ee 00000000000000000000000000012c48 00000000000000000000000000009f3f 00000000000000000000000000001054 00000000000000000000000000000000 00000000000000000000000000000000 00000000000000000000000000000000 00000000000000000000000000000000 00000000000000000000000000000000 00000000000000000000000000000000
00000000000000000000000000000000 00000000000000000000000000000000 00000000000000000000000000000000 00000000000000000000000000000000 00000000000000000000000000000000 00000000000000000000000000000000 00000000000000000000000000000000 00000000000000000000000000000b57 000000000000000000000000000061ae 0000000000000000000000000001089a 00000000000000000000000000013f74 00000000000000000000000000012496 0000000000000000000000000000f28c 00000000000000000000000000015c1e 00000000000000000000000000013da0 0000000000000000000000000000c85b 000000000000000000000000000047ec 00000000000000000000000000000000 00000000000000000000000000000000 00000000000000000000000000000000 00000000000000000000000000000000 00000000000000000000000000000000 00000000000000000000000000000000 00000000000000000000000000000000
00000000000000000000000000000000 00000000000000000000000000000000 00000000000000000000000000000000 00000000000000000000000000000000 00000000000000000000000000000000 00000000000000000000000000000000 00000000000000000000000000000000 00000000000000000000000000003bba 0000000000000000000000000000cc7a 00000000000000000000000000016055 0000000000000000000000000001246d 0000000000000000000000000000e90e 00000000000000000000000000011b6c 00000000000000000000000000014a40 0000000000000000000000000000deef 00000000000000000000000000006868 000000000000000000000000000007d8 00000000000000000000000000000000 00000000000000000000000000000000 00000000000000000000000000000000 00000000000000000000000000000000 00000000000000000000000000000000 00000000000000000000000000000000 00000000000000000000000000000000
00000000000000000000000000000000 00000000000000000000000000000000 00000000000000000000000000000000 00000000000000000000000000000000 00000000000000000000000000000000 00000000000000000000000000000000 00000000000000000000000000001679 0000000000000000000000000000905f 00000000000000000000000000014e54 00000000000000000000000000016cfb 00000000000000000000000000014f1d 00000000000000000000000000016bbf 00000000000000000000000000018e81 000000000000000000000000000119bd 000000000000000000000000000089ad 00000000000000000000000000001618 00000000000000000000000000000000 00000000000000000000000000000000 00000000000000000000000000000000 00000000000000000000000000000000 00000000000000000000000000000000 00000000000000000000000000000000 00000000000000000000000000000000 00000000000000000000000000000000
00000000000000000000000000000000 00000000000000000000000000000000 00000000000000000000000000000000 00000000000000000000000000000000 00000000000000000000000000000000 00000000000000000000000000000000 00000000000000000000000000004178 0000000000000000000000000000f007 0000000000000000000000000001545c 0000000000000000000000000001a691 0000000000000000000000000001ced8 0000000000000000000000000002048b 00000000000000000000000000020052 000000000000000000000000000122e5 0000000000000000000000000000433d 00000000000000000000000000000000 00000000000000000000000000000000 00000000000000000000000000000000 00000000000000000000000000000000 00000000000000000000000000000000 00000000000000000000000000000000 00000000000000000000000000000000 00000000000000000000000000000000 00000000000000000000000000000000
00000000000000000000000000000000 00000000000000000000000000000000 00000000000000000000000000000000 00000000000000000000000000000000 00000000000000000000000000000000 00000000000000000000000000000000 00000000000000000000000000006465 0000000000000000000000000000f5f8 0000000000000000000000000001168a 000000000000000000000000000176e9 0000000000000000000000000002120f 00000000000000000000000000021399 0000000000000000000000000001ccc3 00000000000000000000000000012d5e 00000000000000000000000000003319 00000000000000000000000000000000 00000000000000000000000000000000 00000000000000000000000000000000 00000000000000000000000000000000 00000000000000000000000000000000 00000000000000000000000000000000 00000000000000000000000000000000 00000000000000000000000000000000 00000000000000000000000000000000
00000000000000000000000000000000 00000000000000000000000000000000 00000000000000000000000000000000 00000000000000000000000000000000 00000000000000000000000000000000 00000000000000000000000000000000 0000000000000000000000000000270d 00000000000000000000000000003d5f 00000000000000000000000000006ea6 00000000000000000000000000007cc8 00000000000000000000000000012978 0000000000000000000000000001b930 0000000000000000000000000001443e 0000000000000000000000000000cc2d 000000000000000000000000000024ae 00000000000000000000000000000000 00000000000000000000000000000000 00000000000000000000000000000000 00000000000000000000000000000000 00000000000000000000000000000000 00000000000000000000000000000000 00000000000000000000000000000000 00000000000000000000000000000000 00000000000000000000000000000000
