00000000000000000000000000000000 00000000000000000000000000000000 00000000000000000000000000000000 00000000000000000000000000000000 00000000000000000000000000000000 00000000000000000000000000000000 00000000000000000000000000000000 00000000000000000000000000000000 00000000000000000000000000000000 00000000000000000000000000000000
00000000000000000000000000000000 00000000000000000000000000000000 00000000000000000000000000000000 00000000000000000000000000000000 00000000000000000000000000000000 00000000000000000000000000000000 00000000000000000000000000000000 00000000000000000000000000000000 00000000000000000000000000000000 00000000000000000000000000000000
00000000000000000000000003381c9b 00000000000000000000000004f15192 0000000000000000000000000528b5d1 000000000000000000000000057e6386 0000000000000000000000000586f2b0 00000000000000000000000004ea609b 00000000000000000000000003f02c32 00000000000000000000000001b97ca5 0000000000000000000000000089a3a9 00000000000000000000000000492194
000000000000000000000000008962ad 000000000000000000000000017ec1e4 00000000000000000000000003693698 0000000000000000000000000505eb7e 00000000000000000000000005014d3b 00000000000000000000000004138d72 00000000000000000000000002be39b8 00000000000000000000000002e31855 00000000000000000000000002323371 00000000000000000000000000ddcbfd
00000000000000000000000000000000 00000000000000000000000000000000 00000000000000000000000000000000 00000000000000000000000000000000 00000000000000000000000000000000 00000000000000000000000000000000 00000000000000000000000000000000 00000000000000000000000000a50b32 00000000000000000000000000dcca5a 00000000000000000000000000e37821
00000000000000000000000000000000 00000000000000000000000000000000 00000000000000000000000000000000 00000000000000000000000000000000 00000000000000000000000000000000 00000000000000000000000000000000 000000000000000000000000002c0bb5 00000000000000000000000000000000 00000000000000000000000000000000 00000000000000000000000000b515bd
00000000000000000000000000000000 00000000000000000000000000000000 00000000000000000000000000000000 00000000000000000000000000000000 00000000000000000000000000000000 00000000000000000000000000000000 00000000000000000000000000000000 00000000000000000000000000000000 000000000000000000000000006a62f5 00000000000000000000000000932bb2
00000000000000000000000000000000 00000000000000000000000000000000 00000000000000000000000000000000 00000000000000000000000000000000 00000000000000000000000000000000 000000000000000000000000005d39c3 0000000000000000000000000053c6b0 00000000000000000000000000091c5b 00000000000000000000000000b634f9 0000000000000000000000000026c73b
00000000000000000000000000000000 00000000000000000000000000000000 00000000000000000000000000000000 00000000000000000000000000000000 000000000000000000000000004be5b3 00000000000000000000000000000000 00000000000000000000000000000000 00000000000000000000000000916bfe 0000000000000000000000000082360a 00000000000000000000000000000000
00000000000000000000000000000000 00000000000000000000000000000000 00000000000000000000000000000000 00000000000000000000000000000000 00000000000000000000000000000000 00000000000000000000000000000000 000000000000000000000000001772a1 00000000000000000000000000b5942e 000000000000000000000000001f2eff 00000000000000000000000000000000
