00000000000000000000000000000000 000000000000638ffffffffffff2cea7 0000000000010093000000000130eccb 0000000000071a6b0000000002b1b42f 000000000011fdbd000000000230297a 0000000000165bef00000000010ebffd 00000000001173c4ffffffffffbf9dc3 0000000000059f0e00000000004c17bf 000000000000993400000000003e5b75 0000000000000057ffffffffffffb651
00000000000000000000000000000000 00000000000000000000000000000000 00000000000637e4000000000111d5a4 000000000010fc440000000000f82fea 00000000001519510000000000c4a69c 000000000010636500000000004d054e 000000000006f55a00000000013bc0de 000000000002a3bd0000000000197a6c 0000000000002be200000000003a0f57 0000000000000057ffffffffffffb651
00000000000000000000000000000000 000000000000ecc50000000000bfc5d9 0000000000089d1b00000000015eea4c 00000000000f7c530000000002017519 000000000011440b0000000001c51a7d 0000000000085b6c000000000195dbf9 0000000000025ce00000000000b5ae36 0000000000006cda00000000002182d1 000000000000b987fffffffffff590bf 0000000000003a66fffffffffff4d294
00000000000000000000000000000000 0000000000050249000000000059c466 00000000000f211c00000000004f1558 0000000000160c050000000000eb89a4 00000000001247480000000001f92076 00000000000b842200000000031b74ce 000000000007020900000000024c02d2 0000000000068446000000000132b869 000000000004127a00000000006e51ec 000000000001b94d0000000000010f24
00000000000000000000000000000000 0000000000054fcc00000000008502b2 00000000000d1fbc000000000120d4c4 0000000000168c0e0000000002441638 000000000011c0f50000000004552f45 00000000000d5bf40000000005071c52 00000000000bf919000000000481624b 00000000000bf4be0000000003fa77da 0000000000068a920000000002bb7e87 000000000002bca500000000018a72dd
0000000000001b3900000000002e556a 0000000000067b590000000000032e20 00000000000f763b00000000003db270 00000000001993e600000000011f1d07 00000000001924a70000000002367842 000000000018731c0000000000f7bf45 00000000001b8186fffffffffdf9e892 000000000019a0560000000000a2e877 00000000001061c50000000002aceeda 00000000000565180000000002f2c1df
000000000000a54c0000000000073dfe 00000000000648e1ffffffffffbae1cc 00000000000f63aeffffffffff51b0d5 00000000001c335afffffffffecd5231 000000000019091d00000000000eb301 00000000001230260000000000a4447f 00000000001078f9000000000000d81b 000000000015cb220000000000e30197 0000000000138abe000000000154cb23 00000000000736ce0000000002f82f77
0000000000010312ffffffffffd1f8b8 0000000000041b29000000000004d434 00000000000ab1e9ffffffffff0b187f 0000000000134e44ffffffffff05a1c3 000000000011d6c600000000002f7788 00000000000cc1720000000003e8a9d8 00000000000c00ed0000000002cb5926 000000000010cf060000000001a9885e 00000000000cc59e0000000001ba5f3a 000000000006258800000000021ad30e
000000000000b146ffffffffffd48587 0000000000037d08ffffffffffd719bc 00000000000555a7ffffffffff0bda0a 00000000000bde5cffffffffff173a82 0000000000133444ffffffffff372677 00000000001551fb00000000012a8ce1 0000000000121b390000000001e0e51b 0000000000103be000000000014ace31 00000000000b7518fffffffffffa19bb 0000000000048bd90000000000e10bd4
0000000000005e55ffffffffffe8f1f9 00000000000236d7ffffffffff8e456f 000000000002a859ffffffffff5db2b0 0000000000062595fffffffffecf1d3d 00000000000c61f6fffffffffe836a89 0000000000139661fffffffffe0c4f23 00000000000fa323ffffffffff50ac75 0000000000095f8000000000002b8e30 0000000000027f01000000000096ec7b 00000000000000000000000000000000
