00000000000000000000000000000000 00000000000132dcffffffffff58bf1f 000000000000d144ffffffffffb1e4c3 00000000000000000000000000000000 000000000002406900000000043eb6bc 000000000006cb7a0000000001d65657 000000000006ad290000000000ae2a05 0000000000024fbb00000000000c968b 00000000000035160000000000085a5c 00000000000000000000000000000000
00000000000000000000000000000000 0000000000001aebfffffffffff8e631 00000000000417acfffffffffff683c5 00000000000d1719ffffffffff1b0045 000000000013011effffffffffc40ef8 0000000000101450ffffffffffd74b53 000000000006e54b0000000000b7d548 0000000000019ec4000000000077dfd6 00000000000000000000000000000000 00000000000000000000000000000000
0000000000004246ffffffffffa6ac78 000000000000cd6800000000000c5c43 0000000000063cc7000000000086f8b5 00000000000d062800000000001f38d3 000000000012c40bffffffffff1cbd8b 00000000000d0d8fffffffffff76c119 000000000005e47affffffffff7ae94f 0000000000014aa2ffffffffffa70fef 0000000000003940ffffffffffe86c37 00000000000000000000000000000000
00000000000000000000000000000000 000000000003b9d6ffffffffffea5308 00000000000d6da2fffffffffeb1518b 000000000015b55afffffffffddde1d0 0000000000158e7afffffffffd13dd52 00000000000f1b5bfffffffffc56bce1 00000000000af09dfffffffffcbb69b7 000000000008c446fffffffffcf7a38d 0000000000044d0efffffffffec32da8 0000000000019685ffffffffff8923d5
00000000000000000000000000000000 000000000003c094000000000114b5ce 00000000000c49bc0000000000a924e5 000000000013421cffffffffff8fdadd 00000000000bfc0c00000000010277ef 0000000000040cfd0000000002bf9df4 0000000000022f0f0000000000f9fb76 000000000005aa48ffffffffff24b382 000000000006323afffffffffe3ea46f 000000000003d0e9ffffffffff2a4f03
000000000000341300000000004f9d6f 0000000000055def0000000000cb8a80 00000000000b8c2a0000000001b54cd8 00000000000d9c5e000000000334e7d6 00000000000718fa000000000548244c 000000000003414700000000054fb017 0000000000069e040000000002dbd047 00000000000c68b80000000000184d80 000000000009ea7fffffffffff3aba64 000000000003bf35000000000001a2af
0000000000008e0d000000000041bc06 0000000000064a2700000000007f650a 00000000000f16340000000000957472 00000000001ab025fffffffffee3c6be 00000000001af366fffffffffd1d41f7 0000000000184568fffffffffca91edb 0000000000140b5dfffffffffe8c5082 00000000001025db00000000004fe59c 00000000000b2bfa0000000000ea4bc7 0000000000046342000000000096396a
000000000000f6cafffffffffff14dfa 000000000005bad30000000000b67ddb 00000000000c958d0000000000f3860b 000000000013422900000000007fece1 0000000000156eecfffffffffe319252 0000000000120117fffffffffdf944c6 00000000000f2c66ffffffffff451396 00000000000deece0000000001d58817 000000000008c15900000000011b13ae 000000000003e1970000000000f2ed13
000000000000bae1ffffffffffdb8004 00000000000460dd00000000004795a5 000000000006c26000000000012da704 0000000000071f9e0000000002db7cb2 000000000004d81600000000040a5408 00000000000579b4000000000428285b 000000000008a5670000000002ca5ab8 00000000000c41b8000000000198d7bb 000000000008f8fa00000000013e95b9 000000000002812500000000012ccb68
000000000000745fffffffffffe4edbe 0000000000031ad0ffffffffff8fd21b 0000000000065026ffffffffffaa7505 000000000007f2ca0000000000a95f02 00000000000875f7000000000290e9fb 00000000000bc8f70000000002820c99 00000000000dffff00000000012946d6 00000000000b1bde0000000000fe2092 000000000003e5f700000000015c0b9b 000000000000933400000000008ccff1
