000000000000000000000000000467da 0000000000000000000000000057a608 00000000000000000000000000133fd0 000000000000000000000000027653fe 0000000000000000000000000334ab5f 00000000000000000000000003a26fd2 0000000000000000000000000307cfe5 000000000000000000000000006bab8e 0000000000000000000000000000d73b 00000000000000000000000000000000
00000000000000000000000000369141 000000000000000000000000002d5bc3 00000000000000000000000001a4caea 00000000000000000000000002f22152 00000000000000000000000004a8f8e9 00000000000000000000000003c0d488 000000000000000000000000018b2138 00000000000000000000000000070de0 00000000000000000000000000000000 00000000000000000000000000000000
000000000000000000000000003add1c 000000000000000000000000001ef03e 00000000000000000000000002e8c812 00000000000000000000000003a618b7 0000000000000000000000000440414b 000000000000000000000000030fbcae 000000000000000000000000006e87ff 0000000000000000000000000029a102 00000000000000000000000000000000 00000000000000000000000000000000
0000000000000000000000000010649e 00000000000000000000000000edfeb7 000000000000000000000000037ff4fa 00000000000000000000000005482ee7 000000000000000000000000060277cc 00000000000000000000000003d6e78c 000000000000000000000000028feba7 00000000000000000000000001e52b9d 00000000000000000000000000f9f672 000000000000000000000000002d8476
00000000000000000000000000000000 0000000000000000000000000114629a 0000000000000000000000000256a18a 0000000000000000000000000463aead 0000000000000000000000000435b81f 000000000000000000000000038fd97d 00000000000000000000000003a4ac43 00000000000000000000000003edaa85 00000000000000000000000002409dbd 000000000000000000000000010833ae
00000000000000000000000000000000 00000000000000000000000000ce79d8 00000000000000000000000001dc1b58 000000000000000000000000052d7dcd 00000000000000000000000004191c19 000000000000000000000000037a1683 00000000000000000000000003c607c4 00000000000000000000000003d879d0 000000000000000000000000028957a7 000000000000000000000000011e4816
0000000000000000000000000004c6b9 000000000000000000000000008c7c9c 000000000000000000000000027fe4f0 0000000000000000000000000550d2cb 00000000000000000000000005bd1bc0 000000000000000000000000031be13d 0000000000000000000000000398d71d 00000000000000000000000003593d83 000000000000000000000000031f4948 000000000000000000000000012ff34f
00000000000000000000000000139b22 000000000000000000000000006a9cec 000000000000000000000000019a2d91 000000000000000000000000040156be 00000000000000000000000004bf57a5 00000000000000000000000002e75b71 000000000000000000000000035b61fb 00000000000000000000000003f848bd 0000000000000000000000000399106e 000000000000000000000000013fe300
0000000000000000000000000016c976 000000000000000000000000004d3707 000000000000000000000000006c8b5a 00000000000000000000000000e8ba6e 0000000000000000000000000202f3ca 00000000000000000000000003530811 0000000000000000000000000343cc1b 00000000000000000000000003e6f044 00000000000000000000000002e5064d 000000000000000000000000003344c0
000000000000000000000000000dcd59 00000000000000000000000000359b8a 00000000000000000000000000412529 000000000000000000000000011d637a 00000000000000000000000002842a01 000000000000000000000000030c0f33 000000000000000000000000028db47a 00000000000000000000000001a1618d 00000000000000000000000000b6f46c 00000000000000000000000000000000
