00000000000000000000000000000000 00000000000000000000000000000000 00000000000000000000000000944b56 00000000000000000000000002d0fb63 00000000000000000000000004f5d61b 00000000000000000000000002c1739f 000000000000000000000000010f9b71 00000000000000000000000000e51e2d 00000000000000000000000000eb7b69 0000000000000000000000000057d44d
00000000000000000000000000000000 000000000000000000000000004b5f42 00000000000000000000000002d8183a 00000000000000000000000005efbc77 0000000000000000000000000507f536 00000000000000000000000001f06d65 000000000000000000000000001121e6 00000000000000000000000000d58b18 00000000000000000000000000c4221d 000000000000000000000000009c5b76
00000000000000000000000000000000 00000000000000000000000002852f8d 0000000000000000000000000591adab 00000000000000000000000007252064 00000000000000000000000005c8979f 000000000000000000000000023c5dc6 00000000000000000000000000000000 00000000000000000000000000000000 00000000000000000000000000d9ccbb 000000000000000000000000009d2ff8
00000000000000000000000000d755f8 00000000000000000000000003f1c030 000000000000000000000000074876ea 00000000000000000000000005f2c65f 0000000000000000000000000392543f 0000000000000000000000000121ea7b 0000000000000000000000000077a976 000000000000000000000000011a034e 00000000000000000000000000f05972 00000000000000000000000000c70de5
00000000000000000000000001335307 000000000000000000000000048da706 000000000000000000000000059c7bb5 0000000000000000000000000365b57d 00000000000000000000000000218485 00000000000000000000000000a9a023 0000000000000000000000000349221c 00000000000000000000000004cb3523 000000000000000000000000035c564f 000000000000000000000000009549b3
000000000000000000000000014ea0d7 000000000000000000000000045b4a68 00000000000000000000000003cc1736 000000000000000000000000009dbd47 00000000000000000000000000000000 00000000000000000000000001bd5127 00000000000000000000000005778298 00000000000000000000000008279e64 000000000000000000000000043f008c 000000000000000000000000002fd2d8
00000000000000000000000001906191 0000000000000000000000000389a5d8 000000000000000000000000021325a1 00000000000000000000000000965ed3 00000000000000000000000002053310 00000000000000000000000004eed41e 00000000000000000000000007d389c3 00000000000000000000000006903147 000000000000000000000000031e37ca 00000000000000000000000000000000
000000000000000000000000021eabcc 00000000000000000000000002611165 00000000000000000000000001598eb5 000000000000000000000000013b3d29 000000000000000000000000045d592c 000000000000000000000000061ad550 00000000000000000000000005e66f00 00000000000000000000000003e8f733 00000000000000000000000000950adf 00000000000000000000000000000000
00000000000000000000000001fd174d 00000000000000000000000002a780f6 000000000000000000000000021dbd34 00000000000000000000000002c6477a 00000000000000000000000003bea096 0000000000000000000000000411f7d1 00000000000000000000000003087155 00000000000000000000000000a190a1 00000000000000000000000000000000 00000000000000000000000000000000
00000000000000000000000000af9e98 000000000000000000000000024822e9 000000000000000000000000025a8fce 000000000000000000000000027557b5 0000000000000000000000000216f60c 0000000000000000000000000144180f 00000000000000000000000000113b87 00000000000000000000000000000000 000000000000000000000000002aeb4b 0000000000000000000000000004a500
