00000000000000000000000017172748 000000000000000000000000eb3459cb 000000000000000000000001d197c104 000000000000000000000001529fbf3b 000000000000000000000000cc34fd07 000000000000000000000000ad913bcb 000000000000000000000000b41be662 000000000000000000000001707ddc1a 000000000000000000000001cb7b4ca0 00000000000000000000000142a584fd
000000000000000000000001ddec27f5 0000000000000000000000029a4b2d04 000000000000000000000000e783bf4d 00000000000000000000000000000000 00000000000000000000000000000000 00000000000000000000000056e6331a 000000000000000000000000f103cbc1 000000000000000000000002709ab12f 000000000000000000000002e40346ab 0000000000000000000000019028a7d5
000000000000000000000002d264f7a6 000000000000000000000001e288db7b 000000000000000000000000eaef15ef 00000000000000000000000000000000 000000000000000000000000a79ee3fb 00000000000000000000000073edfc2d 00000000000000000000000263907068 000000000000000000000003a0955009 000000000000000000000002de90fd42 000000000000000000000000bb113759
000000000000000000000000f8fb20b5 000000000000000000000000d1b68392 000000000000000000000000b87d49e8 000000000000000000000001b39e805e 000000000000000000000000dec15cfc 0000000000000000000000027bd9cc1f 0000000000000000000000059ab442bc 00000000000000000000000731aedcdd 000000000000000000000002fcca8c58 00000000000000000000000000000000
00000000000000000000000000000000 0000000000000000000000002fc243a4 0000000000000000000000004f4d9d72 000000000000000000000000940cf0d0 000000000000000000000000ffc8ab1d 0000000000000000000000044987c21f 00000000000000000000000862261b77 000000000000000000000005e9525c1b 000000000000000000000001bbd0f0bc 00000000000000000000000000000000
00000000000000000000000000000000 00000000000000000000000000000000 00000000000000000000000000000000 00000000000000000000000000000000 000000000000000000000001eefeafa1 0000000000000000000000064a54dae3 000000000000000000000007e2017a83 00000000000000000000000438d94459 00000000000000000000000000000000 00000000000000000000000000000000
00000000000000000000000000000000 00000000000000000000000000000000 00000000000000000000000000000000 00000000000000000000000043ce2631 00000000000000000000000414e3c16a 0000000000000000000000086322d1b9 000000000000000000000005fb6acd5b 00000000000000000000000198cbabff 00000000000000000000000000000000 00000000000000000000000000000000
00000000000000000000000000000000 00000000000000000000000000000000 00000000000000000000000000000000 000000000000000000000002debcfef2 0000000000000000000000070329d16b 000000000000000000000007d94fea16 000000000000000000000003f5ec190a 00000000000000000000000000000000 00000000000000000000000000000000 000000000000000000000000039991db
00000000000000000000000000000000 00000000000000000000000000000000 000000000000000000000000a12b376a 000000000000000000000004af0d078c 000000000000000000000008a70a5a22 00000000000000000000000532520287 000000000000000000000001026a478e 00000000000000000000000000000000 00000000000000000000000000000000 00000000000000000000000000000000
00000000000000000000000000000000 00000000000000000000000068a2fab4 0000000000000000000000034f7aaef3 000000000000000000000006e79ea09d 000000000000000000000006705c19ae 000000000000000000000002b60c25fc 00000000000000000000000000000000 00000000000000000000000000000000 00000000000000000000000000fb9f96 00000000000000000000000000000000
