00000000000000000000000000000000 00000000000000000000000000bdbde9 0000000000000000000000000138ffb2 00000000000000000000000001426c5a 00000000000000000000000000ec1f34 000000000000000000000000008a067b 0000000000000000000000000063e798 0000000000000000000000000083d542 000000000000000000000000007c6546 00000000000000000000000000150b0d
00000000000000000000000000ed5075 0000000000000000000000000279f520 00000000000000000000000004801d17 00000000000000000000000005d9d877 00000000000000000000000005d6ef75 000000000000000000000000055fd3a4 0000000000000000000000000512fbec 00000000000000000000000004fefc49 000000000000000000000000045f668d 00000000000000000000000002851d72
00000000000000000000000000cd1a4f 000000000000000000000000013213ea 00000000000000000000000002142a4a 00000000000000000000000003efefa9 00000000000000000000000004e88f1e 0000000000000000000000000528c532 00000000000000000000000004f4a276 00000000000000000000000004e1ac41 000000000000000000000000042c18bf 000000000000000000000000037b4668
00000000000000000000000000000000 00000000000000000000000000000000 00000000000000000000000000000000 00000000000000000000000000000000 00000000000000000000000000000000 00000000000000000000000000000000 00000000000000000000000000159557 000000000000000000000000006ba301 00000000000000000000000001482f23 00000000000000000000000001c1fa1f
00000000000000000000000000000000 00000000000000000000000000000000 00000000000000000000000000000000 00000000000000000000000000000000 00000000000000000000000000000000 00000000000000000000000000000000 00000000000000000000000000774641 000000000000000000000000007cede3 0000000000000000000000000080902e 00000000000000000000000001020d25
00000000000000000000000000000000 00000000000000000000000000000000 00000000000000000000000000000000 00000000000000000000000000000000 0000000000000000000000000058c892 000000000000000000000000009d74c6 0000000000000000000000000043ba44 00000000000000000000000000000000 0000000000000000000000000026d7fa 000000000000000000000000008ddbc6
00000000000000000000000000000000 00000000000000000000000000000000 00000000000000000000000000000000 00000000000000000000000000000000 00000000000000000000000001366ed8 0000000000000000000000000121c86e 00000000000000000000000000935383 00000000000000000000000000000000 0000000000000000000000000072e986 0000000000000000000000000098c8a7
00000000000000000000000000000000 00000000000000000000000000000000 00000000000000000000000000000000 00000000000000000000000000ff6083 000000000000000000000000017359ef 00000000000000000000000000cefc7c 000000000000000000000000002086d2 00000000000000000000000000855f66 00000000000000000000000000b1b767 000000000000000000000000001ae6a2
00000000000000000000000000000000 00000000000000000000000000000000 000000000000000000000000004dcdb9 0000000000000000000000000172a2e1 000000000000000000000000014e3eba 00000000000000000000000000be6ae4 000000000000000000000000003ae864 00000000000000000000000000250745 000000000000000000000000008d50a3 00000000000000000000000000000000
00000000000000000000000000000000 0000000000000000000000000002a0b4 000000000000000000000000012505c5 000000000000000000000000016d460c 00000000000000000000000001585a34 00000000000000000000000000ad9e32 00000000000000000000000000c4302f 000000000000000000000000009aa35e 0000000000000000000000000015a1ee 00000000000000000000000000000000
