00000000000000000000000000000000 000000000001124600000000003a92d5 0000000000082a5e00000000002c8466 00000000000f069900000000012f2759 00000000001342fd000000000225d453 000000000010829b000000000388663f 00000000000bcfc70000000000fbeb76 00000000000481d6000000000040cafc 000000000000cd9afffffffffffa54ca 00000000000000d0ffffffffffffc05e
00000000000000000000000000000000 000000000004ff05000000000009efff 000000000009bbc90000000000f2666d 00000000000e02cc0000000002b6cadc 0000000000158afb000000000100304d 00000000000b22e700000000025c076a 0000000000064fa70000000000ac68c2 000000000002208bffffffffffe97d5b 000000000001197affffffffffda22e4 00000000000000d0ffffffffffffc05e
00000000000000000000000000000000 000000000006ea85000000000023251a 00000000000c019200000000017add61 000000000011a096000000000268b40d 00000000000f3556000000000340842e 00000000000c5561000000000110712c 0000000000057fad00000000005cf1bd 000000000001a0f200000000000682a2 000000000000fa4dfffffffffff2f941 00000000000039bcfffffffffff6fd4b
000000000001092dffffffffffea293c 000000000007fb23000000000095425d 00000000000f5bcc000000000275a8ff 00000000001799c20000000002e7c051 000000000013851900000000044d6f54 00000000000df68900000000036319fd 00000000000be39e00000000016a248e 00000000000585e60000000001e7f14c 0000000000036a96000000000078e719 000000000001143600000000002e640d
000000000001b6f8ffffffffffca5ac9 00000000000998ba000000000058427a 000000000015b55e000000000144a9cb 00000000001c79a70000000002923338 00000000001cb9380000000002016999 000000000019b4670000000000a03b0c 00000000001324780000000002dd80ee 00000000000fa4720000000002c8b3bf 0000000000089c340000000002044baf 000000000002a142000000000105eccb
000000000001bd7bffffffffffc53768 000000000008fe210000000000bac41f 0000000000174c07000000000172921f 00000000001b500d0000000003b05a3d 0000000000185f7200000000039e2ca9 0000000000183a16000000000284e595 0000000000171f4b0000000002311226 0000000000188b0900000000026d3919 00000000000e72810000000002cc3bdd 000000000008237200000000011024d3
000000000000ff2fffffffffffe77927 0000000000070592000000000087b85a 000000000011443a00000000019b3f17 000000000013ed610000000004a38c3b 00000000001372d0000000000467bd1b 0000000000118daf0000000002e4e713 000000000012f4f00000000002054096 0000000000152db80000000003531ed5 00000000000fe65a0000000002e29604 0000000000097579000000000145ec25
000000000000420c000000000017126f 0000000000057069ffffffffffce38a9 00000000000c54a900000000010bfcf8 0000000000150b5d0000000001b87a15 0000000000142d1f0000000002a432b4 00000000001513430000000001bd940a 000000000012ed81000000000212deb8 0000000000141c41000000000177cc27 00000000000bdc470000000002e622ef 000000000006d3720000000000d43045
00000000000000000000000000000000 0000000000020311000000000029c35e 0000000000083dd10000000000206a07 00000000000ff9b90000000000737306 000000000014a98200000000014a7533 00000000001574bf00000000018d0c95 00000000001255f90000000002215b8d 0000000000102cb60000000001526f4b 0000000000087aea0000000000fa9d71 00000000000563ddffffffffffe18cbb
00000000000000000000000000000000 00000000000000000000000000000000 0000000000028b8200000000002392ec 0000000000059692000000000094a710 00000000000a01c6000000000145c382 00000000000aea680000000002155500 00000000000b843b00000000019e4076 000000000007eb4200000000013cdaff 000000000004eeaaffffffffffb07e0b 000000000001d166ffffffffffd27232
