0000 0000 6d72 0000 66e5 02ec 3673 6b71 0000 0000
0000 3f1a 0000 0000 06d1 6647 0000 0000 0000 0000
0000 a204 0261 0000 5d91 0000 2c08 81aa 0000 0000
578a 0000 0000 0821 0a24 0000 0000 0000 0000 0000
0000 310f 3db1 0000 c74c 0000 236c 0000 2e44 0000
0000 0000 0000 68e2 0afa 5f2e 16fc 1922 0000 279f
6467 0000 0000 83e0 0000 06df 5aa6 67fa 787e 0000
536f 0000 12c8 0000 0000 d636 0000 0000 0485 b16c
1edf 0000 0000 1ea1 1a83 12d9 0000 2c9d 0000 0700
01ec 3d24 61cc 1607 0000 0000 0000 9c8a 5f6c 715b
