00000000000000000000000000000000 00000000000000000000000000000000 000000000000000000000000006a0aca 000000000000000000000000025d30c1 000000000000000000000000031eade7 000000000000000000000000046ec535 00000000000000000000000004bcc81d 00000000000000000000000003cdb8e7 00000000000000000000000000ccfa6b 00000000000000000000000000000000
00000000000000000000000000000000 000000000000000000000000003c8c87 000000000000000000000000022ecd26 000000000000000000000000036e2a05 000000000000000000000000040c4dd6 00000000000000000000000003d97c12 00000000000000000000000004eca8be 000000000000000000000000062ed8f3 000000000000000000000000040c676b 0000000000000000000000000120c40a
00000000000000000000000000000000 000000000000000000000000015ab877 000000000000000000000000025798a9 00000000000000000000000002db22bb 000000000000000000000000031228af 00000000000000000000000003162343 00000000000000000000000003b98272 00000000000000000000000005442033 000000000000000000000000054ab6c2 0000000000000000000000000380a6b1
0000000000000000000000000092a69a 000000000000000000000000010e0ee7 00000000000000000000000001ed84ee 00000000000000000000000001c85bbd 00000000000000000000000001351a07 00000000000000000000000000fd45c7 0000000000000000000000000019feb7 00000000000000000000000001f1e207 00000000000000000000000004235655 00000000000000000000000005180910
000000000000000000000000007bfa4a 000000000000000000000000005dd9fc 00000000000000000000000000579674 00000000000000000000000000000000 00000000000000000000000000000000 00000000000000000000000000000000 00000000000000000000000000000000 0000000000000000000000000072423b 000000000000000000000000022a768d 00000000000000000000000003a02ea7
00000000000000000000000000676e0d 000000000000000000000000007fe761 00000000000000000000000000155324 00000000000000000000000000a5e3e0 00000000000000000000000000b51405 0000000000000000000000000060ded6 00000000000000000000000001eb696d 00000000000000000000000001ca8435 0000000000000000000000000214882e 000000000000000000000000026d5ec0
000000000000000000000000002dc033 0000000000000000000000000007a5bb 0000000000000000000000000101c4ad 00000000000000000000000002b5d754 000000000000000000000000041c31e0 0000000000000000000000000368d1ab 000000000000000000000000034fdc9a 000000000000000000000000031143b5 000000000000000000000000015f9c65 00000000000000000000000001155361
0000000000000000000000000006ae5c 00000000000000000000000000000000 0000000000000000000000000170a31a 00000000000000000000000005f83890 000000000000000000000000080303b4 000000000000000000000000065f98d6 000000000000000000000000046d2af8 00000000000000000000000001884aa3 000000000000000000000000012c53b1 00000000000000000000000000cdbe3d
0000000000000000000000000004f361 0000000000000000000000000083f8b4 00000000000000000000000000b47f57 000000000000000000000000043df0c8 00000000000000000000000005aab896 0000000000000000000000000383c209 00000000000000000000000001f06edb 0000000000000000000000000080bcad 00000000000000000000000000000000 00000000000000000000000000521444
00000000000000000000000000000000 0000000000000000000000000023f7be 00000000000000000000000000000000 00000000000000000000000000000000 0000000000000000000000000053c35f 00000000000000000000000000000000 00000000000000000000000000000000 00000000000000000000000000000000 00000000000000000000000000000000 00000000000000000000000000478a84
