00000000000000000000000000000000 00000000000000000000000000000000 00000000000000000000000000000000 00000000000000000000000000000000 000000000000000000000000003f0a04 000000000000000000000000028209c7 000000000000000000000000044908b7 00000000000000000000000002335e1b 0000000000000000000000000009a321 00000000000000000000000000000000
00000000000000000000000000000000 00000000000000000000000000000000 00000000000000000000000000000000 00000000000000000000000000000000 000000000000000000000000020fb0fc 0000000000000000000000000580d9a5 00000000000000000000000004eb6add 000000000000000000000000016cf5fe 00000000000000000000000000000000 00000000000000000000000000000000
00000000000000000000000000000000 00000000000000000000000000000000 00000000000000000000000000000000 0000000000000000000000000041d98d 00000000000000000000000003700d89 000000000000000000000000075472ac 00000000000000000000000004cfe2ad 00000000000000000000000000735e41 00000000000000000000000000000000 00000000000000000000000000000000
00000000000000000000000000000000 00000000000000000000000000000000 00000000000000000000000000000000 0000000000000000000000000142ccee 00000000000000000000000004bc127b 000000000000000000000000067452ef 0000000000000000000000000358ad78 00000000000000000000000000000000 00000000000000000000000000000000 0000000000000000000000000001beda
00000000000000000000000000000000 00000000000000000000000000000000 00000000000000000000000000000000 0000000000000000000000000209e65d 00000000000000000000000005e4bb94 000000000000000000000000055d5c9c 00000000000000000000000001cc5c66 00000000000000000000000000000000 00000000000000000000000000000000 00000000000000000000000000000000
00000000000000000000000000000000 00000000000000000000000000000000 000000000000000000000000002dbb21 000000000000000000000000033def59 00000000000000000000000006dab9d3 00000000000000000000000004ab4d44 000000000000000000000000005f793f 00000000000000000000000000000000 00000000000000000000000000000000 00000000000000000000000000000000
00000000000000000000000000000000 00000000000000000000000000000000 00000000000000000000000001203bbb 000000000000000000000000045ac33a 000000000000000000000000061fd3ea 00000000000000000000000003188d96 00000000000000000000000000000000 00000000000000000000000000000000 00000000000000000000000000011e9e 00000000000000000000000000000000
00000000000000000000000000000000 00000000000000000000000000000000 000000000000000000000000019c029f 00000000000000000000000004f35031 000000000000000000000000049ca24e 00000000000000000000000001a85901 00000000000000000000000000000000 00000000000000000000000000000000 00000000000000000000000000000000 00000000000000000000000000000000
00000000000000000000000000000000 00000000000000000000000000280e6e 00000000000000000000000002381114 00000000000000000000000004d8663d 000000000000000000000000037aa49c 00000000000000000000000000282515 00000000000000000000000000000000 00000000000000000000000000000000 00000000000000000000000000000000 00000000000000000000000000000000
00000000000000000000000000000000 00000000000000000000000000a598c1 0000000000000000000000000242a543 0000000000000000000000000359583b 000000000000000000000000018cfd86 00000000000000000000000000000000 00000000000000000000000000000000 000000000000000000000000000098ad 00000000000000000000000000000000 00000000000000000000000000000000
