003f 004f 003a 000d 000f 000d 0000 0000 0000 0055 001e 0000 0000 0005 0000 0004 002d 0021 0000 001f 0027 0000 0010 0000 0034 0000 0000 0058 000b 002d 002b 0000 0000 0000 0000 0000 0021 0000 0000 0061 001c 0000 0036 007a 0000 0000 0000 003c 007e 0000 0000 0040 0000 0001 001c 0037 0000 0000 0041 0000 0000 00ad 0000 0000 0000 0007 0002 0010 0024 0000 0000 0000 0000 0000 0027 0016 0001 0000 0000 0000 0000 0043 0008 0000 0007 0000 000d 0026 0000 0018 0000 0000 000a 0003 0002 0017 0006 001a 0036 0000 0000 0000 0014 0043 002b 0000 0000 001f 0000 001d 0019 0000 0000 0000 0010 0016 0000 000b 0000 0000 001f 0000 0010 0033 0000 0000 0000 0010 0000 0000 0042 0000 0000 0000 0028 000c 0000 0000 003c 000c 0000 001a 0035 0000 0000 0022 0000 000d 002d 0000 000e 0005 0000 002c 0033 0000 0000 0026 0053 0007 0000 0000 001d 0000 0000 0034 0000 0000 0000 0032 0016 0000 0005 0000 0000 0000 0000 001a 0014 0000 002d 0014 0000 000d 0000 0010 000f 0000 0000 0000 0018 0056 0000 0000 0000 0000 000d 0018 0011 0000 0000 0000 0000 0000 000d 000b 0000 0000 0001 0013 0000 0000 000c 0000 0008 0002 0000 0022 0009 000a 0000 0000 0000 0000 0005 001f 003d 0012 0000 0000 0000 0003 0000 000c 0015 0000 0000 0003 0000 0002 000f 0000 0010 003a 0033 0000 0000 0000 0000 0024 0023 0000 0000 0000 0010 0000 0000 0018 0040 001d 0000 0003 0028 000a 0000 0000 0000 0015 0000 0000 0000 003c 0024 0000 000f 0000 0000 0000 0009 0027 0018 0021 0000 000d 0019 0000 0000 0000 001b 000e 0000 0003 0001 0005 0000 0000 000d 0013 0000 0000 0000 006f 0029 0000 0000 0018 0000 0000 0013 0004 0000 0025 0000 0000 0018 0024 001f 0000
0013 0023 0003 0039 003d 0028 0000 0000 0016 003b 0001 003b 004f 0000 0000 0020 0052 0005 0000 0013 0057 0000 000d 0000 0000 000f 0000 007e 001d 0000 001b 000a 0000 0000 0000 0000 0002 0000 0000 0025 0012 0000 003a 007d 0000 0000 0000 000b 006f 0000 0000 0047 0004 0000 0049 0070 0000 0000 006d 0000 0000 0098 0021 0000 001f 0000 0000 0018 0026 0000 0000 0000 0000 0006 003f 0000 000f 0000 0000 0000 0000 0071 0000 0000 0000 0000 0015 0003 0000 0016 002a 0002 0000 0017 0027 0039 0000 0000 0034 0000 0002 000a 0000 003e 002c 0000 0000 0000 0000 0009 0026 0000 0000 0000 0019 0032 0000 0000 001a 0008 0000 0000 0013 0029 0000 0023 0000 0000 0000 0000 003b 0000 0000 0008 000d 0000 0000 0001 0018 0000 0000 0000 0000 000d 0000 003a 0000 0000 002f 0000 0000 000c 0000 0024 0036 0000 0000 003e 003e 0005 0000 0000 0025 0000 0000 0068 0000 0000 0011 0015 0000 0000 0000 0000 000c 000e 0000 001c 000d 0000 0014 0013 0001 0018 0000 0000 0001 0000 0000 0003 0004 004a 0000 0000 0003 0000 000f 0035 0013 0000 0000 0000 0000 0009 0009 0000 0000 0000 0013 0028 0000 0000 000c 0000 0000 000d 000c 0006 0000 0007 0049 0000 0000 0006 000f 000b 0034 0029 0000 0018 000d 0000 0000 001f 001d 0000 0000 0000 0000 0000 001a 0000 0019 0028 0000 0000 000f 0001 0000 0000 0018 000e 000c 0000 0000 0021 0000 000d 001c 0032 0017 0000 0025 0000 0000 0000 0000 000c 000c 000d 0000 0026 0030 0000 0004 0000 001e 000a 0000 001e 0017 000c 0000 0026 002e 0000 0009 0000 0000 0027 0008 0000 0000 0028 0000 0000 001f 0001 0001 0000 0000 0066 001b 0000 0000 0016 0000 0000 0000 0000 000d 002f 0016 0000 0016 0003 0000 0001
0015 0023 0000 0048 0050 0032 0000 0000 0016 0000 0008 002e 006a 0000 0000 0009 001b 0000 0000 0000 0032 0000 0037 002c 0000 0000 0004 00c0 003f 0000 0003 004d 0000 0000 0000 0000 0004 0000 0000 0016 0000 0000 007a 0059 0015 0000 0000 0002 0014 0000 0000 0014 0012 0000 004b 0082 0000 0000 0061 0000 0020 005b 000e 001d 003a 0000 0000 0002 0000 0000 0000 0010 0000 0020 0041 0000 0000 0000 0000 0000 0000 0065 0029 0000 0000 0004 0008 0000 0000 0000 002b 002d 0000 0000 0060 004e 0000 0018 004f 0000 0032 002d 0000 0018 001f 0000 0000 0000 000a 000b 0000 0000 0020 0003 000e 0045 0000 0000 0037 000b 0000 0000 001d 0035 0000 0026 0006 0000 0000 0000 0018 002e 002d 000c 0000 0000 0025 0020 0000 0000 0000 0000 0000 0015 000e 0021 0008 0000 0022 0000 0000 0000 0000 001e 001b 0000 0006 004b 0016 0000 0000 0000 0026 0000 0000 0053 0000 0000 004b 000d 0000 0000 0000 0000 0008 0025 0017 0000 0000 0000 0000 0015 0008 0000 0000 0007 000a 0000 0000 0002 0000 0035 0000 0000 001e 0000 0016 003e 0000 0000 0000 0000 0014 0022 0000 0000 0000 0000 0000 0041 000e 0000 0000 0000 0000 0000 0028 000b 0000 0006 005b 0000 0000 0000 0028 0000 0000 0046 0012 0000 0036 0000 0000 000f 0000 0008 0000 0000 0010 0000 0000 000b 003b 001f 0000 0000 0025 0012 0000 0000 0027 0000 0000 0003 0000 002f 0000 0000 0003 0026 0010 0000 0026 0000 0000 0000 000f 0013 0005 0013 0000 0023 000a 0000 0006 0000 0042 001c 0000 000c 0003 0000 003a 0016 0000 000b 000b 0000 0000 002b 0027 0000 0000 0028 0000 0000 003a 0031 0000 0000 0038 0025 0000 0000 0000 002e 0000 0000 0000 0000 0004 0022 0041 0000 0000 0000 0000 000f
0031 004a 001e 001a 003a 0044 0000 0001 0000 0000 001d 0000 0046 004b 0000 0000 0000 0000 0000 0000 0000 0000 002f 003f 0000 0003 002b 0097 0038 0000 0000 0055 0005 0000 0004 0000 0000 0000 0000 002e 0000 0007 0065 0010 0021 0000 0000 003b 0008 0000 000a 0000 0000 0000 003b 0066 0000 0000 0009 0000 001c 0006 000d 0024 001e 0000 0009 0000 0000 0000 0000 0023 0013 0025 0000 0000 0000 001f 0000 0000 0011 0027 0032 0000 0000 0061 0000 0000 0000 0000 004f 005d 0000 0012 0082 0000 0000 0038 0040 0000 0056 0036 0000 0024 0018 0000 0009 0001 0000 000c 0000 0000 001d 000c 0000 0022 0008 0000 0013 0000 0000 0000 0006 005b 0000 000c 000a 0000 0000 0000 0000 004d 002d 0000 0000 0020 0018 0010 0000 0000 0016 000f 0000 001a 0019 0019 0000 0000 0006 0006 0013 0000 0000 001d 000b 0000 000d 0029 0000 0000 0000 0000 001f 0000 0000 0018 0000 0000 0050 0007 0000 0000 000f 0003 0000 001e 000a 0000 0000 0000 0000 001f 0013 0000 0000 001f 0015 0000 0000 0000 0000 0031 0000 0000 001f 0000 0018 0043 001a 0000 0000 0009 0021 002f 0000 0000 000a 0023 0000 0032 001f 0000 0000 0000 0000 0000 000f 0019 0009 0002 0022 0008 0000 0000 002b 0019 0000 0031 0019 0000 006c 002d 0000 0000 0000 0019 0000 0000 002f 0000 0000 0025 0014 0018 0000 0000 0000 0000 0000 0011 001f 0000 0000 002d 0035 0025 001d 0000 0000 0016 0013 000f 0000 0000 0000 0000 0025 002e 000e 000f 000c 0031 0000 0000 0001 0000 001b 0032 0000 0000 0000 0008 0054 0000 0000 003c 0000 0000 0012 0029 000e 0000 000f 0019 0000 0000 004f 0051 0000 0000 003e 0016 0000 0000 001a 0052 0000 0000 0000 0002 0000 001b 003d 0000 0000 0000 0000 0000
0037 0040 0037 000e 001c 0051 0000 0000 0010 0000 0015 0000 0036 0048 0000 0000 0009 001a 0043 0012 0000 0000 0024 000e 0000 0033 002c 002a 001f 0000 0000 0046 0000 0000 0009 0000 0000 000f 0000 0015 0000 001d 0060 0000 0000 0000 0024 0053 003c 0000 000e 0033 0000 0000 0029 0027 0004 000d 0026 0000 0000 001a 0028 0000 0016 0046 0000 0000 0000 0000 0000 0000 0029 0023 0000 0000 0000 001f 0000 0000 0037 001f 0000 0000 000d 009c 0013 0000 0000 0000 003e 0031 0000 006d 004d 0000 0000 0000 0011 0000 002f 0044 0000 0012 0028 0000 003a 000b 0000 000a 0000 0000 0007 0018 0000 0000 0012 000f 0000 0000 0011 0000 0000 004e 0002 0005 001d 0000 0000 0000 0000 003a 0028 0000 0000 0023 0010 0000 0000 0000 002d 0000 0018 0033 0013 0020 0000 0000 0000 0000 0024 0033 0000 0009 0014 0019 0000 0000 0013 0017 0000 0012 0000 0000 0001 0016 0002 0000 0048 0000 0000 0016 0035 0004 0000 0003 0000 0000 002e 0000 0000 0013 0037 0000 0000 000f 002e 0000 0000 0000 0000 0022 0007 0000 0000 0000 0016 0022 0039 0004 0000 000a 0000 001e 0000 0000 0000 001f 0029 000d 0000 0000 0026 0000 0000 0028 0000 0000 0049 0029 0000 0000 0000 0000 001e 0000 000e 0013 0000 0000 0071 0013 0000 0007 0008 000a 0000 0003 000e 0000 002f 0026 0000 0036 0034 0000 0000 0000 0014 0020 0000 0000 0000 0035 0039 0027 0008 0000 0000 0025 001b 0003 0000 0000 0000 0000 0016 0000 0028 0027 0018 0048 0000 0000 0000 0000 000d 003d 0000 000f 0004 0000 0000 0000 0000 001e 000c 0000 001f 0003 0002 001d 0000 000e 0004 0000 000f 000e 000e 0000 0010 0025 0000 0000 0000 0027 0000 0000 000e 0000 0000 0034 0000 0000 0015 0000 0000 0000
0032 0037 0033 002b 0041 004d 0000 0000 0041 0000 0033 000f 0000 0004 0000 0000 0000 0034 009b 0000 0000 000a 0000 0006 001b 002d 0015 0000 0013 0000 0000 004d 0000 0000 0003 0000 0000 0048 0003 0005 0000 0016 0078 0011 0000 0000 0042 0038 001f 0000 0045 0053 0000 0000 0043 0001 0000 002a 0063 0000 0000 003a 0024 0000 0017 0013 0000 0031 0026 0000 0000 0000 0036 000e 0000 0000 000c 0019 0000 0000 0021 0023 0000 0000 003a 006b 0029 000b 0000 0000 0002 0000 0029 0079 0000 0000 0000 0000 0000 0000 0000 002b 0015 0000 0038 0000 0023 0011 0000 0000 000b 0013 0008 000b 0008 0000 001a 0000 0000 0000 000e 0000 0000 001e 002c 000d 0012 0000 0000 0000 0000 001a 0025 0000 0000 0004 001e 0000 0000 002f 0029 0000 0027 0038 0001 0000 0000 0005 0000 0000 002a 0047 0000 0006 002d 0000 0000 0000 0017 0018 0013 0027 0000 0000 0007 0014 0017 0000 0042 0000 0000 004b 002d 000e 000e 0000 0000 0000 0033 001b 0000 0007 003e 0000 0000 0000 0034 0000 0000 0000 0000 0016 002b 0000 0000 0000 000e 0000 0008 000f 0011 0017 0000 0000 001a 0000 0000 0004 0028 0000 0000 002a 004b 0000 0000 0001 0000 0000 0061 005b 0000 0000 0000 0041 001b 0000 0021 0005 0000 0000 0056 0000 0000 0030 001b 0006 0010 0008 0000 0000 0056 0002 0000 0040 002d 0000 0000 0000 0017 0033 000c 0000 0000 0000 0000 002f 0014 0000 0008 0029 0000 0006 0000 0000 0000 0000 0000 0000 000d 0028 0017 0057 0000 0000 000a 002e 0026 0021 0000 0016 0004 0000 0006 000f 0000 0000 001e 0000 002c 0000 0000 0046 0000 0000 0028 0000 0000 0000 000c 0028 000a 0003 0000 000d 0000 0000 0015 0018 0023 000d 0000 0027 0000 0000 0013 0000 0000 0000
0037 004e 0026 0025 0062 0025 0000 0000 0056 0014 0043 000b 0000 0000 0026 002f 0000 003b 0069 0000 001b 0000 0000 0045 004a 0010 0015 0000 000b 0000 0014 004f 0000 0000 0000 0000 001e 0024 0000 0022 0000 0000 0020 006c 000b 0000 0030 0055 0000 0000 006b 001f 0000 0000 0037 0000 0000 0043 0053 0000 0000 0024 0023 0000 0005 0000 0000 0051 0030 0000 0000 0000 0012 000a 0000 0000 003c 0024 000b 0000 0000 0000 0000 0000 001c 001b 000d 0002 0000 0037 001c 0000 0016 002a 0000 001a 0052 0001 0003 0000 0000 0011 0007 0008 003d 0000 0000 0012 0000 0013 000e 001c 0000 0002 0000 0000 001e 0000 0000 001b 0000 0000 0000 0004 0031 0010 0000 0000 0000 0000 000d 0002 0012 0000 0000 000e 0014 0000 0000 0045 001f 0000 0010 0011 000f 0000 000d 0053 0000 0000 002f 0000 0000 003f 0030 0000 0000 0000 0000 000d 0029 0015 0000 0000 0000 0006 0024 0000 0019 0000 0000 005a 0013 001d 0027 0000 0000 0017 0021 0013 0006 0000 0004 0002 0011 0000 0015 0000 0000 0000 0000 000d 0028 0000 0000 0042 0000 0000 0000 0000 000f 0026 0000 0004 000a 0000 0022 0000 0006 0000 0000 0037 003d 0000 0000 0000 0012 0000 005b 0059 0000 0007 0006 001e 0019 0000 0024 0018 0000 0000 0048 0026 0000 0005 0000 000c 0032 0000 0000 0000 0035 0014 0000 0027 0013 0000 0000 0000 002b 0050 0001 0000 0000 0000 0000 0016 0022 0000 0016 0022 0000 0002 0007 0000 0003 000b 0000 0000 0000 0000 0000 0037 0027 0000 002e 0043 0000 002c 0000 0000 0000 001f 0024 0000 0000 001f 000d 0000 0013 0017 0000 0029 001f 0000 0000 0000 0001 0000 0000 003a 0002 0000 0000 0011 0000 0000 000b 0000 0002 0024 0000 0017 0023 0001 0000 0000 0000 0000
0037 002c 0023 0004 004f 0022 0000 002e 0048 0017 0019 0009 0000 0000 0042 0044 0000 002e 0000 0000 0024 0000 0000 0042 0048 001c 002b 0000 000e 0000 0000 005f 0027 0000 0000 0012 0000 0022 0000 001c 001b 0000 0000 007e 0000 0000 003e 0075 0000 0000 0059 0000 0000 0000 0000 0000 0000 0030 0055 0000 0000 0019 0003 0000 0002 0000 0000 003e 0021 0011 0000 0000 0000 0028 0008 0000 0026 0000 002a 0000 0000 0004 002b 0039 0010 0000 0003 0000 0000 007f 004d 0000 0000 0000 0000 003d 006b 0014 0000 0000 0000 0026 0000 0000 001e 0000 0005 0000 0023 0035 0000 0013 0023 0009 0000 0000 0003 0009 0009 0019 0014 0000 0007 0000 0000 0010 0000 000c 0000 0010 001f 0000 0000 0000 0000 0014 0008 0000 0000 002c 0005 0000 0000 0003 003a 0000 0000 004b 0000 0000 0004 0000 0023 0056 0000 0000 0000 0014 0000 000b 0025 0012 0000 000a 0000 0005 002a 0000 0000 0000 002e 003b 0000 0006 002f 0000 0000 0012 0024 001f 0009 0000 0000 001a 0014 0000 000e 0000 0000 0000 0000 002b 0032 0000 000c 007b 0000 0000 0000 0000 0000 0000 0014 0013 0000 000b 0013 0000 000f 0000 0000 0010 0000 0000 0000 000e 002a 0000 0046 0029 0000 0019 0000 0000 002c 0000 0027 002f 0000 0000 0049 0046 000f 0000 0000 0031 0057 0000 0000 0000 001f 0026 0000 001e 0013 0000 0000 0000 0031 004c 0000 0000 0000 0007 0017 0000 0000 0007 001e 001c 0000 0000 0000 0000 0000 002b 002e 0009 0000 0000 0000 0002 0053 0000 0016 0050 0000 0053 0000 0000 0026 001b 0000 0000 0000 0036 001e 0000 0000 0031 0000 0000 002f 002e 0000 000d 0016 0000 0035 0019 0000 0000 0029 000c 0000 0008 0000 0000 0004 0012 0000 001e 0027 0000 0000 0000 0000 0000
001b 001c 003d 0000 0030 0060 003f 0044 0000 0000 0000 0015 0041 0000 000d 0035 0000 0000 000a 0000 0000 0000 002c 0000 0000 0074 0021 0000 0000 0000 0000 0051 0079 0000 0000 002b 0000 0000 002d 001c 0043 0000 0026 0064 0000 0000 0046 0055 0000 0004 0075 0000 0000 003e 0000 0000 000f 0024 0023 000b 0000 001d 0000 0000 0000 0000 001f 004d 0000 0000 0003 0000 0000 0007 0000 0000 0000 0001 003e 0000 0000 0027 0055 006b 002c 0000 000e 0000 0000 0079 0013 0016 0016 0000 0000 0032 004e 001d 0000 0000 0000 003b 0000 0000 0017 0017 0002 0000 002b 002c 0000 0013 003f 0000 0000 0000 0000 0000 0009 0021 0034 0000 0007 0000 0000 0003 0019 0014 0000 0013 002b 0000 0000 0000 0015 000f 0004 0000 0000 0025 0001 0000 0000 000d 0038 0000 0000 002c 0015 0000 0000 0010 0039 0027 0000 0000 0005 004d 000c 0000 000d 0023 0011 0000 0000 000a 0025 0000 0000 000a 0035 003e 0000 0000 0036 0000 0000 0000 0021 0023 0000 0000 0000 002e 0000 0000 0022 0000 0000 0000 0000 0054 003e 0000 0011 0057 0022 0000 0000 0016 0000 0000 002e 000e 0000 003a 0000 000e 0033 0000 0000 0024 0000 0000 0000 0043 000a 0000 003c 0008 0000 0021 0000 0000 0028 002a 0020 0000 0000 0000 0029 0050 002e 0000 0000 0047 0060 0000 0000 0000 001b 0000 0000 0020 0004 0000 0000 0000 002a 0040 0009 0000 0000 0003 0052 0000 0000 003b 000e 0000 001a 0000 0000 0000 0000 004a 0059 0019 0000 0028 0000 0000 0055 0000 0000 0055 0007 0054 0005 0000 0034 0000 0000 0000 0000 0028 003f 0000 000e 004e 0003 0000 001c 0045 0000 0002 0031 0000 003d 0018 0000 0009 0052 0000 0000 000c 0000 0000 001d 0000 0000 0028 0008 0000 0002 0018 0000 0000
0000 003c 005e 0000 001d 0040 0052 0053 0000 0000 0000 001f 0064 0014 0000 0030 0000 0000 0066 0022 0000 0000 004b 0000 0000 00b3 000a 0000 0000 0000 0000 0032 0047 0000 0000 0000 0000 0000 0000 0000 0052 0008 002b 002b 0000 0000 0049 0027 0000 0005 0083 0000 0000 001a 0014 0000 0040 003d 0000 0000 002b 0048 0000 0000 0000 0000 0031 0040 0000 0000 0037 0038 0000 0000 0000 0000 000f 0046 0015 0000 0000 0002 000d 0061 0030 0000 0055 0000 0000 0050 0000 0035 003d 0000 0000 003f 0025 0005 004d 0000 0000 0034 0000 0000 000a 002c 0007 0000 0006 001f 0000 0014 0010 0000 000c 0030 000b 0000 0000 000e 0040 0000 0000 0000 0000 0000 000e 0002 0000 000a 0020 0000 0000 0000 0020 0005 0000 001b 0000 000b 0034 0000 0000 000e 0000 0000 0000 000e 003a 0000 0000 0014 001d 0001 0000 0000 000d 003c 000f 0000 000c 0021 0000 0000 0000 0002 000c 0000 0000 0016 003e 0038 0000 0000 0037 0007 0000 0001 0006 0000 0010 000a 0000 0003 0000 0000 0016 0000 0005 0001 0000 0037 0037 000b 0006 001b 0020 0000 0000 0017 0000 0000 0037 0030 0000 0018 0000 0000 004f 0000 000d 0052 0000 0000 0000 0051 0000 0000 0012 0000 0000 002b 0000 0000 0000 0054 001e 0000 0000 0000 0008 0049 0027 0000 0000 0022 002c 0000 0000 0005 0014 0000 0000 001f 0000 0000 0016 0000 000b 0022 001a 0000 0000 0000 002e 0000 0000 0037 0008 0000 0020 0000 0000 0005 0017 0038 0034 002f 0000 003a 0000 0000 004e 0000 0000 000a 000b 005f 0000 0000 0040 0002 0000 0000 0000 002b 0051 0000 000a 0050 0000 0000 0009 003d 0000 0000 006f 0000 0000 0000 0000 0030 0048 0000 0000 0005 0016 0000 0025 0000 0000 002d 0000 0000 0000 0000 0000 0000
0013 0032 0048 000e 0023 0000 002d 0059 0000 0000 000d 002d 0021 000b 0007 0034 0000 0000 003f 0045 0000 0000 001e 002a 0009 006e 0000 0000 0008 0000 0000 0021 0000 000f 003a 0000 002c 007f 0000 0000 0019 004f 0024 0029 0000 0000 0039 001c 0000 0000 005b 003f 0000 0000 0046 0000 003a 0013 0000 0000 004d 004c 0019 0000 0000 001f 0000 0026 0000 0000 0064 003e 0000 0000 0000 0000 0000 004d 0000 0000 000e 0008 0000 000f 004a 0000 0049 0000 0000 0045 0000 0037 0000 0000 0000 002f 0022 0000 0067 0000 0000 0035 001e 0000 0000 0001 001f 0000 0000 0010 0000 0011 0001 000c 0000 001f 004c 0003 0000 0000 0032 000e 0000 0005 0000 0000 0000 0009 0000 0002 0000 0000 0023 0019 0000 0000 0005 0026 0000 0000 005b 0026 0000 0000 0000 0000 0000 0011 0028 0000 0016 0000 0000 0000 0000 0017 000a 000d 001d 0000 000f 0020 0000 0000 0000 0019 0000 0000 0000 0017 0045 001e 0000 0000 0013 0000 0002 0015 0000 0000 0040 001e 0000 0000 0000 0000 0010 0026 0000 0000 002a 000c 001e 0016 0000 0021 000a 0000 0009 0014 0000 0000 001f 0024 0007 001b 0000 0000 0025 0000 0017 004f 0000 0000 0000 0053 001d 0000 0000 0000 0014 0025 0007 0000 000a 001c 0000 0000 0000 0000 0021 0000 0008 0000 0005 0000 000b 0012 0000 0000 0000 0008 0000 0013 000d 0000 0006 0031 0000 0000 001a 0000 0000 0000 0000 0000 0002 001c 0025 001b 0019 0000 0000 0018 0028 000b 000f 002c 0000 0041 0000 0000 0015 0000 0010 0000 0017 006e 0000 0000 0034 000b 0000 0000 0000 001e 0072 0000 0000 0000 0000 0014 0028 0031 0000 0000 0091 0000 0000 0000 0000 003e 0042 0000 0000 0000 0000 0022 0057 0000 0000 0022 0018 0000 0000 0000 0000 002d
0040 002e 0013 0016 0029 000e 000c 0030 0029 0000 0000 005b 0022 0000 0000 002d 0000 0000 0005 0053 0000 0000 0004 0064 0015 0000 0000 0000 0025 0000 0000 0012 0016 0004 001d 0000 0045 0095 0000 0000 0000 0041 002f 000a 000c 0000 000e 0022 0000 0000 002f 005f 0000 0000 0017 0040 0026 0000 0000 0000 002c 0023 002e 0000 0005 004d 0000 001b 0011 0000 001f 001b 0000 0000 002e 0021 0000 0043 0026 0000 0001 003b 0000 0002 003d 0000 0000 0000 0011 0030 0000 0032 0000 0000 0021 0000 0019 0000 0035 0001 0000 0035 0037 0019 0000 0000 001f 000e 0000 0000 0019 0004 0000 0002 0000 0000 0050 002b 0000 0000 000d 0010 0018 001b 0000 0000 0010 001d 0000 0001 0001 0000 0043 0038 0000 0000 000c 001f 0000 0000 005c 0036 0000 0000 000c 0000 0000 0039 002b 0000 000e 000b 0000 000a 0000 0000 0010 002d 0020 0000 0016 002f 0000 0000 0005 0055 0000 0000 0008 0000 0017 0018 0032 0000 0000 0000 001c 0022 0000 0000 0044 001b 0000 0000 0000 0000 002e 002d 0000 0000 0056 0000 0000 001a 0015 0028 0000 0000 000a 000a 0000 0018 0000 0000 0014 006e 0028 0000 0000 0000 0016 002c 0000 0000 0000 0029 0000 0000 0002 0004 0000 000c 0015 0000 001d 0000 0000 0010 0000 0025 000c 0000 000d 0019 001f 0000 000c 001b 0000 0000 0000 0005 0013 0008 0014 0000 0000 0059 000b 0000 0000 0012 0000 0000 0000 0002 002b 001c 0035 000f 0000 0000 0000 0000 000c 0016 002a 0016 0000 004f 0009 0000 0000 001c 003e 0000 001c 0048 0000 0000 0000 0033 0000 0000 0000 0004 0055 0001 0000 0000 0000 0062 0027 0015 0000 0000 0072 0000 0000 002e 0000 002b 0027 0000 0000 0000 0000 0020 005f 000d 0000 0019 0031 0000 0000 0000 0000 0032
0048 0051 001c 0007 0028 004e 0000 001b 0067 0000 0000 006c 0036 0007 000a 0003 0008 0000 0000 0054 0000 0000 0000 0049 002d 0000 0000 001a 001f 0000 0000 0003 0016 0000 0010 0007 0037 0054 0000 0000 0000 0055 006b 0000 0000 0031 0023 0011 0000 0000 001c 001f 0000 0000 0000 0045 0041 0000 0000 0000 002b 0048 0020 0000 0000 003c 0000 0000 0000 002d 0000 0000 0000 0000 0057 0030 0000 0000 0013 0000 0000 0030 003d 0029 0000 0000 0000 0000 0024 005b 0000 000d 000e 0000 000d 0000 0024 0000 0000 001e 0002 002b 0033 0010 0000 0000 0020 0027 0000 0000 002c 0000 0000 0001 0000 0000 0004 003b 0013 0000 0000 0005 002a 0024 0000 0000 001d 0002 0000 0000 0022 0000 0010 0018 0002 0000 0000 001c 0000 0000 004b 002b 0000 0000 0000 0000 0000 0040 0037 0000 0000 0003 0000 001c 0000 0000 000a 0016 000f 0000 000b 0029 0000 0000 001b 0044 0000 0000 0009 0000 0002 0012 0041 0000 0000 0000 0026 0018 0000 0000 003b 001e 0000 000b 0000 0000 003d 002e 0000 0000 0031 0000 0000 0020 003e 0000 0000 0000 0023 0000 0001 0016 0000 0000 000d 006c 0062 0003 0000 0000 0000 0010 0000 000c 0001 0000 0000 0002 0053 000b 0000 0000 0013 0000 0015 0032 0020 0000 0000 002c 0000 0000 0021 002c 001f 0000 001b 0037 0000 002f 0000 0000 0007 0009 0023 0000 0000 0040 0022 0000 0000 0011 0000 0000 0009 0009 002e 0017 0001 0000 0000 0020 0004 0000 0000 002b 0048 0000 000c 005c 0000 0000 0000 0028 0042 0000 0000 003f 000a 0000 0000 006a 0000 0000 0000 0026 0006 0000 0035 001e 0000 003d 0000 0001 0000 0000 0042 0000 0000 005b 002f 0006 0000 0000 0000 0006 0000 0000 001b 001a 0000 0000 0001 0000 0000 0000 0000 0020
004d 0061 0051 001f 0033 003f 0000 000b 0051 0000 0000 004a 0000 0026 0047 0000 0000 0000 0001 0073 0021 0000 0000 001b 002c 0054 0000 0000 0004 0000 0000 0000 000d 002a 0037 0037 0014 002f 0000 0000 0000 0041 0097 0000 0000 0037 0028 0000 0000 0000 0035 0000 0000 0010 0000 0012 0038 0000 0000 0000 0049 0058 0003 0000 0000 0000 0000 0000 0000 004e 000e 0000 0000 0000 0004 0000 0000 0000 0000 0000 0010 001d 000a 0002 0000 0000 0013 0000 002b 0088 0008 000b 0000 0000 0000 0022 004a 0000 0000 0020 0001 0037 0024 0001 0000 0000 0010 002f 0000 0000 001d 0000 000c 000b 0011 001d 0000 0004 0000 0000 0000 0000 003a 002d 0000 0000 0017 0000 0000 0000 001d 0035 0000 0000 001d 0012 0003 0000 0000 0000 003c 0020 0000 0000 0000 0000 0000 0028 0024 0000 0000 0000 000a 0034 0004 0008 0000 0000 0006 0000 0000 001f 0000 0007 000e 000f 0002 0000 0000 0010 001a 0000 0006 0000 0000 000c 0023 0000 0000 0000 003d 0021 0000 0000 0000 0000 002f 001b 0000 0000 0004 0014 0000 0000 0044 0000 0000 0018 0028 0000 000b 0016 0000 0000 000b 0029 0067 0000 0000 0000 0000 0022 0020 0025 0021 0000 0000 0011 0066 0008 0000 0003 0000 0000 002d 0037 002f 0000 0000 0000 0039 003d 0000 0011 0011 0000 0042 005e 0000 0022 000b 0000 0000 0019 0054 0000 0000 0015 0004 0007 0000 0003 0000 0000 0038 0000 0013 0021 0000 0000 0000 0050 0007 0000 0000 0000 002d 0003 0040 0032 0000 001c 0000 0026 002b 0000 0000 0050 0000 0000 0023 004a 0000 0000 0046 0038 0000 0000 0061 0041 0000 0000 0000 0000 0000 0015 003b 0000 0000 0038 004f 0000 0000 0000 0000 0004 0000 0000 0027 002d 000e 0000 0000 0000 0000 0000 0000 002f
0055 0048 0068 005c 0028 0021 0000 0003 0037 0000 0000 003d 0000 0028 007d 000a 0000 0000 0015 0093 002c 0000 0000 0045 0000 0039 0000 0000 0000 0000 0000 0000 001f 0061 002a 001b 0000 0006 0000 0000 0021 0016 0078 0000 0000 0022 0008 0000 0000 0015 0045 0000 0000 0041 0000 0000 0000 0000 0000 0000 0062 0026 0000 0017 0000 0000 0000 0000 000e 002f 0028 0000 0000 0000 0000 0000 0000 003e 0027 0000 0013 0031 0000 0007 0037 0000 0000 0000 000e 0080 0022 0017 0000 0000 0000 001c 0041 0000 0000 000f 0000 0037 0029 0010 0005 0000 0000 0022 0000 0004 0000 0000 0051 0000 0000 002b 001e 0000 0000 0000 0000 0000 0031 0049 0000 0000 002a 0000 0000 0000 0000 0042 0000 0000 0018 0023 0019 0000 000b 0017 000f 000f 000d 0000 0000 0000 0002 0028 0017 0000 0000 0000 0031 0041 0000 000c 0017 0000 0000 0000 0000 000f 001a 0013 0000 000b 0011 0000 0000 0030 0028 0000 0000 0000 0000 0024 001f 0007 0000 0000 001d 0000 0000 000c 0000 0005 000c 0000 0000 0005 0012 0023 0013 0000 0050 0000 0000 000a 0004 0000 0019 0016 0000 001a 0024 0031 0017 0000 0000 0000 0000 0038 0017 000c 0022 0000 0000 0000 0046 0007 0000 0000 0000 0003 0036 000a 003f 0000 0000 0000 0051 0052 0000 0000 0025 0000 004b 004b 0000 0000 0010 0008 0000 002c 0073 0000 0006 0012 0000 0000 0000 0000 0000 0000 003b 0007 0011 001e 0000 000d 0006 0027 0000 0010 0025 0000 0019 002e 0026 0000 0000 0015 0010 002b 0045 0000 0000 0031 0000 0000 0054 0032 0000 0000 0064 0009 0000 0000 0053 0000 0000 0000 0000 0000 0000 002e 000d 0012 0009 0000 0020 0017 0000 0000 0000 0000 0000 0000 0036 0034 000f 0000 0000 0000 0017 0000 0000 0040
004a 0048 007b 006c 000f 000a 0000 001f 002e 0000 0000 0012 000c 000d 005f 0035 0000 0000 000f 006c 0025 0000 0000 005b 0000 0000 000e 0000 0000 004e 001b 0000 0028 0030 0000 000d 0000 0000 0000 000d 001e 0000 0036 0000 0000 0029 003b 0000 0000 0000 002d 0010 0026 0044 0000 0000 0000 0000 0000 0000 003d 0015 0009 0001 0000 0000 0012 0000 000b 0024 0015 0000 0000 0000 0015 0000 0000 0057 0040 0000 0000 0030 0000 000f 0058 0000 0000 0000 0000 005e 0000 0005 0014 0002 0000 0000 0000 0000 0005 0000 0000 0012 002f 0032 0001 0000 0000 001a 0000 0000 0000 0024 0044 0000 0008 001f 0021 002d 0000 0000 0000 0000 0000 002c 0008 0000 0021 0002 0000 0000 0000 0029 0000 0000 0020 0035 0005 0000 0032 000a 0000 0006 0027 0000 0000 000d 0013 0021 000e 0007 0000 0000 001d 003b 0000 0000 0018 002b 0000 0002 0008 0000 001b 000c 0000 000c 0000 0000 0000 0042 0031 0000 0000 0000 0000 001b 0023 002b 0000 0003 0004 0000 0000 0023 0000 0000 0000 0000 0004 0024 001d 0000 0000 0003 0057 0000 0000 000e 0000 0010 002d 0005 0000 0005 0042 002d 0000 0000 0003 0000 0000 002e 0006 0012 0007 0000 0000 0000 001b 0000 0018 0008 0000 001a 000a 000f 003e 0000 0000 0000 000d 002e 0000 0000 0046 0009 0018 0011 0000 0000 0006 0023 0000 0013 0051 0000 0000 0012 0009 0000 0000 0000 0000 0000 0016 0040 0020 0000 0000 0017 001e 0000 0000 0039 005c 0000 0026 0029 0000 0000 0000 0017 0003 0000 004d 0009 0000 000a 0000 0000 0073 004c 0000 0023 0057 0000 0000 0011 0017 0000 0015 0009 0000 0000 0005 0024 0000 001d 004f 0000 0000 004c 0000 0000 0000 0000 0045 0012 0000 003c 0035 0000 0000 0000 0006 0000 0000 001c
0046 0065 0065 003f 0008 0000 0004 003f 0000 0000 0000 0000 0042 0000 000b 0025 0000 0000 0000 0052 0026 0000 0003 0045 0000 0000 0021 0000 002d 0052 0000 0000 0048 0017 0000 0000 0000 0000 0004 0000 0023 0023 000f 0010 0000 002d 0060 0000 0000 0000 0019 0041 0006 0005 0011 0000 0000 0000 0000 0000 0004 001a 0017 0000 0000 0039 0014 0000 0006 005c 0013 0000 0000 0004 0000 0003 0000 0001 003e 0000 0000 0013 0000 0000 003b 001f 0000 0000 0000 0050 0000 0018 002a 0009 0000 0000 0000 0000 0000 0000 000f 0000 0003 0033 0027 0000 0000 0019 0000 0000 0000 0011 0020 0000 002f 0017 0003 0047 0000 0000 0000 0000 0000 0000 0021 0000 0000 000c 0000 0010 001f 0000 0000 0000 0038 002c 0000 0000 0026 0014 0000 0000 0022 0000 0000 0031 000d 0000 0011 0017 0008 0000 0000 002d 0000 0000 000c 0031 0010 0014 0000 0000 0000 0019 001e 0000 0000 0000 0000 0030 0039 0000 000d 0000 0000 0001 002d 0031 0000 0000 0000 0000 000d 0000 0000 0000 0000 0000 0029 0010 0000 0000 0000 0020 0059 0000 0015 0026 0000 0011 000c 0000 0000 0000 0048 000a 001d 004b 0001 0000 0000 0036 0006 0001 0000 0000 0000 0000 000b 0000 002d 0017 0000 0009 0000 0022 0042 0000 0000 0000 0000 0011 001a 0016 0018 0002 0000 0000 000c 0006 0000 001f 0005 0000 0023 0002 0000 0019 000e 0000 0000 0030 0000 0000 0003 0055 002b 0000 0000 001f 0066 0000 0000 003b 005a 0003 000d 0000 0000 0000 001f 0029 0000 0000 0034 000e 0000 0000 0000 0000 0036 001f 0000 002c 001d 0000 0000 0005 0000 0000 003d 0005 0000 0000 000a 0000 0000 000f 0010 0000 0000 004a 0000 0000 0000 0000 0071 0023 0000 002a 0028 0000 0000 0000 0000 0028 0000 0000
004d 0074 0004 000c 0039 0000 0007 0060 0000 0000 0000 0026 003f 0000 001b 0000 000c 0048 0000 0052 000d 0000 0000 0049 0000 0000 002c 0000 0014 0030 0000 0000 003f 0039 002f 0008 0000 0000 0000 0000 003d 0077 0002 0005 0000 0030 0013 0000 0002 0000 0021 004e 0000 0000 0000 0000 0017 0000 0000 0000 0001 0000 0000 000c 0024 001e 0000 0000 000c 001a 003f 0000 0000 0029 0002 0009 0000 0000 002e 004d 0000 0000 000d 0012 0000 0005 0000 0000 0000 0054 000b 0034 0018 0000 0000 0000 001c 001e 0000 0000 002a 0014 0000 0001 0052 0000 001a 000d 0000 0000 0000 0002 0003 0000 0048 0005 0000 002e 0000 0000 0001 0000 0000 0000 001d 0000 0008 0011 0000 0030 0021 0000 0000 000c 0048 000a 0000 0000 0000 0040 0015 0000 0000 0020 0000 0031 0009 0010 001e 000f 0017 0000 0000 0000 0000 0000 0022 0028 000a 001a 0000 0000 000a 0026 001a 0011 0000 0000 0000 000d 0023 0000 0001 0000 0000 0006 000d 002b 0000 0000 0000 0000 0018 0000 0000 0019 0000 0000 0047 0009 0000 0000 0000 002e 002c 0000 0038 0035 0016 0000 0000 0000 0000 0000 0060 003e 001d 0030 0014 0000 0000 0032 001a 0000 0000 0007 0000 0000 0017 0000 0013 001c 0000 0004 0000 0012 0079 0000 0000 0006 0000 0000 002b 0006 0000 0000 0000 0005 0024 000e 0000 0000 0013 0000 0010 004d 0000 0000 0000 0002 0006 003e 0000 0000 0033 0033 0000 0000 0000 001a 0053 0009 0000 0017 0052 0002 0002 0000 0000 000b 0008 0031 0000 0000 000a 000b 0000 0000 0012 0024 0000 0000 000f 0013 0000 0000 0024 002a 0026 0000 0000 0027 0000 0011 000b 0000 0000 0000 0000 0000 0023 0012 0000 0000 0000 001a 0054 002a 0000 0000 0000 000f 0000 0000 0000 0039 0000 0000
0032 0061 0000 0000 0079 0000 0000 0066 0017 0000 0000 0039 0000 0000 009c 0000 001f 0097 0000 0014 0002 0009 0000 001f 0047 0000 0000 0000 0000 000b 0008 0000 001e 0038 003f 0000 0000 002e 0000 0000 0050 0021 0014 0000 0000 001e 0001 000b 0005 0000 0015 000c 0000 0039 0000 0000 001a 0000 0000 0031 0000 0000 0000 0021 0037 0001 0000 0000 0000 0000 0057 003b 0000 0000 002b 0000 0000 0000 0000 0043 0000 000c 000f 0027 0000 0000 0000 0000 0032 000f 0000 002e 0007 0000 0000 0000 0016 0036 0000 0000 002f 001f 0000 0000 0039 0000 001e 000e 0000 0011 000e 0000 0000 0028 0056 0000 0000 0000 0006 0009 0004 0000 0018 0000 0000 0000 0019 0008 0000 002f 000c 0000 0000 000f 0049 0005 0000 0000 0000 0044 0022 0000 0000 000c 0000 0022 0008 0032 0022 000d 0015 0000 0000 0000 0000 0021 0027 0005 0000 0021 0000 0000 002b 002c 0000 0024 0000 0000 0007 0000 0000 0001 0000 0000 0010 001a 0000 001c 0000 0000 0003 0000 0000 0003 000a 0000 0000 0000 0023 002c 0000 0000 0000 0042 0000 0000 001a 0049 0021 0000 0006 002a 0000 0000 006c 0051 0002 0000 0008 0000 0000 0008 0012 0000 0000 0014 0000 0000 0017 0000 0010 0006 000c 002f 0000 0000 0087 0000 001e 0000 0000 0000 0000 0000 0000 0000 0000 0039 000a 000e 0000 0000 001a 0000 0000 0069 0012 0000 0000 0000 0000 0017 0000 0000 0055 0005 0000 0000 0000 000e 0000 0032 003b 0000 0013 001e 0032 0000 0000 002c 0000 0011 0043 0000 0000 0000 0000 0000 003d 0000 0014 0019 0010 0000 0000 0000 0019 004a 001f 0000 0000 0038 0000 0000 0009 0000 0000 0000 0012 0000 0007 000f 0000 0000 000b 0000 0033 002e 0000 0000 0000 0005 0000 0000 0000 002d 0017 0000
0044 0054 001e 0000 0060 0027 0000 000f 0038 0000 0000 0003 0000 0013 00c3 0000 000b 005a 0000 0000 000a 005d 0000 0000 0052 0000 0000 0000 0000 0002 001f 0000 0000 0031 003c 0000 0000 0089 0000 0016 0028 0000 0029 0000 0000 0000 003a 002b 0000 0000 0004 0000 0002 0055 0000 0000 0027 0000 0001 0013 0000 0000 0024 0026 0009 0000 0022 0000 0000 0000 0039 0041 0000 0000 001a 0000 0000 0000 0000 0000 0028 0040 0000 001f 0015 001d 0016 0000 001e 0000 0000 0023 0000 0000 0019 000a 0000 0029 0000 0000 003d 001b 0000 0036 001c 0000 0007 000d 0000 000c 0020 0000 0000 0047 0047 0005 0000 0000 0020 001f 0000 0000 003e 000d 0000 0001 001d 0000 000f 0005 0000 0000 0000 0009 001a 001b 0002 0000 0000 0016 0013 0005 0000 0000 0000 001a 000f 0030 0007 0005 001e 0000 0000 0006 0000 0023 001e 0000 0016 0017 0000 0000 0025 0014 0002 003a 0000 0000 0028 0000 0000 0021 0000 0000 0015 000a 0009 0010 0000 0000 002d 0000 0000 001a 001f 0000 0000 0022 0023 0029 0001 0000 0013 001e 0000 0000 0004 0014 0000 0000 003c 0030 0000 000a 0034 001e 0024 0000 0000 0000 0000 0000 000c 0018 0000 0001 0000 0000 000d 0000 0000 0000 0043 003f 0000 0000 0067 0006 003b 0000 0006 003c 0000 0013 0000 0000 0001 002a 0000 0020 0001 0000 0039 001b 0000 0074 0000 0000 0027 0000 0000 000d 0000 001c 0022 0000 0000 0000 0000 0007 0000 0036 0057 0000 0000 0028 002a 0000 0000 0042 0000 0000 009f 0020 0000 0000 0000 0000 0006 0009 0060 0035 0000 0000 0000 0000 0000 0041 0000 0000 0018 0019 0000 0003 000c 0000 0000 0000 003a 0005 0007 001b 0000 0000 000a 0000 0015 001b 0005 0000 0000 0004 0001 0000 0000 0012 0003 0018
007c 006d 0008 0000 0029 0036 0000 0000 0000 0029 002c 0000 0000 001b 0063 0000 0008 0000 0000 0000 0000 0035 0000 0017 0038 0000 0006 0000 0011 0005 0000 0000 0000 003b 0088 0000 0000 002a 0000 0031 0000 0000 0022 0017 0000 0000 002e 0000 0000 0000 0011 001b 0000 0000 0010 001a 0022 0000 0000 0000 0000 0000 0039 003a 0000 0000 0000 0000 0000 0026 0028 0000 0000 000c 0000 0000 0007 0000 0000 0000 003f 001e 0009 001b 0008 002b 0015 0000 000b 002a 0000 0000 0000 0000 0035 0000 0000 0026 0000 0000 0042 0036 0000 003a 0023 0000 0004 0000 0000 0000 001b 0000 0000 0026 002f 002b 0000 0000 0000 0026 0000 0000 0009 0022 0000 0000 0008 0005 0018 0000 0000 0000 0011 001f 0000 0022 0018 0000 0000 0000 0017 0027 0000 0000 001a 0009 001e 0008 0000 000a 0015 0000 0000 0000 0000 0021 0026 0015 0031 0000 0000 0000 0008 0000 0007 0058 0001 0000 001e 0000 0000 0014 0001 000b 0018 0000 0000 0006 0000 0002 0000 0000 0000 001d 000d 0000 0000 0055 0044 0002 0000 0000 0026 000b 0000 002e 000a 0000 0000 0022 0037 0014 0000 000a 0007 0025 0035 0002 0000 0002 0000 0000 002d 000b 0000 0000 000d 0000 0002 0000 0000 0000 004e 0017 0000 000f 0020 0000 000b 0000 0053 0035 0000 000d 000c 0000 0000 001a 0000 0014 002f 0000 0000 0000 0000 009f 0000 0000 003a 0000 0000 000c 0009 0018 0000 000f 002d 0000 0000 0000 003a 0034 000c 0026 0000 0000 0000 0000 0000 0033 0000 0000 00aa 0085 0000 001a 0000 0000 0000 0045 0061 0000 0000 0045 0000 0000 000c 003a 0005 0000 0016 0000 0000 003b 0037 0000 0000 0012 0007 0000 0020 000b 0002 000d 0024 0002 0000 0000 001a 0000 0000 0000 0022 0017 0000 0000 0000 0009
0051 0066 0000 0000 0021 000c 0029 0010 0000 0024 002f 0005 0000 001f 0013 0000 000d 0017 0010 0000 0000 0000 0009 0005 004a 002a 0000 0000 0013 0000 0000 001f 0000 000a 00aa 0015 0000 0000 0000 001c 0000 0005 0038 0000 0003 0053 0000 0000 0000 0026 0030 0015 0000 0000 003e 0000 0000 0021 0000 0000 0071 0000 0000 0078 0010 0000 0000 0000 0000 0024 002c 0000 000a 0000 0000 0000 0012 0000 0000 0000 0017 0013 0028 0006 0000 0039 0000 0000 001b 005a 0000 0000 0000 0000 0000 0000 0009 0038 0000 0000 003a 0029 0000 000b 001d 0012 0001 0000 0004 0000 0002 002f 0000 0000 0005 002f 0032 0000 0000 0033 0000 0000 000d 002a 000c 0000 0000 000b 0013 0000 0000 0000 0005 0014 0000 0029 001e 0000 0000 0000 0005 0032 0000 0002 003e 0000 0005 0000 0000 0019 0000 0000 000f 0000 0000 002c 0037 0031 001a 0000 0000 0000 0000 0000 0000 0046 002c 0000 0018 0012 0000 0000 0009 0015 0007 0000 0000 0000 0000 0000 0000 0000 0013 0000 000a 0000 0000 0029 0000 0015 0000 0000 000f 0056 0000 000b 0000 0000 004e 0056 0013 0000 0000 0000 0000 0034 0030 0000 0000 0013 0000 0000 0034 0000 0000 0000 002a 001e 0000 0000 0000 000d 0012 0000 0012 0008 0000 0000 0005 0042 0060 0000 0000 0000 003d 0031 0000 001a 0005 0002 001d 0000 0000 000e 0000 005b 0016 0000 0016 0000 0000 0000 0043 0023 0000 002d 0053 0000 0000 0000 004d 0018 0000 0041 0000 0000 0000 0000 0000 0016 0000 0000 0072 009a 0000 0009 0000 0000 000f 0032 0012 0000 0000 0057 0000 0017 000d 0000 001f 0000 0000 0006 001d 002b 003b 0000 0000 005c 0000 0000 001d 0023 0048 001a 0036 0000 0000 0018 0000 0000 0000 0000 0018 002b 0000 0000 0000 0000
002b 0043 0000 0000 000f 001b 003d 0000 0018 002f 000f 0000 0000 0029 002d 0000 0010 003b 0011 0000 0000 0009 0000 0000 0066 003c 0000 0000 0010 0000 000d 001a 0000 0001 0095 0038 0000 0000 0000 0005 0000 0012 007f 0000 0000 00b3 0000 0000 000b 0000 002b 001f 0000 0010 0048 0000 0000 0021 0000 0000 0092 0000 0000 006b 0000 0000 0000 000a 0000 0000 004c 0014 0000 0000 0000 0037 0000 0000 0000 0004 000e 0001 000d 0007 0006 002f 0000 0000 0019 004a 0009 000c 001e 0000 0000 0022 001c 000d 0000 0000 0020 0008 0005 0003 0024 0011 0000 0000 0003 0000 0007 002f 000c 0000 0000 000b 0028 0014 0007 0021 0000 0000 004c 001f 0000 0000 0001 0001 0000 0000 0012 001b 0000 0000 0000 0044 001d 0000 0000 0000 0007 0033 0000 001a 0014 0000 001c 0012 0000 0006 0000 0000 0000 0000 0002 0033 0024 0012 0001 0000 0018 0000 0000 000a 0000 0021 003b 0000 0016 002c 0000 0000 0001 0015 0006 0009 000b 0000 0000 0004 0000 0000 002d 0000 0000 0000 000d 001a 0000 0025 0043 0000 001e 007c 0000 0000 0000 0000 006a 005d 0000 0000 0001 0000 0000 0024 0030 000c 0000 000c 0000 0000 0032 0000 0000 0009 0026 0003 0000 0000 0000 001f 0000 0000 0049 0000 0000 0000 0051 003f 0007 0006 0000 0000 0051 0053 0000 000c 0024 001b 0000 0000 003a 00a2 0000 0000 0012 0000 0017 000e 0000 0004 007c 0017 0000 0004 0000 002b 0001 0000 0025 0000 0000 0064 0000 0000 0027 0000 0000 0056 0009 0000 0035 0043 0000 0000 0000 0000 0013 0000 0000 0020 0044 0014 0000 0051 004b 0000 0000 0018 0000 0000 0031 0036 000e 0000 0000 0042 0000 0000 0000 0040 0067 0000 001d 0000 0000 0034 0000 0000 0000 0000 000d 0017 0000 0000 0000 0000
0048 0036 0000 0000 0000 000d 0064 0000 000f 0057 0000 0000 0000 0000 004e 0014 0000 0000 000b 0026 001a 0016 0000 0012 004f 0000 0000 0022 0008 0000 0040 0000 0000 004e 0052 0018 0015 0000 0000 0023 0000 0000 008a 0000 0000 0073 0000 0000 0008 0008 0010 0012 0000 000b 0048 0000 0000 0000 0000 0000 0030 003c 0000 0002 0000 0000 001c 0031 0000 0000 0063 001b 0000 0000 0000 001b 0000 0000 0000 0018 002c 0000 0000 002a 0004 0000 0000 0000 0000 0019 0047 0016 0000 0000 0000 006d 000c 0000 0000 0004 000b 000e 0028 0013 0022 0000 0000 0000 0000 0028 0000 001c 002a 0000 0000 0028 0007 001e 0003 0006 0000 0000 005b 0014 0000 0000 0008 0000 0000 0004 000a 0002 0016 0000 0000 0043 001d 0000 0000 0000 0003 0045 0012 000a 0000 0000 0059 001c 0000 0000 0000 0000 0000 0000 0008 002f 0000 0000 0014 0000 000a 0000 0000 0026 0019 0018 0034 0000 000c 0000 0000 0000 0011 000d 000d 0026 001a 0000 0000 0013 0000 0000 001d 000a 0000 0000 001a 002f 0000 0000 0021 0000 002a 004c 0008 001c 0000 0000 0034 003b 0000 0000 0000 000c 0009 000c 001c 000b 0000 0016 0000 0000 0029 0000 0000 002f 001a 0000 0000 0000 0000 001a 0000 0000 0020 0000 0000 0000 003d 0019 0000 0005 0000 0000 0046 0036 0000 0000 0000 0035 0000 0000 0056 00bd 0000 0000 0007 000d 002a 0000 0000 001f 006c 0030 0000 0000 0000 0055 0044 000c 0000 0000 0002 007b 0004 0000 0017 0000 0000 0088 0000 0000 0002 0014 0031 0008 0009 0000 0000 0000 0000 0030 0058 0000 0000 0032 0088 0000 0000 004b 0000 0000 000c 006a 001d 0000 0000 0020 0001 0000 0000 0035 009e 0000 0000 0014 0000 0000 0000 001a 0000 0000 0017 0000 0008 0000 0000 0009
003e 0019 0000 0032 0000 0000 0070 0000 0008 0011 0000 003b 0001 0000 0039 0038 0000 0000 0000 002c 0018 002a 0000 001a 0013 0000 0000 0028 000c 0000 0027 0000 0000 0048 0000 0011 003b 0000 0000 0015 0020 0000 001b 0024 0000 0002 0000 0000 0007 004e 0019 0000 0000 000c 0049 0000 0000 0000 000b 0000 0003 0057 0000 0000 0000 0000 0010 002e 0000 0000 0050 0019 0000 0013 0000 0000 002a 003a 000c 0000 0033 0000 0000 0033 0000 0000 0000 0018 0000 0000 0028 0016 0000 0000 0000 0052 0019 0000 0000 000f 001f 000f 0024 001c 0014 0000 0000 0004 0003 001b 0000 000f 0030 0000 0012 006a 0000 0000 0008 0000 0015 0000 0036 0016 0000 0021 0001 0000 0000 0000 0000 0000 001d 0023 0000 0014 0016 0000 0000 0000 0000 002f 0013 0000 0000 0000 003d 0006 0000 0000 0000 000a 0012 0000 0000 0019 0000 0000 001f 000a 0000 000a 0000 0020 0024 001b 0032 001d 000d 0000 0000 0000 001f 001f 0000 0029 002a 0000 0000 001b 0015 0000 0000 0016 0000 0000 0026 0030 0000 0000 0000 0004 001f 0027 0022 0027 0000 0000 0028 001f 0000 0002 0005 0000 0011 0000 0019 0016 0000 0030 0012 0000 0000 0000 000a 0038 0003 0000 0000 0000 0000 0028 0000 0000 0000 0000 0000 0000 0000 0048 001f 0000 0000 0008 0009 0000 0043 0000 0000 0021 000d 0000 0000 0029 0000 0000 0022 001a 0000 0000 0008 0000 0065 0010 0000 0000 0000 0031 0038 0030 0000 0000 0015 005c 0004 0000 000f 0002 0000 004d 002f 0000 0005 0000 0000 001c 0015 0000 0000 0000 003c 0028 0054 0000 0000 0000 008b 0000 0000 002b 0011 0000 0006 0030 0019 0000 0000 000d 0015 0000 0000 0036 00c3 0000 0000 001c 0014 0000 0000 0000 000e 0022 0000 0000 0024 0000 0000 000d
000b 0000 0010 004b 0006 0000 0022 002f 0000 0000 0000 005c 0023 0000 0041 0029 0000 0000 0000 0018 0017 0029 0000 0013 0000 0000 0000 003e 001a 0000 0024 0048 0000 0000 0000 0034 0027 0000 0000 0000 000d 0040 0000 001f 0014 0000 0000 0000 0003 005e 001e 0009 0000 0000 002a 0000 0000 0000 0000 000b 0003 0032 0000 0000 0027 0000 0000 0026 0000 0000 0034 0000 0000 0032 0000 0000 0026 003d 0018 0000 0012 0000 0000 0025 0000 0000 0000 0000 0003 000e 0000 0000 0020 001b 0000 0009 0016 0000 0000 0000 000f 0018 0000 000d 0031 0000 0000 000b 000f 000d 0005 000c 0014 0000 0000 005a 0005 0000 0031 0000 0002 0010 0026 0011 0000 0031 0004 0000 000e 0000 0000 0000 0000 0033 0008 0000 0001 0000 0000 0000 0015 0000 0000 0022 002a 0012 000d 0000 0000 0000 0000 0000 0000 0000 0000 0013 0000 0000 0010 0000 0000 0015 0008 0022 001a 0017 003c 0022 0020 0020 0003 0000 001a 001f 0000 0027 003c 0000 0000 0016 0005 0000 0000 0012 0022 0000 0024 001b 0005 0004 0000 0000 0020 0034 000c 0000 0000 0000 0014 0025 0000 0024 001a 0000 0000 0000 002e 0010 0000 0019 0014 000e 0000 0000 0028 0033 0000 0000 0000 0000 0000 0000 0000 0000 0000 000e 0000 0000 0035 004a 001e 0000 0000 0012 0016 0000 002c 0000 0000 0010 0023 0054 0000 0000 0000 0000 0028 002f 0000 002c 000e 0000 003f 0000 0000 0045 0063 0000 002a 0058 0000 0000 0006 0019 0000 000b 002a 0000 0000 0043 0043 0000 0074 0000 0000 0013 000c 0000 0000 0000 0086 0049 0050 0000 0000 0000 006f 002f 0000 0015 0046 0000 0015 0005 0000 0000 0000 0000 0014 0000 0000 0028 009f 003b 0000 0000 0008 0005 0000 0000 0013 001f 0000 0017 000c 0001 000f 0000
0006 0000 0023 001f 0021 0000 0000 004e 0000 0000 0050 0029 0000 0000 0039 0011 0000 0000 0022 0031 002d 0000 0000 0042 0000 0000 0009 0059 0000 0000 003c 005a 0005 0000 0000 003a 001e 0000 0007 0000 0000 0066 0000 000a 0026 0000 0000 0009 001a 0029 0015 0029 0000 0000 0000 0000 0000 0000 0000 0000 0000 0056 0000 0000 0033 0000 0000 003b 000e 0000 001e 0000 0000 0033 001c 0000 000c 0010 0000 0000 0012 0010 0004 002c 001f 0000 0000 0000 000b 002a 0000 0000 002d 0044 0000 0000 0012 0000 0000 0015 0000 0023 0000 0000 005f 0000 0000 0000 0000 001a 0031 002b 0000 0000 0000 0025 004d 0020 0023 0000 0000 0037 003c 0000 0000 0020 000a 0000 0012 0000 0000 0000 0003 000b 000b 0019 0000 0020 0000 0000 002b 0000 0000 0000 0000 0018 0000 0000 0000 0000 0000 0000 0000 0000 0035 0023 0000 0000 0000 0000 0011 002f 0000 001b 0028 000c 0026 0000 002a 0065 003c 0037 0036 000a 0000 0044 0059 0024 0019 0000 0000 0000 001b 0007 0000 002b 0039 0000 001c 0025 0000 0000 000c 003d 0000 0000 002f 0007 0000 0019 0000 0022 000a 0000 000b 0010 002e 0014 0000 0000 0015 0003 0000 0000 0039 0025 0000 0005 0000 0000 0005 0000 0000 0000 0000 0025 0000 0000 0068 001e 0000 0000 0000 0015 0038 0000 000e 0000 000f 005a 001f 0015 0000 0000 0000 0000 0021 0030 001d 0020 001e 0000 0000 0000 0000 0048 005c 0000 0053 0090 0025 0000 0000 0000 0000 0041 002b 0000 0000 0063 0018 003d 00ac 0000 0000 0000 0008 0025 0000 0000 0065 0051 004f 0000 0000 0000 0023 0049 0000 0000 0000 0000 002a 002c 0000 0000 0000 0000 0028 0000 0000 0000 0065 0064 0000 0000 0000 001d 0000 0000 0000 0018 002f 0003 0000 0000 0012 0000
002c 002e 000d 0000 0016 0000 0000 0075 0014 0012 005b 0000 0000 0003 0008 002d 0000 0000 004f 002f 0028 0000 0000 0077 0000 0000 000b 0026 0000 0013 0049 001c 0006 0000 0000 002b 003e 0000 0021 0000 0000 0034 0000 0000 0055 0000 0000 001c 0047 0000 0010 0042 0000 0000 000b 0000 0000 0000 0000 0000 000d 006b 0000 0000 0000 0000 0000 0018 002f 0000 0015 000f 0000 0000 000f 0000 0000 0035 0000 0000 0030 0027 0000 001a 001f 0000 0000 0000 0000 003c 0000 0000 001c 0025 0000 0000 0038 0000 0000 003a 000d 0005 0000 0014 0038 0000 000a 0004 0003 0007 0000 0042 0001 0000 0000 0018 0060 0040 0000 0000 001a 0024 0028 0000 0000 000a 0000 0000 0000 0000 0004 000e 0001 0000 0000 0015 0000 0000 0000 0000 0000 0000 0000 0000 0000 0010 0000 0000 0000 0000 0000 0000 000e 0006 004b 0034 0000 0005 0000 0000 0047 0052 0000 0000 001b 0000 0000 0000 0011 003b 0042 0048 0040 0001 0000 0048 0073 0076 000e 0000 0000 0026 0094 0000 0000 0086 0057 0000 0000 0017 0000 0000 0000 001f 0004 0000 0048 003d 0000 0004 0000 0000 0000 0000 000b 0000 000d 004a 0001 0000 000f 0000 0000 000b 0026 000d 0000 0000 0000 0001 0018 0000 0000 0000 0000 000c 0000 001d 0032 0000 0000 0000 0000 001f 001b 0031 0019 0000 0031 0091 0025 0000 0000 0016 0000 0000 001a 0032 0039 0007 0047 0000 0000 0000 0000 005b 0000 0000 008d 0060 0000 0000 0000 0000 004a 004c 000c 0000 0000 003f 0047 0068 0039 0000 0000 0000 0008 0000 0000 0015 003f 0030 0048 0006 0000 0000 0000 0039 0042 0000 0000 0000 0025 003a 0000 0000 0000 0000 000c 0005 0000 0000 0042 003a 0000 0000 0000 0000 000f 0000 0013 001c 001c 0000 0000 0000 0000 0000
003e 004f 0024 0000 0000 0000 0000 006d 0065 002a 003d 0016 0000 0000 0001 005f 0000 0000 0025 0041 0016 0000 000c 0067 0000 0000 000e 0000 0000 001b 0047 0000 0000 0011 0000 0007 006e 0000 0018 0000 0007 0012 0000 0000 0062 0000 0000 0009 006d 0000 0001 005c 0000 0000 0049 0000 0000 0000 0000 0019 0000 0043 0000 0000 0009 0000 0000 0000 0021 0020 0000 0018 003d 0000 0000 0000 0000 002c 0000 0000 004e 0050 0000 0000 0006 0000 0002 0000 0000 0037 0000 0000 002f 0030 0000 0000 002b 0000 0000 0040 0006 0000 0001 0023 0000 0000 001d 0000 0016 0000 0000 003d 0052 0000 0000 001d 0035 003f 000a 0000 0012 000e 0000 0000 001a 0000 0000 0002 0000 0000 002b 000c 0000 0000 0000 0000 0000 0000 0000 0000 0000 0000 0000 0000 0000 0017 0000 0000 0020 002a 0000 0000 0000 0000 002d 0037 0050 000d 0000 0000 001e 0023 0019 0019 0000 0000 0011 0005 0000 0000 0018 002d 0000 0000 0000 0028 0050 0075 0014 0000 0000 001f 00cd 000b 0009 00cd 0065 0000 0000 002e 0000 0000 0027 0000 0010 0001 002d 002a 0000 001c 0015 0000 000a 0004 000b 0000 0000 0056 0033 0000 0000 0010 0000 0000 0007 0012 0000 0000 0000 0000 0033 001a 0000 0000 0000 0006 0000 002e 0003 0000 0000 0000 0000 002f 002f 002f 0000 0000 0039 004d 001a 0000 0000 0001 0000 0000 0020 004b 0054 0000 0050 0000 0000 0000 0000 0047 0025 0006 0062 0011 0000 0000 002a 0000 0018 001d 0017 000c 0000 0014 0033 0036 0000 0000 0000 0000 0013 0000 0000 005b 002d 0002 0040 004a 0000 0000 0000 0026 0026 0000 0000 0015 0000 001b 0003 0017 0000 0000 0000 0000 0000 000b 0040 0039 0000 0000 0043 0005 0000 0009 0049 0014 0000 0000 001d 0000 0000 0005
0037 003e 0041 0000 0000 0050 0000 0046 0090 001e 0030 0028 0000 0000 0007 005b 000b 0000 0000 0073 0028 0000 000b 002d 0000 0006 0013 0000 0012 0044 0006 0000 0000 003c 0000 0000 0084 0017 0006 0000 0022 0028 0000 0000 002c 0000 0000 0011 0079 0000 0000 0046 0000 0000 0027 0000 0000 0000 0000 002f 0000 0020 0000 0000 0001 0000 0035 0000 0009 001f 0000 0011 0053 0000 0000 0017 0000 0000 0000 0000 0052 002e 0000 0000 0006 002e 003c 0000 0000 0042 0000 0000 004d 002d 0000 0000 0000 0000 0027 004e 0000 0000 002d 0000 0000 001e 0000 0000 0045 0018 0000 0037 0065 0000 0000 000d 0037 004f 002a 0000 0000 002a 0000 0000 0000 0000 001f 0000 0000 0000 001a 0000 0000 0000 0000 0000 0000 0000 0000 003f 0000 0000 0004 0000 002c 0025 0000 0000 0000 002e 0012 0000 0000 0000 0000 002f 006f 0000 0000 0000 0000 0000 0039 0039 0000 0000 0050 001a 0010 0000 0000 0028 0000 0000 0011 0017 003a 0058 000a 0000 0000 000c 0094 0020 0034 00a8 0075 0047 0029 003b 0000 0014 0000 0000 0049 004a 0006 0000 0000 0037 000e 0000 000c 0042 001c 0000 0000 003d 0029 0000 0000 001e 0000 0000 0000 002e 000f 0000 0000 0000 001a 0021 0000 0000 0000 0022 0023 0015 0000 0000 0000 0000 0011 0023 003e 000b 0000 0000 002c 001c 001a 0000 0000 0000 0000 000c 0017 0048 0028 0000 0057 0000 0000 0000 0000 0051 0091 000c 0000 0000 0000 0005 002b 0000 0000 002e 0021 0028 000f 0012 0000 0000 0020 0000 0000 0000 0008 0000 0000 0017 0025 0000 0048 0055 0000 0000 0000 001f 0012 0000 0003 003f 000e 0000 0000 0036 0000 0000 0000 0000 0000 0000 0016 0037 0000 0000 0072 001e 0000 0009 0039 0001 0004 0012 0042 0000 0000 0013
0035 0037 002a 0000 0000 003f 0002 0042 0070 0000 0003 0021 0000 0000 0007 0062 0036 0000 0000 0057 001f 0000 0000 0018 0000 0000 0000 0009 001f 0000 0000 0000 003b 001e 0000 0000 0044 0008 0009 0000 001a 0029 0000 0000 0012 0000 0000 002c 0057 0000 0000 002a 0000 0000 0000 0016 001a 0000 0000 0016 0000 001a 0000 0000 0000 0004 006c 0000 0000 004a 0013 0010 002e 0000 0000 003b 0000 0000 0009 0000 000f 0000 0000 0003 0003 0044 004b 0000 0000 005e 0000 0000 0050 0000 0000 0034 0000 0000 002a 003a 0011 001e 000c 0000 0000 0010 0000 0000 0070 006a 0000 001e 0013 0000 0000 0000 003c 0058 0019 0000 0002 001e 0011 0000 0000 0000 0013 0000 0000 0001 0000 0000 0000 0000 0000 0000 0000 0000 0011 0072 002b 0008 001d 001a 0032 000d 0000 0000 0000 000b 0024 0000 0000 0000 0000 0025 004c 0000 0000 0000 0000 0000 0021 0023 0000 001f 0035 000e 0027 0000 0000 0030 000c 0000 0006 002c 0038 0019 0000 0000 0000 000c 0035 000a 0001 0022 005a 0062 0066 0058 0084 0096 0000 0000 0086 0065 0000 0000 0027 001a 0000 0000 0004 0050 0018 0000 0033 0030 0000 0000 0000 0019 0003 0000 0000 0034 002f 0000 0000 0000 0000 0000 0003 0000 0000 0020 0053 0003 0000 0001 0010 0018 0006 0005 002c 0001 0000 0000 0000 0017 0036 0020 0000 0000 0000 0032 0007 0030 0000 0000 0046 0015 0011 0000 0000 003a 0040 0026 0000 0000 002a 001f 0000 0000 0003 0058 000e 0000 0018 0000 0000 001e 004a 0000 0000 0007 0000 000a 0000 0000 0028 0014 0036 003f 0000 0000 000c 001e 0000 0000 0000 0027 0049 0000 0000 0025 0014 0000 0000 0018 000c 0000 0000 0006 0000 0004 0072 0000 0000 0017 0007 0000 0006 0054 002d 0000 0000 0000
0066 0031 0000 0038 0000 0000 004e 002f 0032 0000 0000 0017 001d 0000 0004 007c 0046 0000 0000 001a 0000 0000 0000 0021 0005 0000 0000 0067 000c 0000 0000 0027 0090 0007 0000 0036 0004 0000 000c 0000 0005 0007 0000 0000 0013 0000 0000 0028 001c 0006 0039 0027 0000 0000 000a 0018 001f 0000 0000 0000 0000 0024 0011 0000 0000 000e 0043 0000 0000 0050 0044 000e 0004 0000 0000 0014 0024 0000 0022 0000 0000 0009 0000 0006 0000 0013 003e 0000 0000 006b 0000 0000 002a 0000 0000 0035 0000 0000 0023 000f 000c 0023 0003 0000 0000 0000 0000 0000 003f 005a 0016 0002 0002 0000 0000 0000 0025 0040 000e 0000 0000 0000 001e 0000 0000 0000 0000 0000 0000 0000 0000 0000 0000 0000 0000 0000 0000 0019 0048 0042 004b 0069 0028 0000 001d 0000 0000 0000 0000 0005 0030 0000 0000 0000 0000 0016 003b 0000 0000 0000 000d 0005 000d 0015 0017 000b 0000 0009 000f 0007 0000 0012 0043 0000 001f 0053 001a 0000 0000 0000 0000 0000 0000 000f 0000 0000 0037 0004 0022 005f 00c0 00e8 003b 0035 004b 0051 003b 0000 001d 0007 0000 0000 0000 0015 002a 0000 0039 000c 0000 0000 0000 001c 0000 0000 0000 0047 0014 0000 0000 0000 0000 0000 0028 0006 0003 0000 0046 0000 0000 001a 0024 000f 0000 0000 0040 0000 0000 0016 0005 0000 002d 0035 0000 0000 0000 002e 001f 003d 0000 0000 0017 0020 0000 0000 0023 0000 0000 0047 0000 0002 0039 0000 0000 0000 0002 003d 0025 0000 0000 0000 0000 0042 0012 0000 0000 0012 0000 0000 0000 0008 0014 0047 0007 0000 0000 0000 003d 000d 0000 0021 0000 0000 0025 0008 0000 0000 002a 0000 0000 003e 001b 0000 000d 0000 0000 0034 0018 0000 0000 0035 001a 0000 0000 0070 0006 0000 0000 0000
007a 0044 0000 0026 0000 000b 006e 0000 0000 0031 0000 0016 0048 0000 0000 0038 0013 0000 0000 0024 0000 0000 0002 0019 0000 0000 0000 004d 0000 0005 0000 0000 0079 000a 0000 005c 0000 0000 0019 0000 000e 0015 0010 0000 0000 0000 0000 0016 0000 0015 004d 0018 0000 0000 0000 0000 0007 0000 000f 004c 0003 0002 0022 0000 0000 0010 000d 0000 0000 002d 0026 0014 0000 0000 0000 0000 0033 001d 001b 0000 0000 001b 0000 000d 0000 0000 0000 0000 0005 0049 001e 0000 0000 0000 0000 000d 0000 0000 0022 0000 0000 0012 0038 0000 0000 0000 0000 0000 000b 000b 001c 0002 0032 0006 0000 0000 0017 0015 0015 0000 0000 0009 0000 0000 0000 0000 0000 0000 0000 0000 0000 0000 0000 0001 0000 000c 0000 0036 0053 000e 004a 008a 0029 0000 0000 0000 0000 0000 0000 0000 0036 0000 0000 0000 0000 0008 0037 0000 0000 0000 0011 0000 0008 0012 0015 0003 0000 0017 0000 0000 0000 0000 0039 0000 002c 004c 0020 002f 0011 0016 0016 0000 0000 0030 0000 0000 002c 0000 0000 0024 0047 009f 00c5 0078 0060 008d 0064 000c 0011 0012 0020 0001 0000 000b 0023 0000 0024 0000 0000 0017 000e 0006 0000 0000 0000 0063 0000 0000 0000 0000 000a 0005 002f 0029 0000 0000 0017 0002 0000 0022 003e 0000 0000 0000 002b 0000 0009 0038 002f 0000 0000 001a 0011 0000 0000 001e 0015 0031 0000 0000 0000 0000 0000 000d 0045 0003 0000 0026 0002 0000 0013 0000 0000 0000 0000 002f 003a 0013 0000 0000 0000 001e 0000 0000 0019 0000 0000 0000 000c 0000 0014 0059 0000 0000 000b 0021 000d 0000 0016 003f 0000 0000 0000 002d 0000 0000 0024 0000 0000 001e 000b 0000 0011 0000 000f 002b 0000 0017 0000 0024 0027 0000 000f 0029 0000 0000 0000 0000
0031 004a 0041 0000 000f 002a 0011 0000 0000 0072 0000 0027 0050 0000 000c 0000 0000 002a 000a 0061 000e 0000 0000 000d 0000 0014 0032 0019 0000 0027 0000 0000 005d 0000 0000 0063 0000 0000 0019 0000 0003 0039 0014 0000 0000 0013 0006 0000 0013 0013 003f 0013 0000 0000 0000 0000 0000 0000 0000 007e 002b 0000 002e 000c 0000 0005 0014 0018 0010 0003 0000 001a 0016 0000 0000 0010 0028 0024 0003 0000 0034 0004 0000 0018 0000 0000 0000 0000 0039 004a 0000 0000 0000 0000 0000 000b 001c 0012 0016 0000 0000 0000 003e 0031 0002 0000 0000 0001 0022 0000 0014 0008 0011 0037 0000 0000 0000 0000 001d 0000 0000 0019 0000 0000 0000 0000 0000 0000 0000 0000 0000 000c 002f 000b 0002 0023 000a 0023 0054 000e 0051 0082 0012 0000 0000 0000 0000 0000 0000 0000 002d 0000 0000 0000 0000 0000 0039 000f 0000 0004 0000 0000 0000 0013 0011 000c 0000 0029 0000 0000 0000 0000 000f 0018 0017 0005 0020 0033 0006 0014 0049 0000 0000 0037 0000 0000 0000 001b 0000 0000 0000 002c 0077 0044 00a7 00dc 00bb 006c 001a 001a 001e 0018 0000 0011 0000 0000 0039 0000 0000 001a 001a 0000 0000 0000 0003 0033 0000 0000 0000 0000 0013 0000 0026 005f 0000 0000 0000 0015 0000 0000 0060 001e 0000 0000 0000 0019 002c 0000 001e 0038 0000 0000 001f 0000 0000 0033 002c 0013 0000 0000 0000 0002 0000 0032 001f 002e 0000 0000 0000 0006 0000 0000 0000 0000 0000 0008 001f 0031 000a 0004 0000 0000 0000 0000 0032 0000 0000 0001 0005 0000 0016 0038 001a 0000 0000 000e 0000 0000 0048 0027 0000 0000 0015 0006 0000 0000 0025 000e 0000 0000 0019 0039 0006 0000 0000 000c 0000 0023 0000 0000 0000 0000 0055 0000 0000 0005 0000 0000
0014 0033 004e 0000 003a 0017 0000 0000 000b 0069 0017 0000 0000 0000 0001 0000 0014 0049 000a 0064 0019 0000 0000 0000 004c 0034 0051 0009 0000 0000 0000 0000 003a 0003 000b 0041 0000 0000 0000 0000 0002 003d 0000 0000 0000 0042 0000 0000 003a 001a 001c 0021 0000 0000 0029 0000 0000 001e 003a 0026 0000 0000 001b 0000 0000 0000 000b 002e 000c 0000 0000 000d 000c 0000 0018 0021 0024 0025 0000 0000 0021 0000 0000 000f 0000 0000 0000 0000 003a 0078 0000 0000 0000 0013 0000 0034 0032 0000 000e 0015 0000 0000 0019 0029 0000 000a 0000 0001 0041 0007 0029 0000 0000 0038 0010 0004 0000 0000 0026 0000 0000 0003 0000 0000 0000 0000 0000 0000 0000 0000 0008 002b 001f 0000 0000 0019 0002 0020 004a 0017 0069 0085 0000 0000 0000 0000 0000 0000 0000 0000 0015 0000 0000 0000 0000 0000 002f 0007 0003 0015 0000 0000 0000 0014 0038 0016 0000 0027 0000 0000 0000 0000 0000 0038 000a 0000 0000 000a 0007 0000 002b 0035 000f 0028 000b 0000 0000 0020 0019 0000 0000 0000 0000 0000 005c 00ab 011d 00b6 0050 0065 0035 0026 0000 0000 0000 0002 0055 0013 0000 0000 000c 0025 0000 0002 0000 0000 0000 0000 0000 0000 0000 0000 0024 0066 0000 0000 0000 0018 0000 0000 002b 0024 0000 0000 0007 005f 0004 0000 000e 0038 0000 0004 0009 0000 0000 0035 005a 001c 0000 0000 0000 0055 0000 0029 0000 0017 0037 0000 0000 0019 0001 0000 0013 0000 0000 0000 0012 004e 000b 001c 0023 0000 0000 0000 000f 000b 0000 0000 0029 0000 0016 0035 001f 0000 0000 000a 0000 0007 003b 0000 0000 0003 001d 0000 0000 0000 0013 001c 0000 0000 002e 0067 0000 0000 0000 0000 0000 0010 001a 0000 0000 0000 004f 001a 0000 0000 0000 0000
002e 0038 0031 0025 0054 0000 0000 0000 0000 0032 0038 0000 0000 0002 0000 002e 005d 000c 0000 0038 0045 0000 0000 0000 0066 0022 0033 0000 0000 0000 0000 0000 000a 0009 003b 0035 0000 0004 0007 0000 0003 004b 0000 0000 0000 001f 0000 0000 0075 0016 0000 0000 000a 002b 0006 0000 0000 003e 0076 0000 0000 0000 0000 0002 0003 0000 0000 000a 0013 0015 0000 0000 0000 0000 0015 0000 002f 0020 0000 0000 0000 0000 0000 0000 0000 0000 000d 0000 0025 0067 0000 0000 0000 002d 0022 0051 0020 0000 0000 0028 0000 0000 0013 0000 0000 0025 0027 000d 003d 0005 000f 0000 0000 000c 0030 0008 0000 0000 0028 0000 0000 0000 0000 0000 0000 0000 0000 0009 0035 0000 0011 0054 0018 0000 0000 0008 0000 0029 0055 003f 0063 006b 0000 0000 0000 0000 0000 0000 000d 0028 0000 0000 0000 0000 0027 0031 0000 0000 000f 0028 0000 0000 0000 0000 004b 001a 0000 0020 0018 0000 0000 0000 0000 003a 0000 0000 0000 0000 0014 0000 0006 001c 0001 001d 0023 001e 000e 0003 0000 0000 0000 0000 0000 0000 0004 004c 00a7 0081 00aa 0102 00b0 0018 0000 0024 000c 0000 0038 001d 0000 0000 0022 0054 0000 0000 0000 0014 0000 0000 0010 0042 0000 0000 001a 0000 0000 0000 0000 0008 001f 0021 000c 0015 0000 0000 0000 002c 0002 0010 0008 0008 0010 000e 0000 0000 0028 0000 002c 0032 0000 0000 0031 0059 0011 001d 0000 0022 002e 0000 0000 0003 0000 0006 0015 0000 0000 0000 0025 0045 0002 0018 0007 0000 0000 003c 0000 0000 0000 0000 0036 0000 001d 0038 0000 0000 0001 0012 0000 002a 0004 0000 0000 0011 0005 0000 0000 0000 0031 0000 0004 0021 0024 0033 0000 0000 0000 0000 0000 001f 003e 0000 0000 0000 0032 0014 0000 0000 0000 0000
001d 0043 0053 0037 0048 0000 0000 0000 0000 0000 0051 0000 000b 0045 0000 002c 0082 0000 0000 0034 0053 0000 0000 0000 000b 0019 001b 0000 0000 0008 0012 0000 0000 0021 0047 0021 0000 000a 0005 0000 0008 0042 000c 0000 0000 0000 0000 0030 0097 0007 0000 0000 0017 006e 0000 0000 0000 0015 0018 0000 003f 0000 0000 0000 0035 0017 0005 0000 0020 0036 0000 0000 0000 0000 0000 0000 0042 0022 0000 0000 0000 0000 0000 000d 001c 000f 0000 0000 001d 0033 0000 0000 0000 002a 0043 0038 001e 0000 0000 0000 000b 0037 0018 0000 0000 0006 002b 0000 0036 0000 0000 0000 0000 000d 0041 0000 0000 001c 0023 0000 0000 0000 0000 0000 0000 0000 0000 0019 0050 0000 0000 004e 002c 0000 0000 0000 0000 0032 0060 0089 0032 000e 000f 0000 0000 0000 0000 0000 0002 0034 0000 0000 0000 0000 0033 004c 0000 0000 0016 0027 0000 0000 0000 0000 0042 0009 0000 0018 0015 0000 0000 0000 0009 0019 0000 0000 0006 000a 0014 0000 0000 0000 0000 0001 0019 0021 001b 0012 0001 000a 0000 0000 0000 0000 0000 0016 0023 001f 006e 0139 013b 0054 0051 0053 0000 0000 0000 0000 000c 0000 002e 0050 0000 0000 0021 0011 0000 0000 0000 0020 0009 0017 0017 0000 0000 0000 0000 0000 0002 0031 001c 0017 0000 0000 0000 0000 0038 0030 0000 0000 0036 000b 0000 001a 0014 0000 000e 0043 0000 0000 006c 0000 000c 002a 000c 0033 0000 0000 0000 0000 0000 002f 0000 0012 0017 0000 0000 0040 0011 0000 0000 0000 0000 0055 0016 0000 0000 0000 0010 0037 0003 0012 0000 0000 0013 0000 0007 003f 0000 0000 0021 0000 0000 0000 0000 0000 0041 0000 000f 0061 0027 0000 0000 0000 0000 0000 0000 0027 0002 0000 0000 0009 0026 0000 0000 0004 0000 0000
0009 0047 0066 0026 005b 0000 0000 002b 0000 0013 0033 0000 003d 000e 0000 0009 007e 0003 0000 004c 0000 0000 0018 0008 0000 0022 0017 0002 0000 0000 0010 0000 0000 0027 0034 0011 0000 0000 0000 0000 0038 001e 0000 0000 0000 0000 0011 0010 0061 0004 0008 0000 0000 0045 000a 0000 0000 0000 0000 000b 0029 0000 0000 0000 002c 0036 0000 0000 000c 001e 0000 0000 001e 0000 0000 0001 0047 0024 0000 0000 0000 0000 0000 0002 0022 0011 0000 0000 002d 0025 0000 002d 0014 001e 001b 000d 0010 0005 0000 0000 0012 0040 001e 0000 0000 0000 0028 0000 003c 0021 0000 0014 002a 0014 0019 0000 0000 0000 0000 0000 0000 0000 0000 0000 0047 002c 0000 0009 006e 0000 0000 0027 0031 0002 0000 0000 0000 0026 0068 00a2 0020 0000 0000 0000 0000 0000 0000 0000 0000 0023 0000 0000 0000 0000 0013 0033 0000 0000 0013 0019 0000 001a 0000 0007 0038 0000 0000 0014 0000 0000 0009 0007 0000 0000 0000 0000 0004 0010 0000 000e 0000 0000 0002 0000 000c 0015 0000 0027 0032 0000 0000 0000 0000 000b 0000 0000 0014 0001 0003 00b1 0129 00bb 00e0 007e 0000 002b 0000 0000 004d 000e 0006 003d 0000 0000 003f 0000 0000 0000 0000 0000 0011 003a 0025 0000 0000 0000 0000 0000 001f 004c 0002 0000 0000 0000 0001 0000 0018 001d 0000 0016 002c 0000 0020 0000 0000 0009 0023 0000 0000 0026 0033 0000 0001 0030 002f 0036 0000 0000 0000 0000 0007 001d 000d 0040 001e 0000 0000 002d 0038 0000 000c 0000 0000 001f 001b 000a 0006 0000 0000 004e 0018 0000 0000 0000 0011 0000 001b 0025 0000 0017 001d 0000 0000 0017 0009 0000 0000 0006 0010 0051 002e 0000 0000 0000 0000 0000 0031 0000 0000 0000 002a 001c 0005 0000 0000 0035 0000 0000
002e 0050 002f 0017 0081 0000 0000 0044 0072 002a 0000 0002 0061 0000 0000 0009 0037 0028 0000 0042 0000 0000 0012 0000 0034 0032 0007 0000 0000 0000 0013 002d 0000 000c 0006 000c 0004 0000 0000 000d 0057 0000 0000 003f 0000 0000 0021 0000 0031 0000 0019 0000 0000 0008 0036 0031 0000 0000 000b 0000 0000 001f 0037 0000 0000 0021 001f 0000 0000 0000 0010 0003 002c 0000 0000 0003 0023 0008 001f 0000 0000 0007 0000 0000 0015 0016 0000 0000 003a 0058 0003 0011 0000 001e 0011 0000 0004 0040 0000 0000 0000 0006 0010 0007 0000 0000 0031 0000 003f 0046 0000 0000 0027 000f 0000 0000 0000 0000 0000 0000 0000 0000 0000 0008 0036 001d 0000 0000 005b 001f 0000 0025 003e 0009 0000 0000 0000 001f 006a 00a5 0028 0000 0000 0000 0000 0000 0000 0000 0000 0011 0000 0000 0000 0000 0000 0017 0000 0000 0000 0000 000a 0025 0000 0023 0027 0000 0000 001a 0000 0000 0019 000f 0000 0000 0009 0000 0000 0004 0000 0021 0000 0000 000e 0000 0008 000a 0000 001a 0032 0000 0000 0000 000e 0028 0000 0000 0007 0000 0000 0024 007c 008c 0119 0106 0051 005e 001f 0000 0052 0002 0006 003b 0000 0000 0028 0000 0000 0016 0000 0000 0007 0021 000b 0000 0000 0000 0000 0000 0061 0043 0000 000f 0000 0000 0031 0000 0000 000c 0000 0026 0011 0000 0008 0000 0000 006c 004c 0000 0000 0043 0000 0000 000c 0024 0037 003e 0019 0000 0000 0000 0000 0010 002c 005f 0000 0000 0000 001c 0033 0000 0000 0000 0000 0000 0000 0029 0023 0000 0000 0039 005e 0000 0000 0000 0018 0000 0000 0000 0015 0013 0000 0000 0000 001e 001c 0000 0000 0012 0000 0042 003a 0000 0000 0010 0000 0000 000d 0000 0028 0000 0000 001c 0000 0000 0000 001d 0007 0000
005d 002a 0027 0016 003c 001d 0000 003f 00a5 0000 0000 0042 0059 0000 0016 0010 0009 001b 0000 001d 0000 0000 0000 0000 0053 0037 001d 0000 0000 001c 0014 0028 0000 0000 0000 0000 0031 0000 0000 0028 0051 0000 0000 0062 0000 0000 0000 0000 003e 000a 0000 0000 0000 0000 003d 007d 0000 0000 000c 0000 0000 003b 0000 001a 001e 0000 002e 0011 0000 0000 0022 001c 0022 0008 0000 0000 0000 0000 0038 0006 0000 0000 0003 0000 0000 0006 0000 0000 002c 006c 0010 0011 0000 0000 0032 0000 0000 0077 0017 0000 0000 0000 0000 0014 0000 0013 002b 0000 001a 0032 0023 0000 0000 0029 0000 0000 0000 0000 0000 0000 0000 0000 0000 002c 0022 000f 0000 0000 0038 003d 0000 0047 0054 0020 0023 0014 0025 002a 003d 007b 0043 0000 0000 0000 0000 0000 0000 0000 0000 0000 000b 0000 0000 0000 000b 0000 0000 0000 0000 0000 0003 000e 0000 002d 001f 0000 0022 001b 0000 0000 0000 0000 0000 0000 0000 0000 0000 0000 0000 001d 000b 0000 0000 0000 0014 0009 0000 000b 000a 0005 000b 0000 0014 004e 0000 0000 0000 0000 0000 0000 0007 001d 00af 0135 0102 009f 0060 0000 0025 0040 0029 002a 0000 0000 0000 0000 0003 0003 0000 0000 0005 0000 0000 0005 0000 0000 0000 001f 003c 0024 0000 003d 001f 0000 0000 0001 001a 0004 0000 0016 0006 0016 0000 0000 000a 002d 0042 0000 0000 002a 0000 0000 0000 0015 000b 002f 002e 0000 0000 0000 0003 002f 0028 0038 0000 0000 0023 001b 0007 000a 0000 0000 0000 0000 0000 001e 003e 0018 0000 0006 002d 0000 0000 0000 000b 0000 0000 0000 0042 0000 0000 001b 000a 0018 0017 0000 0000 0002 0006 0034 0056 0000 0000 0047 0000 0000 0000 0000 0045 0000 0000 0005 0000 000b 0011 0000 0006 0000
0026 0000 0053 001a 0000 004d 001f 0034 0044 0003 0000 002a 0047 0000 0000 002c 002a 001e 0001 0006 0000 0000 0000 0000 001d 0032 003f 0000 001a 002c 0000 0006 0000 0000 0000 0002 0014 0000 000a 0028 0034 0020 0000 0044 003d 0000 0000 0000 0034 0038 0000 0000 0000 000e 0036 0043 0000 0000 0009 000d 0000 003a 0000 0000 0033 000a 0000 0004 0026 0000 0032 0018 0005 000a 0013 0000 0000 0000 0032 0000 0000 0000 001b 0000 0000 0013 0017 0000 0024 005f 0000 002c 0009 0000 0029 0000 0000 0053 0022 0008 0000 0000 0000 000f 0005 0004 001e 0027 0000 0018 002a 0000 0000 0021 0000 0000 0000 0000 0000 0000 0000 0006 0000 0045 0035 0000 0014 0027 0038 0054 002f 0055 0038 001b 004d 002c 003c 0035 0000 001b 0050 0000 0000 0000 0000 0000 0000 0000 0000 0000 001d 0000 0000 0000 000f 0000 0000 0000 0000 0000 0000 0000 0000 0000 001b 0000 0037 000a 0000 0000 0000 0000 000c 0000 0000 0000 0000 0000 0000 0006 0021 0000 0000 0000 001e 0010 0000 0000 0002 0001 0020 0000 0011 004f 0000 0000 0004 0000 0000 0000 0000 0000 002c 00b0 0113 011a 00eb 0027 002a 0079 0000 0000 0000 0000 0000 0000 0015 0000 0000 000c 000f 000a 0000 0039 003b 0000 000d 0038 0000 0021 000d 001f 001f 0000 0000 000b 003f 0000 0000 0000 000f 0047 0022 0000 0005 0000 0000 0015 0000 0011 0011 000c 0000 000a 0000 0018 0024 0000 000b 0000 0000 001c 003d 0028 0000 0013 0046 0001 0000 0014 0014 0000 0000 0000 000b 0020 002c 001d 0000 0003 0000 0000 000c 0000 0000 0000 0005 0034 0024 0000 0000 0026 0000 0000 0024 0000 0000 001c 0039 001f 002c 0000 0000 0051 0000 0000 0003 0024 0000 0000 0015 0029 0000 0000 0000 0007 0000 0000
0001 002e 0041 0000 004a 003e 0035 001d 001a 0021 0012 0005 0000 0000 0000 0054 0055 0014 0000 0000 0000 0000 0016 0000 0007 002d 0014 0000 0019 0062 0008 0000 0000 0000 0000 0008 0000 0000 0012 0000 0023 0070 0000 0035 004a 0000 0000 0000 0017 0061 0000 0000 0007 0019 0008 0000 0000 0000 0000 0011 0010 0031 000e 0000 0000 004c 0000 0000 004d 001b 0035 0000 0000 0005 0001 0000 000c 0000 000d 0003 0000 0000 002a 0002 0000 001d 0005 0000 000e 0077 0000 0027 0011 0000 0030 0049 0000 0000 0017 0030 0000 0000 0000 000d 0032 0000 0013 003a 0000 0000 0014 0000 0000 0000 0000 0000 0000 0000 0000 0000 000a 0017 001b 0069 0066 000a 003f 0075 0026 0067 006f 0041 0017 0000 002f 0005 0038 002e 0000 000d 003b 0005 0000 0000 0000 0000 0011 0000 0000 0000 0000 0001 0000 0000 0012 0000 0000 0000 0000 0000 0000 0000 0000 0000 0000 0000 0040 0000 0000 0001 0000 000a 0003 0000 000b 0000 0000 0000 0000 0000 000c 0000 0001 0002 0017 0003 0000 0001 0005 0000 002a 0004 0000 0029 0000 0000 000c 000d 0000 0000 0000 0000 0000 0020 008c 013b 0171 008f 006d 0076 0000 0000 0017 0000 0000 0000 000b 0000 0000 0000 0013 0048 0000 002b 0066 0000 0000 0000 0001 001f 0000 0012 0003 0000 0000 0012 0026 0000 0000 0000 0000 0066 0041 0000 0000 001b 0000 0000 0000 0021 0015 0015 0032 0000 0000 0029 001a 0000 000f 0000 0000 0003 0057 0035 0000 0008 003d 0000 0000 0000 0000 0000 0000 000d 0045 0016 0002 0000 0000 0014 0000 0000 0008 0000 0000 0000 002f 005b 0000 0000 000b 0000 0005 0010 0000 0000 0000 001e 0029 0028 0004 0000 0000 0020 0037 0000 001b 0042 0000 0000 0000 0035 0067 0000 0000 0017 0000 0000
004e 0048 0000 0000 0070 0035 001d 0008 0028 0000 004a 0024 0000 0004 0007 003a 0029 0010 0000 0000 0000 0010 0025 0009 0000 0000 0004 0000 000b 0093 0022 0024 0000 0000 0000 0000 0010 0000 0017 0000 0019 0067 000a 0068 001f 0000 0000 0007 001b 0041 0000 0008 0030 0006 0000 0000 000e 0000 0000 0007 0010 002e 0048 0000 0000 002e 0000 0000 0030 0000 000e 0000 0004 0011 0000 0000 001a 0000 0007 001d 0000 0018 0040 000f 0000 0000 0000 0000 0000 0075 0021 0000 0000 0000 0065 0047 0000 0000 0000 0041 001a 0000 0000 0038 0031 0000 0020 0034 0000 0000 0006 0011 0000 0000 0000 0000 0000 0000 0000 0000 002b 0070 006c 0080 007f 003a 002e 0058 002c 0072 0055 0019 0046 000b 0000 0000 0000 001f 0000 0029 0046 0000 0000 0000 0000 0002 0044 0000 0000 0000 0000 0000 0000 0000 0025 0004 0000 0000 0000 0000 0000 0000 0000 0000 0000 0000 0029 0000 0000 0000 0000 0028 0000 0000 0005 0000 0000 000a 0000 0000 0000 0000 0005 0008 000d 0000 0000 0013 000b 0000 0025 001a 0000 0019 0002 0000 0000 000d 0019 0000 0000 000d 0000 0000 002b 00c2 0152 00ee 00dc 008d 0000 000b 002a 0000 001e 0000 0000 001b 0000 0000 0015 006e 0000 0000 0019 0000 0000 0000 0059 001b 0000 0039 0048 0000 0000 0019 0000 0000 001d 0000 0009 0054 0025 0000 0000 000b 001f 0000 0000 002b 0007 0029 005a 0000 0000 003a 0024 0000 0000 0001 0000 000b 0029 0021 0000 002a 001c 0000 0000 0000 0000 0000 0000 0016 0000 001b 0005 0000 0011 0000 0029 0000 0000 0000 0000 0000 0015 005c 0000 0000 003d 0000 0025 0023 0000 0000 000c 0000 0000 003a 001a 0000 0000 0000 0039 0000 0018 0030 0000 0000 0000 001e 0098 0000 0000 0000 0000 0000
0076 0015 0000 0000 0062 003b 0057 0000 001f 000a 003b 0043 0000 0029 000d 0000 0000 0015 0000 0000 0000 0014 0000 002e 0000 0000 003c 0000 0019 0066 0002 0032 0000 0000 0000 0000 0000 0000 0019 0000 0020 0024 0000 0068 0031 0000 0000 003d 0020 000b 0000 0000 004a 001b 0000 0000 002c 0000 0000 0000 0000 001d 0050 0038 0000 0000 0000 000d 0000 0004 0011 0000 002f 0020 0000 0000 001c 0000 000a 000f 0000 000f 0017 0000 0000 0000 0000 0000 0000 0043 0018 0000 0020 0041 005e 0040 0000 0000 0000 0026 0030 0000 0000 004e 0009 0000 001d 003b 0000 0000 0000 0000 0000 0000 0000 0000 0000 0000 0000 0011 0073 00cf 0089 005a 0070 0056 0000 0000 00ad 0090 000e 0000 0076 0050 0000 0000 0000 0030 002c 0000 0039 0000 0000 0034 0000 0027 0045 0000 0000 0000 0000 0000 0000 0000 0015 000f 0000 0014 0000 0000 0000 0000 0000 0000 0000 0000 0011 0000 0000 0000 0000 0023 0000 0000 0000 0000 0000 000a 000a 0004 0000 0000 0000 000c 000c 0000 0000 0016 000c 0000 0005 0013 0000 001b 0002 0000 0000 0009 0012 0000 0000 0005 0004 0000 000f 0035 009c 00f0 0145 00da 003e 0040 0000 0000 001a 0000 0000 001c 0000 0005 0012 004d 0014 0004 0000 0000 0000 0000 007d 0042 0000 0036 004b 0000 0000 0002 0000 0000 004c 002c 0000 0012 0017 002d 0000 0000 001a 0000 0000 0024 0000 0005 0033 0006 0000 000c 001f 0000 0000 0000 001b 0026 0000 0000 001b 0061 0009 0000 0000 0005 001e 0017 000c 0000 0000 0009 003a 000a 0000 000a 0037 0000 0000 0015 001d 0000 0000 001e 0000 0000 0033 0000 0018 002a 0000 0000 0000 0000 0000 002d 001b 000a 0000 0000 0000 002f 005c 0013 0000 0000 0000 001d 0096 0000 0000 0000 0000 0000
0055 000e 0000 0022 004b 0039 0042 0000 001a 005f 0017 0035 0027 0021 0000 0000 0003 0000 0002 0000 0000 000f 0000 0006 0000 0000 0059 0000 0024 004a 0000 001d 0000 0000 0011 0004 0000 0000 001a 0000 0033 000e 0000 0002 0071 0000 0000 001c 0023 0000 0000 0000 0026 002a 0000 0000 0018 0000 000a 0010 0008 0000 0043 004a 0000 0000 0000 0000 0000 004f 0025 0000 0008 0027 0001 0000 000c 0000 0000 000f 0017 0012 0000 0000 000c 0013 0000 0000 0000 0031 0000 0000 002f 0056 0030 003d 0000 0000 0000 0001 0038 0009 0000 002b 0000 0000 0006 0033 0000 0000 0000 0000 0000 0000 0000 0000 0000 0000 003d 007b 0083 0082 0054 0056 0067 0051 0000 0000 00ce 00b8 002f 0000 003a 0061 0009 0000 0000 0014 0000 0000 003c 003f 0000 0000 0074 0053 001a 0000 0000 0000 0004 0000 0000 0000 0000 001e 0000 0000 0000 0000 0000 0000 0000 0000 0000 0000 0001 0000 0000 0000 0000 0000 0000 0000 0000 0000 0000 0000 002c 002a 0000 0000 0000 0000 0000 0000 0010 0004 0000 000a 0000 000a 0017 0012 000e 0000 0000 0000 0000 0001 0024 0000 0000 0005 0004 0000 0011 0083 0127 0128 00e8 0078 0000 0000 0020 0014 0007 0021 0016 0000 0000 0000 0011 0036 0000 0000 0000 0000 0069 0064 0002 0002 0000 0000 0000 0000 0000 0006 0051 0000 0000 0027 0013 0033 0013 0000 0000 0000 0000 0020 0009 0000 0000 0048 0000 0000 000d 0000 0000 0000 0010 0027 0000 0000 003c 004f 0000 0000 0000 0021 002c 004f 0000 0000 0000 0000 0041 0000 0000 0034 0014 0000 0033 0038 0005 0028 001c 0000 0000 0000 003c 0000 0015 001c 0000 0000 0000 0000 000a 0014 0000 002c 001e 0000 0000 002c 0075 0000 0000 0000 0000 0018 004e 0000 0003 0000 0000 0000
0036 0053 002b 0039 0000 0031 0021 0000 0019 008d 0000 0026 0064 0000 0007 0039 0000 0000 0017 0000 0000 0000 0000 001d 0000 0003 0043 0000 0000 0069 0000 0000 0000 0000 0031 001a 0000 0000 0000 000b 001b 000d 0000 0000 0081 0004 0000 0000 0034 0000 000b 000b 0000 0000 0000 0000 0026 0025 0000 0019 0012 0000 0030 0026 0000 0000 0000 0000 0000 006a 0009 0000 0000 0034 003b 0000 0000 0000 0000 001c 003d 001a 0000 0000 001a 0000 0000 0000 0018 0044 0000 0000 0017 0040 0007 0021 0009 0008 0000 0000 0027 0004 0000 0012 0000 0000 0008 0005 0000 0000 0000 0000 0000 0000 0000 0000 0000 0050 0073 0083 00a0 0017 000f 007f 0052 0061 0048 0017 0048 0056 0040 0020 0000 001f 002b 0005 0005 0000 0000 0000 0053 007a 0000 0000 0082 0062 0000 0000 0020 0000 0000 0000 0000 0000 0005 0000 0000 0000 0000 0000 0000 0000 0000 0000 0000 0000 0000 0000 0000 0000 0000 0000 0000 0000 0000 0000 0000 0000 001d 0027 0000 0000 0000 0000 0000 0000 0014 0006 0000 0009 0000 0021 0012 0007 0029 0004 0000 0000 0000 0000 0047 0000 0000 0005 0018 0012 0000 0004 0097 0114 0158 00c9 000b 0020 002c 0000 0025 0059 001d 0000 0000 0000 0015 0026 000b 0007 0000 0000 004b 0080 0000 0000 0000 0000 0006 0000 0000 0012 0034 0000 0000 0047 0000 0000 000e 0000 0000 0000 0000 0021 0009 0000 0000 002a 0000 0000 0007 000a 0003 0000 0000 000b 0000 0000 0030 000e 0000 0000 0000 0009 002a 0052 0005 0000 0000 0000 0030 0000 0000 003e 0000 0000 0056 0013 0000 0035 003e 0000 0000 0000 0044 000c 0021 0000 0000 001d 0000 0000 001a 0004 0000 0024 0031 0000 0000 002c 000b 0001 0024 0000 0000 0021 0000 0000 0053 0000 0000 0015
0044 0046 004a 0047 0000 0001 0040 0000 0018 0067 0000 001b 0074 0000 0000 0052 0000 0027 0025 0000 0000 0000 0000 0070 001f 0000 0033 0000 0000 0069 0000 0000 0000 0003 0054 0026 0000 0000 0000 0011 0004 0000 0000 0013 0037 0001 0000 0000 0032 000b 0000 0000 0000 0000 000e 001e 001f 000f 0000 002b 0000 0001 000e 0000 003b 0009 0000 0000 0002 003c 000d 0000 0000 0031 0040 0000 0000 0000 0000 0005 005d 0025 0000 0000 0000 0007 0000 0000 0018 003a 0010 0001 0004 002c 0000 0001 002f 001a 000b 0000 0013 0000 0000 0005 0000 0001 0005 0000 0000 0000 0000 0000 0000 0000 0000 0000 0024 008c 005a 0093 00c6 0029 001f 007b 0024 004b 00b8 004d 0000 0000 0000 006e 0000 0031 0000 0000 0023 0000 0000 0000 001c 005b 0000 0000 007a 0020 0000 0000 005c 001b 0000 0000 0000 0004 0000 0000 0000 0000 0000 0000 0000 0000 0000 0000 0000 0000 0000 0000 0000 0000 0000 0000 0000 0000 0000 0000 0000 0000 0000 0000 0000 000b 0000 0000 0000 0000 0008 0009 0001 000c 0001 001c 0002 0000 0039 0005 0000 000b 0000 0000 0031 0000 0000 0008 0024 001f 0000 0000 0009 00b2 0160 010b 0080 0074 0034 0000 0015 0059 0014 0000 0000 0000 000b 0011 001e 001e 0000 0000 0033 0097 0000 0000 0000 0000 0026 0011 0000 0000 0048 0005 0000 0008 0017 0000 0000 000a 002f 000b 0000 0000 0006 0030 0000 000c 001d 0000 0000 001f 0011 0007 0000 0003 0005 0000 0000 0000 000b 0019 000e 0000 0002 0059 000d 0000 0000 0000 0018 0001 0000 0000 0000 001b 001a 0023 0000 0009 0030 0001 0000 0000 0000 0037 000c 0000 0000 0000 0000 0009 0021 0000 0000 0004 0000 0000 000f 0025 0000 000b 0029 0000 0032 0003 0000 001d 0046 0000 0000 0026
005d 0000 002d 0086 0018 0000 001f 004d 000f 001c 0000 000b 003f 0000 0000 0003 0000 0076 003c 0000 0002 0000 0003 0061 0000 0000 0053 0000 0000 004c 0000 0000 000c 0028 0033 000c 0000 000f 0000 001a 0005 0000 0009 0024 0000 0012 0029 0000 0025 0037 0000 0000 0000 0012 0060 0036 0000 0000 000a 004d 0000 0000 0000 0000 0024 001f 0000 0008 0000 0016 0013 0000 000b 002a 001c 0000 0000 0000 0000 0000 006c 0034 0012 0000 0000 0015 0000 0000 0009 0036 0018 0005 0008 001d 0000 0000 0017 0020 0024 0000 0025 0000 0000 0000 0000 0004 0000 0000 0000 0000 0000 0000 0000 0000 0000 0000 0092 00ae 0058 00bb 008d 0040 0081 0075 0000 0000 0091 004d 0008 0000 0000 0062 0034 0081 0000 0000 0049 0000 0000 0000 0000 001e 0000 0000 0059 0000 0000 0000 002a 0000 0000 000b 0000 0005 0000 0000 0000 0000 0000 0000 0000 0000 0000 0000 0000 0000 0000 0000 0000 0000 0000 0000 0000 0000 0000 0000 0000 0000 0000 0000 0004 0000 0000 0006 0000 0000 0000 0000 0019 0024 0000 0000 0000 0000 0035 001f 0000 0008 0000 0000 0003 0000 0000 0006 000f 0018 001e 0000 0000 004a 00e7 0118 0109 0095 006b 004f 0000 0010 001a 0000 0018 0000 0000 0021 0022 0013 0000 0000 0009 0061 0000 0000 0000 0010 0044 000a 0000 0000 0068 001e 0000 0000 002a 0000 0000 0034 0061 0000 0000 0000 000f 0036 0000 0023 0020 0000 0000 001a 0017 0031 0000 0000 0045 0000 0000 0001 0000 001a 0033 0000 0000 0040 0000 0000 000e 0000 000c 0014 0000 0000 0000 0008 000a 0069 0000 0000 0000 001b 000e 0000 0000 0031 0000 001d 002a 0000 0000 0004 0000 000d 0000 0000 001a 0000 0000 0000 0003 003c 0000 0000 0040 0000 0000 0032 0000 0000 0000 0010
0068 0000 0010 00ba 0015 0000 0000 0063 0033 0000 0008 000c 000c 0000 0000 0000 0000 0076 0058 0009 0000 0000 0000 0028 0000 0021 006d 0000 0000 0038 0000 0000 0014 0030 0032 0000 0000 0030 0000 0000 0008 0000 0025 0033 0000 0015 005e 0000 0000 0021 0000 0000 0000 000e 0055 0048 0000 0000 0019 002e 0000 0000 0000 0000 0013 0035 0000 0014 0000 0000 0006 0005 0000 002a 0051 0000 0000 001e 0000 0000 001e 0010 0010 0000 0000 0000 0000 0000 000b 0051 001e 0000 0019 0000 0000 000b 0000 002c 0043 0000 0008 0000 0000 0000 0000 0000 0000 0000 0000 0000 0000 0000 0000 0000 0013 0051 00e0 00c6 005a 00ac 005d 003b 00b9 0088 0000 0000 0026 001a 002e 0000 0000 0071 0034 0039 0000 0000 0044 000f 0000 0000 0000 0000 001a 000d 0009 0000 0000 002f 0000 0000 0000 0005 0000 0017 0000 0000 0000 0000 0000 0000 0000 0000 0000 0000 0000 0000 0000 0000 0000 0000 0000 0000 0000 0000 0000 0000 0000 0000 0000 0000 001a 0000 0000 0005 0000 0000 0000 0000 0018 0020 0001 0000 0000 0000 0029 001c 0000 0000 0000 000d 0000 0000 0000 0000 0003 0011 002b 0000 0000 0000 0083 00e5 013c 00d5 009d 0074 0000 0009 0012 0020 0000 0000 0000 0031 0034 003c 0000 0000 0002 001b 0000 0000 001b 0015 002c 0023 0007 0000 0042 0025 0000 0000 0000 0000 0000 0047 0039 0000 0000 0000 0000 0020 0000 002d 0000 0000 0000 0000 0017 0033 0000 0000 005a 0000 0000 002a 0000 0000 0031 002c 002c 0010 0000 0000 0002 0014 0018 0000 0000 0000 0000 0000 0019 006d 0000 0000 0000 001a 0021 0000 0006 003d 0000 000a 002b 0000 0000 0008 0000 0016 0000 0000 0036 0000 0000 0000 0032 0064 0000 001c 004c 0000 000b 0012 0000 0008 0000 0000
0063 0000 000a 00bb 0000 0000 001d 0021 0066 0000 0005 0009 0013 0000 0000 0038 0004 0027 0035 0000 0000 0000 0012 0043 0000 0029 005b 0000 0004 0022 0000 0000 0002 0019 0066 0012 0000 002c 0000 0000 0009 0000 003b 000f 0000 0010 0043 0004 0000 0000 0000 0006 0000 0000 001e 0046 0000 0000 001b 0003 0000 0003 0000 0000 002b 0042 0000 0013 0009 0000 0010 0011 0000 001e 0091 0000 0000 0044 0046 0008 0000 0003 0027 0000 0000 0020 0000 0000 0008 005d 0019 0017 0029 0000 0000 0018 0000 003f 0060 0000 0000 000b 0000 0000 0000 0000 0002 0000 0000 0000 0000 0000 0000 0000 005a 009e 00d2 00b0 0076 0093 0075 0068 0063 0067 0047 0014 0000 0000 002f 0000 0007 0078 0008 0000 0000 002e 0015 002a 0019 0000 000d 0002 000d 0000 0000 0000 0009 0054 0000 0000 0010 0000 0000 0044 000f 0000 0000 0000 0000 0000 0000 0000 0000 0000 0000 0000 0000 0000 0000 0000 0000 0000 000d 0000 0000 0000 0000 0000 0000 0000 0020 0000 0000 0000 0000 000b 0000 0000 0000 0015 0006 0001 0000 0000 001b 0012 0000 0000 0005 001d 0015 000b 0000 0000 0000 000d 001b 0000 0000 0000 004a 0077 011c 0150 00dd 006b 0027 002d 0000 0000 0000 0000 0000 0034 0020 0054 0000 0000 000b 0000 0000 0000 003d 0000 000a 002f 000f 0000 0019 0032 0000 0000 0000 0000 001a 0032 000b 002b 0000 0000 0000 0012 003a 0022 0000 0000 001a 0000 0000 0023 0000 0000 0048 0000 0000 0054 0002 0000 0016 004c 0034 0016 0000 0000 0000 000b 0000 0000 0000 0006 0000 0000 000a 0020 0000 0000 0000 000f 001f 0000 000a 0036 0000 0000 0010 0000 0000 001c 0000 0011 0001 0021 0017 0000 0000 0000 000b 004a 0000 001f 0041 0000 0015 0030 0000 0010 0000 0000
005f 0019 000d 0086 0000 0000 0037 0018 0044 0000 0008 000e 0034 000a 0000 003e 001d 0005 0003 0000 0000 0000 0025 0050 0032 0041 0033 0000 0000 0016 0000 0000 0001 0024 0067 002f 0000 0008 0000 0000 0008 0000 0034 0025 0000 0008 0000 0000 0032 0000 0002 001b 0000 0000 0008 0024 0000 0000 0049 000b 0000 002a 0021 0000 000c 000c 0000 0029 000b 0000 0015 0000 0000 000b 0040 0000 0000 0044 005d 0000 0000 0029 0028 0000 0000 0056 0000 0000 0000 0032 0000 003f 001f 0000 0004 0019 001b 0038 004b 0002 0000 0000 0000 0000 0000 0000 0000 0000 0000 0000 0000 0000 0000 0000 0094 00bb 0094 006c 0087 0091 0091 00a2 0016 002e 0089 0008 0000 001b 000a 0000 0027 005c 0000 0000 0000 0080 0000 0000 001a 0000 0022 001f 0000 0000 0000 0002 0000 0036 001e 0000 0000 0000 0000 003f 0012 0000 0000 0000 0000 0000 0000 0000 0000 0000 0000 0000 0000 0000 0000 0000 0000 0000 0013 0000 0000 0000 0000 0000 0000 0008 0003 0000 0000 0000 0000 0015 000d 0000 0015 0027 0000 0000 0000 0000 0009 001f 0000 0000 0000 0022 0017 0018 0000 0000 000a 0003 0003 0006 0000 0000 0008 0031 009a 017f 0165 0086 0053 0030 0000 0000 0000 0000 0000 002d 0000 0027 001f 0000 0000 0000 0000 0008 0025 0000 0000 000e 0021 0016 0000 0015 0000 0000 000f 0000 0000 0015 001e 0052 000b 0000 0000 000d 0033 001d 0000 0000 0020 0000 0000 0010 0000 0000 0012 0000 0009 0066 0000 0000 002a 0033 001b 0049 001b 0000 0000 0005 0000 001f 0000 0000 0027 0000 0000 0000 0005 0000 0000 0032 0011 0000 0019 0000 0008 0000 0000 0000 0000 0013 000c 003e 0000 0000 0028 0000 0000 0000 0000 002d 0020 002e 0000 0000 001d 0023 0000 0008 0000 0000
0090 0026 0006 0051 0005 0000 0000 0044 000c 0000 002d 0030 0043 0000 0000 0019 0002 0000 0000 002c 0000 0000 0006 0015 0056 0049 002b 0000 0000 0022 0000 0000 001d 0023 0032 002c 0000 0000 0000 0000 0000 0000 0030 0054 0000 0000 0000 0000 001d 0000 003d 0013 0000 0000 0000 001f 000a 0012 004a 0000 0000 001b 0045 0000 0000 0000 0000 0050 0000 0000 001b 0000 0029 0000 0000 0000 0000 002d 005a 000c 0000 000d 0002 0000 0009 004c 0000 0000 0009 0000 0000 0075 001d 0000 0000 0016 0031 0024 0034 0000 001c 0008 0000 0000 0000 0000 0000 0000 0000 0000 0000 000c 0000 003a 00d2 00c1 006c 0047 006b 006e 00a4 00bd 0033 001f 0060 0000 0000 0040 000a 0004 0000 0035 0016 0000 0019 00b1 0000 0000 0025 0002 001f 0010 0000 0000 0000 0046 0000 001c 0037 0000 0000 0000 0000 0003 0003 0000 0000 0000 0000 0000 0000 0000 0000 0000 0000 0000 0000 0000 0000 0000 0000 0000 000a 0000 0000 0000 0000 0000 0000 000d 0000 0000 0000 0000 0000 0000 0000 0000 0042 0026 0000 0000 0000 0000 0005 0015 0000 0000 0000 0000 0003 001a 0000 0000 0032 0000 0000 000c 000c 0000 0000 0015 003b 010a 01af 00f8 006a 002e 0000 0000 0037 0000 0000 0016 0000 0000 0013 0000 0003 0000 0005 0036 0006 0000 0000 0010 0017 001d 0000 0000 0000 0000 0039 0014 0000 002b 000c 0025 0003 0000 0000 0000 001b 0022 0000 0000 0010 000c 0000 0000 000d 0000 0000 0000 0012 006d 0000 0000 0041 0019 0002 0050 0044 0000 0000 0009 0000 000b 0000 001a 004f 0000 0000 0000 0006 0000 0000 003b 0000 0000 001a 0000 000e 0010 0000 0000 0000 0000 0002 004e 0000 0000 0031 0000 0000 000e 0020 0000 001b 0046 0000 0000 0000 000c 0026 0012 0000 0018
00bf 0021 0000 002c 002c 0000 0000 004a 0008 0000 003c 0051 0031 0000 0000 0000 000c 0000 0000 003a 001f 0005 0000 0000 0019 001d 004b 0017 0000 0031 0000 0000 003e 0000 0000 002d 0006 0000 001a 0009 0000 0000 002d 0037 0000 0000 0000 0006 0000 0000 0014 000a 0001 0000 0000 0026 001e 0000 0011 0000 0000 002a 0031 0000 0022 0000 0000 0037 0000 0009 0019 0000 003f 0000 0000 0000 0000 0029 0047 0008 0000 0000 0000 0000 0000 0034 0000 0000 0048 0000 0000 0070 0047 0000 0000 0037 0000 000f 0044 0000 000b 0023 0000 0000 0000 0000 0000 0000 0000 0000 0000 0001 0000 0069 0100 00b9 0068 005a 0077 0042 0088 00a9 001e 0025 0047 0000 0015 0067 000a 0027 0000 000d 0049 0000 0000 00b7 0000 0000 0088 0000 0000 0000 0000 0000 0002 0029 0000 0029 002f 0000 0000 0000 0015 0000 0000 0000 0000 0000 0000 0000 0000 0000 0000 0000 0000 0000 0000 0000 0000 0000 0000 0000 0000 0000 0000 0000 0000 0000 0000 0000 0000 0000 0000 0000 0000 0000 0000 002b 003a 000c 001d 0000 0000 0000 0011 0000 0000 0011 0000 0000 0000 0000 0001 0004 0048 0000 0000 0005 0012 0004 0000 0008 0032 005a 019f 01a0 0062 0036 0000 0010 001c 0000 0004 0000 0000 0000 0000 0000 0018 0007 0000 0034 001e 0010 0009 0006 0000 0029 0000 0000 0000 0000 0039 0000 002b 0047 0000 0000 0000 0024 0000 0000 0014 0025 0000 0000 000b 0006 0000 0000 001e 0000 0000 0000 0000 0053 0014 0000 000c 0038 0002 0000 003a 0006 0000 0000 0002 000b 0000 0019 0032 0000 0000 0000 0001 0000 0019 000f 0000 0000 0000 0000 0000 0029 0000 0000 0000 0000 0000 0020 0000 0011 0001 0000 0000 0037 0043 0000 0000 001a 0020 0000 0000 0000 001a 0013 000a 0022
00a0 002b 0000 000f 0000 0009 0030 0025 001a 0000 0024 0069 0014 0000 0000 0000 0015 0000 0000 0021 0029 0000 0000 001e 0000 0009 005f 000c 0002 0030 0000 0000 0043 0000 0000 0010 0002 0013 0023 0014 0000 000d 0008 001a 0000 0000 0000 002d 001a 0000 0000 0000 0000 0018 000f 0023 002f 0000 0000 0000 0000 0003 0000 0004 003e 0015 0000 0007 0000 0015 0021 0000 001e 0000 0000 0000 0000 0046 002b 0000 0000 0000 0000 0000 0000 0034 001f 0000 003a 0024 0000 002c 0072 0000 0025 0062 0000 0008 005b 0000 0000 001b 0000 0000 0000 0000 0000 0000 0000 0000 0000 0010 0000 0070 00ea 0098 0084 0076 00a2 004a 003b 007d 000c 001e 0068 0017 0024 003a 000a 0021 0000 0000 0026 0000 0000 007d 0000 0006 009d 0000 0000 002f 0000 0008 0000 001b 0000 0003 0036 0000 0000 001a 0010 0000 0000 0000 0000 0000 0000 0000 0000 0000 000c 0000 0000 0000 0000 0000 0000 0000 0000 0000 0000 0000 0000 0000 0000 0000 0000 0000 0000 0000 0000 0000 0000 0000 000a 0000 0015 000d 0021 0007 0000 0000 0000 0000 0000 0016 0004 0001 0000 0000 0006 0000 0031 0004 0000 0004 0012 0000 0000 0012 001a 000e 0141 0202 00a5 001c 001f 0000 0000 0000 000e 0000 0000 003f 0000 0000 0012 0000 0000 002a 0049 0036 0000 0000 0000 003f 001d 0000 0000 0041 0024 0000 004a 0036 0010 0016 0000 002e 0000 0000 0020 0036 0006 001d 0000 0000 0000 0000 0007 0000 0000 0017 0000 001e 0013 0000 0000 0048 001d 0000 0012 002e 0005 0000 000d 0032 0000 0000 0008 0000 0000 0000 002f 0000 0000 0007 0009 0000 0000 0000 0000 0030 0000 0000 0010 0000 0000 0001 0000 0000 0000 0000 0000 0020 0033 0000 001b 0003 0030 001c 0000 0000 0011 001a 0000 001b
0065 0055 001c 0034 0000 0000 0059 001f 0027 0000 000a 007f 002e 0000 0000 0004 000f 0000 0000 003f 000b 0000 0000 0039 0000 0010 0043 0020 003c 001c 0000 000e 000c 0000 0000 000c 0013 0033 000a 0000 0000 0033 0000 001c 0000 0000 0024 0057 003a 0000 0000 0000 0000 0018 0032 002f 0046 0000 0000 0025 0039 0000 0000 0018 004a 0001 0000 0000 0000 0000 0045 0012 0000 0000 0022 0000 0017 0037 0010 0000 0000 000b 0000 0000 0000 0011 0029 0000 0000 005d 0000 0000 007b 0000 0017 0073 0002 0011 0047 0000 0000 0000 0000 0000 0000 0000 0000 0000 0000 0000 0000 0021 0000 007a 00d9 0078 0079 0087 00ab 0059 0004 0044 0067 0043 0057 004f 0005 0000 000a 0038 000e 0000 0007 0000 0000 0035 0000 0024 0047 0000 0000 0042 0008 001b 0000 001b 0000 0000 0011 0000 0000 001a 0002 0000 0000 0005 0000 0000 0000 0000 0000 0000 0005 0000 0000 0000 0000 0000 0000 0000 0000 0000 0000 0000 0000 0000 0000 0000 0009 0006 0000 0000 0000 0000 0000 0000 0029 0000 0000 0013 0000 0014 0002 0004 0000 0000 0000 0000 0000 000b 0000 0000 000a 0000 0013 0008 0000 000f 0002 0000 0009 0008 0007 000c 0096 01ee 0138 002f 0018 0000 0000 0000 0007 0000 002c 0088 0000 0000 0000 0000 000e 003e 0058 0015 0000 0000 0000 0006 0047 0000 0000 007a 0028 0000 003c 000e 002c 000a 0000 002b 0000 0000 004b 004e 0000 0008 0000 0000 0067 0000 0000 0010 0000 0028 0004 000c 0000 0000 000f 002e 0017 0000 0000 001d 0000 0000 001b 0038 0000 0000 0008 0005 0000 0000 0024 0000 0003 0012 000a 0000 0000 0000 0016 001c 0000 0000 0000 0000 000d 0014 0000 0000 0019 0023 0000 0000 0007 0015 006d 0000 0007 000e 0000 0000 0032 0000 0000 0014
004f 005e 000d 0050 0000 0000 0015 0027 0057 0000 0008 0073 003e 0000 0000 000f 0014 0000 0000 006a 000f 0000 0000 0020 0000 000c 003c 005c 0062 0006 0000 0013 0005 0000 0000 001b 0000 0024 0008 0000 0000 005e 0000 0017 0000 0000 0033 003b 0052 0000 0000 0000 0000 0002 003a 003b 0012 0000 0000 0033 003c 0000 0000 0009 0047 0000 0000 001c 0000 0000 0053 0014 0000 000f 0050 0000 000e 0008 0017 0000 0000 0015 0000 0000 0024 0000 0030 0000 0000 0076 0000 0000 006f 0000 0000 006a 0022 0004 0000 0000 0000 0000 0000 0000 0000 0006 0000 0000 0000 0000 0000 002b 0007 0081 00ec 007c 005e 009d 00ae 003b 0005 0000 0080 009d 003c 0019 0000 0000 0017 0050 0000 0000 0008 0000 0000 0028 0017 0017 0030 0000 0000 0000 0002 0048 0000 0009 0014 0000 0000 0000 0000 0000 0000 0000 0000 0035 0000 0000 0000 0000 0000 0000 0000 0000 0000 0000 0000 0000 0000 001a 0000 0000 0000 0000 0000 000c 0018 0000 0000 0000 0000 0000 0000 0000 0000 0000 0020 0000 0000 0000 0005 0010 0000 0000 0012 0006 0007 0000 0000 0000 0000 0000 0000 0000 0001 0000 0000 000d 0000 0001 0014 0000 0005 000c 003b 0154 0166 00ad 000f 0000 002a 0000 0000 0000 0047 0092 0000 0003 0000 0000 0028 0046 0047 0014 0000 0000 0000 0000 004d 003a 0000 0069 0021 0006 002e 0001 0014 0000 0000 0000 0000 0000 0065 0064 0000 0000 0000 004a 0071 0000 0000 000a 0033 0015 000d 0027 0000 0000 0014 0012 0000 0000 0000 0000 0005 0017 0010 001c 0000 0000 000a 0000 0000 0002 0009 0000 000a 0000 0000 0007 0000 0000 0022 0010 0000 0000 0000 0000 0000 0028 0000 0000 001e 007d 0000 0000 0000 0000 0056 0000 0000 0025 0000 0000 0023 0000 0000 000a
0068 0021 001b 0039 0000 0000 0000 0026 0061 002a 003b 0034 0003 0000 0007 0000 0000 0000 0000 005e 0021 0000 0000 0005 0000 0000 0065 008c 0057 0027 0000 0000 0058 0008 001d 000a 0000 0000 0000 0000 0019 0075 001e 0005 0000 0000 0003 001a 0062 0000 0000 0000 0000 0000 0040 0036 0000 0000 0000 000f 0000 0000 000d 0003 002c 0000 0000 002c 0000 0000 003c 0000 0000 0052 0058 0000 0000 000f 003a 0009 0000 0000 0000 0000 0039 0019 0008 0000 0000 00b5 0016 0000 0061 0030 0000 0067 0010 0000 0000 0000 0000 0000 0000 001a 0000 0000 0000 0000 0000 0000 0000 0028 0000 0097 00f9 006b 0050 0080 00bb 0042 003c 0000 002e 0098 003a 0000 0000 0026 0008 0045 0019 0000 0006 0000 0004 0035 0000 0027 0028 002f 0000 0000 0000 004d 0002 0004 0012 0000 0010 0019 0000 0000 0000 0000 0000 0011 0000 0000 0000 0000 0001 0000 0000 0000 0000 0000 0000 0000 0000 000c 0000 0000 0000 0000 0000 0007 0021 0000 0000 0000 0000 0000 0003 0000 0000 0000 0012 0000 0000 0000 0002 0013 0000 0000 0030 000d 0003 0001 0000 0000 0000 0016 0004 0000 0000 0000 0000 0000 0000 0005 0022 0000 0000 0004 003f 0095 012e 00ff 0040 0039 0007 0000 0000 0000 004f 006b 0000 000d 0000 0000 001d 000e 0000 0043 0000 0000 0000 0000 003f 0000 0011 006a 0030 001f 000e 0000 0000 0000 000c 0000 0000 0031 007b 0050 0000 0000 0000 005c 0049 0000 0000 0000 002b 0023 001f 002d 0002 0000 0000 0034 0000 0000 000c 0005 0000 0014 0000 000f 0014 0004 0000 0000 0000 0000 002b 0000 0000 0000 0000 0026 0000 0000 0020 0010 0000 0000 001e 0000 0000 0016 0000 0000 0001 006e 0000 001f 0000 0000 0044 0000 0000 0010 0017 0003 0006 0000 0000 0000
0068 0009 0058 0000 0000 0017 0022 004c 0012 002b 004f 002d 0009 0000 000a 0016 0000 0000 0001 002a 000b 0000 0000 0000 0000 0000 0062 0093 005e 0060 0000 0000 0078 0022 0031 0004 0000 0000 0000 0007 003e 0044 0030 0015 0000 0000 0000 0000 002e 0000 0000 0000 0023 0013 0044 0045 0000 0000 000f 0002 0000 0000 0031 000e 0000 0000 0000 0000 0000 0000 0037 0000 0000 0040 0046 0000 0005 001d 001c 000f 0005 0000 0000 0000 003e 0000 0000 0000 0000 00f9 000c 0000 0066 0019 0000 0065 0000 0003 0000 0000 0000 0000 0000 0020 0000 0000 0000 0000 0009 0000 0000 0000 0006 00cd 0101 0042 0018 0046 00b0 007a 0068 001a 0000 0027 0027 003a 001f 004d 0000 0000 004c 0000 0000 0000 0024 0004 0000 0068 0000 002d 0022 0000 0000 0030 0000 0000 0014 0000 0000 0039 0002 0000 0000 0000 000e 0000 0000 0000 0000 000f 0046 0000 0000 0034 0000 0000 0000 0000 001a 0000 0000 0000 0000 0000 0000 0000 0000 0004 0000 0000 0000 0000 0000 0000 0000 0000 0000 0000 0000 0000 0000 000a 0000 0000 000b 000f 000d 0009 0000 0000 0000 001e 0011 0000 0000 0000 0000 000a 0000 0000 001f 0006 0000 0000 003e 003b 00ff 0111 0053 005c 0000 0000 0020 0023 000c 0057 0042 0000 0000 000d 0012 0000 0000 0023 003b 0000 0000 0033 003b 0000 0020 005a 005d 0033 0000 0000 0000 000b 001b 0000 0000 0059 00ab 001f 0000 0000 0000 0043 005c 0000 0000 0000 000f 002b 000d 000d 002a 0000 0000 0055 0000 0009 0020 001f 0000 0013 0000 0000 000e 0007 0000 0008 0000 0007 0051 0006 0000 0000 0000 0011 0000 0000 001a 0009 0000 0000 0038 0000 0000 0000 0000 0000 0007 0004 0009 000e 0000 000b 004d 0009 0000 0000 000a 000b 001c 001f 0000 0000
0038 0049 0079 0000 0000 002d 003f 006f 0018 0021 0000 001e 006d 0000 0000 003c 0000 0000 0000 0000 0000 0000 0000 0000 0003 0004 004c 0089 0093 004b 0000 0000 003b 001f 003a 001e 0000 0000 0000 003a 0033 0000 0021 0021 0000 0000 0000 0000 0000 0016 0000 0000 0061 0064 004a 0056 0000 0000 0003 0029 0000 0000 0016 002a 0000 0000 0000 0000 0000 0015 0037 0000 0000 000c 0021 0009 004f 0018 0000 0000 001f 0008 0000 0000 002b 0000 0000 0000 0031 00c4 0000 0000 006c 0001 0000 004a 0000 0000 0016 0000 0000 0000 0000 0000 0000 0000 0000 0000 0000 0000 0000 0000 005f 00d7 00df 0054 0013 0044 0077 0099 0056 001f 0010 0000 0002 006d 0069 0046 0000 0000 0055 0011 0000 0000 0021 0000 0000 0095 0000 0014 003c 0000 0012 0029 0000 0000 0047 0000 0000 0057 0010 0000 0000 0003 0000 0000 0000 0000 0000 0000 0043 0021 0000 0048 0000 0000 0000 0000 0005 0000 0000 0003 0000 0000 0000 0000 0000 0000 0000 0000 0000 0000 0000 0000 0000 0000 0000 0000 0000 000b 000d 0000 0000 0000 0000 0000 000b 0007 0000 0000 0000 0000 000b 0005 0008 0000 0000 0012 0000 0000 0008 0000 0000 0012 0027 0006 00cb 0121 0069 002c 0000 0000 0053 0000 0000 0078 006b 0000 0000 0000 0030 0047 0000 0000 0018 0000 0000 001d 0047 000f 0000 0037 0078 0047 0008 0000 0000 0000 0000 0000 0000 005e 0095 001b 0024 0000 0000 0000 0074 003d 0001 0000 0045 0013 0000 0000 0030 0000 0000 001f 0000 001c 0010 0020 001c 0027 0000 0000 0000 000b 0000 0000 0000 000c 005c 0027 0000 0000 0000 0000 0000 0002 0008 0000 0000 0010 001f 0000 0000 0000 0000 0030 0026 0000 0000 0000 0000 0027 000d 001b 0027 0000 0000 0006 0037 002b 0000 0000
003b 006e 006f 0001 0000 0004 0015 0041 005d 003e 0000 0000 0087 0023 0000 0020 0000 0000 0000 0000 0000 0000 0008 0000 0000 0002 0044 0088 00a3 0046 0000 0000 0000 0021 0063 0034 0000 0000 0000 0032 0018 0013 0000 0000 0000 0000 0000 0000 0000 0020 0005 0000 0054 0089 0050 004f 0000 0000 000c 004d 0008 0000 0000 0039 0000 0000 0000 0000 0000 002e 000f 0000 0000 0000 0000 0019 005a 001c 0000 0000 0030 0017 0000 0000 0005 0024 0000 0000 0023 006d 0000 0000 0039 000d 0026 0033 0000 0000 0000 0000 0000 0016 0000 0000 0000 0000 0017 0000 0000 0000 0000 0000 00a9 00cf 00ac 0083 0052 0058 000c 0077 003b 001f 0058 0000 0000 005c 0053 004f 0000 0000 0032 0000 0000 003a 0000 0000 000a 0092 0000 000a 0013 0000 0027 0021 0000 0000 0043 0000 0000 0066 0008 0000 0000 0000 0000 0000 0000 0036 0005 0000 0044 0016 0000 005b 0000 0000 0000 0006 0000 0000 000b 0003 0000 0000 0000 0000 0000 0000 0000 0000 0000 0000 0000 0000 0000 0000 0000 0000 0000 0011 0009 0000 0000 0000 0015 0000 0000 000a 0000 0004 0000 0000 0000 000d 000d 0000 0000 0001 0000 0000 0000 0000 0010 0040 0007 0000 0079 010f 00be 003a 0027 0000 0005 0000 0000 007d 005a 0000 0000 0000 0000 004a 0020 0024 0000 0000 001b 001b 0051 0028 0003 003f 006d 0044 0019 0000 0000 0000 0000 0000 0033 0040 0046 0031 0029 0000 0000 0000 007d 0052 001c 002d 0069 0007 0000 000c 0047 0000 0000 0000 0000 0012 0000 0012 0024 0014 0000 0000 0000 0000 000d 000c 0000 0000 0063 0036 0003 0000 0000 0000 0000 0000 0010 0000 0015 0034 0000 0000 0000 0000 0000 0015 003f 0000 0000 0033 0005 0000 0000 0032 002f 0000 0000 0000 0022 0028 000d 0000
004a 0034 003f 003b 000f 0000 0001 0030 0038 0020 0000 0000 0024 0011 0061 0053 0000 0000 0000 0000 0000 0000 0029 001c 0000 0000 006a 0045 0051 007a 003d 0000 0000 0000 0051 005e 0013 0000 0000 0000 003a 0039 0000 0000 0006 0000 0000 0023 0000 0022 004e 0000 002a 005b 0025 003a 0000 0000 0020 002b 0000 0000 0002 0023 0000 0000 0000 000f 0000 002b 0005 0000 0031 0008 0000 000c 0029 002f 0000 0000 0048 000f 0000 0000 0000 0071 0006 0000 0000 0051 0000 0000 0016 0020 0030 000a 0000 0000 0000 0000 0000 0003 0000 0000 0000 0000 0000 0000 0000 0000 0000 000c 00d0 00e6 00a7 009d 005d 006b 0000 0019 0046 0019 0032 0000 0043 0041 0011 003b 002c 0012 0000 0000 0022 0005 0000 0000 0000 005a 0000 0000 0019 0000 0010 0029 0000 0000 0000 0000 0000 0032 0000 0000 0000 0000 0000 0001 0000 0061 0000 0000 0049 0000 0000 007d 0000 0000 0009 003d 0000 0000 0000 0000 0000 0000 0001 000c 0000 0000 0000 0000 0000 0000 0000 0000 000c 0000 0000 0000 0000 0000 0000 0000 0000 0006 0013 0000 0000 000d 0000 0000 0002 000d 0000 0002 000a 0000 000b 0000 0000 0000 0000 000a 000f 0026 0000 0000 0039 0110 00fe 004d 0046 0000 0000 0000 0020 0049 0032 0019 0013 0000 0000 0000 0000 0069 0000 0000 0026 0059 0056 0000 002a 0063 0062 0019 0014 0000 0000 0000 0000 0011 0092 000a 0016 0041 0000 0000 0000 0000 004f 0041 005b 003a 0033 0000 0000 0019 003b 0000 0000 000c 0000 001f 0000 0000 000a 0000 0012 0001 0000 0000 0025 001a 0000 0000 004b 0030 0016 0000 0000 0000 0000 0000 0044 0000 0000 0022 0000 001a 0000 0000 0000 0000 0022 0000 0000 0027 0000 0000 0000 004c 0000 0000 002d 0028 0000 0015 002c 0000
002e 0000 0026 007a 0059 0000 0000 0076 0013 0000 0006 0000 0000 0000 00bd 00a8 0000 0000 0000 0000 0000 0000 004c 000e 0000 0009 007e 0001 0018 0085 0097 0027 0000 0000 000a 0063 002b 0000 0000 0000 0035 0020 0000 0000 0017 0000 0009 0027 0000 0037 005c 0000 0011 0025 0000 001f 0002 0014 0033 000a 0000 001b 0028 0004 0000 0000 0004 0044 0006 0021 0017 0000 002f 002f 0000 0000 000b 0037 0000 0000 0045 0008 0000 0000 0013 0013 0000 0000 0000 0066 0000 0000 0038 0027 0005 0000 0000 0000 0000 0000 0000 0000 0000 0000 001d 0026 0000 0000 0000 0000 0004 0018 00c1 00fb 00a1 00a0 0071 0064 002a 000e 0046 0000 0000 003c 0040 0043 002b 0000 001c 0000 0000 0031 0036 0000 0014 0000 0000 0008 0000 000d 0032 0000 0000 0033 0038 0000 0000 001e 0022 0004 0000 0000 0000 0005 0000 001e 0000 0048 0000 0000 0012 0000 0000 0059 0000 0000 0000 002f 0000 0000 0001 0000 0000 0000 000d 000b 0000 0000 0000 0000 0000 0000 0000 0000 0002 0000 0000 0000 0000 0000 0005 0000 0000 0009 000b 0000 0008 0005 0011 0000 0000 0011 0012 000b 0000 0000 000a 0001 0000 0002 0000 0006 0003 000a 0000 0018 001e 0122 0114 002d 000e 0000 0000 0038 003d 0005 0012 0034 003b 0000 0000 0000 0000 0024 001e 0031 0000 007b 0053 0000 003b 005f 0057 0011 0000 0000 0000 0000 0000 004e 004c 0000 003d 0041 0000 0000 0000 0000 0002 003a 008d 004f 0029 0007 0000 0018 0000 0000 0018 0013 0000 001f 0018 000a 0000 0000 001c 0000 0000 0000 000d 0007 0000 0004 003a 000c 0000 0029 0000 0000 0000 0031 0062 0000 0000 0000 0000 0036 0000 0000 0000 0000 0005 0000 0000 0006 0000 0034 000b 0000 0000 0000 005b 003c 0000 0000 0031 0000
