3a 3b 37 37 41 3d 3a 39 3b 35 36 36 38 39 39 3d 37 37 38 39 36 37 36 3a 3a 3a 35 38 3a 3c 3b 3a 37 35 34 33 32 31 31 31 33 34 34 34 37 36 35 36 35 37 38 37 35 37 34 39 37 3b 47 50 44 39
3e 3f 3a 38 3f 3b 3a 39 3a 37 38 38 3c 3d 3c 3e 3e 3b 3a 3a 39 3b 3a 39 36 34 33 35 37 3e 44 4b 38 36 36 35 34 33 31 32 32 33 35 37 37 38 37 38 38 36 38 37 36 34 32 39 3b 39 3a 42 41 3a
3d 3b 37 38 39 3b 37 39 36 35 43 35 39 39 3c 3e 3e 40 40 40 3e 40 3d 3a 3a 39 38 3e 39 3c 3f 41 3c 2d 3a 35 34 33 34 31 31 33 38 31 35 35 37 36 37 37 36 37 37 36 34 37 3a 3b 3b 3d 3f 3b
36 38 37 38 3a 3d 36 35 35 38 3f 37 39 38 3b 3f 40 41 3f 42 3c 43 40 3e 3d 3d 3d 43 3c 3a 34 43 61 43 37 5c 63 30 31 35 2e 33 46 3c 36 34 38 38 39 37 36 35 35 36 34 36 39 3b 3d 3e 3e 37
33 36 33 37 38 3a 36 36 35 36 35 37 40 39 3f 41 41 3e 3f 3c 3f 40 3e 3e 3b 41 41 3f 3f 3f 77 00 7f 5b 3d 4d 41 4c 36 34 34 5d 31 35 46 2c 3a 38 39 37 38 35 34 36 35 35 37 39 3d 3b 39 38
36 33 34 38 36 35 32 34 37 35 33 34 3c 3c 39 3f 3e 3a 39 3e 3e 3d 3d 3a 3a 42 3f 41 40 42 00 00 71 67 00 38 30 5b 37 29 46 39 00 2f 47 43 00 2b 37 39 39 37 36 36 36 36 37 3b 3a 38 39 38
38 2f 36 3b 37 35 34 33 30 32 32 37 3c 3d 38 3e 3a 32 38 3a 36 39 3b 38 3d 3d 3b 3f 3e 3e 00 00 00 00 6a 46 44 5a 00 2b 29 36 45 48 51 55 46 6a 3c 38 3a 39 37 37 37 37 39 3c 3b 3b 3a 3b
34 32 37 36 38 35 32 32 32 34 33 39 34 39 3b 3c 35 33 38 36 38 3b 36 3a 3a 3b 3c 3f 3d 3e 00 73 00 4e 00 4e 00 1d 2b 2c 27 21 21 48 51 58 53 43 2d 3a 3c 3d 3c 39 3a 3a 39 39 39 3a 3b 3d
34 31 34 36 35 32 35 31 34 32 37 38 38 37 33 35 36 35 37 33 3a 38 37 39 3a 3a 3d 3e 3d 3e 00 6b 57 55 10 4e 47 26 19 43 1b 36 18 62 67 55 51 47 4b 2c 3f 3d 3c 39 39 3c 3b 3a 3a 3b 3a 3b
33 32 35 33 31 2d 33 32 32 37 3a 38 37 39 34 3a 37 37 3a 38 3d 39 35 3d 39 3b 3a 3f 4b 40 00 67 1b 00 29 00 00 59 00 3f 1b 00 4f 6c 67 5c 4b 4a 47 3d 37 3f 3d 3b 39 3a 3c 3c 3e 3f 3c 3a
34 35 34 31 30 34 32 2f 33 3c 38 3b 35 39 39 3a 2f 39 3c 35 3b 3a 3a 3f 39 3b 39 3c 72 4c 53 5a 5e 48 55 00 2e 7f 61 48 47 7f 6e 76 68 52 1c 47 73 3d 23 3b 3e 3d 3c 3b 3c 3d 3f 3f 3f 3a
35 41 3d 2f 31 34 2d 32 33 37 34 39 38 37 3c 35 32 36 37 37 37 38 39 3c 3d 3b 3e 40 45 69 6f 59 6b 40 3c 00 00 75 44 58 4b 39 66 7e 42 4c 72 21 4e 47 24 28 3d 3d 3a 3b 3f 3e 3c 3d 41 3e
32 38 35 2f 34 31 31 41 36 37 33 34 2f 38 38 36 33 37 38 34 39 39 39 3f 40 40 44 4a 00 6e 4f 62 5a 40 34 00 00 4a 59 4a 39 3c 4b 47 3b 42 34 37 49 48 20 26 3e 41 3e 3d 3e 40 40 3c 3e 40
31 34 32 2f 35 33 32 35 39 39 3c 35 37 33 36 37 30 39 35 38 37 3a 38 3d 3f 3e 55 00 5f 15 00 00 1e 39 3d 6a 00 6b 57 53 46 44 4d 7d 2a 67 39 3b 53 46 7a 2b 2f 45 3c 3f 3f 3f 3f 3b 41 40
32 35 39 34 34 35 32 32 37 36 3c 36 38 34 33 35 34 33 33 40 45 3c 3c 38 3d 3e 6b 00 00 64 00 76 48 47 62 67 74 25 50 59 46 3c 5b 00 40 3d 18 34 4b 4f 61 3f 23 3c 3e 3f 3d 3f 3f 3d 3f 3f
35 38 3d 38 3a 33 34 3b 35 36 3c 3b 3b 37 33 33 33 32 34 3b 3c 3e 38 3b 3d 49 00 00 2b 00 00 65 00 50 00 73 7f 2f 4e 6b 50 41 6b 7e 7d 33 4f 52 5e 5d 79 2c 25 3f 3f 40 3d 3b 3e 3c 3d 3e
35 36 39 35 39 46 3e 44 38 3b 4c 3c 3e 38 3a 33 30 31 37 42 50 3b 39 3c 39 00 00 7f 6c 00 00 74 07 47 23 00 00 60 00 6b 40 5b 6f 6c 00 32 61 38 66 56 18 2b 25 24 3e 3b 3b 3a 3b 3b 3b 3c
35 35 35 34 34 37 39 3b 3a 3b 3c 35 35 3b 35 45 31 32 36 3c 3c 39 40 78 5b 00 70 2f 6f 00 00 00 6e 7c 6f 00 00 6b 00 5e 4b 5f 6b 75 66 1a 72 54 65 5e 22 24 2a 1c 39 35 39 3e 38 39 38 3a
34 31 34 39 36 36 38 37 36 38 39 37 37 35 30 3b 32 30 3c 3a 38 36 3d 3e 5f 00 1d 00 59 00 00 00 00 00 00 00 00 65 35 57 58 63 6d 00 5e 4b 64 78 6d 48 3a 68 2e 22 2d 32 35 39 37 3a 37 39
33 31 34 3a 39 35 32 34 38 36 3f 34 3a 39 34 31 30 30 33 35 37 36 35 35 00 00 46 5c 7d 00 49 5f 7a 00 00 00 00 5b 47 51 78 5c 7a 77 70 6d 77 7d 62 51 4f 24 31 1a 25 26 27 2d 30 38 39 3b
35 33 32 36 3a 39 38 35 35 35 40 3c 34 37 38 32 31 30 33 36 35 38 3a 45 00 7b 51 26 00 00 13 3c 21 44 00 00 00 7b 44 53 7b 75 6c 7b 00 72 7e 5d 59 49 45 41 36 27 20 20 22 25 26 2e 38 3a
34 30 32 35 3b 35 34 34 3b 33 35 3a 3b 36 37 33 33 32 32 35 39 39 39 63 00 28 22 59 00 00 00 57 4c 39 00 00 00 61 2a 58 52 71 69 61 71 7d 55 5b 2e 17 3f 41 40 27 22 23 20 24 24 23 2c 33
32 3a 30 3f 36 35 35 38 37 39 35 3a 3b 35 38 33 32 32 32 38 39 42 36 7a 00 38 42 00 76 00 58 48 51 0e 00 00 00 2d 4a 5d 50 6f 61 57 63 00 55 4d 7d 40 39 42 35 29 22 23 20 26 27 23 23 2d
35 34 33 33 35 31 38 34 36 39 34 2d 44 39 38 35 2f 33 35 3c 39 3d 42 00 00 42 00 00 00 00 00 4f 42 2a 00 00 00 1d 40 4a 47 67 70 5b 52 61 67 3a 38 38 37 47 28 23 1c 1e 1e 20 22 23 21 25
35 34 35 34 35 33 33 39 35 34 32 34 3d 39 33 2e 2f 34 36 3a 37 38 34 00 00 75 00 00 00 00 13 4f 00 70 00 00 7f 33 32 24 3c 5f 61 42 5c 52 68 36 3b 33 41 3c 14 1c 1d 1e 1d 1f 1f 22 1f 26
39 2d 46 38 36 35 35 31 37 32 38 4d 41 37 2c 33 33 35 35 36 3b 44 1f 00 78 00 00 00 00 00 38 18 32 00 00 00 73 3c 3f 12 3c 66 59 41 55 4d 65 5d 00 14 50 38 1e 1e 1d 1f 1e 1e 1f 1f 21 22
2c 36 32 35 36 34 35 37 35 3b 33 74 55 2f 33 34 35 36 34 38 3a 3d 5f 0f 3f 00 6e 00 00 79 7c 39 00 00 00 00 73 4a 3c 18 5b 55 51 51 4d 4b 61 68 45 49 4a 2d 2a 1e 1c 1e 1e 1f 1e 1f 1f 1e
3b 34 33 54 38 32 37 39 38 38 3f 3a 36 32 2c 2e 32 35 34 39 3d 3f 54 1a 13 65 1e 71 65 5b 00 79 00 00 00 00 49 3e 45 1c 2f 31 3a 47 48 4f 55 56 5c 52 57 2c 2a 1d 1d 1d 1e 1e 1e 1d 1e 1c
46 33 3b 3c 37 3f 38 3e 37 35 34 35 33 34 2c 31 3f 34 38 39 5b 35 4f 72 12 6d 00 5d 62 45 5b 67 00 00 00 00 57 00 38 5d 27 34 3c 44 46 4d 5d 5c 4c 4e 39 30 21 1e 1c 1e 1d 1f 1d 1f 1e 1e
3a 3a 3b 37 39 35 37 3f 3c 36 33 33 33 32 33 36 35 3a 42 58 44 1e 00 56 63 64 6c 3e 30 2e 73 00 00 00 00 00 74 16 18 65 1d 2d 36 38 4f 53 63 57 52 44 34 26 24 16 49 1c 1e 1d 1f 1e 1e 1f
38 39 3a 4f 4f 3d 35 3c 3b 40 3b 38 33 34 30 2e 2d 71 51 5c 37 5a 40 41 75 67 5b 42 00 39 78 74 58 00 00 00 67 1f 4a 59 1b 1d 2e 37 4d 51 57 47 42 34 2a 21 23 34 25 2c 1c 27 1c 1e 1d 1d
3c 3c 3f 00 44 43 3d 42 57 51 3c 31 31 34 3c 31 36 23 60 52 3a 72 00 22 44 62 6a 34 3c 7c 6d 13 24 00 72 71 68 65 5f 47 11 17 1f 28 3d 42 48 3e 33 2e 21 2a 38 20 24 3a 2f 2a 1e 1e 1e 1e
3d 41 43 48 4f 48 44 53 4c 45 42 33 36 2c 5c 27 27 31 75 6c 59 67 60 32 3a 4b 00 4f 5c 3e 00 5c 59 3f 5e 7a 52 00 00 37 12 11 10 14 25 28 2d 2b 1e 18 1d 26 23 22 20 29 53 1d 1d 1d 1c 1c
3d 52 43 3e 3e 4d 4d 53 4a 44 43 40 3c 59 52 7e 00 47 00 70 39 00 00 61 5e 3e 4a 2c 00 00 69 67 74 50 68 24 63 00 6b 3c 12 10 10 11 11 12 10 16 19 16 18 40 22 1f 29 23 21 32 1d 1e 1b 1b
3a 3f 40 41 4f 49 4b 4c 3d 4d 49 3b 42 62 7e 36 60 00 7a 00 68 00 00 6e 00 21 34 2d 00 45 5a 4b 54 5b 2a 00 6d 78 50 40 13 10 12 0f 10 11 12 10 13 16 15 2f 44 21 30 1d 25 26 1d 1c 1b 1e
41 47 44 55 45 47 50 49 44 48 44 3f 36 6e 00 76 6c 00 7c 3d 00 00 00 7c 00 27 25 2c 67 25 33 45 54 65 00 6d 16 5e 2e 40 39 12 0e 11 11 13 15 12 10 14 0e 10 40 31 2b 1f 5a 20 1b 1b 1e 21
53 40 4b 45 49 43 34 4c 4b 45 4a 3e 58 7f 00 70 5c 5a 51 4c 00 00 71 00 69 26 28 2a 2a 48 26 12 5b 51 53 66 5f 27 42 40 44 3b 15 12 15 16 10 11 19 17 19 13 12 21 1e 22 39 2d 1c 1a 1e 27
3c 40 49 4c 42 44 4d 4f 4e 43 47 4f 50 5c 62 52 3d 4f 3e 6a 00 00 00 2e 1c 26 29 2b 2a 57 00 00 6f 63 60 00 10 3e 4e 3c 35 3e 32 15 17 19 14 14 15 16 1c 17 16 17 21 39 4f 23 1d 27 21 21
3f 42 4c 45 5a 47 44 47 4f 3f 59 3f 55 50 69 4b 3a 19 14 4e 67 00 00 19 27 2a 25 28 74 00 00 00 00 69 13 56 2e 3c 54 5d 48 3e 38 25 1c 1e 18 13 17 15 1a 22 1f 1e 24 1c 38 36 28 32 29 22
45 43 3b 4d 47 4c 4d 39 48 44 53 53 50 61 70 48 57 1f 46 27 14 68 00 11 29 1e 26 2a 00 78 00 00 00 6e 34 00 73 4b 52 63 3f 39 47 2c 1c 1b 19 14 11 13 1a 2e 31 36 54 19 1c 2b 2f 27 2b 20
3d 3f 49 45 48 4a 48 3f 4c 53 36 4f 3e 4a 36 3f 4e 3b 6d 35 21 49 00 16 23 1f 24 26 00 50 00 00 00 70 60 1a 12 40 45 7b 31 34 54 36 22 19 1d 19 19 15 28 39 33 32 1d 1c 1e 2b 2d 25 21 1f
45 4a 3c 47 56 35 3c 52 51 4b 58 40 44 4b 57 55 5c 43 6f 44 19 44 7e 32 23 1b 22 1e 0f 3a 26 71 70 00 7c 61 42 11 48 6b 60 35 4b 4a 28 1a 1b 19 1d 1d 34 2f 2e 29 22 19 35 34 2e 2e 1d 1c
50 52 49 51 48 37 53 4f 4a 51 43 49 5a 52 53 51 31 18 33 3f 25 40 00 3b 30 1d 1f 18 16 38 17 17 5f 6c 54 6b 51 38 3b 57 70 21 47 52 28 19 1c 1a 1b 25 34 3e 45 4a 38 3a 41 38 36 20 1f 23
4b 4b 48 44 4a 39 4f 4d 32 33 2e 50 3b 33 56 45 5f 51 3d 3b 13 41 33 24 18 18 14 14 00 3f 5d 3b 57 31 14 60 61 26 34 3f 68 40 3c 46 36 20 1a 1e 20 3d 38 3a 33 4c 39 2e 41 2f 22 20 1f 34
47 3e 3e 4d 4d 47 3c 52 4c 37 4d 43 43 4a 51 46 41 4f 3c 2e 00 60 23 18 18 17 14 14 79 2d 5a 5e 35 00 33 2e 59 2c 25 35 4e 4b 38 4d 55 3a 1f 1c 27 44 2f 37 73 22 43 3b 27 21 21 1f 28 33
4a 48 47 44 35 47 3c 43 54 5a 42 4c 3f 48 50 48 53 4b 29 40 2b 00 29 24 1c 1b 19 28 4f 00 56 21 37 33 32 34 41 27 18 37 44 60 21 5b 51 48 1b 78 3c 3a 3a 2b 27 1d 2b 2b 24 1b 24 31 35 53
33 40 35 4d 47 39 51 44 46 4c 5a 54 5f 47 43 58 7e 5a 37 4e 20 22 30 20 22 24 22 22 50 1e 21 2c 4b 00 32 1b 39 1f 1a 2f 45 00 32 3b 54 1f 36 33 29 3b 74 36 23 1f 3d 21 1c 20 27 3c 37 38
43 40 40 4d 58 63 38 4e 4d 5d 4b 2f 36 4b 32 43 00 5f 00 4d 20 25 33 2c 42 2f 3d 3c 4a 63 2d 00 77 28 00 1c 2b 19 1d 2f 39 25 48 1d 5a 1c 32 38 2d 50 6e 2d 33 1e 2b 20 21 23 38 38 44 36
3c 43 30 4c 40 50 55 52 37 3a 4c 5d 44 33 21 3f 63 56 2c 5e 1f 46 46 3f 65 55 55 40 4b 70 00 00 00 6f 3d 46 20 30 3f 48 44 57 64 41 40 40 33 3a 00 63 30 25 2c 29 25 1c 26 43 39 3e 3e 35
38 54 50 4c 46 3e 54 53 4f 4d 67 6c 4e 1e 39 33 2a 56 24 48 2b 47 69 43 64 48 57 42 7c 6e 00 7d 74 6e 60 6c 21 2f 39 48 68 62 61 4e 44 39 2d 36 70 69 30 1f 3e 24 21 1f 36 38 45 40 3e 3e
6a 58 3e 3c 4c 49 67 3a 55 5b 40 50 70 2d 2c 37 53 51 61 21 2f 4d 56 6b 60 6a 7f 5f 45 73 68 16 00 5c 66 52 13 00 22 7a 6c 46 27 29 1f 1d 1d 19 2a 54 20 16 3e 26 1e 20 40 3a 41 3a 44 3b
53 46 36 48 4c 4d 41 43 00 1b 1a 55 24 00 77 16 3f 17 1b 2c 6f 2a 3d 5c 50 58 2d 4b 28 53 00 2d 46 79 1e 3e 30 47 61 00 31 38 28 21 14 1d 34 19 3e 48 1a 19 28 21 1d 27 46 4f 37 52 40 35
3e 47 67 3c 42 45 2e 25 2a 23 1b 7a 78 5c 38 5b 72 26 3d 40 57 56 3b 4e 60 38 51 45 00 68 72 27 4a 40 36 26 48 4a 59 5b 1d 1d 3f 38 46 1c 30 44 69 6d 2c 21 22 24 20 26 45 49 44 38 43 38
38 5b 00 1e 00 54 29 22 26 1e 20 71 4a 5b 14 67 2c 26 4c 36 62 33 6a 67 5d 65 71 58 3b 64 00 30 2f 34 33 26 37 3e 6c 00 20 1a 26 38 2c 40 33 54 19 44 76 2f 22 22 24 2f 48 49 48 46 46 47
31 4a 37 50 67 7c 21 00 69 25 28 5f 56 00 35 52 3d 6b 3b 5b 45 42 60 48 61 53 5b 4d 29 67 5f 17 58 4b 28 46 19 41 7a 5b 35 00 2f 18 1b 4b 61 50 1b 55 40 23 1f 2a 44 41 42 49 40 37 3e 41
48 2d 3f 32 67 70 4b 20 49 2c 49 55 3f 67 33 32 3d 4e 5e 55 56 5e 65 59 69 29 31 63 3e 3f 54 39 4c 76 72 37 34 22 5d 1b 00 2f 74 15 2f 6c 5c 24 3f 48 45 26 58 4a 45 43 43 3f 40 3b 41 47
49 47 48 2d 4d 20 4b 60 44 59 39 48 4e 3c 50 6d 52 2c 59 50 00 59 69 58 50 63 49 69 6a 64 5f 51 5d 32 6d 58 30 3d 3a 64 65 46 5f 56 5b 00 63 16 2f 2d 69 57 5a 49 58 49 4e 4b 46 40 45 41
4d 2f 4b 2e 47 6a 2e 49 65 3f 51 3e 4e 38 43 53 55 54 4b 44 3f 61 72 4c 5f 69 38 41 65 63 65 6d 2c 41 38 24 25 20 68 4a 52 66 72 62 66 76 61 22 1d 19 1b 64 49 48 4e 4e 4a 4e 49 46 47 4b
4d 4c 45 4d 44 51 59 33 49 4a 63 35 53 53 3b 4a 4b 61 62 61 44 45 52 4f 5d 00 4b 64 3c 31 5f 46 2b 3d 6b 2d 2c 32 6d 46 5e 67 6f 42 6a 5f 4e 38 32 1b 6a 23 42 57 5d 49 50 56 49 47 36 4c
4c 47 30 43 2e 41 4c 00 4c 35 4f 33 44 5e 4b 41 3f 57 39 59 57 49 46 56 68 6a 55 76 44 5a 61 27 30 36 1d 1b 1c 53 00 00 2f 6f 60 25 6d 3f 4a 5a 38 70 16 5c 7a 15 16 40 1e 39 33 43 45 4d
4c 30 4a 50 36 2c 3c 57 5b 50 5d 58 6b 3a 50 57 37 41 6c 4d 5d 4b 47 42 45 6e 62 52 38 3d 5e 44 3c 1e 38 18 32 31 78 00 44 4f 65 46 35 16 50 40 3b 65 50 5a 61 18 1e 43 31 3d 45 3f 34 34
45 50 27 52 4c 38 61 60 4c 52 38 3c 00 48 38 57 52 4f 62 5e 5b 51 55 34 74 32 48 69 6a 56 3e 34 5d 4f 51 2b 26 38 50 00 58 53 48 5e 24 5e 51 2d 60 3e 48 41 67 47 45 46 45 42 39 32 28 30
