0000 0000 0000 0000 0000 0000 0000 0000 0000 0000 0000 0000 000a 0016 000a 0000 0000 0000 0000 0001 0000 0000 0005 0002 0000 0000 0000 0012 0016 0002 0002 0000 0000 0000 0000 0000 0000 0000 0000 0000 0002 000e 0011 0006 0001 0000 0000 0000 0000 0000 0000 0004 0000 0000 0000 0000 0019 001a 0000 0000 0000 0000 0001 0000 0000 0000 0000 0000 0000 0001 0000 0014 0015 0000 0000 0000 0000 0000 0000 0000 0000 0000 0000 0000 0000 0016 0014 0001 0002 0000 0000 0000 0000 0000 0000 0001 0001 0000 0000 0001 0016 0015 0000 0000 0000 0000 0001 0000 0000 0000 0000 0000 0000 0000 0009 0019 000c 0000 0000 0000 0000 0000 0000 0000 0004 0000 0000 0001 0002 0015 0012 0000 0000 0000 0001 0001 0000 0000 0000 0000 0000 0000 0000 000a 0016 000c 0000 0000 0001 0000 0000 0000 0000 0000 0000 0001 0001 0000 xxxx xxxx 0000 0000 0000 0000 0000 0000 0000 0000 0000 0000 0000 0000 000a 0016 000a 0000 0000 0000 0000 0001 0000 0000 0005 0002 0000 0000 0000 0012 0016 0002 0002 0000 0000 0000 0000 0000 0000 0000 0000 0000 0002 000e 0011 0006 0001 0000 0000 0000 0000 0000 0000 0004 0000 0000 0000 0000 0019 001a 0000 0000 0000 0000 0001 0000 0000 0000 0000 0000 0000 0001 0000 0014 0015 0000 0000 0000 0000 0000 0000 0000 0000 0000 0000 0000 0000 0016 0014 0001 0002 0000 0000 0000 0000 0000 0000 0001 0001 0000 0000 0001 0016 0015 0000 0000 0000 0000 0001 0000 0000 0000 0000 0000 0000 0000 0009 0019 000c 0000 0000 0000 0000 0000 0000 0000 0004 0000 0000 0001 0002 0015 0012 0000 0000 0000 0001 0001 0000 0000 0000 0000 0000 0000 0000 000a 0016 000c 0000 0000 0001 0000 0000 0000 0000 0000 0000 0001 0001 0000
0000 0000 0000 0000 0000 0000 0000 0000 0000 0000 0000 0000 000a 0016 000a 0000 0000 0000 0000 0001 0000 0000 0005 0002 0000 0000 0000 0012 0016 0002 0002 0000 0000 0000 0000 0000 0000 0000 0000 0000 0002 000e 0011 0006 0001 0000 0000 0000 0000 0000 0000 0004 0000 0000 0000 0000 0019 001a 0000 0000 0000 0000 0001 0000 0000 0000 0000 0000 0000 0001 0000 0014 0015 0000 0000 0000 0000 0000 0000 0000 0000 0000 0000 0000 0000 0016 0014 0001 0002 0000 0000 0000 0000 0000 0000 0001 0001 0000 0000 0001 0016 0015 0000 0000 0000 0000 0001 0000 0000 0000 0000 0000 0000 0000 0009 0019 000c 0000 0000 0000 0000 0000 0000 0000 0004 0000 0000 0001 0002 0015 0012 0000 0000 0000 0001 0001 0000 0000 0000 0000 0000 0000 0000 000a 0016 000c 0000 0000 0001 0000 0000 0000 0000 0000 0000 0001 0001 0000 xxxx xxxx 0000 0000 0000 0000 0000 0000 0000 0000 0000 0000 0000 0000 000a 0016 000a 0000 0000 0000 0000 0001 0000 0000 0005 0002 0000 0000 0000 0012 0016 0002 0002 0000 0000 0000 0000 0000 0000 0000 0000 0000 0002 000e 0011 0006 0001 0000 0000 0000 0000 0000 0000 0004 0000 0000 0000 0000 0019 001a 0000 0000 0000 0000 0001 0000 0000 0000 0000 0000 0000 0001 0000 0014 0015 0000 0000 0000 0000 0000 0000 0000 0000 0000 0000 0000 0000 0016 0014 0001 0002 0000 0000 0000 0000 0000 0000 0001 0001 0000 0000 0001 0016 0015 0000 0000 0000 0000 0001 0000 0000 0000 0000 0000 0000 0000 0009 0019 000c 0000 0000 0000 0000 0000 0000 0000 0004 0000 0000 0001 0002 0015 0012 0000 0000 0000 0001 0001 0000 0000 0000 0000 0000 0000 0000 000a 0016 000c 0000 0000 0001 0000 0000 0000 0000 0000 0000 0001 0001 0000
0000 0000 0000 0000 0000 0000 0000 0000 0000 0000 0000 0000 000b 0017 000a 0000 0000 0000 0000 0001 0000 0000 0005 0002 0000 0000 0000 0013 0016 0002 0002 0000 0000 0000 0000 0000 0000 0000 0000 0000 0003 000f 0011 0006 0001 0000 0000 0000 0000 0000 0000 0003 0000 0000 0000 0000 0019 001a 0000 0000 0000 0000 0001 0000 0000 0000 0000 0000 0000 0001 0000 0014 0015 0000 0000 0000 0000 0000 0000 0000 0000 0000 0000 0000 0000 0016 0014 0001 0002 0000 0000 0000 0000 0000 0000 0001 0001 0000 0000 0001 0017 0015 0000 0000 0000 0000 0001 0000 0000 0000 0000 0000 0000 0000 000a 0019 000b 0000 0000 0000 0000 0000 0000 0000 0003 0000 0000 0001 0003 0015 0012 0000 0000 0000 0001 0001 0000 0000 0000 0000 0000 0000 0000 000a 0017 000c 0000 0000 0001 0000 0000 0000 0000 0000 0000 0001 0001 0000 xxxx xxxx 0000 0000 0000 0000 0000 0000 0000 0000 0000 0000 0000 0000 000b 0017 000a 0000 0000 0000 0000 0001 0000 0000 0005 0002 0000 0000 0000 0013 0016 0002 0002 0000 0000 0000 0000 0000 0000 0000 0000 0000 0003 000f 0011 0006 0001 0000 0000 0000 0000 0000 0000 0003 0000 0000 0000 0000 0019 001a 0000 0000 0000 0000 0001 0000 0000 0000 0000 0000 0000 0001 0000 0014 0015 0000 0000 0000 0000 0000 0000 0000 0000 0000 0000 0000 0000 0016 0014 0001 0002 0000 0000 0000 0000 0000 0000 0001 0001 0000 0000 0001 0017 0015 0000 0000 0000 0000 0001 0000 0000 0000 0000 0000 0000 0000 000a 0019 000b 0000 0000 0000 0000 0000 0000 0000 0003 0000 0000 0001 0003 0015 0012 0000 0000 0000 0001 0001 0000 0000 0000 0000 0000 0000 0000 000a 0017 000c 0000 0000 0001 0000 0000 0000 0000 0000 0000 0001 0001 0000
0000 0000 0000 0000 0000 0000 0000 0000 0000 0000 0000 0000 000b 0017 000a 0000 0000 0000 0000 0001 0000 0000 0004 0001 0000 0000 0000 0013 0016 0002 0002 0000 0000 0000 0000 0000 0000 0000 0000 0000 0003 000f 0012 0006 0000 0000 0000 0000 0000 0000 0000 0003 0000 0000 0000 0000 0019 001a 0000 0000 0000 0000 0001 0000 0000 0000 0000 0000 0000 0001 0000 0015 0016 0000 0000 0000 0000 0000 0000 0000 0000 0000 0000 0000 0000 0016 0014 0001 0002 0000 0000 0000 0000 0000 0000 0001 0000 0000 0000 0001 0017 0016 0000 0000 0000 0000 0001 0000 0000 0000 0000 0000 0000 0000 000b 0019 000b 0000 0000 0000 0000 0000 0000 0000 0003 0000 0000 0002 0003 0015 0012 0000 0000 0000 0001 0001 0000 0000 0000 0000 0000 0000 0000 0009 0017 000d 0000 0000 0001 0000 0000 0000 0000 0000 0000 0000 0000 0000 xxxx xxxx 0000 0000 0000 0000 0000 0000 0000 0000 0000 0000 0000 0000 000b 0017 000a 0000 0000 0000 0000 0001 0000 0000 0004 0001 0000 0000 0000 0013 0016 0002 0002 0000 0000 0000 0000 0000 0000 0000 0000 0000 0003 000f 0012 0006 0000 0000 0000 0000 0000 0000 0000 0003 0000 0000 0000 0000 0019 001a 0000 0000 0000 0000 0001 0000 0000 0000 0000 0000 0000 0001 0000 0015 0016 0000 0000 0000 0000 0000 0000 0000 0000 0000 0000 0000 0000 0016 0014 0001 0002 0000 0000 0000 0000 0000 0000 0001 0000 0000 0000 0001 0017 0016 0000 0000 0000 0000 0001 0000 0000 0000 0000 0000 0000 0000 000b 0019 000b 0000 0000 0000 0000 0000 0000 0000 0003 0000 0000 0002 0003 0015 0012 0000 0000 0000 0001 0001 0000 0000 0000 0000 0000 0000 0000 0009 0017 000d 0000 0000 0001 0000 0000 0000 0000 0000 0000 0000 0000 0000
0000 0000 0000 0000 0000 0000 0000 0000 0000 0000 0000 0000 000c 0018 000a 0000 0000 0000 0000 0001 0000 0000 0004 0001 0000 0000 0000 0014 0016 0002 0002 0000 0000 0000 0000 0000 0000 0000 0000 0000 0004 0010 0012 0006 0000 0000 0000 0000 0000 0000 0000 0002 0000 0000 0000 0000 0019 001a 0000 0000 0000 0000 0001 0000 0000 0000 0000 0000 0000 0001 0000 0015 0016 0000 0000 0000 0000 0000 0000 0000 0000 0000 0000 0000 0000 0016 0014 0001 0002 0000 0000 0000 0000 0000 0000 0001 0000 0000 0000 0001 0018 0016 0000 0000 0000 0000 0001 0000 0000 0000 0000 0000 0000 0000 000c 0019 000a 0000 0000 0000 0000 0000 0000 0000 0002 0000 0000 0002 0004 0015 0012 0000 0000 0000 0001 0001 0000 0000 0000 0000 0000 0000 0000 0009 0018 000d 0000 0000 0001 0000 0000 0000 0000 0000 0000 0000 0000 0000 xxxx xxxx 0000 0000 0000 0000 0000 0000 0000 0000 0000 0000 0000 0000 000c 0018 000a 0000 0000 0000 0000 0001 0000 0000 0004 0001 0000 0000 0000 0014 0016 0002 0002 0000 0000 0000 0000 0000 0000 0000 0000 0000 0004 0010 0012 0006 0000 0000 0000 0000 0000 0000 0000 0002 0000 0000 0000 0000 0019 001a 0000 0000 0000 0000 0001 0000 0000 0000 0000 0000 0000 0001 0000 0015 0016 0000 0000 0000 0000 0000 0000 0000 0000 0000 0000 0000 0000 0016 0014 0001 0002 0000 0000 0000 0000 0000 0000 0001 0000 0000 0000 0001 0018 0016 0000 0000 0000 0000 0001 0000 0000 0000 0000 0000 0000 0000 000c 0019 000a 0000 0000 0000 0000 0000 0000 0000 0002 0000 0000 0002 0004 0015 0012 0000 0000 0000 0001 0001 0000 0000 0000 0000 0000 0000 0000 0009 0018 000d 0000 0000 0001 0000 0000 0000 0000 0000 0000 0000 0000 0000
0000 0000 0000 0000 0000 0000 0000 0000 0000 0000 0000 0000 000c 0018 000a 0000 0000 0000 0000 0001 0000 0000 0004 0001 0000 0000 0000 0014 0016 0002 0002 0000 0000 0000 0000 0000 0000 0000 0000 0000 0004 0010 0012 0006 0000 0000 0000 0000 0000 0000 0000 0002 0000 0000 0000 0000 0019 001a 0000 0000 0000 0000 0001 0000 0000 0000 0000 0000 0000 0001 0000 0015 0016 0000 0000 0000 0000 0000 0000 0000 0000 0000 0000 0000 0000 0016 0014 0001 0002 0000 0000 0000 0000 0000 0000 0001 0000 0000 0000 0001 0018 0016 0000 0000 0000 0000 0001 0000 0000 0000 0000 0000 0000 0000 000c 0019 000a 0000 0000 0000 0000 0000 0000 0000 0002 0000 0000 0002 0004 0015 0012 0000 0000 0000 0001 0001 0000 0000 0000 0000 0000 0000 0000 0009 0018 000d 0000 0000 0001 0000 0000 0000 0000 0000 0000 0000 0000 0000 xxxx xxxx 0000 0000 0000 0000 0000 0000 0000 0000 0000 0000 0000 0000 000c 0018 000a 0000 0000 0000 0000 0001 0000 0000 0004 0001 0000 0000 0000 0014 0016 0002 0002 0000 0000 0000 0000 0000 0000 0000 0000 0000 0004 0010 0012 0006 0000 0000 0000 0000 0000 0000 0000 0002 0000 0000 0000 0000 0019 001a 0000 0000 0000 0000 0001 0000 0000 0000 0000 0000 0000 0001 0000 0015 0016 0000 0000 0000 0000 0000 0000 0000 0000 0000 0000 0000 0000 0016 0014 0001 0002 0000 0000 0000 0000 0000 0000 0001 0000 0000 0000 0001 0018 0016 0000 0000 0000 0000 0001 0000 0000 0000 0000 0000 0000 0000 000c 0019 000a 0000 0000 0000 0000 0000 0000 0000 0002 0000 0000 0002 0004 0015 0012 0000 0000 0000 0001 0001 0000 0000 0000 0000 0000 0000 0000 0009 0018 000d 0000 0000 0001 0000 0000 0000 0000 0000 0000 0000 0000 0000
0000 0000 0000 0000 0000 0000 0000 0000 0000 0000 0000 0000 0005 000d 0006 0000 0000 0000 0000 0001 0000 0000 0003 0000 0000 0000 0000 000b 000b 0000 0002 0000 0000 0000 0000 0000 0000 0000 0000 0000 0003 0009 0008 0002 0000 0000 0000 0000 0000 0000 0000 0001 0000 0000 0000 0000 000d 000f 0000 0000 0000 0000 0001 0000 0000 0000 0000 0000 0000 0000 0000 000c 000b 0000 0000 0000 0000 0000 0000 0000 0000 0000 0000 0000 0000 000b 000b 0001 0001 0000 0000 0000 0000 0000 0000 0001 0000 0000 0000 0001 000d 000a 0000 0000 0000 0000 0000 0000 0000 0000 0000 0000 0000 0000 0007 000f 0004 0000 0000 0000 0001 0000 0000 0000 0002 0000 0000 0001 0001 000b 000b 0000 0000 0000 0000 0001 0000 0000 0000 0000 0000 0000 0000 0005 000d 0006 0000 0000 0001 0000 0000 0000 0000 0000 0000 0000 0000 0000 xxxx xxxx 0000 0000 0000 0000 0000 0000 0000 0000 0000 0000 0000 0000 0005 000d 0006 0000 0000 0000 0000 0001 0000 0000 0003 0000 0000 0000 0000 000b 000b 0000 0002 0000 0000 0000 0000 0000 0000 0000 0000 0000 0003 0009 0008 0002 0000 0000 0000 0000 0000 0000 0000 0001 0000 0000 0000 0000 000d 000f 0000 0000 0000 0000 0001 0000 0000 0000 0000 0000 0000 0000 0000 000c 000b 0000 0000 0000 0000 0000 0000 0000 0000 0000 0000 0000 0000 000b 000b 0001 0001 0000 0000 0000 0000 0000 0000 0001 0000 0000 0000 0001 000d 000a 0000 0000 0000 0000 0000 0000 0000 0000 0000 0000 0000 0000 0007 000f 0004 0000 0000 0000 0001 0000 0000 0000 0002 0000 0000 0001 0001 000b 000b 0000 0000 0000 0000 0001 0000 0000 0000 0000 0000 0000 0000 0005 000d 0006 0000 0000 0001 0000 0000 0000 0000 0000 0000 0000 0000 0000
0000 0000 0000 0000 0000 000a 0007 0000 0002 0000 0000 0000 0000 0000 0000 0000 0001 0000 0000 0001 0009 0009 0000 0000 0000 0000 0000 0000 0000 0000 0000 0000 0000 0000 0006 000d 0003 0000 0000 0000 0001 0000 0000 0000 0001 0000 0000 0000 0003 000a 0006 0000 0000 0000 0001 0000 0000 0000 0000 0000 0000 0000 0000 0005 0009 0005 0000 0000 0000 0000 0000 0000 0000 0000 0000 0000 0000 0000 0009 0009 0000 0000 0000 0000 0000 0000 0000 0000 0000 0000 0000 0000 0006 0009 0005 0000 0000 0000 0000 0000 0000 0000 0000 0002 0000 0000 0000 0006 0009 0003 0000 0000 0000 0000 0000 0000 0000 0000 0000 0000 0003 0007 0005 0002 0001 0000 0000 0000 0000 0000 0000 0000 0000 0000 0000 0000 000c 0009 0000 0000 0000 0001 0000 0000 0000 0000 0000 0000 0000 0002 0000 0007 0009 0000 0000 0000 0000 0000 xxxx xxxx 0000 0000 0000 0000 0000 000a 0007 0000 0002 0000 0000 0000 0000 0000 0000 0000 0001 0000 0000 0001 0009 0009 0000 0000 0000 0000 0000 0000 0000 0000 0000 0000 0000 0000 0006 000d 0003 0000 0000 0000 0001 0000 0000 0000 0001 0000 0000 0000 0003 000a 0006 0000 0000 0000 0001 0000 0000 0000 0000 0000 0000 0000 0000 0005 0009 0005 0000 0000 0000 0000 0000 0000 0000 0000 0000 0000 0000 0000 0009 0009 0000 0000 0000 0000 0000 0000 0000 0000 0000 0000 0000 0000 0006 0009 0005 0000 0000 0000 0000 0000 0000 0000 0000 0002 0000 0000 0000 0006 0009 0003 0000 0000 0000 0000 0000 0000 0000 0000 0000 0000 0003 0007 0005 0002 0001 0000 0000 0000 0000 0000 0000 0000 0000 0000 0000 0000 000c 0009 0000 0000 0000 0001 0000 0000 0000 0000 0000 0000 0000 0002 0000 0007 0009 0000 0000 0000 0000 0000
0000 0000 0000 0000 0000 0015 0013 0001 0002 0000 0000 0000 0000 0000 0000 0000 0000 0000 0000 0003 0016 0013 0000 0000 0000 0000 0000 0000 0000 0000 0000 0000 0000 0000 000b 0018 000a 0000 0000 0000 0000 0000 0000 0000 0002 0000 0000 0000 0004 0015 0011 0000 0000 0000 0000 0001 0000 0000 0000 0000 0000 0000 0000 000b 0016 000a 0000 0000 0000 0000 0000 0000 0000 0000 0000 0000 0000 0000 0015 0015 0000 0000 0000 0000 0000 0000 0000 0000 0000 0001 0000 0000 000b 0016 000b 0000 0000 0000 0000 0000 0000 0000 0000 0002 0000 0000 0000 0011 0014 0004 0001 0000 0000 0000 0000 0000 0000 0000 0000 0000 0004 000e 0010 0007 0001 0000 0000 0000 0000 0000 0000 0000 0000 0000 0000 0000 0017 0016 0000 0000 0000 0001 0000 0000 0000 0000 0000 0000 0000 0003 0002 0012 0014 0000 0000 0000 0000 0000 xxxx xxxx 0000 0000 0000 0000 0000 0015 0013 0001 0002 0000 0000 0000 0000 0000 0000 0000 0000 0000 0000 0003 0016 0013 0000 0000 0000 0000 0000 0000 0000 0000 0000 0000 0000 0000 000b 0018 000a 0000 0000 0000 0000 0000 0000 0000 0002 0000 0000 0000 0004 0015 0011 0000 0000 0000 0000 0001 0000 0000 0000 0000 0000 0000 0000 000b 0016 000a 0000 0000 0000 0000 0000 0000 0000 0000 0000 0000 0000 0000 0015 0015 0000 0000 0000 0000 0000 0000 0000 0000 0000 0001 0000 0000 000b 0016 000b 0000 0000 0000 0000 0000 0000 0000 0000 0002 0000 0000 0000 0011 0014 0004 0001 0000 0000 0000 0000 0000 0000 0000 0000 0000 0004 000e 0010 0007 0001 0000 0000 0000 0000 0000 0000 0000 0000 0000 0000 0000 0017 0016 0000 0000 0000 0001 0000 0000 0000 0000 0000 0000 0000 0003 0002 0012 0014 0000 0000 0000 0000 0000
0000 0000 0000 0000 0000 0016 0015 0001 0001 0000 0000 0000 0000 0000 0000 0001 0000 0000 0000 0002 0017 0015 0000 0000 0000 0000 0000 0000 0000 0000 0000 0000 0000 0000 000a 001b 000c 0000 0000 0000 0000 0000 0000 0000 0003 0000 0000 0000 0005 0017 0011 0000 0000 0000 0000 0000 0000 0000 0000 0000 0000 0000 0000 000a 0018 000b 0000 0000 0001 0000 0000 0000 0000 0000 0000 0000 0000 0000 0016 0016 0000 0000 0000 0000 0000 0000 0000 0000 0000 0002 0000 0000 000c 0017 000a 0000 0000 0000 0000 0000 0000 0000 0001 0004 0000 0000 0000 0011 0016 0005 0001 0000 0000 0000 0000 0000 0000 0000 0000 0000 0003 0010 0013 0006 0000 0000 0000 0000 0000 0000 0000 0001 0000 0000 0000 0000 0019 0018 0001 0000 0000 0000 0000 0000 0000 0000 0000 0000 0000 0002 0003 0014 0015 0000 0000 0000 0000 0000 xxxx xxxx 0000 0000 0000 0000 0000 0016 0015 0001 0001 0000 0000 0000 0000 0000 0000 0001 0000 0000 0000 0002 0017 0015 0000 0000 0000 0000 0000 0000 0000 0000 0000 0000 0000 0000 000a 001b 000c 0000 0000 0000 0000 0000 0000 0000 0003 0000 0000 0000 0005 0017 0011 0000 0000 0000 0000 0000 0000 0000 0000 0000 0000 0000 0000 000a 0018 000b 0000 0000 0001 0000 0000 0000 0000 0000 0000 0000 0000 0000 0016 0016 0000 0000 0000 0000 0000 0000 0000 0000 0000 0002 0000 0000 000c 0017 000a 0000 0000 0000 0000 0000 0000 0000 0001 0004 0000 0000 0000 0011 0016 0005 0001 0000 0000 0000 0000 0000 0000 0000 0000 0000 0003 0010 0013 0006 0000 0000 0000 0000 0000 0000 0000 0001 0000 0000 0000 0000 0019 0018 0001 0000 0000 0000 0000 0000 0000 0000 0000 0000 0000 0002 0003 0014 0015 0000 0000 0000 0000 0000
0000 0000 0000 0000 0000 0017 0015 0000 0001 0000 0000 0000 0000 0000 0000 0002 0000 0000 0000 0001 0017 0017 0000 0000 0000 0000 0001 0000 0000 0000 0000 0000 0000 0000 000a 001c 000c 0000 0000 0000 0001 0000 0000 0000 0004 0000 0000 0000 0004 0017 0011 0000 0000 0000 0001 0001 0000 0000 0000 0000 0000 0001 0000 0009 0019 000c 0000 0000 0001 0000 0000 0000 0000 0000 0000 0000 0000 0000 0016 0016 0000 0000 0000 0000 0000 0000 0000 0000 0000 0002 0000 0000 000d 0017 0008 0000 0000 0000 0000 0000 0000 0000 0003 0004 0000 0000 0000 0012 0018 0003 0000 0000 0000 0000 0000 0000 0000 0000 0000 0000 0002 0010 0014 0005 0000 0000 0000 0000 0000 0000 0000 0002 0000 0000 0000 0000 001a 0019 0000 0000 0000 0000 0001 0000 0000 0000 0000 0000 0000 0001 0002 0014 0016 0000 0000 0000 0000 0000 xxxx xxxx 0000 0000 0000 0000 0000 0017 0015 0000 0001 0000 0000 0000 0000 0000 0000 0002 0000 0000 0000 0001 0017 0017 0000 0000 0000 0000 0001 0000 0000 0000 0000 0000 0000 0000 000a 001c 000c 0000 0000 0000 0001 0000 0000 0000 0004 0000 0000 0000 0004 0017 0011 0000 0000 0000 0001 0001 0000 0000 0000 0000 0000 0001 0000 0009 0019 000c 0000 0000 0001 0000 0000 0000 0000 0000 0000 0000 0000 0000 0016 0016 0000 0000 0000 0000 0000 0000 0000 0000 0000 0002 0000 0000 000d 0017 0008 0000 0000 0000 0000 0000 0000 0000 0003 0004 0000 0000 0000 0012 0018 0003 0000 0000 0000 0000 0000 0000 0000 0000 0000 0000 0002 0010 0014 0005 0000 0000 0000 0000 0000 0000 0000 0002 0000 0000 0000 0000 001a 0019 0000 0000 0000 0000 0001 0000 0000 0000 0000 0000 0000 0001 0002 0014 0016 0000 0000 0000 0000 0000
0000 0000 0000 0000 0000 0017 0014 0001 0002 0000 0000 0000 0000 0000 0000 0001 0000 0000 0000 0002 0018 0016 0000 0000 0000 0000 0001 0000 0000 0000 0000 0000 0000 0000 000b 001a 000b 0000 0000 0000 0000 0000 0000 0000 0003 0000 0000 0002 0004 0016 0012 0000 0000 0000 0001 0001 0000 0000 0000 0000 0000 0000 0000 000a 0017 000c 0000 0000 0001 0000 0000 0000 0000 0000 0000 0001 0001 0000 0015 0015 0000 0000 0000 0000 0000 0000 0000 0000 0000 0000 0000 0000 000c 0018 0009 0000 0000 0000 0000 0001 0000 0000 0004 0002 0000 0000 0000 0014 0017 0002 0001 0000 0000 0000 0000 0000 0000 0000 0000 0000 0003 0010 0012 0006 0000 0000 0000 0000 0000 0000 0000 0002 0000 0000 0000 0000 0019 001a 0000 0000 0000 0000 0001 0000 0000 0000 0000 0000 0000 0001 0001 0014 0016 0000 0000 0000 0000 0000 xxxx xxxx 0000 0000 0000 0000 0000 0017 0014 0001 0002 0000 0000 0000 0000 0000 0000 0001 0000 0000 0000 0002 0018 0016 0000 0000 0000 0000 0001 0000 0000 0000 0000 0000 0000 0000 000b 001a 000b 0000 0000 0000 0000 0000 0000 0000 0003 0000 0000 0002 0004 0016 0012 0000 0000 0000 0001 0001 0000 0000 0000 0000 0000 0000 0000 000a 0017 000c 0000 0000 0001 0000 0000 0000 0000 0000 0000 0001 0001 0000 0015 0015 0000 0000 0000 0000 0000 0000 0000 0000 0000 0000 0000 0000 000c 0018 0009 0000 0000 0000 0000 0001 0000 0000 0004 0002 0000 0000 0000 0014 0017 0002 0001 0000 0000 0000 0000 0000 0000 0000 0000 0000 0003 0010 0012 0006 0000 0000 0000 0000 0000 0000 0000 0002 0000 0000 0000 0000 0019 001a 0000 0000 0000 0000 0001 0000 0000 0000 0000 0000 0000 0001 0001 0014 0016 0000 0000 0000 0000 0000
0000 0000 0000 0000 0000 0016 0014 0001 0002 0000 0000 0000 0000 0000 0000 0000 0000 0000 0000 0002 0018 0015 0000 0000 0000 0000 0001 0000 0000 0000 0000 0000 0000 0000 000c 0019 000a 0000 0000 0000 0000 0000 0000 0000 0002 0000 0000 0002 0004 0015 0012 0000 0000 0000 0001 0001 0000 0000 0000 0000 0000 0000 0000 000a 0016 000c 0000 0000 0001 0000 0000 0000 0000 0000 0000 0001 0001 0000 0015 0015 0000 0000 0000 0000 0000 0000 0000 0000 0000 0000 0000 0000 000c 0018 000a 0000 0000 0000 0000 0001 0000 0000 0004 0001 0000 0000 0000 0014 0016 0002 0002 0000 0000 0000 0000 0000 0000 0000 0000 0000 0004 0010 0011 0006 0001 0000 0000 0000 0000 0000 0000 0002 0000 0000 0000 0000 0019 001a 0000 0000 0000 0000 0001 0000 0000 0000 0000 0000 0000 0001 0000 0015 0016 0000 0000 0000 0000 0000 xxxx xxxx 0000 0000 0000 0000 0000 0016 0014 0001 0002 0000 0000 0000 0000 0000 0000 0000 0000 0000 0000 0002 0018 0015 0000 0000 0000 0000 0001 0000 0000 0000 0000 0000 0000 0000 000c 0019 000a 0000 0000 0000 0000 0000 0000 0000 0002 0000 0000 0002 0004 0015 0012 0000 0000 0000 0001 0001 0000 0000 0000 0000 0000 0000 0000 000a 0016 000c 0000 0000 0001 0000 0000 0000 0000 0000 0000 0001 0001 0000 0015 0015 0000 0000 0000 0000 0000 0000 0000 0000 0000 0000 0000 0000 000c 0018 000a 0000 0000 0000 0000 0001 0000 0000 0004 0001 0000 0000 0000 0014 0016 0002 0002 0000 0000 0000 0000 0000 0000 0000 0000 0000 0004 0010 0011 0006 0001 0000 0000 0000 0000 0000 0000 0002 0000 0000 0000 0000 0019 001a 0000 0000 0000 0000 0001 0000 0000 0000 0000 0000 0000 0001 0000 0015 0016 0000 0000 0000 0000 0000
0000 0000 0000 0000 0000 0016 0014 0001 0002 0000 0000 0000 0000 0000 0000 0000 0000 0000 0000 0002 0018 0015 0000 0000 0000 0000 0001 0000 0000 0000 0000 0000 0000 0000 000c 0019 000a 0000 0000 0000 0000 0000 0000 0000 0002 0000 0000 0002 0004 0015 0012 0000 0000 0000 0001 0001 0000 0000 0000 0000 0000 0000 0000 000a 0016 000c 0000 0000 0001 0000 0000 0000 0000 0000 0000 0001 0001 0000 0015 0015 0000 0000 0000 0000 0000 0000 0000 0000 0000 0000 0000 0000 000c 0018 000a 0000 0000 0000 0000 0001 0000 0000 0004 0001 0000 0000 0000 0014 0016 0002 0002 0000 0000 0000 0000 0000 0000 0000 0000 0000 0004 0010 0011 0006 0001 0000 0000 0000 0000 0000 0000 0002 0000 0000 0000 0000 0019 001a 0000 0000 0000 0000 0001 0000 0000 0000 0000 0000 0000 0001 0000 0015 0016 0000 0000 0000 0000 0000 xxxx xxxx 0000 0000 0000 0000 0000 0016 0014 0001 0002 0000 0000 0000 0000 0000 0000 0000 0000 0000 0000 0002 0018 0015 0000 0000 0000 0000 0001 0000 0000 0000 0000 0000 0000 0000 000c 0019 000a 0000 0000 0000 0000 0000 0000 0000 0002 0000 0000 0002 0004 0015 0012 0000 0000 0000 0001 0001 0000 0000 0000 0000 0000 0000 0000 000a 0016 000c 0000 0000 0001 0000 0000 0000 0000 0000 0000 0001 0001 0000 0015 0015 0000 0000 0000 0000 0000 0000 0000 0000 0000 0000 0000 0000 000c 0018 000a 0000 0000 0000 0000 0001 0000 0000 0004 0001 0000 0000 0000 0014 0016 0002 0002 0000 0000 0000 0000 0000 0000 0000 0000 0000 0004 0010 0011 0006 0001 0000 0000 0000 0000 0000 0000 0002 0000 0000 0000 0000 0019 001a 0000 0000 0000 0000 0001 0000 0000 0000 0000 0000 0000 0001 0000 0015 0016 0000 0000 0000 0000 0000
0000 0000 0000 0000 0000 0011 000e 0000 0002 0000 0000 0000 0000 0000 0000 0000 0000 0000 0000 0001 0011 000f 0000 0000 0000 0000 0001 0000 0000 0000 0000 0000 0000 0000 0009 0012 0007 0000 0000 0000 0000 0000 0000 0000 0002 0000 0000 0002 0002 000f 000e 0000 0000 0000 0001 0001 0000 0000 0000 0000 0000 0000 0000 0007 0011 0009 0000 0000 0001 0000 0000 0000 0000 0000 0000 0001 0001 0000 000f 000f 0000 0000 0000 0000 0000 0000 0000 0000 0000 0000 0000 0000 0008 0011 0007 0000 0000 0000 0000 0001 0000 0000 0003 0001 0000 0000 0000 000f 0010 0001 0002 0000 0000 0000 0000 0000 0000 0000 0000 0000 0002 000c 000c 0004 0001 0000 0000 0000 0000 0000 0000 0002 0000 0000 0000 0000 0012 0014 0000 0000 0000 0000 0001 0000 0000 0000 0000 0000 0000 0000 0000 000f 0010 0000 0000 0000 0000 0000 xxxx xxxx 0000 0000 0000 0000 0000 0011 000e 0000 0002 0000 0000 0000 0000 0000 0000 0000 0000 0000 0000 0001 0011 000f 0000 0000 0000 0000 0001 0000 0000 0000 0000 0000 0000 0000 0007 0010 0007 0003 0002 0000 0000 0000 0000 0000 0000 0000 0005 0002 0002 000c 000f 0002 0000 0000 0006 0000 0000 0000 0000 0004 0002 0000 0000 0007 0011 0009 0000 0000 0001 0000 0000 0000 0000 0000 0000 0001 0001 0000 000f 000f 0000 0000 0000 0000 0000 0000 0000 0000 0000 0000 0000 0000 0008 0011 0007 0000 0000 0000 0000 0001 0000 0000 0003 0001 0000 0000 0000 000f 0010 0001 0002 0000 0000 0000 0000 0000 0000 0000 0000 0000 0002 000c 000c 0004 0001 0000 0000 0000 0000 0000 0000 0002 0000 0000 0000 0000 0012 0014 0000 0000 0000 0000 0001 0000 0000 0000 0000 0000 0000 0000 0000 000f 0010 0000 0000 0000 0000 0000
0000 0000 0000 0000 0000 0001 0000 0000 0002 0000 0000 0000 0000 0000 0001 0001 0000 0000 0000 0000 0000 0000 0000 0000 0000 0000 0000 0000 0002 0001 0000 0000 0000 0000 0000 0000 0000 0000 0000 0000 0000 0002 0001 0000 0001 0000 0000 0001 0000 0000 0000 0000 0000 0000 0000 0000 0000 0001 0001 0000 0000 0000 0000 0000 0000 0000 0000 0000 0000 0000 0001 0003 0000 0000 0000 0001 0001 0000 0000 0000 0000 0000 0000 0000 0000 0001 0001 0001 0000 0000 0000 0000 0000 0000 0000 0001 0000 0000 0000 0002 0000 0000 0002 0000 0000 0000 0000 0000 0000 0000 0001 0000 0000 0000 0002 0003 0000 0000 0000 0000 0000 0000 0000 0000 0002 0000 0000 0000 0001 0002 0000 0000 0000 0000 0000 0000 0001 0000 0000 0000 0000 0000 0000 0001 0002 0001 0000 0000 0000 0000 0000 0000 0000 0000 0000 0000 0000 0000 xxxx xxxx 0000 0000 0000 0000 0000 0001 0000 0000 0002 0000 0000 0000 0000 0000 0001 0001 0000 0000 0000 0000 0000 0000 0000 0000 0000 0000 0000 0000 0002 0001 0000 0000 0000 0003 0000 0000 0000 0002 0007 0000 0000 0000 0000 0000 0000 0000 0004 0000 0000 0005 0012 0002 0014 003c 0024 0001 0009 0001 0000 0005 0003 0000 0001 0000 0000 0000 0000 0000 0000 0000 0001 0003 0000 0000 0000 0001 0001 0000 0000 0000 0000 0000 0000 0000 0000 0001 0001 0001 0000 0000 0000 0000 0000 0000 0000 0001 0000 0000 0000 0002 0000 0000 0002 0000 0000 0000 0000 0000 0000 0000 0001 0000 0000 0000 0002 0003 0000 0000 0000 0000 0000 0000 0000 0000 0002 0000 0000 0000 0001 0002 0000 0000 0000 0000 0000 0000 0001 0000 0000 0000 0000 0000 0000 0001 0002 0001 0000 0000 0000 0000 0000 0000 0000 0000 0000 0000 0000 0000
0000 0000 0000 0000 0000 0000 0000 0000 0002 0000 0000 0000 0009 0011 0008 0001 0001 0000 0000 0000 0000 0000 0000 0000 0000 0000 0000 000f 0013 0004 0000 0000 0000 0000 0000 0000 0000 0001 0000 0000 0000 000b 0014 0007 0000 0000 0000 0000 0000 0000 0000 0001 0000 0000 0000 0001 000f 0012 0003 0000 0000 0000 0000 0000 0000 0000 0000 0000 0001 0000 0002 0014 000f 0000 0000 0000 0000 0000 0000 0000 0000 0000 0000 0000 0000 0011 0012 0001 0001 0001 0000 0000 0000 0000 0000 0002 0000 0000 0000 0004 0011 000e 0001 0001 0000 0000 0000 0000 0000 0000 0000 0000 0000 0000 0009 0015 0009 0001 0000 0000 0000 0000 0000 0000 0003 0000 0000 0000 0003 0012 000f 0000 0000 0000 0000 0000 0000 0000 0000 0000 0000 0000 0000 0008 0015 000a 0000 0000 0000 0000 0000 0000 0000 0000 0000 0000 0000 0000 xxxx xxxx 0000 0000 0000 0000 0000 0000 0000 0000 0002 0000 0000 0000 0009 0011 0008 0001 0001 0000 0000 0000 0000 0000 0000 0000 0000 0000 0000 000f 0013 0004 0000 0000 0000 0002 0000 0000 0000 0000 0000 0000 0000 0000 0000 0000 0000 0000 0000 0000 0000 000e 0018 0000 003b 007b 0039 0010 004b 003a 0022 001b 0000 0007 0002 0000 0000 0000 0000 0000 0001 0000 0002 0014 000f 0000 0000 0000 0000 0000 0000 0000 0000 0000 0000 0000 0000 0011 0012 0001 0001 0001 0000 0000 0000 0000 0000 0002 0000 0000 0000 0004 0011 000e 0001 0001 0000 0000 0000 0000 0000 0000 0000 0000 0000 0000 0009 0015 0009 0001 0000 0000 0000 0000 0000 0000 0003 0000 0000 0000 0003 0012 000f 0000 0000 0000 0000 0000 0000 0000 0000 0000 0000 0000 0000 0008 0015 000a 0000 0000 0000 0000 0000 0000 0000 0000 0000 0000 0000 0000
0000 0000 0000 0000 0000 0000 0000 0000 0000 0000 0000 0000 000e 0016 0009 0001 0000 0000 0000 0000 0000 0000 0000 0000 0000 0000 0000 0014 0017 0003 0001 0000 0000 0000 0000 0000 0000 0001 0000 0000 0000 000e 0019 0009 0000 0000 0000 0000 0000 0000 0000 0001 0000 0000 0000 0001 0012 0015 0004 0000 0000 0000 0000 0000 0000 0000 0000 0000 0000 0000 0003 0018 0014 0000 0000 0000 0000 0000 0000 0000 0000 0000 0000 0000 0000 0015 0015 0001 0002 0001 0000 0000 0000 0000 0000 0000 0001 0000 0000 0005 0017 0011 0000 0000 0000 0000 0000 0000 0000 0000 0000 0000 0000 0000 000d 001a 000a 0000 0000 0000 0000 0000 0000 0000 0002 0000 0000 0003 0003 0015 0013 0000 0000 0000 0000 0000 0000 0000 0000 0000 0000 0000 0000 000a 0018 000e 0000 0000 0000 0000 0000 0000 0000 0000 0000 0000 0000 0000 xxxx xxxx 0000 0000 0000 0000 0000 0000 0000 0000 0000 0000 0000 0000 000e 0016 0009 0001 0000 0000 0000 0000 0000 0000 0000 0000 0000 0000 0000 0014 0017 0003 0001 0000 0000 0001 0000 0000 0000 0000 0000 0000 0000 0000 0000 0000 0000 0000 0000 0000 0000 000d 000d 0000 0021 0037 0019 000c 0072 006b 0047 004f 0050 0044 0000 0000 0000 0000 0000 0000 0000 0000 0003 0018 0014 0000 0000 0000 0000 0000 0000 0000 0000 0000 0000 0000 0000 0015 0015 0001 0002 0001 0000 0000 0000 0000 0000 0000 0001 0000 0000 0005 0017 0011 0000 0000 0000 0000 0000 0000 0000 0000 0000 0000 0000 0000 000d 001a 000a 0000 0000 0000 0000 0000 0000 0000 0002 0000 0000 0003 0003 0015 0013 0000 0000 0000 0000 0000 0000 0000 0000 0000 0000 0000 0000 000a 0018 000e 0000 0000 0000 0000 0000 0000 0000 0000 0000 0000 0000 0000
0000 0000 0000 0000 0000 0000 0000 0000 0000 0002 0000 0000 000e 0015 0009 0000 0000 0000 0000 0000 0000 0000 0000 0000 0000 0000 0000 0013 0015 0001 0001 0000 0000 0001 0000 0000 0000 0001 0000 0000 0000 000d 0017 0007 0000 0000 0000 0000 0000 0000 0000 0002 0000 0000 0000 0000 0013 0016 0001 0000 0000 0001 0000 0000 0000 0000 0000 0000 0000 0000 0004 0015 0014 0000 0000 0000 0000 0000 0000 0000 0000 0000 0000 0000 0000 0014 0013 0002 0001 0000 0000 0000 0000 0000 0000 0000 0002 0000 0000 0004 0017 0011 0000 0000 0000 0000 0001 0000 0000 0000 0000 0000 0000 0000 000c 0019 0008 0000 0000 0000 0001 0000 0000 0000 0002 0000 0000 0003 0002 0013 0013 0000 0000 0000 0000 0001 0000 0000 0000 0000 0000 0000 0000 000a 0015 000d 0000 0000 0001 0000 0000 0000 0000 0000 0000 0000 0000 0000 xxxx xxxx 0000 0000 0000 0000 0000 0000 0000 0000 0000 0002 0000 0000 000e 0015 0009 0000 0000 0000 0000 0000 0000 0000 0000 0000 0000 0000 0000 0015 0012 0000 0003 0002 0000 0000 0000 0000 0000 0000 0000 0000 0002 0000 0000 0000 0000 0004 0002 0000 0000 0001 0001 0001 0002 0000 0000 0002 0035 0036 0023 004a 00a6 007c 0049 0047 0000 0000 0000 0007 0001 0000 0004 0014 0014 0000 0000 0000 0000 0000 0000 0000 0000 0000 0000 0000 0000 0014 0013 0002 0001 0000 0000 0000 0000 0000 0000 0000 0002 0000 0000 0004 0017 0011 0000 0000 0000 0000 0001 0000 0000 0000 0000 0000 0000 0000 000c 0019 0008 0000 0000 0000 0001 0000 0000 0000 0002 0000 0000 0003 0002 0013 0013 0000 0000 0000 0000 0001 0000 0000 0000 0000 0000 0000 0000 000a 0015 000d 0000 0000 0001 0000 0000 0000 0000 0000 0000 0000 0000 0000
0000 0000 0000 0000 0000 0000 0000 0000 0000 0001 0000 0000 000c 0016 000a 0000 0000 0000 0000 0000 0000 0000 0003 0001 0000 0000 0000 0013 0015 0002 0000 0000 0000 0000 0000 0000 0000 0000 0000 0000 0002 000f 0013 0006 0000 0000 0000 0000 0000 0000 0000 0002 0000 0000 0000 0000 0017 0019 0000 0000 0000 0001 0001 0000 0000 0000 0000 0000 0000 0000 0002 0015 0015 0000 0000 0000 0000 0000 0000 0000 0000 0000 0000 0000 0000 0015 0013 0002 0002 0000 0000 0000 0000 0000 0000 0000 0001 0000 0000 0003 0017 0014 0000 0000 0000 0000 0001 0000 0000 0000 0000 0000 0000 0000 000c 0019 0009 0000 0000 0000 0001 0000 0000 0000 0002 0000 0000 0003 0002 0014 0013 0000 0000 0000 0001 0002 0000 0000 0000 0000 0000 0000 0000 000a 0015 000c 0000 0000 0002 0000 0000 0000 0000 0000 0000 0001 0001 0000 xxxx xxxx 0000 0000 0000 0000 0000 0000 0000 0000 0000 0001 0000 0000 000c 0016 000a 0000 0000 0000 0000 0000 0000 0000 0003 0001 0000 0000 0000 0015 0010 0000 0000 0000 0000 0000 0000 0000 0000 0000 0000 0000 0001 0000 0000 0000 0000 0001 0002 0000 0000 0000 0000 0000 0001 0000 0000 0001 0001 0001 0001 0016 0058 0041 0094 00a6 0041 0034 0002 0012 0005 0000 0004 0012 0015 0000 0000 0000 0000 0000 0000 0000 0000 0000 0000 0000 0000 0015 0013 0002 0002 0000 0000 0000 0000 0000 0000 0000 0001 0000 0000 0003 0017 0014 0000 0000 0000 0000 0001 0000 0000 0000 0000 0000 0000 0000 000c 0019 0009 0000 0000 0000 0001 0000 0000 0000 0002 0000 0000 0003 0002 0014 0013 0000 0000 0000 0001 0002 0000 0000 0000 0000 0000 0000 0000 000a 0015 000c 0000 0000 0002 0000 0000 0000 0000 0000 0000 0001 0001 0000
0000 0000 0000 0000 0000 0000 0000 0000 0000 0000 0000 0000 000c 0018 000a 0000 0000 0000 0000 0001 0000 0000 0004 0001 0000 0000 0000 0012 0016 0004 0000 0000 0000 0000 0000 0000 0000 0000 0000 0000 0004 0010 0011 0006 0001 0000 0000 0000 0000 0000 0000 0002 0000 0000 0000 0000 0019 001a 0000 0000 0000 0000 0001 0000 0000 0000 0000 0000 0000 0001 0000 0015 0016 0000 0000 0000 0000 0000 0000 0000 0000 0000 0000 0000 0000 0016 0014 0001 0002 0000 0000 0000 0000 0000 0000 0000 0000 0000 0000 0002 0018 0015 0000 0000 0000 0000 0001 0000 0000 0000 0000 0000 0000 0000 000c 0019 000a 0000 0000 0000 0000 0000 0000 0000 0002 0000 0000 0002 0004 0015 0012 0000 0000 0000 0001 0001 0000 0000 0000 0000 0000 0000 0000 000a 0016 000c 0000 0000 0001 0000 0000 0000 0000 0000 0000 0001 0001 0000 xxxx xxxx 0000 0000 0000 0000 0000 0000 0000 0000 0000 0000 0000 0000 000c 0018 000a 0000 0000 0000 0000 0001 0000 0000 0004 0001 0000 0000 0000 0015 000d 0000 0000 0000 0000 0000 0000 0000 0000 0000 0000 0000 0000 0000 0000 0000 0000 0000 0000 0000 0000 0000 0000 0000 0000 0000 0000 0000 0000 0001 0000 0000 0002 0003 004b 0067 008a 00a5 005d 0036 0003 0000 0003 0013 0015 0000 0000 0000 0000 0000 0000 0000 0000 0000 0000 0000 0000 0016 0014 0001 0002 0000 0000 0000 0000 0000 0000 0000 0000 0000 0000 0002 0018 0015 0000 0000 0000 0000 0001 0000 0000 0000 0000 0000 0000 0000 000c 0019 000a 0000 0000 0000 0000 0000 0000 0000 0002 0000 0000 0002 0004 0015 0012 0000 0000 0000 0001 0001 0000 0000 0000 0000 0000 0000 0000 000a 0016 000c 0000 0000 0001 0000 0000 0000 0000 0000 0000 0001 0001 0000
0000 0000 0000 0000 0000 0000 0000 0000 0000 0000 0000 0000 000c 0018 000a 0000 0000 0000 0000 0001 0000 0000 0004 0001 0000 0000 0000 0012 0016 0004 0000 0000 0000 0000 0000 0000 0000 0000 0000 0000 0004 0010 0011 0006 0001 0000 0000 0000 0000 0000 0000 0002 0000 0000 0000 0000 0019 001a 0000 0000 0000 0000 0001 0000 0000 0000 0000 0000 0000 0001 0000 0015 0016 0000 0000 0000 0000 0000 0000 0000 0000 0000 0000 0000 0000 0016 0014 0001 0002 0000 0000 0000 0000 0000 0000 0000 0000 0000 0000 0002 0018 0015 0000 0000 0000 0000 0001 0000 0000 0000 0000 0000 0000 0000 000c 0019 000a 0000 0000 0000 0000 0000 0000 0000 0002 0000 0000 0002 0004 0015 0012 0000 0000 0000 0001 0001 0000 0000 0000 0000 0000 0000 0000 000a 0016 000c 0000 0000 0001 0000 0000 0000 0000 0000 0000 0001 0001 0000 xxxx xxxx 0000 0000 0000 0000 0000 0000 0000 0000 0000 0000 0000 0000 000c 0018 000a 0000 0000 0000 0000 0001 0000 0000 0004 0001 0000 0000 0000 0000 0000 0000 0000 0000 0000 0002 0000 0003 0000 0000 0000 0000 0000 0000 0000 0000 0000 0000 0000 0000 0000 0000 0000 0000 0000 0000 0000 0000 0000 0002 0000 0000 0000 0001 0003 000c 0044 0093 00a5 007f 004f 001b 0002 0015 0014 0000 0000 0000 0000 0000 0000 0000 0000 0000 0000 0000 0000 0016 0014 0001 0002 0000 0000 0000 0000 0000 0000 0000 0000 0000 0000 0002 0018 0015 0000 0000 0000 0000 0001 0000 0000 0000 0000 0000 0000 0000 000c 0019 000a 0000 0000 0000 0000 0000 0000 0000 0002 0000 0000 0002 0004 0015 0012 0000 0000 0000 0001 0001 0000 0000 0000 0000 0000 0000 0000 000a 0016 000c 0000 0000 0001 0000 0000 0000 0000 0000 0000 0001 0001 0000
0000 0000 0000 0000 0000 0000 0000 0000 0000 0000 0000 0000 000c 0016 0009 0000 0000 0000 0000 0000 0000 0000 0002 0001 0000 0000 0000 0010 0016 0004 0000 0000 0000 0000 0000 0000 0000 0000 0000 0000 0002 000e 0012 0007 0000 0000 0000 0000 0000 0000 0000 0002 0000 0000 0000 0000 0017 0017 0000 0000 0000 0000 0000 0000 0000 0000 0000 0000 0000 0000 0000 0014 0014 0000 0000 0000 0000 0000 0000 0000 0000 0000 0000 0000 0000 0016 0015 0001 0001 0000 0000 0000 0000 0000 0000 0000 0000 0000 0000 0003 0015 0013 0000 0000 0000 0000 0001 0000 0000 0000 0000 0000 0000 0000 000a 0018 000a 0000 0000 0000 0000 0000 0000 0000 0003 0000 0000 0001 0004 0015 0010 0000 0000 0000 0001 0000 0000 0000 0000 0000 0000 0000 0000 0008 0016 000c 0000 0000 0000 0000 0000 0000 0000 0000 0000 0002 0002 0000 xxxx xxxx 0000 0000 0000 0000 0000 0000 0000 0000 0000 0000 0000 0000 000c 0016 0009 0000 0000 0000 0000 0000 0000 0000 0003 0000 0000 0000 0000 0000 0000 0000 0000 0000 0000 0006 0000 0000 0002 0000 0000 0000 0000 0000 0000 0000 0000 0000 0000 0000 0000 0001 0001 0000 0000 0000 0000 0001 0000 0000 0000 0000 0002 0000 0001 0000 0000 002f 004c 007f 00bd 0090 0031 0013 0010 0000 0005 0000 0000 0000 0000 0000 0000 0000 0000 0000 0000 0016 0015 0001 0001 0000 0000 0000 0000 0000 0000 0000 0000 0000 0000 0003 0015 0013 0000 0000 0000 0000 0001 0000 0000 0000 0000 0000 0000 0000 000a 0018 000a 0000 0000 0000 0000 0000 0000 0000 0003 0000 0000 0001 0004 0015 0010 0000 0000 0000 0001 0000 0000 0000 0000 0000 0000 0000 0000 0008 0016 000c 0000 0000 0000 0000 0000 0000 0000 0000 0000 0002 0002 0000
0000 0000 0000 0000 0000 0000 0000 0000 0000 0000 0000 0000 0006 0008 0003 0001 0000 0000 0000 0001 0000 0000 0000 0001 0000 0000 0000 0005 000a 0004 0000 0000 0000 0000 0000 0000 0000 0000 0000 0000 0000 0005 0009 0004 0000 0000 0000 0000 0000 0000 0000 0001 0000 0000 0000 0001 000b 0008 0000 0000 0000 0000 0000 0000 0000 0000 0000 0000 0000 0000 0000 0008 0008 0000 0000 0000 0000 0000 0000 0000 0000 0000 0000 0000 0000 000c 000b 0000 0000 0000 0000 0000 0000 0000 0000 0001 0000 0000 0000 0001 0008 0009 0000 0000 0000 0000 0001 0000 0000 0000 0001 0000 0000 0000 0004 000b 0004 0000 0000 0000 0000 0000 0000 0000 0003 0000 0000 0000 0004 000b 0005 0000 0000 0000 0002 0000 0000 0000 0000 0000 0000 0000 0000 0002 000a 0006 0000 0000 0000 0000 0000 0000 0000 0000 0000 0003 0003 0000 xxxx xxxx 0000 0000 0000 0000 0000 0000 0000 0000 0000 0000 0000 0000 0006 0008 0003 0000 0000 0000 0000 0000 0000 0000 0000 0001 0000 0000 0000 0000 0000 0000 0001 0000 0000 0009 0000 0000 0024 0042 0032 0012 0000 0000 0000 0000 0003 0000 0000 0000 0000 000b 0009 0000 0000 0000 0000 0000 0000 0000 0000 0000 0004 0000 0000 0000 0001 0005 0000 002b 0093 00c3 0058 005f 0055 0000 000d 0000 0000 0000 0000 0000 0000 0000 0000 0000 0000 000c 000b 0000 0000 0000 0000 0000 0000 0000 0000 0001 0000 0000 0000 0001 0008 0009 0000 0000 0000 0000 0001 0000 0000 0000 0001 0000 0000 0000 0004 000b 0004 0000 0000 0000 0000 0000 0000 0000 0003 0000 0000 0000 0004 000b 0005 0000 0000 0000 0002 0000 0000 0000 0000 0000 0000 0000 0000 0002 000a 0006 0000 0000 0000 0000 0000 0000 0000 0000 0000 0003 0003 0000
0000 0000 0000 0000 0000 000a 000d 0002 0000 0000 0000 0000 0000 0000 0000 0002 0000 0000 0000 0003 000d 0007 0000 0001 0000 0000 0000 0000 0000 0000 0000 0000 0000 0000 0005 000d 0007 0000 0000 0000 0000 0000 0000 0000 0001 0000 0000 0000 0000 000b 000c 0000 0000 0000 0000 0001 0000 0000 0000 0000 0000 0001 0000 0005 000f 0005 0000 0000 0000 0000 0000 0000 0000 0000 0000 0000 0000 0000 000c 000c 0000 0000 0000 0000 0000 0000 0000 0000 0000 0000 0000 0000 0007 000c 0005 0000 0000 0000 0000 0000 0000 0000 0000 0000 0000 0000 0000 000c 000b 0000 0003 0000 0000 0000 0000 0000 0000 0000 0000 0000 0000 0007 000c 0005 0000 0000 0000 0000 0000 0000 0000 0001 0000 0000 0001 0000 0008 000c 0002 0000 0000 0000 0000 0000 0000 0000 0000 0000 0000 0000 0003 000a 0007 0000 0000 0003 0003 0000 xxxx xxxx 0000 0000 0000 0000 0000 000a 000d 0002 0000 0000 0000 0000 0000 0000 0000 0001 0000 0000 0000 0003 000e 0007 0000 0000 0000 0000 0000 0000 0000 0000 0000 0000 0000 0007 0030 004b 005d 0086 006f 0022 0000 0000 0000 0000 0005 0000 0000 0000 0000 001c 0012 0000 0000 0000 0000 0000 0000 0000 0000 0000 0002 0000 0000 0000 0001 0001 0000 0000 002b 0052 0021 00ae 00e9 0040 000a 0000 0000 0000 000c 000c 0000 0000 0000 0000 0000 0000 0000 0000 0000 0000 0000 0000 0007 000c 0005 0000 0000 0000 0000 0000 0000 0000 0000 0000 0000 0000 0000 000c 000b 0000 0003 0000 0000 0000 0000 0000 0000 0000 0000 0000 0000 0007 000c 0005 0000 0000 0000 0000 0000 0000 0000 0001 0000 0000 0001 0000 0008 000c 0002 0000 0000 0000 0000 0000 0000 0000 0000 0000 0000 0000 0003 000a 0007 0000 0000 0003 0003 0000
0000 0000 0000 0000 0000 0015 0016 0003 0001 0000 0000 0000 0000 0000 0000 0002 0000 0000 0000 0003 0017 0013 0000 0000 0000 0000 0000 0000 0000 0000 0000 0000 0000 0000 000a 001a 000c 0000 0000 0000 0000 0000 0000 0000 0003 0000 0000 0000 0003 0017 0013 0000 0000 0000 0000 0000 0000 0000 0000 0000 0000 0000 0000 0009 0019 000d 0000 0000 0000 0000 0000 0000 0000 0000 0000 0001 0001 0000 0016 0016 0000 0000 0000 0000 0000 0000 0000 0000 0000 0001 0000 0000 000e 0017 0008 0000 0000 0000 0000 0000 0000 0000 0000 0001 0000 0000 0000 0013 0019 0003 0002 0000 0000 0000 0000 0000 0000 0000 0000 0000 0000 000d 0017 0009 0000 0000 0000 0000 0000 0000 0000 0004 0000 0000 0000 0000 0016 0017 0002 0000 0000 0000 0000 0000 0000 0000 0000 0000 0000 0000 0004 0015 0012 0000 0000 0002 0002 0000 xxxx xxxx 0000 0000 0000 0000 0000 0015 0016 0003 0001 0000 0000 0000 0000 0000 0000 0001 0000 0000 0000 0006 0018 000a 0000 0000 0000 0000 0000 0004 0002 0000 0000 000b 004b 0047 0068 00a7 005b 0045 0040 000d 0003 0000 0000 0000 0005 0000 0000 0000 0004 0022 0013 0000 0000 0000 0000 0000 0000 0000 0000 0000 0000 0000 0000 0000 0001 0003 0000 0000 0006 0000 0000 005c 00e8 00c6 004c 0016 0006 0001 0018 0016 0000 0000 0000 0000 0000 0000 0000 0000 0000 0001 0000 0000 000e 0017 0008 0000 0000 0000 0000 0000 0000 0000 0000 0001 0000 0000 0000 0013 0019 0003 0002 0000 0000 0000 0000 0000 0000 0000 0000 0000 0000 000d 0017 0009 0000 0000 0000 0000 0000 0000 0000 0004 0000 0000 0000 0000 0016 0017 0002 0000 0000 0000 0000 0000 0000 0000 0000 0000 0000 0000 0004 0015 0012 0000 0000 0002 0002 0000
0000 0000 0000 0000 0000 0016 0015 0001 0002 0000 0000 0000 0000 0000 0000 0000 0000 0000 0000 0002 0017 0015 0000 0000 0000 0000 0001 0000 0000 0000 0000 0000 0000 0000 000b 001a 000b 0000 0000 0000 0000 0000 0000 0000 0003 0000 0000 0001 0004 0016 0013 0000 0000 0000 0001 0000 0000 0000 0000 0000 0000 0000 0000 000a 0018 000d 0000 0000 0001 0000 0000 0000 0000 0000 0000 0001 0001 0000 0016 0016 0000 0000 0000 0000 0000 0000 0000 0000 0000 0001 0000 0000 000d 0018 0009 0000 0000 0000 0000 0000 0000 0000 0003 0002 0000 0000 0000 0013 0018 0003 0002 0000 0000 0000 0000 0000 0000 0000 0000 0000 0002 000f 0013 0007 0001 0000 0000 0000 0000 0000 0000 0004 0000 0000 0000 0000 0019 001a 0000 0000 0000 0000 0001 0000 0000 0000 0000 0000 0000 0000 0001 0015 0015 0000 0000 0001 0001 0000 xxxx xxxx 0000 0000 0000 0000 0000 0016 0015 0001 0002 0000 0000 0000 0000 0000 0000 0000 0000 0001 0000 0007 0018 0000 0000 0000 0000 0000 0000 0004 0001 0000 003c 0067 00a7 0086 0040 005e 0027 0004 0005 0000 0001 0000 0000 0000 0002 0000 0000 0000 0003 001b 0012 0000 0000 0000 0001 0001 0000 0000 0000 0000 0000 0000 0000 0000 0001 0005 0000 0000 0000 0000 0000 0004 004f 00b8 00b9 007b 0031 0000 0019 001d 0000 0000 0000 0000 0000 0000 0000 0000 0000 0001 0000 0000 000d 0018 0009 0000 0000 0000 0000 0000 0000 0000 0003 0002 0000 0000 0000 0013 0018 0003 0002 0000 0000 0000 0000 0000 0000 0000 0000 0000 0002 000f 0013 0007 0001 0000 0000 0000 0000 0000 0000 0004 0000 0000 0000 0000 0019 001a 0000 0000 0000 0000 0001 0000 0000 0000 0000 0000 0000 0000 0001 0015 0015 0000 0000 0001 0001 0000
0000 0000 0000 0000 0000 0016 0014 0001 0002 0000 0000 0000 0000 0000 0000 0000 0000 0000 0000 0002 0018 0015 0000 0000 0000 0000 0001 0000 0000 0000 0000 0000 0000 0000 000c 0019 000a 0000 0000 0000 0000 0000 0000 0000 0002 0000 0000 0002 0004 0015 0012 0000 0000 0000 0001 0001 0000 0000 0000 0000 0000 0000 0000 000a 0016 000c 0000 0000 0001 0000 0000 0000 0000 0000 0000 0001 0001 0000 0015 0015 0000 0000 0000 0000 0000 0000 0000 0000 0000 0000 0000 0000 000c 0018 000a 0000 0000 0000 0000 0001 0000 0000 0004 0001 0000 0000 0000 0014 0016 0002 0002 0000 0000 0000 0000 0000 0000 0000 0000 0000 0004 0010 0011 0006 0001 0000 0000 0000 0000 0000 0000 0002 0000 0000 0000 0000 0019 001a 0000 0000 0000 0000 0001 0000 0000 0000 0000 0000 0000 0001 0000 0015 0016 0000 0000 0000 0000 0000 xxxx xxxx 0000 0000 0000 0000 0000 0016 0014 0001 0002 0000 0000 0000 0000 0000 0000 0000 0000 0001 0000 0008 0000 0000 0000 0000 0000 0000 0001 0006 0007 004c 00ba 00aa 0072 003f 000c 0012 000e 0003 0000 0000 0000 0000 0000 0000 0002 0000 0000 0000 0001 0016 0014 0000 0000 0000 0001 0001 0000 0000 0000 0000 0000 0000 0000 0000 0000 0000 0000 0000 0000 0000 0000 0001 0002 0036 0097 00f4 00a1 0000 0017 0026 0000 0000 0000 0000 0000 0000 0000 0000 0000 0000 0000 0000 000c 0018 000a 0000 0000 0000 0000 0001 0000 0000 0004 0001 0000 0000 0000 0014 0016 0002 0002 0000 0000 0000 0000 0000 0000 0000 0000 0000 0004 0010 0011 0006 0001 0000 0000 0000 0000 0000 0000 0002 0000 0000 0000 0000 0019 001a 0000 0000 0000 0000 0001 0000 0000 0000 0000 0000 0000 0001 0000 0015 0016 0000 0000 0000 0000 0000
0000 0000 0000 0000 0000 0016 0014 0001 0002 0000 0000 0000 0000 0000 0000 0000 0000 0000 0000 0002 0018 0015 0000 0000 0000 0000 0001 0000 0000 0000 0000 0000 0000 0000 000c 0019 000a 0000 0000 0000 0000 0000 0000 0000 0002 0000 0000 0002 0004 0015 0012 0000 0000 0000 0001 0001 0000 0000 0000 0000 0000 0000 0000 000a 0016 000c 0000 0000 0001 0000 0000 0000 0000 0000 0000 0001 0001 0000 0015 0015 0000 0000 0000 0000 0000 0000 0000 0000 0000 0000 0000 0000 000c 0018 000a 0000 0000 0000 0000 0001 0000 0000 0004 0001 0000 0000 0000 0014 0016 0002 0002 0000 0000 0000 0000 0000 0000 0000 0000 0000 0004 0010 0011 0006 0001 0000 0000 0000 0000 0000 0000 0002 0000 0000 0000 0000 0019 001a 0000 0000 0000 0000 0001 0000 0000 0000 0000 0000 0000 0001 0000 0015 0016 0000 0000 0000 0000 0000 xxxx xxxx 0000 0000 0000 0000 0000 0016 0014 0001 0002 0000 0000 0000 0000 0000 0000 0000 0001 0000 0000 0000 0000 0000 0000 0000 0000 0000 0006 0015 005d 00e0 00be 0044 0018 0001 0007 0013 000e 0003 0000 0000 0000 0000 0000 0000 0003 0000 0000 0002 0003 0016 0014 0000 0000 0000 0001 0001 0000 0000 0000 0000 0006 0000 0000 0000 0000 0000 0000 0000 0000 0000 0000 0002 0001 0000 002b 00d5 00fb 0058 002b 0024 0000 0000 0000 0000 0000 0000 0000 0000 0000 0000 0000 0000 000c 0018 000a 0000 0000 0000 0000 0001 0000 0000 0004 0001 0000 0000 0000 0014 0016 0002 0002 0000 0000 0000 0000 0000 0000 0000 0000 0000 0004 0010 0011 0006 0001 0000 0000 0000 0000 0000 0000 0002 0000 0000 0000 0000 0019 001a 0000 0000 0000 0000 0001 0000 0000 0000 0000 0000 0000 0001 0000 0015 0016 0000 0000 0000 0000 0000
0000 0000 0000 0000 0000 0014 0014 0001 0001 0000 0000 0000 0000 0000 0000 0001 0000 0000 0000 0002 0017 0014 0000 0000 0000 0000 0001 0000 0000 0000 0000 0000 0000 0000 000b 0019 000a 0000 0000 0000 0000 0000 0000 0000 0003 0000 0000 0002 0004 0015 0012 0000 0000 0000 0001 0001 0000 0000 0000 0000 0000 0003 0000 0008 0018 000b 0000 0000 0001 0000 0000 0000 0000 0000 0000 0001 0001 0000 0015 0015 0000 0000 0000 0000 0000 0000 0000 0000 0000 0000 0000 0000 000b 0017 000a 0000 0000 0000 0000 0000 0000 0000 0003 0001 0000 0000 0000 0012 0016 0003 0001 0000 0000 0000 0000 0000 0000 0000 0000 0000 0003 000e 0012 0007 0000 0000 0000 0000 0000 0000 0000 0002 0000 0000 0000 0000 0018 0019 0000 0000 0000 0000 0001 0000 0000 0000 0000 0000 0000 0000 0000 0016 0015 0000 0000 0000 0000 0000 xxxx xxxx 0000 0000 0000 0000 0000 0014 0014 0001 0001 0000 0000 0000 0000 0000 0000 0001 0003 0000 0000 0000 0000 0000 0000 0000 0000 0000 003e 0070 00be 00d0 0040 0000 0000 0006 0009 0015 0010 0002 0000 0000 0000 0000 0000 0000 0001 0000 0029 0038 000f 0012 0012 0001 0001 0000 0000 0001 0000 0000 0004 0000 0000 0009 0000 0000 0000 0000 0000 0000 0000 0000 0002 0001 0000 0000 0003 004b 00c2 00ae 008c 0058 0000 0000 0001 0000 0000 0000 0000 0000 0000 0000 0000 0000 000b 0017 000a 0000 0000 0000 0000 0000 0000 0000 0003 0001 0000 0000 0000 0012 0016 0003 0001 0000 0000 0000 0000 0000 0000 0000 0000 0000 0003 000e 0012 0007 0000 0000 0000 0000 0000 0000 0000 0002 0000 0000 0000 0000 0018 0019 0000 0000 0000 0000 0001 0000 0000 0000 0000 0000 0000 0000 0000 0015 0014 0000 0000 0000 0000 0000
0000 0000 0000 0000 0000 000f 0012 0002 0000 0000 0000 0000 0000 0000 0000 0002 0000 0000 0000 0002 0013 0010 0000 0000 0000 0000 0001 0000 0000 0000 0000 0000 0000 0000 0009 0016 0008 0000 0000 0000 0000 0000 0000 0000 0003 0000 0000 0001 0004 0012 000e 0000 0000 0000 0000 0001 0000 0000 0000 0000 0000 0002 0000 0008 0018 0008 0000 0000 0002 0000 0000 0000 0000 0000 0000 0000 0000 0000 0012 0012 0000 0000 0000 0000 0000 0000 0000 0000 0000 0000 0000 0000 000a 0013 0008 0000 0000 0000 0000 0000 0000 0000 0001 0002 0000 0000 0000 000d 0013 0004 0000 0000 0000 0001 0000 0000 0000 0000 0000 0000 0001 000a 0013 0007 0000 0000 0000 0000 0000 0000 0000 0001 0000 0000 0000 0000 0013 0014 0001 0000 0000 0000 0001 0000 0000 0000 0000 0000 0001 0000 0001 0013 0010 0000 0000 0000 0000 0000 xxxx xxxx 0000 0000 0000 0000 0000 000f 0012 0002 0000 0000 0000 0000 0000 0000 0000 0000 000a 0000 0000 0000 0000 0000 0000 0000 0001 0052 00c1 00a9 0081 003c 0000 0001 0000 0000 0008 000e 0000 0000 0000 0000 0000 0000 0000 0000 0000 0000 0055 0069 001e 001f 004b 0041 0009 0000 0000 0000 0000 0000 0005 0000 0000 0003 0000 000f 0000 0000 0000 0000 0000 0000 0005 0000 0000 0000 0000 0005 003c 006d 0110 00db 0000 0001 0006 0000 0000 0000 0000 0000 0000 0000 0000 0000 000a 0013 0008 0000 0000 0000 0000 0000 0000 0000 0001 0002 0000 0000 0000 000d 0013 0004 0000 0000 0000 0001 0000 0000 0000 0000 0000 0000 0001 000a 0013 0007 0000 0000 0000 0000 0000 0000 0000 0001 0000 0000 0000 0000 0013 0014 0001 0000 0000 0000 0001 0000 0000 0000 0000 0000 0001 0000 0001 0012 000f 0000 0000 0000 0000 0000
0000 0000 0000 0000 0000 0003 0003 0001 0001 0000 0000 0000 0000 0000 0000 0000 0000 0000 0000 0000 0004 0002 0000 0001 0000 0000 0000 0000 0000 0000 0000 0000 0000 0000 0003 0007 0001 0000 0000 0000 0000 0000 0000 0000 0003 0000 0000 0000 0001 0004 0003 0000 0000 0000 0000 0000 0000 0000 0000 0000 0000 0000 0000 0007 000a 0003 0000 0000 0000 0000 0000 0000 0000 0000 0000 0000 0000 0000 0004 0004 0000 0000 0000 0000 0000 0000 0000 0000 0000 0000 0000 0000 0003 0002 0002 0001 0000 0000 0000 0000 0000 0000 0000 0001 0000 0000 0000 0001 0004 0003 0000 0000 0000 0000 0000 0000 0000 0001 0000 0000 0000 0001 0005 0003 0000 0000 0000 0000 0000 0000 0000 0000 0000 0000 0000 0000 0004 0004 0001 0000 0000 0001 0000 0000 0000 0000 0000 0000 0000 0000 0001 0003 0003 0000 0000 0000 0000 0000 xxxx xxxx 0000 0000 0000 0000 0000 0003 0003 0001 0001 0000 0000 0000 0000 0000 0000 0000 0000 0000 0000 0000 0000 0000 0005 0012 0051 00de 00d7 004e 001c 0000 0000 000e 0004 0000 0000 0000 0000 0000 0000 0000 0000 0000 0000 0000 0001 0002 002a 002c 0019 0034 0081 00a3 0057 0022 0008 0000 0003 0000 0000 0000 0000 0000 0000 0002 0003 0000 0000 0000 0000 0000 0000 0000 0000 0000 0000 0000 0000 0011 00f7 012d 0044 0008 000b 0000 0000 0000 0000 0000 0000 0000 0000 0000 0003 0002 0002 0001 0000 0000 0000 0000 0000 0000 0000 0001 0000 0000 0000 0001 0004 0003 0000 0000 0000 0000 0000 0000 0000 0001 0000 0000 0000 0001 0005 0003 0000 0000 0000 0000 0000 0000 0000 0000 0000 0000 0000 0000 0004 0004 0001 0000 0000 0001 0000 0000 0000 0000 0000 0000 0000 0000 0001 0002 0002 0000 0000 0001 0001 0000
0000 0000 0000 0000 0000 0000 0000 0000 0002 0000 0000 0000 0007 0010 0006 0000 0001 0000 0000 0000 0000 0000 0000 0001 0000 0000 0000 000b 000e 0004 0001 0000 0000 0000 0000 0000 0000 0001 0000 0000 0000 0009 000f 0005 0001 0000 0000 0000 0000 0000 0000 0000 0000 0000 0000 0000 000d 000f 0003 0000 0000 0000 0000 0000 0000 0000 0000 0001 0000 0000 0004 000f 000e 0000 0000 0000 0000 0000 0000 0000 0000 0000 0000 0000 0000 000d 0011 0001 0000 0002 0000 0000 0000 0000 0000 0003 0000 0000 0000 0003 000e 000b 0000 0001 0000 0000 0000 0000 0000 0000 0000 0000 0000 0000 0005 000f 000a 0001 0000 0000 0000 0000 0000 0000 0002 0000 0000 0000 0001 000f 000d 0000 0000 0000 0000 0000 0000 0000 0000 0000 0000 0001 0000 0006 0012 0008 0000 0000 0000 0000 0000 0000 0000 0001 0000 0000 0000 0000 xxxx xxxx 0000 0000 0000 0000 0000 0000 0000 0000 0002 0000 0000 0000 0007 0010 0006 0000 0000 0000 0000 0000 0000 0000 0005 006d 00ef 00c8 004f 0013 0009 0000 0000 0000 0000 0000 0000 0000 0000 0000 0037 0035 0011 0009 0001 0003 0000 000a 0000 0000 0000 0000 0041 008b 0092 008b 0064 0001 000f 0013 0000 0000 0000 0000 0001 0000 0000 0001 0000 0000 0000 0000 0000 0000 0000 0000 0000 0002 0000 0000 0058 00e8 00d7 0056 000e 0000 0000 000d 0011 0001 0000 0002 0000 0000 0000 0000 0000 0003 0000 0000 0000 0003 000e 000b 0000 0001 0000 0000 0000 0000 0000 0000 0000 0000 0000 0000 0005 000f 000a 0001 0000 0000 0000 0000 0000 0000 0002 0000 0000 0000 0001 000f 000d 0000 0000 0000 0000 0000 0000 0000 0000 0000 0000 0001 0000 0006 0012 0008 0000 0000 0000 0000 0000 0000 0000 0000 0000 0001 0001 0000
0000 0000 0000 0000 0000 0000 0000 0000 0001 0000 0000 0000 000d 0018 0009 0000 0001 0000 0000 0000 0000 0000 0000 0000 0000 0000 0000 0012 0016 0005 0002 0000 0000 0000 0000 0000 0000 0000 0000 0000 0001 000e 0015 0009 0001 0000 0000 0000 0000 0000 0000 0001 0000 0000 0000 0000 0017 0017 0003 0000 0000 0000 0000 0000 0000 0000 0000 0006 0005 0038 0055 002b 0010 0000 0001 0000 0000 0000 0000 0000 0000 0000 0000 0000 0000 0015 0018 0002 0000 0001 0000 0000 0000 0000 0000 0001 0000 0000 0000 0004 0016 0011 0001 0001 0000 0000 0000 0000 0000 0000 0000 0000 0000 0000 000a 0017 000d 0002 0000 0000 0000 0000 0000 0000 0002 0000 0000 0002 0004 0015 0013 0000 0000 0000 0000 0000 0000 0000 0000 0000 0000 0001 0000 0009 0019 000e 0000 0000 0000 0000 0000 0000 0000 0004 0004 0000 0000 0000 xxxx xxxx 0000 0000 0000 0001 0003 0000 0000 0000 0000 0000 0000 0001 000d 0018 0009 0000 0000 0000 0000 0000 0000 0005 0050 00ee 00f3 003d 0000 001f 000b 0000 0000 0000 0000 0000 0000 000c 004d 0016 007c 008c 002a 0014 0007 0003 0000 0006 0000 0000 0000 0000 0000 0000 002a 00ae 00b0 0057 005c 0018 0000 0000 0000 0000 0002 0000 0000 0000 0000 0000 0000 0000 0000 0000 0000 0000 0000 0004 0000 0000 0004 0051 00db 00e8 005b 0000 0001 0015 0017 0002 0000 0001 0000 0000 0000 0000 0000 0001 0000 0000 0000 0004 0016 0011 0001 0001 0000 0000 0000 0000 0000 0000 0000 0000 0000 0000 000a 0017 000d 0002 0000 0000 0000 0000 0000 0000 0002 0000 0000 0002 0004 0015 0013 0000 0000 0000 0000 0000 0000 0000 0000 0000 0000 0001 0000 0009 0019 000d 0000 0000 0000 0000 0000 0000 0000 0000 0000 0001 0001 0000
0000 0000 0000 0000 0000 0000 0000 0000 0000 0000 0000 0000 000d 0018 0009 0000 0000 0000 0000 0000 0000 0000 0002 0000 0000 0000 0000 0013 0016 0003 0003 0000 0000 0000 0000 0000 0000 0000 0000 0000 0003 000f 0012 0008 0001 0000 0000 0000 0000 0000 0000 0002 0000 0000 0000 0000 001f 0014 0000 0000 0000 0000 0000 0000 0000 0000 0000 0004 0007 0074 00a6 008d 0058 0000 0000 0001 0004 0002 0000 0000 0000 0000 0000 0000 0000 0016 0015 0001 0002 0000 0000 0000 0000 0000 0000 0000 0000 0000 0000 0003 0017 0013 0000 0000 0000 0000 0001 0000 0000 0000 0000 0000 0000 0000 000c 0018 000b 0001 0000 0000 0000 0000 0000 0000 0002 0000 0000 0003 0004 0014 0013 0000 0000 0000 0000 0000 0000 0000 0000 0000 0000 0000 0000 0009 0018 000b 0000 0002 0000 0000 0000 0000 0000 0000 0009 0000 0000 0000 xxxx xxxx 0000 0024 001a 0015 003c 0003 0000 0000 0000 0000 0002 0007 0007 0010 000e 0000 0000 0000 0000 0000 0001 0051 00eb 00e5 0052 0001 0002 0016 000c 0000 0000 0000 0000 0000 004c 00a8 0097 0020 003c 0046 0019 0015 000e 0005 0000 0000 0000 0000 0000 0000 0000 0000 0000 001a 0058 009e 00f7 005f 0001 0000 0000 0003 0004 0000 0000 0000 0000 0000 0000 0000 0000 0000 0000 0000 0003 0003 0000 0000 0000 0004 004b 00f9 00f2 003f 0000 0013 0015 0001 0002 0000 0000 0000 0000 0000 0000 0000 0000 0000 0000 0003 0017 0013 0000 0000 0000 0000 0001 0000 0000 0000 0000 0000 0000 0000 000c 0018 000b 0001 0000 0000 0000 0000 0000 0000 0002 0000 0000 0003 0004 0014 0013 0000 0000 0000 0000 0000 0000 0000 0000 0000 0000 0000 0000 000a 0017 000c 0000 0000 0000 0000 0000 0000 0000 0000 0000 0001 0001 0000
0000 0000 0000 0000 0000 0000 0000 0000 0000 0000 0000 0000 000c 0018 000a 0000 0000 0000 0000 0001 0000 0000 0004 0001 0000 0000 0000 0014 0016 0002 0002 0000 0000 0000 0000 0000 0000 0000 0000 0000 0004 0010 0011 0006 0001 0000 0000 0000 0000 0000 0000 0002 0000 0000 0000 0001 0015 0011 0000 0000 0000 0000 0000 0000 0000 0000 0000 0000 0004 003e 0050 00c0 00b1 0049 003f 0007 000d 0004 0000 0000 0000 0000 0000 0000 0000 0016 0014 0001 0002 0000 0000 0000 0000 0000 0000 0000 0000 0000 0000 0002 0018 0015 0000 0000 0000 0000 0001 0000 0000 0000 0000 0000 0000 0000 000c 0019 000a 0000 0000 0000 0000 0000 0000 0000 0002 0000 0000 0002 0004 0015 0012 0000 0000 0000 0001 0001 0000 0000 0000 0000 0000 0000 0000 0009 0015 0007 0003 0002 0000 0000 0000 0000 0000 0000 0006 0000 0000 0000 xxxx xxxx 0000 004d 003f 0026 006b 0026 002d 003d 0008 000c 0006 0008 0008 0008 0000 0000 0000 0000 0001 0001 0014 00dd 0126 005a 0000 0000 0003 0011 0000 0000 0000 0000 0011 0092 00a1 0085 003f 0012 0000 0000 0004 0010 0011 0006 0001 0000 0000 0000 0000 0000 0000 0000 0000 0000 0000 003f 00ef 00f6 0055 0003 0002 0003 0002 0000 0000 0000 0000 0000 0000 0000 0000 0000 0000 0000 0000 0001 0000 0000 0000 0001 0002 0074 0137 00c9 0000 0012 0015 0001 0002 0000 0000 0000 0000 0000 0000 0000 0000 0000 0000 0002 0018 0015 0000 0000 0000 0000 0001 0000 0000 0000 0000 0000 0000 0000 000c 0019 000a 0000 0000 0000 0000 0000 0000 0000 0002 0000 0000 0002 0004 0015 0012 0000 0000 0000 0001 0001 0000 0000 0000 0000 0000 0000 0000 000a 0016 000c 0000 0000 0001 0000 0000 0000 0000 0000 0000 0001 0001 0000
0000 0000 0000 0000 0000 0000 0000 0000 0000 0000 0000 0000 000c 0018 000a 0000 0000 0000 0000 0001 0000 0000 0004 0001 0000 0000 0000 0014 0016 0002 0002 0000 0000 0000 0000 0000 0000 0000 0000 0000 0004 0010 0011 0006 0001 0000 0000 0000 0000 0000 0000 0002 0000 0000 0004 0000 0000 0000 0000 0000 0000 0000 0000 0000 0000 0000 0000 0000 0005 0003 0000 0054 006b 0097 00b7 0062 002e 0002 0000 0000 0000 0000 0000 0000 0000 0016 0014 0001 0002 0000 0000 0000 0000 0000 0000 0000 0000 0000 0000 0002 0018 0015 0000 0000 0000 0000 0001 0000 0000 0000 0000 0000 0000 0000 000c 0019 000a 0000 0000 0000 0000 0000 0000 0000 0002 0000 0000 0002 0004 0015 0012 0000 0000 0000 0001 0001 0000 0000 0000 0000 0000 0000 0000 0009 0011 0000 0000 0000 0000 0000 0000 0000 0000 0000 0000 0000 0000 0000 xxxx xxxx 0000 0026 0027 0012 002c 0021 0069 007e 002b 0046 0053 001b 000f 0012 0000 0000 0000 0000 0002 001a 0075 0114 00c4 000c 0000 0000 0000 0000 0000 0000 0000 0060 00e6 00ae 0055 0010 0000 0003 0002 0001 0003 000f 0011 0006 0001 0000 0000 0000 0001 0000 0000 0000 0000 0000 0000 0000 000e 00ee 00fb 0055 0003 0002 0001 0000 0000 0000 0000 0000 0001 0003 0000 000d 0000 0000 0000 0000 0000 0000 0002 0003 0000 0021 00e2 0108 0052 0024 0019 0001 0002 0000 0000 0000 0000 0000 0000 0000 0000 0000 0000 0002 0018 0015 0000 0000 0000 0000 0001 0000 0000 0000 0000 0000 0000 0000 000c 0019 000a 0000 0000 0000 0000 0000 0000 0000 0002 0000 0000 0002 0004 0015 0012 0000 0000 0000 0001 0001 0000 0000 0000 0000 0000 0000 0000 000a 0016 000c 0000 0000 0001 0000 0000 0000 0000 0000 0000 0001 0001 0000
0000 0000 0000 0000 0000 0000 0000 0000 0000 0000 0000 0000 000c 0018 000a 0000 0000 0000 0000 0000 0000 0000 0003 0000 0000 0000 0000 0013 0016 0003 0002 0000 0000 0000 0000 0000 0000 0000 0000 0000 0002 000f 0013 0007 0000 0000 0000 0000 0000 0000 0000 0002 0000 0000 0009 0000 0000 0000 0000 0000 0000 0000 0006 0000 0000 0000 0000 0000 0003 0000 0000 0001 000f 004c 00a5 00fa 009a 0008 0000 0000 0003 0000 0000 0000 0000 0016 0014 0000 0002 0000 0000 0000 0000 0000 0000 0000 0000 0000 0000 0004 0018 0012 0000 0000 0000 0000 0001 0000 0000 0000 0000 0000 0000 0000 000b 001a 000b 0000 0000 0000 0000 0000 0000 0000 0003 0000 0000 0002 0004 0015 0012 0000 0000 0000 0000 0001 0000 0000 0000 0001 0000 0000 0000 0009 0000 0000 0000 0000 0000 0000 0000 0003 0004 0000 0000 0000 0000 0001 xxxx xxxx 0000 0000 0005 0000 0000 0007 0036 003f 001a 006e 00a6 0053 0056 0000 0000 0000 0000 0000 0011 007e 00ed 00b7 003a 0008 0000 0000 0000 0000 0000 0000 0069 00f7 00dc 0047 0000 0000 0000 0002 0001 0001 0002 000e 0013 0007 0000 0000 0000 0000 0000 0000 0000 0002 0000 0000 0000 0000 0000 0042 0123 00fc 002a 0000 0002 0000 0000 0000 0000 0000 0002 0005 0003 0009 0012 0000 0000 0000 0000 0005 0002 0000 0000 0015 004e 00b7 00dd 007f 0025 0003 0001 0000 0000 0000 0000 0000 0000 0000 0000 0000 0000 0004 0018 0012 0000 0000 0000 0000 0001 0000 0000 0000 0000 0000 0000 0000 000b 001a 000b 0000 0000 0000 0000 0000 0000 0000 0003 0000 0000 0002 0004 0015 0012 0000 0000 0000 0000 0001 0000 0000 0000 0000 0000 0000 0000 000a 0016 000c 0000 0000 0000 0000 0000 0000 0000 0000 0000 0001 0001 0000
0000 0000 0000 0000 0000 0000 0000 0000 0000 0000 0000 0000 000d 0018 0009 0000 0000 0000 0000 0000 0000 0000 0001 0000 0000 0000 0000 0012 0016 0005 0002 0000 0000 0000 0000 0000 0000 0000 0000 0000 0000 000d 0017 0009 0000 0000 0000 0000 0000 0000 0000 0001 0000 0000 0005 0000 0000 0000 0000 0000 0000 0000 0006 0003 0000 0000 0000 0001 0000 0000 0006 0001 0000 0000 002f 00e8 0113 0065 0000 0000 0007 0004 0000 0000 0000 0015 0015 0000 0001 0001 0000 0000 0000 0000 0000 0000 0000 0000 0000 0005 0017 000f 0000 0001 0000 0000 0000 0000 0000 0000 0000 0000 0000 0000 000b 001b 000c 0000 0000 0000 0000 0000 0000 0000 0003 0000 0000 0001 0005 0016 0011 0000 0000 0000 0000 0000 0000 0000 0000 0000 0002 0000 0000 0000 0000 0000 0000 0000 0001 0000 0000 0002 0001 0000 0000 0000 0000 0003 xxxx xxxx 0000 0000 0000 0000 0000 0000 0000 0000 0002 0035 0054 0058 0099 0000 0000 0000 0001 0000 0074 010c 00c0 0028 0000 0005 0000 0000 0000 0000 0000 0052 00c5 00d7 0047 0003 0000 0000 0000 0002 0000 0000 0000 000d 0017 0009 0000 0000 0000 0000 0000 0000 0000 0002 0000 0000 0000 0000 0000 0000 009c 012a 00a1 0023 0007 0000 0000 0000 0000 0000 0001 0002 0005 0010 0010 0003 0000 0000 0000 0000 0000 0000 0000 0008 0004 003b 00d0 0106 007b 0006 0002 0001 0000 0000 0000 0000 0000 0000 0000 0000 0000 0005 0017 000f 0000 0001 0000 0000 0000 0000 0000 0000 0000 0000 0000 0000 000b 001b 000c 0000 0000 0000 0000 0000 0000 0000 0003 0000 0000 0001 0005 0016 0011 0000 0000 0000 0000 0000 0000 0000 0000 0000 0000 0000 0000 000a 0017 000d 0000 0000 0000 0000 0000 0000 0000 0000 0000 0000 0000 0000
0000 0000 0000 0000 0000 0000 0000 0000 0000 0000 0000 0000 0007 000b 0004 0000 0001 0000 0000 0000 0000 0000 0000 0000 0000 0000 0000 0009 000b 0003 0001 0000 0000 0000 0000 0000 0000 0001 0000 0000 0000 0006 000c 0006 0000 0000 0000 0000 0000 0000 0000 0000 0000 0000 0000 0000 0000 0000 0000 0000 0000 0001 0002 0008 0001 0000 0000 0002 0000 0000 000a 0001 0000 0000 0000 004a 00ec 00f3 0050 0000 0003 0005 0001 0000 0000 000a 000b 0000 0001 0001 0000 0000 0000 0000 0000 0001 0001 0000 0000 0002 000b 0008 0000 0001 0000 0000 0000 0000 0000 0000 0000 0000 0000 0000 0005 000d 0006 0000 0000 0000 0000 0000 0000 0000 0002 0000 0000 0000 0003 000c 0009 0000 0000 0000 0000 0000 0000 0000 0000 0000 0000 0000 0000 0000 0000 0000 0000 0001 0000 0000 0000 0000 0000 0000 0000 0000 0002 0003 xxxx xxxx 0001 0000 0000 0000 0000 0000 0000 0000 0004 0004 0000 001d 004a 0000 0000 0000 0000 0008 0108 0144 0033 0000 0000 0000 0000 0000 0000 0000 00b2 00fd 006b 0041 0000 0001 0000 0000 0000 0001 0000 0000 0000 0006 000c 0006 0000 0000 0000 0000 0000 0000 0000 0000 0000 0000 0000 0000 0000 0000 0000 00a3 0111 0097 000a 0000 0000 0000 0000 0000 0000 0000 0002 000c 0009 0000 0000 0000 0000 0000 0000 0000 0000 0000 0004 000c 0041 0126 0102 0015 0004 0005 0000 0000 0000 0000 0000 0001 0001 0000 0000 0002 000b 0008 0000 0001 0000 0000 0000 0000 0000 0000 0000 0000 0000 0000 0005 000d 0006 0000 0000 0000 0000 0000 0000 0000 0002 0000 0000 0000 0003 000c 0009 0000 0000 0000 0000 0000 0000 0000 0000 0000 0000 0000 0000 0004 000d 0008 0000 0000 0000 0000 0000 0000 0000 0000 0000 0000 0000 0000
0000 0000 0000 0000 0000 0008 0009 0001 0000 0001 0000 0000 0000 0000 0000 0001 0002 0000 0000 0001 0009 0007 0001 0001 0000 0000 0000 0000 0000 0000 0000 0000 0000 0000 0003 000b 0006 0001 0000 0000 0000 0000 0000 0000 0002 0000 0000 0000 0002 0009 0007 0000 0000 0000 0000 0000 0000 0000 0000 0000 0000 0002 0002 0011 0050 0041 0000 0000 0000 0000 0000 0001 0000 0000 0000 0000 004e 00db 00fb 006e 0000 0002 0006 0000 0000 0000 0000 0000 0002 0001 0000 0000 0002 0009 0007 0000 0000 0000 0000 0000 0000 0000 0001 0000 0000 0000 0000 0007 0009 0002 0001 0000 0000 0000 0000 0000 0000 0001 0000 0000 0000 0005 000b 0004 0000 0000 0000 0000 0000 0000 0000 0000 0000 0000 0000 0000 0007 0009 0002 0000 0000 0000 0000 0000 0000 0000 0000 0001 0000 0000 0000 0000 0000 0000 0000 0000 0001 0001 xxxx xxxx 0000 0000 0000 0000 0000 0000 0000 0000 0004 0004 0000 0000 0000 0001 0006 0000 0000 003d 0144 0104 0007 0008 0000 0000 0000 0000 0000 0041 013b 00db 0002 0000 0000 0002 0008 000b 0006 0001 0000 0000 0000 0000 0000 0000 0002 0000 0000 0000 0002 0009 0007 0000 0000 0000 0000 0000 0000 0000 0000 0000 00df 0112 0056 0002 000d 0006 0000 0000 0000 0000 0000 0000 0000 0001 0000 0000 0000 0000 0000 0000 0000 0001 0006 000c 0000 00b7 013d 006f 0000 000d 0000 0000 0002 0009 0007 0000 0000 0000 0000 0000 0000 0000 0001 0000 0000 0000 0000 0007 0009 0002 0001 0000 0000 0000 0000 0000 0000 0001 0000 0000 0000 0005 000b 0004 0000 0000 0000 0000 0000 0000 0000 0000 0000 0000 0000 0000 0007 000b 0004 0000 0000 0000 0000 0000 0000 0000 0000 0000 0000 0000 0002 000b 0008 0000 0000 0000 0000 0000
0000 0000 0000 0000 0000 0011 0013 0003 0001 0000 0000 0000 0000 0000 0000 0001 0001 0000 0000 0002 0015 0012 0000 0000 0000 0000 0000 0000 0000 0000 0000 0000 0000 0000 0009 0015 000b 0001 0000 0000 0000 0000 0000 0000 0002 0000 0000 0000 0004 0015 0011 0000 0000 0000 0000 0000 0000 0000 0000 0000 0000 0001 004f 006a 00a3 0093 0001 0000 0000 0000 0000 0000 0000 0000 0000 0000 0000 0048 0116 0108 0036 0000 0004 0000 0000 0000 0000 0000 0001 0001 0000 0000 0009 0016 000c 0000 0000 0000 0000 0000 0000 0000 0003 0001 0000 0000 0000 0010 0015 0004 0001 0000 0000 0000 0000 0000 0000 0000 0000 0000 0000 000c 0014 0008 0000 0000 0000 0000 0000 0000 0000 0002 0000 0000 0000 0000 0012 0013 0003 0000 0000 0000 0000 0000 0002 0000 0002 0001 0000 0000 0000 0001 0001 0002 001e 001a 0016 0039 xxxx xxxx 0000 0004 0000 0000 0001 0000 0000 0002 0004 0000 0000 0003 0001 0000 0007 0005 0000 006d 012b 00c6 0026 0019 0000 0000 0000 0000 0000 00fa 00fb 0043 0000 0000 0002 0004 0007 0015 000b 0001 0000 0000 0000 0000 0000 0000 0002 0000 0000 0000 0004 0015 0010 0000 0000 0000 0000 0001 0000 0000 0000 0000 0039 0138 00ed 000a 0017 000b 0000 0000 0000 0000 0000 0000 0000 0001 0000 0003 0000 0000 0000 0000 0000 0001 0003 0001 0001 0033 00f0 00f9 0046 000c 0001 0000 0008 0016 000c 0000 0000 0000 0000 0000 0000 0000 0003 0001 0000 0000 0000 0010 0015 0004 0001 0000 0000 0000 0000 0000 0000 0000 0000 0000 0000 000c 0014 0008 0000 0000 0000 0000 0000 0000 0000 0002 0000 0000 0000 0000 0012 0017 0003 0000 0000 0001 0001 0000 0000 0000 0000 0000 0000 0000 0003 0016 0012 0000 0000 0000 0000 0000
0000 0000 0000 0000 0000 0014 0013 0002 0002 0000 0000 0000 0000 0000 0000 0000 0000 0000 0000 0002 0017 0014 0000 0000 0000 0000 0001 0000 0000 0000 0000 0000 0000 0000 000b 0017 000a 0000 0000 0000 0000 0000 0000 0000 0002 0000 0000 0001 0003 0015 0010 0000 0000 0000 0000 0000 0000 0000 0003 0000 0000 0051 00ea 00b4 0061 004c 0001 0000 0000 0000 0000 0000 0000 0000 0000 0000 0000 0003 008a 013d 00c7 0011 0000 0001 0001 0000 0000 0000 0000 0000 0000 0000 000b 0017 000b 0000 0000 0000 0000 0000 0000 0000 0004 0001 0000 0000 0000 0012 0016 0003 0002 0000 0000 0000 0000 0000 0000 0000 0000 0000 0003 000e 0011 0007 0000 0000 0000 0000 0000 0000 0000 0002 0000 0000 0000 0000 0017 0017 0000 0000 0000 0000 0000 0000 0003 0000 0007 0001 0000 0001 0000 003f 0054 0014 003b 0034 002f 0074 xxxx xxxx 0000 0006 0000 0000 0000 0000 0000 0000 0002 0000 0000 0004 0000 0000 0005 0002 0000 0038 00c6 00be 008a 0057 0000 0000 0000 0000 00c1 0113 0059 0002 0000 0000 0001 0000 0009 0017 000a 0000 0000 0000 0000 0000 0000 0000 0002 0000 0000 0001 0003 0015 0012 0000 0000 0000 0001 0001 0000 0000 0000 0000 0000 00e0 0137 0066 0017 0007 0000 0000 0000 0000 0000 0000 0000 0000 0000 0002 0004 0000 0000 0000 0000 0000 0000 0000 0001 0000 0053 0104 00e5 003c 0004 0000 0009 0019 000b 0000 0000 0000 0000 0000 0000 0000 0004 0001 0000 0000 0000 0012 0016 0003 0002 0000 0000 0000 0000 0000 0000 0000 0000 0000 0003 000e 0011 0007 0000 0000 0000 0000 0000 0000 0000 0002 0000 0000 0000 0000 0017 0019 0000 0000 0000 0000 0001 0000 0000 0000 0000 0000 0000 0000 0001 0015 0014 0000 0000 0000 0000 0000
0000 0000 0000 0000 0000 0016 0014 0001 0002 0000 0000 0000 0000 0000 0000 0000 0000 0000 0000 0002 0018 0015 0000 0000 0000 0000 0001 0000 0000 0000 0000 0000 0000 0000 000c 0019 000a 0000 0000 0000 0000 0000 0000 0000 0002 0000 0000 0002 0004 0015 000f 0000 0000 0000 0000 0000 0000 0002 0003 0000 0002 00ef 013a 005a 0010 0006 0000 0000 0000 0000 0000 0000 0000 0000 0000 0000 0000 0000 001c 00da 0136 0076 0000 0001 0001 0000 0000 0000 0000 0000 0000 0000 000c 0018 000a 0000 0000 0000 0000 0001 0000 0000 0004 0001 0000 0000 0000 0014 0016 0002 0002 0000 0000 0000 0000 0000 0000 0000 0000 0000 0004 0010 0011 0006 0001 0000 0000 0000 0000 0000 0000 0002 0000 0000 0000 0000 0019 001b 0000 0000 0000 0000 0000 0000 0002 0001 0008 0000 0008 0055 003c 0084 00ad 001d 001c 001d 001a 003d xxxx xxxx 0000 0000 0000 0000 0000 0000 0000 0000 0000 0000 0000 0000 0002 0000 0000 0001 0002 0000 0039 0071 00c4 00dd 003b 0000 0000 0053 0138 0097 0000 0002 0000 0000 0000 0000 000c 0019 000a 0000 0000 0000 0000 0000 0000 0000 0002 0000 0000 0002 0004 0015 0012 0000 0000 0000 0001 0001 0000 0000 0000 0000 0000 001b 0121 00fb 002d 000c 0000 0000 0001 0000 0000 0000 0000 0000 0000 0000 0000 0000 0000 0000 0000 0000 0000 0000 0000 0000 0003 007c 0136 00c4 0000 0000 000d 0019 000a 0000 0000 0000 0000 0001 0000 0000 0004 0001 0000 0000 0000 0014 0016 0002 0002 0000 0000 0000 0000 0000 0000 0000 0000 0000 0004 0010 0011 0006 0001 0000 0000 0000 0000 0000 0000 0002 0000 0000 0000 0000 0019 001a 0000 0000 0000 0000 0001 0000 0000 0000 0000 0000 0000 0001 0000 0015 0016 0000 0000 0000 0000 0000
0000 0000 0000 0000 0000 0016 0014 0001 0002 0000 0000 0000 0000 0000 0000 0000 0000 0000 0000 0002 0018 0015 0000 0000 0000 0000 0001 0000 0000 0000 0000 0000 0000 0000 000c 0019 000a 0000 0000 0000 0000 0000 0000 0000 0002 0000 0000 0002 0004 0015 0011 0000 0000 0000 0000 0000 0000 0001 0003 0003 0058 0138 00e7 0001 000d 0011 0000 0000 0000 0000 0000 0000 0000 0000 0000 0000 0000 0000 0001 0043 0101 010e 0050 0001 0001 0000 0000 0000 0000 0000 0000 0000 000c 0018 000a 0000 0000 0000 0000 0001 0000 0000 0004 0001 0000 0000 0000 0014 0016 0002 0002 0000 0000 0000 0000 0000 0000 0000 0000 0000 0004 0010 0011 0006 0001 0000 0000 0000 0000 0000 0000 0002 0000 0000 0000 0000 0019 001c 0000 0000 0000 0000 0000 0000 0000 0006 0006 002c 0068 00be 007f 0050 0064 0007 0000 0006 0001 0004 xxxx xxxx 0006 0000 0007 0011 0000 0000 0000 0000 0000 0000 0000 0000 0000 0000 0000 0000 0002 0000 0000 0014 0059 00e7 0078 0000 0000 011f 0128 001a 0000 0000 0004 0000 0000 0000 000c 0019 000a 0000 0000 0000 0000 0000 0000 0000 0002 0000 0000 0002 0004 0015 0012 0000 0000 0000 0001 0001 0000 0000 0000 0000 0000 0000 00be 013b 0090 000d 0000 0000 0001 0000 0000 0000 0000 0000 0000 0000 0000 0000 0000 0000 0000 0000 0000 0000 0000 0003 0006 0012 0101 0127 0033 0000 000c 0018 000a 0000 0000 0000 0000 0001 0000 0000 0004 0001 0000 0000 0000 0014 0016 0002 0002 0000 0000 0000 0000 0000 0000 0000 0000 0000 0004 0010 0011 0006 0001 0000 0000 0000 0000 0000 0000 0002 0000 0000 0000 0000 0019 001a 0000 0000 0000 0000 0001 0000 0000 0000 0000 0000 0000 0001 0000 0015 0016 0000 0000 0000 0000 0000
0000 0000 0000 0000 0000 0017 0015 0000 0002 0000 0000 0000 0000 0000 0000 0000 0000 0000 0000 0004 0018 0014 0000 0000 0000 0000 0001 0000 0000 0000 0000 0000 0000 0000 000c 001a 000b 0000 0000 0000 0000 0000 0000 0000 0003 0000 0000 0002 0005 0016 0012 0000 0000 0000 0000 0000 0000 0002 0004 0007 00f2 0137 0044 0000 0016 001a 0000 0000 0000 0000 0000 0000 0000 0000 0000 0000 0000 0000 0002 0000 005a 0151 00f5 0000 0000 0000 0000 0000 0000 0000 0000 0000 000d 0018 0009 0000 0000 0000 0000 0000 0000 0000 0002 0000 0000 0000 0000 0013 0018 0004 0002 0000 0000 0000 0000 0000 0000 0000 0000 0000 0002 000f 0013 0007 0001 0000 0000 0000 0000 0000 0000 0002 0000 0000 0000 0000 0017 0000 0000 0000 0000 0000 0000 0002 0002 0005 0055 00ab 00a4 008a 0043 0016 0014 0000 0000 0003 0000 0004 xxxx xxxx 0007 0003 0000 0006 0002 000d 000e 0000 0003 0000 0000 0000 0000 0000 0000 0000 0004 0000 0000 0000 0000 0053 003e 0000 0057 0150 00ba 0000 0000 0000 000d 0000 0000 0000 000c 001a 000b 0000 0000 0000 0000 0000 0000 0000 0003 0000 0000 0002 0005 0016 0012 0000 0000 0000 0000 0000 0000 0000 0000 0000 0000 0000 0000 011b 0114 0029 0000 0000 0001 0000 0000 0000 0000 0000 0000 0000 0000 0000 000c 0000 0000 0000 0000 0002 0000 0003 0003 0000 0084 0137 00b7 0009 000a 0013 0009 0000 0000 0000 0000 0000 0000 0000 0002 0000 0000 0000 0000 0013 0018 0004 0002 0000 0000 0000 0000 0000 0000 0000 0000 0000 0002 000f 0013 0007 0001 0000 0000 0000 0000 0000 0000 0002 0000 0000 0000 0000 0017 0019 0000 0000 0000 0000 0000 0000 0000 0000 0000 0000 0000 0001 0000 0016 0016 0000 0000 0000 0000 0000
0000 0000 0000 0000 0000 0016 0017 0001 0001 0001 0000 0000 0000 0000 0000 0000 0000 0000 0000 0005 0018 0012 0000 0001 0000 0000 0000 0000 0000 0000 0000 0000 0000 0000 000c 001c 000c 0000 0000 0000 0000 0000 0000 0000 0003 0000 0000 0001 0006 0017 0010 0000 0000 0000 0000 0000 0000 0004 0005 0040 0139 00fa 0000 0000 001a 0014 0000 0000 0000 0000 0000 0000 0000 0000 0000 0000 0000 0002 0005 0000 0000 00fe 0148 004d 0003 0000 0000 0000 0000 0000 0000 0000 000e 0018 0009 0000 0000 0000 0000 0000 0000 0000 0000 0000 0000 0000 0000 0013 0019 0005 0001 0000 0000 0000 0000 0000 0000 0000 0000 0000 0000 000f 0017 0009 0000 0000 0000 0000 0000 0000 0000 0002 0000 0000 0001 0000 0013 0000 0000 0000 0000 0001 0001 0001 0003 004c 00f7 00d1 0040 0019 0005 0019 0014 0000 0000 0000 0000 0002 xxxx xxxx 0002 0002 0000 0002 0003 0013 0012 0000 0005 0000 0000 0000 0000 0000 0000 0000 0000 0000 0001 0000 0000 0000 0001 0000 00c7 0152 0086 0000 0000 0002 0006 0000 0000 0000 000c 001c 000c 0000 0000 0000 0000 0000 0000 0000 0003 0000 0000 0001 0006 0017 0012 0000 0000 0000 0000 0000 0000 0000 0000 0000 0000 0000 0000 00ae 0147 009b 0000 0000 0000 0000 0000 0000 0000 0000 0000 0000 0000 0000 0013 0019 0000 0000 0000 0000 0000 0000 0000 0000 0024 00e3 011d 0061 0008 000e 0009 0000 0000 0000 0000 0000 0000 0000 0000 0000 0000 0000 0000 0013 0019 0005 0001 0000 0000 0000 0000 0000 0000 0000 0000 0000 0000 000f 0017 0009 0000 0000 0000 0000 0000 0000 0000 0002 0000 0000 0000 0000 0013 0019 0005 0000 0000 0000 0000 0000 0000 0000 0000 0000 0000 0000 0002 0019 0015 0000 0000 0000 0000 0000
0000 0000 0000 0000 0000 000b 000c 0000 0001 0001 0000 0000 0000 0000 0000 0001 0001 0000 0000 0002 000d 0008 0000 0002 0000 0000 0000 0000 0000 0000 0000 0000 0000 0000 0006 000e 0006 0000 0000 0000 0000 0000 0000 0000 0002 0000 0000 0001 0003 000b 0009 0000 0000 0000 0000 0000 0000 0002 0004 00af 013b 008f 0000 0007 000e 0006 0000 0000 0000 0000 0000 0000 0000 0000 0000 0000 0000 000a 0002 0000 0000 0053 00f1 00ed 0059 0001 0000 0000 0001 0000 0000 0000 0006 000c 0006 0000 0000 0000 0000 0000 0000 0000 0002 0000 0000 0000 0000 000a 000c 0002 0001 0000 0000 0000 0000 0000 0000 0000 0000 0000 0000 0007 000b 0005 0001 0000 0000 0000 0000 0000 0000 0000 0000 0000 0000 0000 0000 0000 0000 0000 0000 0005 0000 0000 0050 00e9 00fa 005f 0000 0000 0003 000e 000a 0000 0000 0000 0000 0000 xxxx xxxx 0000 0000 0000 0000 0000 000b 000c 0000 0000 0001 0000 0000 0000 0000 0000 0000 0000 0000 0000 0000 0000 0000 0000 0003 0053 00f7 00b0 0036 0041 000e 0000 0000 0000 0000 0006 000e 0006 0000 0000 0000 0000 0000 0000 0000 0002 0000 0000 0001 0003 000b 0009 0000 0000 0000 0000 0000 0000 0000 0000 0000 0002 0000 0000 001f 0134 0112 000d 0000 0000 0003 0000 0000 0000 0000 0000 0000 0000 0000 000d 000c 0000 0000 0000 0000 0000 0000 0000 0000 000b 004f 00eb 00f9 0051 0005 0006 0000 0000 0000 0000 0000 0000 0000 0002 0000 0000 0000 0000 000a 000c 0002 0001 0000 0000 0000 0000 0000 0000 0000 0000 0000 0000 0007 000b 0005 0001 0000 0000 0000 0000 0000 0000 0000 0000 0000 0000 0000 0008 000f 0004 0000 0000 0000 0000 0000 0000 0000 0000 0000 0000 0000 0003 000f 000a 0000 0000 0000 0000 0000
0000 0000 0000 0000 0000 0000 0000 0000 0001 0000 0000 0000 0007 000a 0003 0000 0000 0000 0000 0000 0000 0000 0000 0001 0000 0000 0000 0008 000c 0003 0000 0000 0000 0000 0000 0000 0000 0001 0000 0000 0000 0006 000c 0005 0000 0000 0000 0000 0000 0000 0000 0000 0003 0000 0000 0000 0000 0000 0001 00e3 0145 0069 0007 0000 0000 0000 0000 0000 0000 0000 0002 000a 0009 0006 0000 0000 0000 0000 0001 0000 0000 0000 0052 00fd 00f5 004e 0002 0000 0001 0001 0000 0000 0000 0000 0000 0001 0001 0000 0000 0002 0009 0008 0002 0001 0000 0000 0000 0000 0000 0000 0001 0000 0000 0000 0004 000f 0006 0000 0000 0000 0000 0000 0000 0000 0003 0000 0000 0000 0003 000c 0007 0000 0000 0000 0000 0000 0000 0000 0000 0002 0000 0000 0000 0054 00f2 00ef 005b 000c 0000 0000 0000 0000 0000 0000 0000 0000 0000 0000 xxxx xxxx 0000 0000 0000 0000 0000 0000 0000 0000 0001 0000 0000 0000 000c 0013 0000 0000 0000 0000 0000 0000 0000 0000 0000 0007 0000 004c 006a 00a0 00e2 0057 0000 0000 0000 0000 0000 0000 0000 0001 0000 0000 0000 0006 000c 0005 0000 0000 0000 0000 0000 0000 0000 0002 0000 0000 0000 0000 0008 000a 0004 0000 0001 0000 0000 0000 00d5 0132 0069 0000 0000 0002 0002 000c 0009 0000 0000 0000 0000 0000 0000 0000 0001 0000 0000 0000 0000 0000 0000 0000 0006 000b 004e 0143 00f0 0000 0000 0001 0001 0000 0000 0002 0009 0008 0002 0001 0000 0000 0000 0000 0000 0000 0001 0000 0000 0000 0004 000f 0006 0000 0000 0000 0000 0000 0000 0000 0003 0000 0000 0000 0003 000c 0007 0000 0000 0000 0000 0000 0000 0000 0000 0000 0000 0000 0000 0004 000c 0008 0000 0000 0000 0000 0000 0000 0000 0000 0000 0000 0000 0000
0000 0000 0000 0000 0000 0000 0000 0000 0000 0000 0000 0000 000c 0017 0009 0000 0000 0000 0000 0000 0000 0000 0002 0000 0000 0000 0000 0010 0018 0006 0000 0000 0000 0000 0000 0000 0000 0000 0000 0000 0000 000c 0016 0009 0000 0000 0000 0000 0000 0000 0000 0001 0010 0000 0000 0000 0000 0000 0001 00e0 0147 0073 000b 0000 0000 0000 0000 0000 0000 0000 0001 0017 0011 0000 0002 0000 0000 0000 0000 0000 0000 0000 0009 0073 0124 00dd 0024 0000 0000 0001 0000 0000 0000 0000 0000 0001 0001 0000 0000 0005 0016 000f 0000 0001 0000 0000 0001 0000 0000 0000 0000 0000 0000 0000 000a 001b 000c 0000 0000 0000 0000 0000 0000 0000 0004 0000 0000 0000 0006 0017 0010 0000 0000 0000 0000 0000 0000 0000 0000 0004 0000 0000 0033 00fc 0118 0054 0006 0000 0000 0000 0000 0000 0000 0000 0000 0000 0000 0000 xxxx xxxx 0000 0000 0000 0000 0000 0000 0000 0000 0000 0000 0000 0000 0016 0019 0000 0000 0000 0000 0000 0000 0000 0000 0000 0004 0000 0000 000d 0067 010a 00e6 003a 0000 0000 0005 0000 0000 0000 0000 0000 0000 0000 000c 0016 0009 0000 0000 0000 0000 0000 0000 0000 0003 0000 0000 0000 0000 0011 0018 0005 0000 0000 0000 0000 0000 004a 012f 00f4 0002 0000 0000 0001 0016 0014 0000 0000 0000 0000 0000 0000 0000 0004 0000 0000 0000 0000 0000 0000 0000 0001 0007 0000 010a 0146 0025 0000 0004 0000 0000 0000 0005 0016 000f 0000 0001 0000 0000 0001 0000 0000 0000 0000 0000 0000 0000 000a 001b 000c 0000 0000 0000 0000 0000 0000 0000 0004 0000 0000 0000 0006 0017 0010 0000 0000 0000 0000 0000 0000 0000 0000 0000 0000 0000 0000 000a 0018 000d 0000 0000 0000 0000 0000 0000 0000 0000 0000 0000 0000 0000
0000 0000 0000 0000 0000 0000 0000 0000 0000 0000 0000 0000 000c 0017 000a 0000 0000 0000 0000 0000 0000 0000 0003 0000 0000 0000 0000 0012 0017 0004 0002 0000 0000 0000 0000 0000 0000 0000 0000 0000 0002 000e 0013 0007 0000 0000 0000 0000 0000 0000 0000 0003 0013 0000 0000 0000 0000 0000 0004 00de 0147 0074 0008 0000 0000 0000 0000 0000 0000 0001 0000 0015 0014 0000 0001 0000 0000 0000 0000 0000 0000 0000 0004 0016 00bb 013d 0090 0000 0000 0002 0000 0000 0000 0000 0000 0000 0000 0000 0000 0004 0017 0012 0000 0000 0000 0000 0001 0000 0000 0000 0000 0000 0000 0000 000b 001a 000b 0000 0000 0000 0000 0000 0000 0000 0003 0000 0000 0002 0005 0015 0012 0000 0000 0001 0001 0000 0000 0000 0000 0002 0000 0004 00b4 0142 009c 0008 0000 0000 0000 0000 0000 0000 0000 0000 0000 0001 0001 0000 xxxx xxxx 0000 0000 0000 0000 0000 0000 0000 0000 0000 0000 0000 0000 000f 0018 0008 0000 0000 0000 0000 0000 0000 0000 0000 0003 0001 0000 0000 0012 0093 0100 00b9 0033 0000 0009 0000 0000 0000 0000 0000 0000 0002 000e 0013 0007 0000 0000 0000 0000 0000 0000 0000 0003 0000 0000 0000 0000 0016 001a 0001 0000 0000 0000 0000 0000 0000 0131 0134 0006 0000 0000 0000 0015 0016 0000 0000 0000 0000 0000 0000 0000 0002 0007 000f 0000 0000 0000 0000 0000 0000 0004 0000 0078 0146 00b3 0000 000a 0000 0000 0000 0004 0017 0012 0000 0000 0000 0000 0001 0000 0000 0000 0000 0000 0000 0000 000b 001a 000b 0000 0000 0000 0000 0000 0000 0000 0003 0000 0000 0002 0005 0015 0011 0000 0000 0000 0000 0001 0000 0000 0000 0000 0000 0000 0000 000a 0017 000c 0000 0000 0000 0000 0000 0000 0000 0000 0000 0001 0001 0000
0000 0000 0000 0000 0000 0000 0000 0000 0000 0000 0000 0000 000c 0018 000a 0000 0000 0000 0000 0001 0000 0000 0004 0001 0000 0000 0000 0014 0016 0002 0002 0000 0000 0000 0000 0000 0000 0000 0000 0000 0004 0010 0011 0006 0001 0000 0000 0000 0000 0000 0000 0002 000e 0000 0000 0000 0000 0000 0005 00de 0149 0074 0005 0000 0000 0000 0000 0000 0000 0001 0000 0015 0016 0000 0000 0000 0000 0000 0000 0000 0000 0000 0000 0004 0039 0138 0116 0010 0000 0005 0000 0000 0000 0000 0000 0000 0000 0000 0000 0002 0018 0015 0000 0000 0000 0000 0001 0000 0000 0000 0000 0000 0000 0000 000c 0019 000a 0000 0000 0000 0000 0000 0000 0000 0002 0000 0000 0002 0004 0015 0014 0000 0000 0000 0000 0000 0000 0000 0000 0000 0000 0050 0117 00f4 003a 000c 0000 0000 0001 0000 0000 0000 0000 0000 0000 0001 0001 0000 xxxx xxxx 0000 0000 0000 0000 0000 0000 0000 0000 0000 0000 0000 0000 000c 0018 000a 0000 0000 0000 0000 0000 0000 0000 0000 0000 0000 0000 0000 0007 0022 007d 00f0 00c8 003b 0003 0000 0000 0000 0000 0000 0000 0004 0010 0011 0006 0001 0000 0000 0000 0000 0000 0000 0002 0000 0000 0000 0000 0019 001a 0000 0000 0000 0000 0000 0000 0000 013c 013c 0000 0000 0004 0000 0015 0016 0000 0000 0000 0000 0000 0000 0000 0000 0006 0009 0000 0000 0000 0000 0000 0000 0006 0000 000e 00fd 011a 0044 000c 0000 0000 0000 0002 0018 0015 0000 0000 0000 0000 0001 0000 0000 0000 0000 0000 0000 0000 000c 0019 000a 0000 0000 0000 0000 0000 0000 0000 0002 0000 0000 0002 0004 0015 0012 0000 0000 0000 0001 0001 0000 0000 0000 0000 0000 0000 0000 000a 0016 000c 0000 0000 0001 0000 0000 0000 0000 0000 0000 0001 0001 0000
0000 0000 0000 0000 0000 0000 0000 0000 0000 0000 0000 0000 000c 0018 000a 0000 0000 0000 0000 0001 0000 0000 0004 0001 0000 0000 0000 0014 0016 0002 0002 0000 0000 0000 0000 0000 0000 0000 0000 0000 0004 0010 0011 0006 0001 0000 0000 0000 0000 0000 0000 0003 000b 0000 0000 0000 0000 0000 0005 00de 0149 0074 0005 0000 0000 0000 0000 0000 0000 0001 0000 0015 0016 0000 0000 0000 0000 0000 0000 0000 0000 0000 0000 0001 0005 00d5 0148 0075 0004 0005 0000 0000 0000 0000 0000 0000 0000 0000 0000 0002 0018 0015 0000 0000 0000 0000 0001 0000 0000 0000 0000 0000 0000 0000 000c 0019 000a 0000 0000 0000 0000 0000 0000 0000 0002 0000 0000 0002 0004 0015 0013 0000 0000 0000 0000 0000 0000 0001 0000 0000 0000 00e0 0129 005f 0028 0012 0000 0000 0001 0000 0000 0000 0000 0000 0000 0001 0001 0000 xxxx xxxx 0000 0000 0000 0000 0000 0000 0000 0000 0000 0000 0000 0000 000c 0018 000a 0000 0000 0000 0002 0000 0000 0000 0000 0000 0000 0000 0000 0004 0000 0012 0086 00f2 00c8 0044 0000 0000 0000 0000 0000 0000 0004 0010 0011 0006 0001 0000 0000 0000 0000 0000 0000 0002 0000 0000 0000 0000 0019 001a 0000 0000 0000 0000 0000 0000 0000 0147 013b 0000 0000 0003 0000 0015 0016 0000 0000 0000 0000 0000 0000 0000 0000 0002 0000 0000 0000 0000 0000 0000 0000 0002 0000 0000 0067 0127 00db 0014 0000 0000 0000 0002 0018 0015 0000 0000 0000 0000 0001 0000 0000 0000 0000 0000 0000 0000 000c 0019 000a 0000 0000 0000 0000 0000 0000 0000 0002 0000 0000 0002 0004 0015 0012 0000 0000 0000 0001 0001 0000 0000 0000 0000 0000 0000 0000 000a 0016 000c 0000 0000 0001 0000 0000 0000 0000 0000 0000 0001 0001 0000
0000 0000 0000 0000 0000 0000 0000 0000 0000 0000 0000 0000 000b 0017 000a 0000 0000 0000 0000 0000 0000 0000 0003 0001 0000 0000 0000 0012 0016 0003 0003 0000 0000 0000 0000 0000 0000 0000 0000 0000 0003 000e 0012 0008 0001 0000 0000 0000 0000 0000 0000 0003 000b 0000 0000 0000 0000 0000 0004 00e2 0149 0070 0006 0000 0000 0000 0000 0000 0000 0000 0000 0016 0015 0000 0000 0000 0000 0001 0000 0000 0000 0000 0001 0000 0001 0050 011c 0101 0033 0001 0000 0000 0000 0000 0000 0001 0000 0000 0000 0002 0016 0013 0000 0000 0000 0000 0001 0000 0000 0000 0000 0000 0000 0000 000b 0018 000b 0001 0000 0000 0000 0000 0000 0000 0001 0000 0000 0004 000c 0000 0000 0000 0000 0000 0000 0000 0000 0000 0001 0003 0000 0137 012d 0002 0024 0014 0000 0000 0000 0000 0000 0000 0000 0000 0000 0001 0001 0000 xxxx xxxx 0000 0000 0000 0000 0000 0000 0000 0018 0000 0004 0000 0000 000b 0016 000a 0000 0000 0000 0002 0000 0000 0000 0000 0000 0000 0000 0000 0002 0000 0000 0019 0073 00e9 00dd 003e 0000 0000 0000 0000 0000 0003 000e 0012 0008 0001 0000 0000 0000 0000 0000 0000 0003 0000 0000 0000 0000 0017 0019 0000 0000 0000 0000 0000 0000 0000 0132 0135 000c 0004 0000 0000 0016 0015 0000 0000 0000 0000 0000 0000 0000 0000 0000 0000 0000 0000 0000 0000 0000 0000 0000 0000 0000 000c 00d6 012e 0066 0001 0000 0000 0002 0016 0013 0000 0000 0000 0000 0001 0000 0000 0000 0000 0000 0000 0000 000b 0018 000b 0001 0000 0000 0000 0000 0000 0000 0002 0000 0000 0002 0004 0015 0012 0000 0000 0000 0000 0000 0000 0000 0000 0000 0000 0000 0000 000a 0017 000c 0000 0000 0000 0000 0000 0000 0000 0000 0000 0001 0001 0000
0000 0000 0000 0000 0000 0000 0000 0000 0001 0000 0000 0000 000c 0017 0009 0000 0001 0000 0000 0000 0000 0000 0000 0000 0000 0000 0000 0011 0016 0005 0002 0000 0000 0000 0000 0000 0000 0000 0000 0000 0000 000d 0015 0009 0001 0000 0000 0000 0000 0000 0000 0000 0006 0000 0000 0000 0000 0000 0005 00c6 0147 008c 0007 0000 0000 0000 0000 0000 0001 0000 0001 0018 0014 0000 0000 0000 0000 0002 0000 0000 0000 0000 0000 0000 0000 000e 00a1 0122 00b1 0021 0000 0000 0000 0000 0000 0002 0000 0000 0000 0003 0015 0011 0001 0001 0000 0000 0000 0000 0000 0000 0000 0000 0000 0000 000a 0017 000d 0002 0000 0000 0000 0000 0000 0000 0000 0000 0000 0009 0000 0000 0000 0000 0000 0000 0000 0000 0000 0000 0002 0006 000f 0138 0128 0002 0019 0011 0000 0000 0000 0000 0000 0000 0000 0000 0000 0000 0000 0000 xxxx xxxx 0000 0000 0000 0000 0000 0000 0000 0006 004c 003b 0000 0000 000d 0016 0009 0000 0000 0000 0001 0000 0000 0000 0000 0000 0000 0000 0000 0000 0000 0000 0001 0014 0064 00e9 00b1 0039 0025 0004 0000 0000 0000 000d 0015 0009 0001 0000 0000 0000 0000 0000 0000 0002 0000 0000 0000 0000 0014 0017 0003 0000 0000 0000 0000 0000 0000 00e9 0134 0053 0007 0000 0001 0018 0014 0000 0000 0000 0000 0000 0000 0000 0000 0000 0000 0000 0000 0000 0000 0000 0000 0000 0000 0000 0003 0050 0134 00ec 0004 0000 0000 0003 0015 0011 0001 0001 0000 0000 0000 0000 0000 0000 0000 0000 0000 0000 000a 0017 000d 0002 0000 0000 0000 0000 0000 0000 0002 0000 0000 0000 0005 0016 0011 0000 0000 0000 0000 0000 0000 0000 0000 0000 0000 0000 0000 0009 0019 000d 0000 0000 0000 0000 0000 0000 0000 0000 0000 0000 0000 0000
0000 0000 0000 0000 0000 0000 0000 0000 0001 0000 0000 0000 0009 0010 0006 0000 0001 0000 0000 0000 0000 0000 0000 0000 0000 0000 0000 000c 000e 0004 0001 0000 0000 0000 0000 0000 0000 0000 0000 0000 0000 000a 000f 0005 0001 0000 0000 0000 0000 0000 0000 0000 0000 0000 0000 0000 0000 0000 0004 006b 0149 00e1 0000 0000 0000 0000 0000 0000 0001 0000 0002 0011 000c 0000 0000 0000 0000 0000 0000 0000 0000 0000 0000 0000 0000 0006 0027 00b8 0126 008f 0000 0000 0000 0000 0000 0002 0000 0000 0000 0003 000f 000a 0000 0001 0000 0000 0000 0000 0000 0000 0000 0000 0000 0000 0005 000f 000a 0001 0000 0000 0000 0000 0000 0000 0000 0001 0000 0000 0000 0000 0000 0000 0000 0000 0000 0000 0000 0000 0004 0005 0038 0135 0107 000b 000c 0009 0000 0000 0000 0000 0000 0000 0000 0000 0000 0000 0000 0000 xxxx xxxx 0000 0000 0000 0000 0000 0000 0000 0000 0050 00a6 004a 0000 000c 000f 0005 0000 0002 0000 0000 0000 0000 0000 0000 0000 0000 0000 0000 0000 0000 0000 0002 0002 000a 0056 00a0 00df 0092 0006 0000 0000 0000 000a 000f 0005 0001 0000 0000 0000 0000 0000 0000 0000 0000 0000 0000 0001 000c 000e 0003 0000 0000 0000 0000 0000 0000 009d 0138 009f 0007 0000 0002 0011 000c 0000 0000 0000 0000 0000 0000 0000 0000 0000 0000 0000 0000 0010 0000 0000 0000 0000 0000 0000 0007 000b 00f2 0134 0046 0000 0000 0003 000f 000a 0000 0001 0000 0000 0000 0000 0000 0000 0000 0000 0000 0000 0005 000f 000a 0001 0000 0000 0000 0000 0000 0000 0001 0000 0000 0000 0004 000f 000b 0001 0000 0000 0000 0000 0000 0000 0000 0000 0000 0002 0000 0006 0012 0008 0000 0000 0000 0000 0000 0000 0000 0000 0000 0000 0000 0000
0000 0000 0000 0000 0000 0003 0003 0000 0001 0000 0000 0000 0000 0000 0000 0000 0000 0000 0000 0000 0004 0004 0000 0000 0000 0000 0001 0000 0000 0000 0000 0000 0000 0000 0003 0007 0000 0000 0000 0000 0000 0000 0000 0000 0003 0000 0000 0000 0001 0004 0007 0000 0000 0000 0000 0000 0000 0000 0000 0018 0147 012b 0000 0003 0004 0002 0000 0000 0000 0000 0000 0000 0000 0000 0000 0000 0000 0000 0000 0000 0000 0000 0000 0000 0000 0005 0001 0035 013f 0106 0000 0000 0006 0006 0002 0001 0000 0000 0000 0000 0000 0000 0000 0001 0000 0000 0000 0003 0005 0000 0000 0000 0000 0001 0000 0000 0000 0001 0000 0000 0000 0001 0006 0007 0000 0000 0000 0000 0000 0000 0000 0001 0000 0000 0000 0000 0000 0000 0002 0005 0094 0143 00b3 0001 0000 0000 0000 0000 0000 0000 0000 0004 0004 0000 0000 0000 0000 0000 xxxx xxxx 0000 0000 0000 0000 0000 0000 0000 0000 0000 0057 00a2 006a 0052 0000 0000 0000 0001 0000 0000 0000 0004 0004 0003 0000 0000 0000 0000 0000 0000 0000 0000 0000 0002 0006 0036 00ee 010f 0055 0000 0000 0000 0000 0000 0000 0003 0000 0000 0000 0001 0004 0002 0000 0000 0000 0000 0000 0000 0000 0000 0000 0000 0000 0000 0000 0000 008a 0140 00bc 0006 0001 0000 0000 0000 0000 0000 0000 0000 0000 0004 0004 0000 0000 0000 0000 0000 0000 0000 0000 0000 0000 0000 0000 0006 0005 0067 0144 00dc 0000 0000 0000 0000 0000 0000 0001 0000 0000 0000 0003 0005 0000 0000 0000 0000 0001 0000 0000 0000 0001 0000 0000 0000 0001 0006 0002 0000 0000 0000 0000 0000 0000 0000 0001 0000 0000 0000 0000 0005 0004 0000 0000 0000 0001 0000 0000 0000 0000 0000 0000 0000 0000 0000 0004 0004 0000 0000 0000 0000 0000
0000 0000 0000 0000 0000 000f 0012 0003 0001 0000 0000 0000 0000 0000 0000 0002 0000 0000 0000 0002 0013 0010 0000 0000 0000 0000 0001 0000 0000 0000 0000 0000 0000 0000 0009 0016 0009 0000 0000 0000 0000 0000 0000 0000 0003 0000 0000 0001 0004 0012 0011 0000 0000 0000 0000 0000 0000 0003 0000 0000 013d 013c 0000 000c 0013 0008 0000 0000 0000 0000 0000 0000 0000 0000 0000 0000 0000 0000 0010 000b 0000 0000 0000 0000 0000 0003 0005 0000 00f7 0134 0038 0007 0012 0011 0008 0000 0000 0000 0000 0000 0000 0000 0002 0001 0000 0000 0000 000f 0014 0003 0001 0000 0000 0001 0000 0000 0000 0000 0000 0003 0000 0007 0015 0000 0000 0000 0000 0000 0000 0003 0000 0000 0001 0000 0000 0000 0000 0000 0000 0004 010e 014c 003f 0000 0000 0000 0000 0000 0000 0000 0003 0012 0010 0000 0000 0000 0000 0000 xxxx xxxx 0000 0000 0000 0000 0000 0012 000d 0000 0000 0000 0000 00b4 00d0 003d 0015 0003 0003 0000 0000 0007 0015 0010 0001 0000 0000 0002 0000 0000 0000 0000 0000 0000 0000 0004 000a 0051 00f8 00e3 004d 0018 0000 0000 0000 0000 0002 0000 0000 0001 0004 0012 000f 0000 0000 0000 0000 0000 0000 0000 0000 0000 0000 0000 000f 0000 0000 0090 0147 00be 0008 0000 0000 0000 0000 0000 0000 0000 0000 0000 0012 0012 0000 0000 0000 0000 0000 0000 0000 0000 0000 0000 0000 0001 0001 0000 0012 0144 013e 000b 0000 0000 0000 0000 0002 0001 0000 0000 0000 000f 0014 0003 0001 0000 0000 0001 0000 0000 0000 0000 0000 0000 0000 000b 0013 0007 0000 0000 0000 0000 0000 0000 0000 0002 0000 0000 0000 0000 0012 0015 0002 0000 0000 0000 0000 0000 0000 0000 0000 0000 0000 0000 0003 0012 0010 0000 0000 0000 0000 0000
0000 0000 0000 0000 0000 0014 0014 0002 0002 0000 0000 0000 0000 0000 0000 0001 0000 0000 0000 0002 0017 0014 0000 0000 0000 0000 0001 0000 0000 0000 0000 0000 0000 0000 000b 0019 000a 0000 0000 0000 0000 0000 0000 0000 0003 0000 0000 0002 0004 0015 0013 0000 0000 0000 0000 0000 0000 0006 0000 0000 00fc 0139 0042 0012 0013 0005 0000 0000 0001 0000 0000 0000 0000 0000 0000 0001 0001 0000 0013 0012 0003 0000 0000 0000 0000 0000 0003 0000 006e 0128 00bd 0021 0018 0009 000a 0000 0000 0000 0000 0000 0000 0000 0004 0001 0000 0000 0000 0013 0016 0003 0002 0000 0000 0000 0000 0000 0000 0000 0000 0009 0000 0000 0000 0000 0000 0000 0000 0000 0001 0001 0000 0000 0002 0000 0000 0000 0002 0000 0000 0000 0149 0150 0007 0000 0000 0000 0000 0000 0000 0001 0001 0015 0014 0000 0000 0000 0000 0000 xxxx xxxx 0000 0000 0000 0000 0000 0017 0015 0000 0000 0000 0000 0000 0083 009c 0087 0044 0003 0000 0000 000c 0018 0014 0000 0000 0000 0000 0000 0000 0000 0000 0000 0000 0000 0000 0004 0000 0060 00cc 00ec 0084 0001 0000 0000 0000 0001 0000 0000 0002 0004 0015 0012 0000 0000 0000 0000 0001 0000 0000 0000 0000 0000 0003 0013 0000 0000 0092 014a 00bf 0008 0000 0000 0000 0000 0000 0000 0001 0001 0000 0015 0015 0000 0000 0000 0000 0000 0000 0000 0000 0000 0000 0000 0000 0000 0000 0003 011b 0150 0036 0000 0000 0000 0000 0004 0001 0000 0000 0000 0013 0016 0003 0002 0000 0000 0000 0000 0000 0000 0000 0000 0000 0003 000f 0012 0007 0000 0000 0000 0000 0000 0000 0000 0002 0000 0000 0000 0000 0017 001a 0000 0000 0000 0000 0001 0000 0000 0000 0000 0000 0000 0001 0001 0015 0014 0000 0000 0000 0000 0000
0000 0000 0000 0000 0000 0016 0014 0001 0002 0000 0000 0000 0000 0000 0000 0000 0000 0000 0000 0002 0018 0015 0000 0000 0000 0000 0001 0000 0000 0000 0000 0000 0000 0000 000c 0019 000a 0000 0000 0000 0000 0000 0000 0000 0002 0000 0000 0002 0004 0015 0014 0000 0000 0000 0000 0000 0000 0002 0001 0000 0080 013d 00b9 000c 0015 0006 0000 0000 0001 0000 0000 0000 0000 0000 0000 0001 0001 0000 0014 0014 0000 0000 0000 0000 0000 0000 0000 0000 0012 00cb 0128 007f 000c 0007 000a 0000 0000 0000 0000 0001 0000 0000 0004 0001 0000 0000 0000 0014 0016 0002 0002 0000 0000 0000 0000 0000 0000 0000 0000 000d 0000 0000 0000 0000 0000 0000 0001 0000 0000 0000 0000 0001 0031 0053 0000 0000 0000 0000 0001 0000 014d 0152 0004 0000 0000 0000 0000 0000 0000 0001 0000 0015 0016 0000 0000 0000 0000 0000 xxxx xxxx 0000 0000 0000 0000 0000 0018 0017 0000 0000 0000 0000 0000 0000 005a 00c4 00d3 004a 0006 0000 0006 0016 0015 0000 0000 0000 0000 0000 0000 0000 0000 0000 0000 0000 0000 0000 0000 000c 003d 00f7 0114 004e 0000 0000 0000 0003 0000 0000 0002 0004 0015 0012 0000 0000 0000 0001 0001 0000 0000 0000 0000 0000 0000 0002 0000 0000 0094 014c 00bd 0008 0000 0000 0000 0000 0000 0000 0001 0001 0000 0015 0015 0000 0000 0000 0000 0000 0000 0000 0004 0000 0000 0000 0000 0000 0002 0000 00ae 0152 00a1 0000 0000 0000 0000 0004 0001 0000 0000 0000 0014 0016 0002 0002 0000 0000 0000 0000 0000 0000 0000 0000 0000 0004 0010 0011 0006 0001 0000 0000 0000 0000 0000 0000 0002 0000 0000 0000 0000 0019 001a 0000 0000 0000 0000 0001 0000 0000 0000 0000 0000 0000 0001 0000 0015 0016 0000 0000 0000 0000 0000
0000 0000 0000 0000 0000 0016 0014 0001 0002 0000 0000 0000 0000 0000 0000 0000 0000 0000 0000 0002 0018 0015 0000 0000 0000 0000 0001 0000 0000 0000 0000 0000 0000 0000 000c 0019 000a 0000 0000 0000 0000 0000 0000 0000 0002 0000 0000 0002 0004 0015 0014 0000 0000 0000 0000 0000 0000 0000 0005 0001 002a 0140 010a 0000 0018 0011 0000 0000 0001 0000 0000 0000 0000 0000 0000 0001 0001 0000 0013 0012 0000 0000 0000 0000 0000 0000 0001 0000 0000 003e 00fd 0105 004a 000f 000a 0000 0000 0000 0000 0001 0000 0000 0004 0001 0000 0000 0000 0014 0016 0002 0002 0000 0000 0000 0000 0000 0000 0000 0000 0000 0000 0000 0000 0000 0003 0000 0000 0000 0000 0000 0009 0054 00a5 00a5 0000 0000 0000 0000 0000 0002 014e 0150 0003 0000 0000 0000 0000 0000 0000 0001 0000 0015 0016 0000 0000 0000 0000 0000 xxxx xxxx 0000 0000 0000 0000 0000 0018 0016 0000 0000 0000 0000 0000 0000 0000 0030 00e3 00d3 0054 000d 0000 0018 0015 0000 0000 0000 0000 0001 0000 0000 0007 0000 0000 0000 0000 0000 0000 0003 0004 005f 00fa 00ea 0046 0000 0000 0002 0000 0000 0002 0004 0015 0012 0000 0000 0000 0001 0001 0000 0000 0000 0000 0000 0000 0000 0000 0000 0092 014c 00bd 0008 0000 0000 0000 0000 0000 0000 0001 0001 0000 0015 0015 0000 0000 0000 0000 0000 0000 0000 0000 0000 0000 0000 0000 0000 0004 0000 002f 014e 011f 0002 0000 0000 0000 0004 0001 0000 0000 0000 0014 0016 0002 0002 0000 0000 0000 0000 0000 0000 0000 0000 0000 0004 0010 0011 0006 0001 0000 0000 0000 0000 0000 0000 0002 0000 0000 0000 0000 0019 001a 0000 0000 0000 0000 0001 0000 0000 0000 0000 0000 0000 0001 0000 0015 0016 0000 0000 0000 0000 0000
0000 0000 0000 0000 0000 0016 0015 0001 0002 0000 0000 0000 0000 0000 0000 0000 0000 0000 0000 0003 0018 0015 0000 0000 0000 0000 0001 0000 0000 0000 0000 0000 0000 0000 000c 001a 000b 0000 0000 0000 0000 0000 0000 0000 0002 0000 0000 0002 0004 0016 0013 0000 0000 0000 0000 0000 0000 0000 0001 0000 000c 013e 0133 0000 000f 0014 0000 0000 0002 0000 0000 0000 0000 0000 0000 0001 0001 0000 0013 0012 0002 0000 0000 0000 0000 0000 0001 0000 0000 0000 005e 0143 00e9 000d 000b 0001 0000 0000 0000 0000 0000 0000 0003 0001 0000 0000 0000 0014 0017 0003 0002 0000 0000 0000 0000 0000 0000 0009 0000 0000 0000 0000 0000 0000 0003 0000 0000 0000 0001 0051 0064 00a5 00ba 0051 0000 0000 0000 0000 0000 0006 0151 014d 0001 0000 0000 0000 0000 0000 0000 0001 0001 0015 0015 0000 0000 0001 0001 0000 xxxx xxxx 0000 0000 0000 0000 0000 0017 0017 0000 0000 0000 0004 0000 0000 0000 0000 0034 00c8 00ba 0069 0031 001d 0013 0000 0001 0000 0000 0001 0000 0000 0008 0005 0000 0000 0000 0000 0000 0000 0006 0006 0050 00f1 00e8 0045 0000 0000 0002 0001 0001 0000 0016 0013 0000 0000 0000 0001 0001 0000 0000 0000 0000 0000 0000 0000 0000 0000 0088 014a 00bd 0008 0003 0000 0000 0000 0000 0000 0001 0001 0000 0016 0016 0000 0000 0000 0000 0000 0000 0000 0000 0000 0000 0000 0000 0000 0005 0000 0000 0111 014f 003f 0003 0000 0000 0002 0002 0000 0000 0000 0014 0017 0003 0002 0000 0000 0000 0000 0000 0000 0000 0000 0000 0002 000f 0013 0008 0001 0000 0000 0000 0000 0000 0000 0003 0000 0000 0000 0000 0019 001a 0000 0000 0000 0000 0001 0000 0000 0000 0000 0000 0000 0001 0001 0015 0015 0000 0000 0001 0001 0000
