0000 0000 0000 0001 0000 0000 0000 0004 0001 0000 0001 0000 0000 0002 0002 0000 0001 0002 0002 0000 0000 0002 0001 0001 0001 0000 0000 0000 0000 0001 0001 0001 0000 0000 0002 0002 0005 0001 0000 0000 0000 0006 0004 0001 0002 0000 0000 0005 0003 0000 0000 0000 0000 0001 0001 0001 0002 0001 0002 0002 0001 0003 0002 0008 000c 0010 0014 000a 0003 0004 0002 0000 0001 0003 0000 0000 0000 0000 0000 0004 0009 0008 0000 0000 0000 0000 0000 0000 0000 0000 0000 0000 0000 0000 0000 0000 0000 0000 0001 0001 0002 0000 0000 0000 0002 0000 0000 0001 0003 0000 0000 0000 0000 0000 0000 0001 0002 0003 0002 0000 0000 0002 0000 0000 0000 0000 0000 0000 0000 0002 0002 0000 0000 0000 0000 0000 0002 0002 0002 0000 0000 0000 0002 0002 0002 0000 0000 0000 0000 0000 0000 0000 0002 0002 0002 0001 0000 0000 0000 0002 0000 0000 0000 0000 0000 0000 0000 0000 0000 0000 0002 0002 0000 0000 0000 0000 0000 0002 0002 0002 0002 0000 0000 0000 0000 0000 0000 0000 0000 0000 0000 0000 0001 0002 0003 0000 0000 0000 0000 0001 0005 0002 0002 0000 0000 0002 0001 0000 0000 0000 0000 0001 0000 0000 0000 0000 0002 0001 0000 0000 0000 0002 0003 0002 0000 0000 0000 0000 0000 0000 0002 0000 0000 0000 0002 0002 0002 0002 0002 0001 0002 0002 0002 0000 0000 0004 0003 0000 0000 0002 0003 0000 0000 0004 0004 0000 0000 0002 0000 0000 0000 0000 0000 0000 0000 0000 0000 0004 0003 0000 0000 0000 0000 0000 0000 0001 0002 0001 0002 0000 0000 0004 0008 0005 0007 0005 0000 0000 0000 0000 0000 0000 0006 0007 0001 0000 0000 0000 0000 0000 0000 0000 0000 0000 0000 0000 0000 0000 0000 0001 0000 0000 0000 0000 0000 0001 0003 0000 0000 0000 0000 0002 0004 0002 0000 0000 0000 0002 0002 0000 0000 0002 0002 0000 0000 0002 0000 0000 0000 0000 0000 0000 0000 0000 0000 0000 0000 0000 0000 0000 0000 0000 0002 0000 0000 0000 0000 0002 0000 0000 0000 0002 0000 0000 0000 0000 0001 0002 0002 0004 0004 0000 0000 0000 0000 0000 0000 0000 0002 0002 0000 0000 0000 0000 0000 0000 0000 0000 0000 0000 0000 0000 0000 0000 0000 0000 0000 0000 0000 0000 0002 0006 0003 0004 0004 0000 0002 0002 0001 0000 0000 0000 0000 0000 0000 0000 0001 0004 0002 0000 0000 0000 0000 0001 0003 0002 0000 0000 0002 0003 0002 0000 0002 0000 0000 0000 0000 0000 0000 0004 0001 0000 0002 0004 0000 0000 0000 0000 0000 0000 0000 0000 0002 0006 0005 0000 0000 0003 0000 0000 0002 0002 0000 0000 0000 0000 0000 0000 0000 0000 0001 0000 0000 0000 0001 0002 0000 0000 0000 0000 0005 0004 0000 0000 0003 0004 0000 0000 0000 0002 0001 0000 0002 0000 0000 0000 0000 0002 0002 0000 0002 0002 0000 0000 0000 0000 0002 0002 0000 0000 0000 0000 0000 0000 0003 0002 0000 0000 0000 0000 0000 0000 0000 0000 0000 0000 0000 0001 0002 0002 0002 0000 0000 0000 0002 0006 0006 0002 0000 0000 0000 0000 0002 0001 0004 0004 0000 0000 0000 0000 0001 0002 0002 0000 0000 0000 0002 0000 0000 0000 0000 0000 0000 0003 0004 0000 0000 0001 0000 0000 0000 0004 0002 0000 0000 0000 0000 0000 0000 0000 0000 0000 0000 0004 0006 0006 0005 0006 0006 0008 0008 0009 0008 0002 0002 0006 0007 0006 0006 0005 0000 0000 0001 0000 0000 0000 0000 0000 0000 0000 0000 0000 0000 0000 0000 0000 0001 0000 0000 0001 0000 0000 0000 0000 0000 0000 0002 0000 0000 0000 0000 0000 0000 0000 0000 0000 0000 0000
0000 0000 0001 0001 0000 0000 0000 0001 0000 0000 0001 0002 0002 0002 0001 0001 0001 0002 0002 0000 0000 0002 0001 0001 0000 0000 0000 0000 0000 0000 0001 0001 0000 0000 0001 0001 0005 0001 0000 0000 0000 0004 0002 0001 0001 0001 0002 0002 0000 0002 0000 0000 0000 0001 0002 0001 0002 0001 0003 0005 0002 0000 0000 0008 000b 000e 0012 000a 0004 0004 0002 0000 0000 0002 0000 0000 0000 0000 0000 0001 0006 0007 0000 0000 0000 0000 0000 0000 0000 0000 0000 0000 0000 0000 0000 0000 0000 0000 0000 0000 0002 0000 0000 0000 0002 0000 0000 0000 0002 0000 0000 0000 0000 0000 0000 0001 0002 0003 0002 0000 0000 0002 0000 0000 0000 0000 0001 0000 0000 0002 0000 0000 0000 0000 0000 0000 0002 0002 0002 0000 0000 0000 0002 0003 0003 0000 0000 0000 0000 0000 0000 0000 0001 0002 0002 0001 0000 0000 0000 0002 0001 0000 0000 0000 0000 0000 0000 0000 0000 0000 0000 0001 0000 0000 0000 0000 0000 0001 0001 0002 0002 0000 0000 0000 0000 0000 0000 0000 0000 0000 0000 0000 0001 0002 0004 0000 0000 0000 0000 0000 0004 0002 0002 0001 0001 0002 0001 0000 0000 0000 0000 0000 0000 0000 0000 0000 0002 0007 0000 0000 0000 0000 0000 0000 0001 0001 0000 0000 0000 0000 0001 0000 0000 0001 0003 0002 0002 0001 0001 0001 0002 0001 0001 0000 0000 0002 0001 0000 0003 0005 0001 0000 0001 0004 0004 0000 0000 0001 0001 0000 0000 0000 0000 0000 0000 0000 0000 0001 0000 0000 0000 0000 0000 0000 0000 0001 0003 0002 0001 0000 0001 0004 0007 0004 0006 0005 0000 0000 0000 0000 0000 0000 0004 0005 0002 0000 0000 0000 0000 0000 0000 0000 0000 0000 0000 0000 0000 0000 0000 0000 0000 0000 0000 0000 0000 0002 0002 0000 0000 0000 0000 0002 0003 0001 0000 0000 0000 0002 0002 0000 0000 0002 0002 0000 0000 0001 0000 0000 0000 0000 0000 0000 0000 0000 0000 0000 0000 0000 0000 0000 0000 0000 0002 0000 0000 0000 0000 0001 0000 0000 0000 0000 0000 0000 0000 0002 0002 0002 0002 0002 0002 0002 0001 0000 0000 0000 0000 0000 0002 0002 0000 0000 0000 0000 0000 0000 0000 0000 0000 0000 0000 0000 0000 0000 0000 0000 0000 0000 0000 0000 0000 0006 0002 0005 0005 0000 0002 0002 0005 0003 0000 0000 0001 0002 0000 0000 0000 0002 0002 0000 0000 0000 0000 0000 0000 0002 0002 0000 0000 0002 0003 0000 0002 0000 0000 0001 0002 0000 0000 0003 0001 0000 0001 0003 0000 0000 0000 0000 0000 0000 0000 0000 0001 0005 0004 0000 0001 0004 0000 0000 0002 0000 0000 0000 0000 0000 0000 0000 0000 0002 0003 0002 0000 0000 0001 0002 0000 0000 0000 0000 0004 0004 0000 0000 0002 0003 0000 0000 0000 0002 0000 0000 0002 0002 0000 0000 0000 0000 0000 0000 0002 0002 0000 0000 0000 0000 0003 0004 0000 0000 0000 0000 0000 0000 0001 0000 0000 0000 0000 0000 0000 0000 0000 0000 0000 0000 0000 0001 0003 0002 0002 0000 0000 0000 0002 0006 0005 0002 0000 0000 0000 0000 0001 0001 0004 0003 0000 0000 0000 0000 0003 0004 0004 0000 0000 0000 0000 0001 0001 0000 0000 0000 0000 0003 0004 0002 0000 0000 0000 0000 0001 0003 0002 0000 0000 0000 0000 0000 0000 0000 0000 0000 0000 0004 0007 0006 0005 0004 0005 0008 0008 000b 0009 0003 0003 0007 0008 0006 0006 0004 0000 0000 0000 0000 0000 0000 0000 0000 0000 0000 0000 0000 0000 0000 0000 0000 0000 0000 0001 0001 0000 0000 0000 0000 0000 0000 0002 0000 0000 0000 0000 0000 0000 0000 0000 0000 0000 0000
0000 0000 0001 0001 0000 0000 0000 0000 0000 0000 0002 0003 0003 0002 0001 0000 0001 0002 0002 0000 0000 0002 0002 0001 0000 0000 0000 0000 0000 0000 0001 0001 0001 0000 0000 0000 0003 0000 0000 0000 0001 0003 0002 0001 0001 0003 0003 0000 0000 0003 0001 0000 0000 0000 0002 0001 0002 0001 0004 0008 0003 0000 0001 0009 0009 000c 0010 0009 0003 0004 0002 0000 0000 0000 0000 0000 0000 0000 0000 0000 0003 0004 0000 0000 0000 0000 0000 0000 0000 0000 0000 0000 0000 0000 0000 0000 0000 0000 0000 0000 0001 0000 0000 0000 0002 0000 0000 0000 0001 0000 0000 0000 0000 0000 0001 0001 0002 0004 0002 0000 0000 0002 0000 0000 0000 0000 0002 0000 0000 0001 0000 0000 0000 0000 0000 0000 0002 0002 0002 0000 0000 0000 0002 0004 0004 0000 0000 0000 0000 0000 0000 0000 0000 0002 0002 0000 0001 0000 0000 0002 0001 0000 0000 0000 0000 0000 0000 0000 0000 0000 0000 0000 0000 0000 0000 0000 0000 0000 0000 0002 0002 0000 0000 0000 0001 0001 0000 0000 0000 0000 0000 0000 0002 0002 0005 0000 0000 0000 0000 0000 0003 0002 0002 0002 0002 0002 0001 0000 0000 0000 0000 0000 0001 0003 0000 0000 0000 0008 0003 0000 0000 0000 0000 0000 0000 0002 0001 0000 0000 0000 0000 0000 0000 0001 0002 0002 0002 0000 0000 0001 0002 0001 0001 0001 0001 0000 0000 0000 0004 0007 0000 0000 0002 0005 0004 0000 0000 0000 0002 0000 0000 0000 0000 0000 0000 0000 0000 0000 0000 0000 0000 0003 0002 0000 0000 0000 0003 0002 0001 0001 0003 0004 0005 0003 0003 0004 0000 0000 0000 0000 0000 0000 0002 0003 0003 0001 0000 0000 0000 0000 0000 0000 0000 0000 0000 0000 0000 0000 0000 0000 0000 0000 0000 0000 0000 0002 0002 0000 0000 0000 0000 0002 0002 0000 0000 0000 0000 0003 0003 0000 0000 0002 0002 0000 0000 0000 0000 0000 0000 0000 0000 0000 0000 0000 0000 0000 0000 0000 0000 0000 0000 0001 0002 0000 0000 0000 0000 0000 0000 0000 0000 0000 0000 0000 0000 0003 0003 0002 0002 0000 0001 0003 0003 0000 0000 0000 0000 0000 0002 0002 0000 0000 0000 0000 0000 0000 0000 0000 0000 0000 0000 0000 0000 0000 0000 0000 0000 0001 0001 0000 0000 0006 0002 0006 0006 0000 0002 0002 0005 0003 0000 0000 0002 0001 0000 0000 0000 0000 0002 0000 0001 0002 0000 0000 0000 0001 0006 0001 0000 0000 0004 0000 0002 0000 0000 0001 0001 0000 0000 0002 0001 0000 0001 0002 0000 0000 0000 0000 0000 0000 0002 0000 0000 0004 0003 0000 0001 0003 0000 0000 0002 0000 0000 0000 0001 0000 0000 0000 0000 0003 0004 0003 0000 0000 0002 0002 0000 0001 0000 0000 0004 0004 0000 0000 0001 0002 0000 0000 0000 0001 0000 0000 0002 0003 0001 0000 0000 0000 0000 0000 0002 0002 0000 0000 0000 0000 0004 0005 0000 0000 0000 0000 0000 0000 0000 0000 0000 0000 0000 0000 0000 0000 0000 0000 0000 0000 0000 0001 0002 0002 0002 0000 0000 0000 0002 0006 0004 0002 0000 0000 0000 0000 0001 0001 0003 0002 0000 0000 0000 0000 0004 0005 0005 0000 0000 0000 0000 0002 0002 0000 0000 0000 0000 0002 0004 0005 0001 0000 0000 0000 0002 0002 0002 0000 0000 0000 0000 0000 0000 0000 0000 0000 0000 0004 0007 0006 0005 0004 0005 000a 0009 000a 0009 0004 0004 0007 0007 0006 0006 0004 0002 0002 0000 0000 0000 0000 0000 0000 0000 0000 0000 0000 0000 0000 0000 0000 0000 0000 0002 0001 0000 0000 0000 0000 0000 0000 0002 0000 0000 0000 0000 0000 0000 0000 0000 0000 0000 0000
0001 0001 0001 0000 0000 0000 0000 0000 0000 0002 0004 0003 0002 0002 0001 0000 0000 0002 0002 0000 0000 0002 0002 0001 0000 0000 0000 0000 0000 0000 0001 0001 0002 0000 0000 0000 0000 0000 0000 0000 0002 0003 0002 0002 0001 0004 0004 0000 0000 0003 0001 0000 0000 0000 0000 0001 0002 0002 0004 0008 0003 0000 0003 000a 0007 0009 000f 0008 0003 0004 0002 0000 0000 0000 0000 0000 0000 0000 0000 0001 0001 0002 0001 0000 0000 0000 0000 0000 0000 0000 0000 0000 0000 0000 0000 0000 0001 0000 0000 0000 0000 0000 0000 0000 0002 0001 0000 0000 0000 0000 0000 0000 0000 0000 0001 0002 0002 0004 0002 0000 0000 0003 0000 0000 0000 0000 0001 0000 0000 0000 0001 0000 0000 0000 0000 0000 0002 0002 0002 0000 0000 0000 0002 0004 0004 0000 0000 0000 0000 0000 0000 0000 0000 0001 0002 0000 0001 0000 0000 0002 0000 0000 0000 0000 0003 0003 0000 0000 0000 0000 0000 0000 0000 0000 0000 0000 0000 0000 0000 0002 0002 0000 0000 0001 0002 0002 0000 0000 0000 0000 0000 0000 0002 0002 0005 0000 0000 0000 0000 0000 0002 0002 0002 0003 0003 0001 0001 0000 0000 0000 0000 0000 0000 0003 0000 0000 0000 0005 0005 0000 0000 0001 0000 0000 0000 0001 0002 0002 0000 0000 0000 0000 0000 0000 0000 0001 0002 0000 0000 0001 0002 0001 0002 0002 0003 0000 0000 0000 0004 0007 0000 0000 0003 0006 0003 0000 0000 0000 0001 0001 0000 0000 0000 0000 0000 0000 0000 0000 0000 0000 0000 0005 0005 0000 0000 0000 0001 0002 0001 0001 0004 0004 0003 0002 0001 0002 0001 0000 0000 0000 0000 0002 0002 0001 0004 0001 0000 0000 0000 0000 0000 0000 0000 0000 0000 0000 0000 0000 0000 0000 0001 0000 0000 0000 0000 0003 0003 0000 0000 0000 0000 0002 0002 0000 0000 0000 0000 0004 0004 0000 0000 0002 0002 0000 0000 0000 0000 0000 0000 0000 0000 0000 0000 0000 0000 0000 0000 0000 0000 0000 0000 0002 0002 0000 0000 0000 0000 0000 0000 0000 0000 0000 0000 0000 0000 0003 0003 0002 0002 0000 0001 0002 0003 0001 0000 0000 0000 0000 0002 0002 0000 0000 0000 0000 0000 0000 0000 0000 0000 0000 0000 0000 0000 0000 0000 0000 0000 0001 0001 0000 0000 0006 0002 0005 0005 0000 0002 0002 0002 0002 0001 0002 0001 0000 0000 0000 0000 0000 0002 0000 0000 0003 0002 0000 0000 0000 0008 0001 0000 0000 0003 0000 0002 0000 0000 0000 0000 0001 0001 0000 0000 0000 0001 0001 0000 0000 0000 0000 0000 0000 0003 0001 0000 0002 0002 0000 0001 0003 0000 0001 0002 0000 0000 0000 0001 0000 0000 0000 0000 0003 0004 0003 0000 0000 0002 0002 0000 0001 0000 0000 0003 0003 0000 0000 0000 0000 0000 0001 0001 0000 0000 0000 0002 0004 0002 0000 0000 0000 0000 0000 0002 0002 0000 0000 0000 0000 0004 0006 0001 0000 0000 0000 0000 0000 0000 0000 0000 0000 0000 0000 0000 0000 0000 0000 0000 0000 0000 0000 0002 0001 0002 0000 0000 0000 0002 0006 0003 0002 0002 0000 0000 0000 0001 0001 0002 0001 0000 0000 0000 0000 0005 0005 0005 0000 0000 0000 0000 0002 0002 0000 0000 0000 0000 0002 0004 0005 0002 0000 0000 0000 0001 0001 0002 0000 0000 0000 0000 0000 0000 0000 0000 0000 0000 0004 0007 0006 0004 0005 0007 000c 000b 0008 0008 0005 0006 0005 0004 0006 0006 0004 0005 0003 0000 0000 0000 0000 0000 0000 0000 0000 0000 0000 0000 0000 0000 0000 0000 0000 0001 0000 0000 0000 0001 0000 0000 0000 0002 0000 0000 0000 0000 0000 0000 0000 0000 0000 0000 0000
0002 0002 0001 0000 0000 0000 0000 0000 0000 0003 0006 0002 0000 0002 0002 0001 0000 0002 0002 0000 0000 0002 0001 0001 0000 0000 0000 0000 0000 0000 0001 0002 0002 0000 0000 0000 0000 0000 0000 0001 0004 0002 0000 0002 0002 0003 0004 0002 0000 0000 0000 0000 0000 0001 0000 0001 0002 0002 0005 0006 0002 0000 0004 0009 0005 0006 000d 0008 0003 0004 0002 0000 0000 0000 0000 0000 0000 0000 0000 0000 0000 0001 0002 0000 0000 0000 0000 0000 0000 0000 0000 0000 0000 0000 0000 0000 0002 0000 0000 0000 0000 0000 0000 0000 0002 0002 0000 0000 0000 0000 0000 0000 0000 0000 0001 0002 0002 0004 0002 0000 0000 0002 0000 0000 0000 0000 0001 0000 0000 0000 0001 0000 0000 0000 0000 0000 0002 0002 0002 0000 0000 0000 0002 0003 0003 0000 0000 0000 0000 0000 0001 0000 0000 0000 0002 0001 0000 0000 0000 0002 0001 0000 0000 0000 0003 0003 0000 0000 0000 0000 0000 0000 0001 0001 0000 0000 0000 0000 0000 0002 0002 0000 0000 0002 0003 0003 0000 0000 0000 0000 0000 0000 0001 0002 0004 0000 0000 0000 0000 0000 0002 0002 0002 0003 0002 0001 0001 0000 0000 0000 0000 0000 0000 0000 0000 0000 0000 0000 0006 0000 0000 0001 0000 0000 0000 0000 0002 0003 0001 0000 0000 0000 0001 0000 0000 0001 0002 0000 0000 0001 0002 0001 0001 0003 0004 0002 0000 0000 0003 0005 0000 0000 0005 0006 0002 0001 0001 0000 0000 0001 0000 0000 0000 0000 0000 0000 0000 0000 0000 0000 0000 0004 0005 0000 0000 0000 0000 0002 0002 0001 0003 0002 0002 0001 0000 0002 0002 0000 0000 0000 0000 0003 0002 0001 0003 0000 0000 0000 0000 0000 0000 0001 0000 0000 0000 0000 0000 0000 0000 0000 0002 0000 0000 0000 0000 0004 0003 0000 0000 0000 0000 0002 0002 0000 0000 0000 0000 0004 0004 0000 0000 0002 0002 0000 0000 0000 0000 0000 0000 0000 0000 0000 0000 0000 0000 0000 0000 0000 0000 0000 0000 0003 0002 0000 0000 0000 0000 0000 0000 0000 0000 0000 0000 0002 0001 0002 0002 0002 0002 0000 0001 0001 0000 0002 0000 0000 0000 0000 0002 0002 0000 0000 0000 0000 0000 0000 0001 0000 0000 0000 0000 0000 0000 0000 0000 0000 0000 0000 0000 0000 0000 0006 0002 0004 0004 0000 0002 0002 0000 0001 0004 0003 0001 0000 0000 0000 0000 0000 0002 0000 0000 0004 0005 0000 0000 0000 0007 0000 0000 0000 0000 0000 0002 0000 0000 0000 0000 0002 0002 0000 0000 0002 0002 0000 0000 0000 0000 0000 0000 0000 0004 0002 0000 0000 0002 0000 0002 0003 0000 0001 0003 0000 0000 0000 0000 0001 0001 0000 0000 0002 0003 0002 0000 0000 0001 0002 0000 0000 0000 0000 0002 0002 0001 0001 0000 0000 0000 0002 0002 0000 0000 0000 0002 0004 0002 0000 0000 0000 0000 0000 0002 0002 0000 0000 0000 0000 0003 0005 0002 0000 0000 0000 0000 0000 0000 0000 0000 0000 0000 0000 0000 0000 0000 0000 0000 0000 0000 0000 0001 0001 0002 0000 0000 0000 0002 0006 0002 0002 0003 0000 0000 0000 0001 0001 0001 0000 0000 0000 0000 0000 0004 0004 0004 0001 0000 0000 0000 0001 0001 0000 0000 0000 0000 0003 0004 0004 0002 0000 0000 0000 0000 0000 0002 0000 0000 0000 0001 0002 0001 0000 0000 0000 0000 0004 0006 0006 0004 0004 0007 000d 000c 0008 0007 0006 0007 0004 0003 0006 0006 0004 0005 0003 0000 0000 0000 0000 0000 0000 0000 0000 0000 0000 0000 0000 0000 0000 0000 0000 0000 0000 0000 0000 0001 0000 0000 0000 0002 0000 0000 0000 0000 0000 0000 0000 0000 0000 0000 0000
0003 0003 0002 0000 0000 0000 0000 0000 0000 0004 0007 0001 0000 0002 0001 0001 0001 0001 0002 0000 0000 0001 0001 0001 0001 0000 0000 0000 0000 0000 0002 0001 0001 0000 0000 0000 0000 0000 0000 0002 0005 0000 0000 0002 0002 0002 0004 0005 0003 0000 0000 0000 0003 0003 0000 0002 0002 0001 0005 0003 0000 0003 0003 0006 0003 0004 000c 0007 0004 0004 0002 0000 0000 0000 0000 0000 0000 0000 0000 0000 0000 0000 0003 0003 0000 0000 0000 0000 0000 0000 0000 0000 0000 0000 0000 0000 0002 0000 0000 0000 0000 0000 0000 0000 0002 0002 0000 0000 0000 0000 0000 0000 0000 0000 0000 0002 0002 0004 0003 0000 0000 0002 0001 0000 0000 0000 0003 0002 0000 0000 0000 0000 0000 0000 0000 0000 0002 0002 0002 0000 0000 0000 0002 0002 0002 0000 0000 0000 0000 0002 0003 0002 0000 0000 0002 0001 0000 0000 0000 0002 0003 0001 0000 0000 0000 0000 0000 0000 0000 0000 0000 0000 0002 0002 0000 0000 0000 0000 0000 0002 0002 0000 0000 0003 0004 0004 0000 0000 0000 0000 0000 0000 0001 0002 0003 0000 0000 0000 0000 0000 0002 0002 0001 0002 0000 0001 0002 0000 0000 0000 0000 0001 0000 0000 0000 0001 0000 0000 0005 0003 0000 0000 0003 0002 0000 0000 0003 0004 0002 0000 0000 0000 0002 0002 0000 0001 0002 0000 0000 0001 0002 0000 0000 0004 0004 0004 0000 0000 0000 0002 0000 0000 0006 0007 0002 0000 0002 0000 0000 0000 0000 0000 0000 0000 0000 0000 0000 0000 0000 0000 0000 0001 0002 0003 0003 0003 0002 0001 0002 0002 0000 0000 0000 0000 0002 0004 0004 0001 0000 0000 0000 0004 0004 0001 0002 0000 0000 0000 0000 0000 0000 0002 0000 0000 0000 0000 0000 0000 0000 0000 0002 0000 0000 0000 0000 0004 0003 0000 0000 0000 0000 0002 0001 0000 0000 0000 0000 0004 0004 0000 0000 0002 0002 0000 0000 0000 0000 0000 0000 0000 0000 0000 0000 0000 0000 0000 0000 0000 0000 0000 0000 0004 0002 0000 0000 0000 0000 0000 0000 0000 0000 0000 0000 0003 0002 0000 0000 0002 0002 0002 0002 0000 0000 0002 0002 0000 0000 0000 0002 0002 0000 0000 0000 0000 0000 0000 0002 0001 0000 0000 0000 0000 0000 0000 0000 0000 0000 0000 0000 0000 0004 0006 0002 0002 0002 0000 0002 0002 0000 0000 0001 0001 0002 0001 0000 0000 0000 0000 0002 0000 0000 0004 0008 0001 0000 0000 0004 0000 0002 0000 0000 0000 0002 0000 0000 0000 0000 0001 0000 0000 0000 0005 0002 0000 0000 0000 0000 0000 0000 0000 0004 0002 0000 0000 0002 0000 0003 0004 0000 0000 0004 0002 0000 0000 0000 0002 0002 0000 0000 0000 0001 0000 0000 0000 0001 0002 0000 0000 0000 0000 0002 0002 0002 0002 0000 0000 0001 0002 0003 0000 0000 0000 0002 0003 0001 0000 0000 0000 0000 0000 0002 0002 0000 0000 0000 0000 0002 0004 0003 0000 0000 0000 0000 0000 0001 0000 0000 0000 0000 0000 0001 0000 0000 0000 0000 0000 0000 0000 0000 0001 0002 0000 0000 0000 0002 0006 0002 0002 0004 0000 0000 0000 0001 0002 0000 0000 0000 0000 0000 0000 0002 0002 0002 0002 0000 0000 0002 0000 0000 0000 0000 0000 0000 0003 0004 0002 0002 0001 0000 0000 0000 0000 0002 0000 0000 0000 0002 0003 0002 0000 0000 0000 0000 0004 0006 0006 0005 0002 0006 000e 000d 0009 0009 0008 0008 0004 0003 0007 0006 0004 0002 0000 0000 0000 0000 0000 0000 0000 0000 0000 0000 0000 0000 0000 0000 0000 0000 0000 0000 0000 0000 0000 0000 0000 0000 0000 0002 0000 0000 0001 0001 0000 0000 0000 0000 0000 0000 0000
0003 0003 0001 0000 0000 0000 0000 0000 0000 0003 0006 0001 0000 0001 0000 0001 0001 0001 0002 0000 0000 0000 0001 0001 0000 0000 0000 0000 0000 0000 0002 0000 0000 0000 0000 0000 0000 0000 0000 0001 0004 0000 0000 0001 0001 0002 0004 0005 0004 0000 0000 0001 0005 0005 0001 0001 0002 0001 0004 0001 0000 0005 0003 0003 0001 0003 000a 0007 0004 0004 0002 0000 0000 0000 0000 0000 0000 0000 0000 0000 0000 0000 0003 0003 0000 0000 0000 0000 0000 0000 0000 0000 0000 0000 0000 0000 0001 0001 0000 0000 0000 0000 0000 0000 0000 0002 0000 0000 0000 0000 0000 0000 0000 0001 0000 0001 0001 0004 0003 0000 0000 0002 0001 0000 0000 0000 0004 0003 0000 0000 0000 0000 0000 0000 0000 0000 0001 0002 0002 0000 0000 0000 0001 0001 0000 0000 0001 0000 0000 0004 0004 0001 0000 0000 0001 0000 0000 0000 0000 0001 0002 0002 0002 0000 0000 0000 0000 0000 0000 0000 0000 0000 0002 0001 0000 0000 0000 0000 0000 0001 0001 0000 0000 0003 0004 0004 0000 0000 0000 0000 0000 0000 0001 0001 0001 0000 0000 0000 0000 0000 0002 0001 0000 0001 0000 0001 0001 0000 0000 0000 0000 0001 0000 0000 0000 0002 0000 0000 0004 0005 0000 0000 0003 0002 0000 0000 0003 0003 0002 0000 0000 0000 0002 0002 0000 0002 0001 0000 0001 0001 0001 0000 0000 0004 0004 0003 0000 0000 0000 0001 0001 0001 0005 0007 0001 0000 0002 0000 0000 0000 0000 0000 0000 0000 0000 0000 0000 0000 0000 0000 0000 0000 0000 0004 0004 0004 0003 0000 0002 0002 0000 0000 0000 0000 0003 0008 0005 0000 0000 0000 0000 0003 0005 0002 0000 0000 0000 0000 0000 0000 0000 0002 0001 0000 0000 0000 0000 0000 0000 0000 0001 0000 0000 0000 0000 0003 0003 0000 0000 0000 0000 0001 0000 0000 0001 0001 0000 0003 0003 0000 0000 0002 0001 0000 0000 0000 0000 0001 0000 0000 0000 0000 0000 0000 0000 0000 0000 0000 0000 0000 0000 0003 0001 0000 0000 0000 0000 0000 0000 0000 0000 0000 0001 0002 0001 0001 0001 0001 0001 0003 0001 0000 0000 0002 0001 0000 0000 0000 0002 0002 0000 0000 0000 0000 0000 0000 0002 0001 0000 0000 0000 0000 0000 0000 0000 0000 0000 0000 0000 0001 0006 0005 0002 0001 0001 0000 0002 0002 0001 0000 0000 0000 0003 0003 0000 0000 0000 0001 0001 0000 0000 0005 0008 0001 0000 0000 0000 0000 0004 0000 0000 0000 0002 0000 0000 0002 0001 0001 0000 0000 0000 0004 0001 0000 0000 0000 0000 0000 0000 0001 0004 0001 0000 0000 0001 0000 0003 0002 0000 0000 0004 0003 0000 0000 0000 0001 0003 0000 0000 0000 0000 0000 0000 0000 0001 0000 0000 0000 0000 0000 0001 0001 0002 0003 0000 0000 0002 0002 0004 0000 0000 0000 0001 0002 0000 0000 0000 0000 0001 0000 0001 0001 0000 0000 0000 0000 0001 0003 0003 0000 0000 0000 0000 0000 0002 0001 0000 0000 0000 0001 0001 0000 0000 0000 0000 0000 0000 0000 0000 0001 0001 0000 0000 0000 0001 0004 0002 0002 0003 0000 0000 0000 0002 0002 0000 0000 0000 0000 0000 0000 0001 0001 0001 0002 0000 0001 0004 0000 0000 0000 0000 0000 0000 0002 0003 0000 0001 0006 0002 0000 0000 0000 0001 0000 0000 0000 0003 0004 0002 0000 0000 0000 0000 0002 0004 0006 0005 0002 0005 000d 000c 000b 000a 0009 0008 0005 0005 0007 0006 0005 0000 0000 0000 0000 0000 0000 0000 0000 0000 0000 0000 0000 0000 0000 0000 0000 0000 0000 0000 0000 0000 0000 0000 0000 0000 0000 0001 0000 0000 0002 0001 0000 0000 0000 0000 0000 0000 0000
0002 0002 0000 0000 0003 0002 0000 0000 0000 0002 0003 0000 0000 0001 0000 0000 0001 0001 0003 0000 0000 0000 0000 0000 0000 0000 0000 0000 0000 0000 0002 0000 0000 0000 0000 0000 0000 0000 0000 0000 0001 0000 0000 0000 0000 0001 0003 0004 0004 0000 0000 0002 0006 0006 0002 0000 0002 0001 0001 0000 0000 0004 0003 0001 0000 0001 0006 0006 0003 0003 0002 0000 0000 0000 0000 0000 0000 0000 0000 0000 0000 0000 0001 0001 0000 0000 0000 0000 0001 0002 0000 0000 0000 0000 0000 0000 0000 0002 0001 0000 0000 0000 0000 0000 0000 0000 0000 0000 0000 0000 0000 0000 0000 0002 0001 0000 0000 0004 0003 0000 0000 0002 0000 0000 0000 0000 0003 0004 0001 0001 0000 0000 0000 0000 0001 0000 0000 0003 0002 0001 0000 0000 0000 0000 0000 0000 0001 0000 0001 0004 0002 0000 0000 0000 0000 0000 0002 0003 0001 0000 0000 0001 0005 0000 0000 0000 0000 0000 0000 0000 0000 0001 0000 0000 0001 0000 0000 0000 0000 0000 0000 0001 0001 0001 0001 0001 0000 0000 0000 0000 0000 0000 0000 0000 0000 0000 0003 0000 0000 0000 0002 0000 0000 0001 0001 0000 0000 0003 0000 0000 0000 0000 0000 0000 0000 0000 0000 0000 0002 0003 0001 0000 0001 0001 0000 0000 0001 0001 0001 0000 0000 0000 0000 0000 0001 0002 0000 0001 0003 0003 0000 0000 0000 0004 0002 0000 0000 0000 0002 0002 0002 0002 0004 0004 0000 0000 0001 0000 0000 0001 0000 0000 0000 0000 0000 0000 0000 0000 0000 0000 0000 0000 0000 0004 0003 0002 0001 0000 0002 0001 0000 0000 0000 0000 0004 000b 0005 0000 0000 0001 0000 0001 0005 0002 0000 0000 0000 0000 0001 0001 0000 0002 0003 0000 0000 0000 0000 0000 0000 0000 0000 0000 0000 0000 0000 0000 0001 0000 0000 0000 0000 0000 0000 0000 0002 0002 0001 0000 0000 0000 0000 0001 0000 0000 0001 0000 0000 0000 0000 0001 0000 0000 0000 0000 0000 0000 0001 0001 0000 0000 0000 0001 0000 0000 0000 0000 0000 0000 0000 0000 0000 0000 0000 0000 0000 0003 0003 0000 0000 0003 0000 0000 0000 0001 0000 0000 0000 0000 0001 0001 0000 0000 0000 0000 0001 0001 0002 0000 0000 0000 0000 0000 0000 0000 0000 0000 0000 0000 0000 0001 0004 0004 0001 0001 0001 0000 0002 0002 0001 0000 0000 0000 0001 0003 0001 0000 0000 0001 0000 0000 0001 0006 0003 0000 0000 0000 0000 0000 0003 0000 0000 0001 0002 0000 0000 0002 0002 0001 0000 0000 0000 0001 0000 0000 0000 0000 0000 0000 0001 0002 0002 0000 0000 0001 0001 0001 0001 0000 0000 0000 0003 0004 0002 0000 0000 0000 0001 0000 0000 0000 0000 0000 0000 0000 0002 0000 0000 0001 0001 0001 0000 0000 0002 0002 0000 0001 0003 0003 0003 0000 0000 0000 0000 0000 0000 0000 0000 0003 0004 0000 0000 0000 0000 0001 0001 0000 0001 0002 0001 0000 0000 0000 0000 0000 0003 0002 0000 0000 0000 0002 0002 0000 0000 0000 0000 0000 0000 0001 0001 0000 0000 0000 0000 0000 0000 0001 0002 0003 0002 0000 0000 0000 0002 0002 0000 0000 0000 0000 0000 0000 0002 0002 0003 0000 0000 0003 0003 0001 0000 0000 0000 0000 0000 0002 0002 0000 0000 0008 0002 0000 0000 0001 0000 0000 0000 0000 0005 0004 0001 0000 0000 0000 0000 0000 0002 0006 0004 0004 0007 000a 000b 000c 000b 0009 0006 0006 0008 0008 0007 0004 0000 0000 0000 0000 0000 0000 0000 0000 0000 0000 0000 0000 0000 0000 0000 0000 0000 0000 0000 0000 0000 0000 0000 0000 0000 0000 0000 0000 0000 0002 0000 0001 0001 0000 0000 0000 0000 0000
0002 0002 0000 0001 0004 0002 0000 0000 0002 0002 0002 0000 0000 0001 0000 0000 0001 0001 0002 0000 0000 0000 0000 0000 0000 0000 0000 0000 0000 0000 0002 0000 0000 0000 0000 0000 0000 0001 0000 0000 0000 0001 0001 0000 0000 0000 0001 0003 0004 0002 0001 0002 0006 0008 0004 0000 0002 0002 0000 0000 0000 0002 0001 0000 0000 0000 0002 0004 0002 0002 0001 0000 0000 0000 0000 0000 0000 0000 0000 0000 0000 0000 0000 0000 0000 0000 0000 0000 0003 0003 0000 0000 0000 0000 0000 0000 0000 0001 0000 0000 0000 0000 0000 0000 0000 0000 0000 0000 0000 0000 0000 0000 0001 0002 0001 0000 0000 0003 0003 0000 0000 0001 0000 0000 0000 0000 0001 0003 0002 0002 0000 0000 0000 0000 0000 0000 0000 0004 0002 0002 0000 0000 0000 0000 0000 0001 0002 0004 0001 0000 0000 0001 0000 0000 0000 0000 0002 0004 0002 0000 0000 0000 0003 0001 0000 0000 0000 0000 0000 0000 0000 0002 0000 0000 0001 0000 0000 0001 0001 0000 0000 0002 0002 0000 0000 0000 0000 0000 0000 0000 0000 0000 0000 0000 0001 0003 0002 0000 0000 0001 0001 0000 0000 0001 0001 0000 0000 0005 0000 0000 0000 0000 0000 0000 0000 0000 0000 0001 0002 0001 0002 0002 0000 0000 0001 0001 0000 0000 0001 0000 0000 0000 0000 0000 0002 0003 0000 0000 0004 0004 0000 0000 0000 0004 0001 0000 0000 0000 0002 0002 0002 0003 0004 0003 0000 0000 0000 0000 0002 0001 0000 0000 0000 0000 0000 0000 0000 0000 0000 0000 0000 0000 0002 0003 0003 0001 0000 0001 0002 0000 0000 0000 0000 0000 0004 000b 0005 0000 0000 0001 0000 0000 0002 0000 0000 0000 0000 0000 0003 0004 0000 0001 0001 0000 0000 0000 0000 0000 0000 0000 0000 0000 0000 0000 0000 0000 0000 0000 0000 0000 0000 0000 0000 0001 0002 0002 0001 0000 0000 0000 0000 0000 0000 0000 0002 0000 0000 0000 0000 0000 0000 0000 0000 0000 0000 0000 0002 0002 0000 0000 0000 0000 0000 0000 0000 0000 0000 0000 0000 0000 0000 0000 0000 0000 0000 0003 0003 0000 0000 0002 0000 0000 0002 0000 0000 0000 0000 0000 0000 0000 0000 0000 0001 0002 0001 0002 0003 0000 0000 0000 0000 0000 0000 0000 0000 0000 0000 0001 0001 0001 0002 0002 0000 0000 0002 0001 0002 0001 0001 0000 0000 0000 0000 0002 0002 0000 0000 0000 0000 0000 0001 0004 0000 0000 0000 0000 0000 0000 0002 0000 0000 0002 0002 0000 0000 0000 0001 0002 0000 0000 0000 0000 0000 0000 0000 0000 0000 0000 0001 0002 0000 0000 0002 0002 0001 0000 0000 0000 0000 0000 0002 0006 0004 0002 0000 0000 0000 0000 0000 0000 0000 0000 0000 0000 0002 0000 0000 0002 0002 0002 0000 0000 0002 0002 0000 0002 0003 0003 0002 0000 0000 0000 0000 0000 0000 0000 0000 0003 0004 0000 0000 0000 0000 0001 0002 0001 0002 0002 0000 0000 0001 0000 0000 0000 0002 0002 0000 0000 0000 0000 0002 0000 0000 0000 0000 0000 0000 0002 0002 0000 0000 0000 0000 0000 0000 0000 0002 0004 0001 0000 0001 0003 0000 0000 0000 0000 0000 0000 0000 0000 0002 0003 0003 0001 0001 0004 0003 0001 0001 0000 0000 0000 0000 0002 0002 0000 0000 0006 0002 0000 0000 0000 0000 0000 0000 0002 0006 0004 0000 0000 0000 0000 0000 0000 0001 0006 0004 0006 0008 0007 0009 000c 000a 0009 0007 0007 0008 0007 0006 0004 0000 0000 0000 0000 0000 0000 0000 0000 0000 0000 0000 0000 0000 0000 0000 0000 0000 0000 0002 0000 0000 0000 0000 0000 0000 0000 0000 0000 0000 0002 0000 0001 0002 0001 0000 0000 0000 0000
0002 0002 0000 0002 0003 0000 0000 0000 0002 0002 0002 0000 0000 0003 0002 0001 0000 0000 0000 0000 0000 0000 0000 0000 0000 0000 0000 0000 0000 0000 0002 0000 0000 0000 0000 0000 0000 0001 0000 0000 0000 0002 0002 0000 0000 0000 0000 0003 0004 0003 0002 0002 0006 0009 0004 0000 0002 0001 0000 0000 0000 0000 0000 0000 0000 0000 0000 0001 0001 0001 0000 0000 0000 0000 0000 0000 0000 0000 0000 0000 0000 0000 0000 0000 0000 0000 0000 0000 0004 0004 0000 0000 0000 0000 0000 0000 0001 0000 0000 0000 0000 0000 0000 0000 0000 0000 0001 0000 0000 0000 0000 0000 0000 0002 0001 0000 0000 0002 0002 0000 0000 0000 0001 0000 0000 0000 0000 0002 0002 0002 0000 0000 0002 0000 0000 0000 0000 0004 0003 0001 0000 0000 0000 0000 0000 0001 0008 0007 0000 0000 0000 0003 0002 0000 0000 0000 0000 0002 0002 0000 0000 0000 0000 0002 0000 0000 0000 0000 0000 0000 0000 0002 0000 0000 0000 0000 0000 0002 0002 0000 0000 0001 0001 0000 0000 0000 0000 0000 0000 0000 0000 0000 0000 0000 0003 0003 0000 0000 0000 0000 0000 0000 0000 0001 0001 0000 0000 0004 0000 0000 0002 0000 0000 0000 0000 0000 0000 0001 0002 0001 0003 0002 0000 0000 0001 0001 0000 0000 0001 0001 0000 0000 0000 0000 0002 0003 0000 0000 0003 0004 0000 0000 0001 0004 0000 0000 0000 0000 0001 0001 0000 0002 0004 0003 0000 0000 0000 0000 0002 0002 0000 0000 0000 0000 0000 0000 0000 0000 0000 0000 0000 0000 0000 0002 0003 0001 0000 0002 0002 0000 0000 0000 0000 0000 0003 0009 0006 0002 0001 0000 0000 0000 0000 0000 0000 0000 0000 0000 0004 0007 0003 0000 0000 0000 0000 0000 0000 0000 0000 0000 0000 0000 0000 0000 0000 0000 0000 0000 0000 0000 0000 0000 0001 0001 0000 0000 0000 0000 0000 0000 0000 0000 0000 0000 0002 0000 0000 0000 0000 0000 0000 0000 0000 0000 0000 0000 0002 0001 0000 0000 0000 0000 0000 0000 0000 0000 0000 0000 0000 0000 0000 0001 0001 0000 0000 0002 0002 0000 0000 0001 0000 0000 0001 0001 0000 0000 0000 0000 0000 0000 0000 0000 0000 0001 0001 0002 0002 0000 0000 0000 0001 0000 0000 0000 0000 0000 0000 0003 0003 0001 0000 0000 0000 0000 0003 0002 0001 0001 0002 0001 0000 0000 0000 0002 0002 0000 0000 0000 0001 0000 0000 0000 0000 0000 0000 0002 0000 0000 0002 0000 0000 0002 0002 0000 0000 0000 0000 0002 0001 0000 0000 0000 0000 0000 0000 0000 0003 0003 0000 0000 0000 0000 0002 0002 0001 0000 0000 0000 0000 0000 0000 0008 0005 0002 0000 0000 0000 0000 0002 0000 0000 0000 0000 0000 0002 0000 0000 0002 0002 0002 0000 0000 0002 0002 0000 0002 0002 0002 0001 0000 0000 0000 0000 0000 0000 0000 0000 0002 0002 0000 0000 0000 0001 0001 0002 0002 0002 0002 0000 0000 0002 0001 0000 0000 0002 0001 0000 0000 0000 0000 0002 0000 0000 0000 0000 0000 0000 0002 0002 0000 0000 0000 0000 0000 0000 0000 0003 0004 0000 0000 0005 0005 0000 0000 0000 0001 0000 0000 0000 0000 0001 0002 0002 0002 0002 0004 0003 0000 0000 0000 0001 0000 0000 0002 0002 0000 0000 0003 0002 0000 0000 0000 0000 0000 0000 0002 0006 0004 0000 0000 0000 0000 0000 0000 0002 0006 0005 0006 0007 0006 0008 000b 000a 000a 0008 0008 0008 0005 0005 0004 0000 0000 0000 0000 0000 0000 0000 0000 0000 0000 0000 0000 0000 0000 0000 0000 0000 0001 0003 0000 0000 0000 0000 0000 0000 0000 0000 0000 0000 0002 0001 0001 0002 0001 0000 0000 0000 0000
0002 0002 0001 0003 0002 0000 0000 0000 0000 0002 0001 0000 0002 0005 0003 0002 0000 0000 0000 0000 0000 0000 0000 0000 0000 0000 0000 0000 0000 0000 0002 0000 0000 0000 0000 0000 0000 0001 0000 0000 0000 0003 0003 0000 0000 0000 0000 0003 0004 0004 0002 0002 0007 0006 0001 0001 0002 0001 0001 0000 0000 0000 0000 0000 0000 0000 0000 0000 0000 0000 0000 0000 0000 0000 0000 0000 0000 0000 0000 0000 0000 0000 0000 0000 0000 0000 0000 0000 0003 0003 0000 0000 0000 0000 0000 0000 0000 0000 0000 0000 0000 0000 0000 0000 0000 0000 0002 0000 0000 0000 0001 0000 0000 0003 0001 0000 0000 0002 0001 0000 0000 0000 0002 0001 0000 0000 0000 0000 0002 0002 0000 0000 0005 0001 0000 0000 0000 0004 0003 0000 0000 0000 0000 0000 0000 0000 000f 0009 0000 0000 0000 0002 0003 0001 0000 0000 0000 0002 0002 0000 0000 0000 0001 0003 0000 0000 0000 0000 0000 0000 0000 0003 0000 0000 0000 0000 0000 0003 0003 0000 0000 0000 0000 0000 0000 0000 0000 0000 0000 0000 0000 0000 0000 0000 0004 0002 0000 0001 0002 0000 0000 0000 0000 0002 0002 0000 0000 0002 0000 0000 0003 0000 0000 0000 0000 0000 0000 0001 0002 0002 0002 0001 0000 0000 0001 0001 0000 0000 0001 0000 0000 0000 0000 0000 0002 0003 0000 0000 0002 0004 0000 0000 0002 0004 0000 0000 0001 0000 0000 0000 0000 0002 0004 0003 0000 0000 0000 0000 0003 0003 0000 0000 0000 0000 0000 0000 0000 0000 0000 0000 0000 0000 0000 0001 0002 0000 0000 0002 0002 0000 0001 0001 0000 0000 0002 0006 0007 0005 0001 0000 0000 0000 0000 0000 0000 0000 0000 0000 0003 0008 0004 0000 0000 0000 0000 0000 0000 0000 0000 0000 0000 0000 0000 0000 0002 0002 0000 0000 0000 0000 0000 0000 0000 0000 0000 0000 0000 0000 0000 0000 0000 0001 0000 0000 0002 0000 0000 0000 0000 0000 0000 0000 0000 0000 0000 0000 0001 0001 0000 0000 0000 0000 0000 0000 0000 0000 0000 0000 0000 0000 0000 0001 0002 0000 0000 0001 0001 0000 0000 0000 0001 0001 0000 0000 0001 0000 0000 0000 0000 0000 0000 0000 0000 0000 0002 0002 0002 0000 0000 0000 0002 0000 0000 0000 0000 0000 0000 0003 0002 0000 0000 0000 0000 0000 0003 0002 0001 0001 0003 0002 0000 0000 0001 0002 0000 0000 0000 0002 0002 0000 0000 0000 0000 0000 0000 0003 0001 0000 0002 0000 0000 0002 0002 0000 0000 0000 0000 0002 0002 0000 0000 0000 0000 0000 0000 0000 0004 0003 0000 0000 0000 0000 0001 0002 0001 0000 0000 0000 0000 0000 0000 0007 0005 0002 0000 0000 0000 0000 0002 0000 0000 0000 0000 0000 0002 0000 0000 0002 0002 0002 0000 0000 0002 0002 0001 0002 0000 0000 0000 0001 0000 0000 0000 0000 0000 0001 0001 0000 0000 0000 0000 0000 0000 0001 0002 0002 0003 0002 0000 0000 0002 0001 0000 0000 0001 0001 0000 0000 0000 0000 0002 0002 0000 0000 0000 0000 0000 0002 0002 0000 0000 0000 0000 0000 0000 0000 0003 0004 0000 0000 0005 0005 0000 0000 0000 0001 0000 0000 0000 0000 0000 0001 0000 0001 0003 0004 0003 0000 0000 0001 0002 0000 0000 0002 0002 0000 0000 0001 0001 0000 0000 0000 0000 0000 0000 0002 0006 0004 0000 0000 0000 0000 0000 0000 0004 0006 0004 0005 0006 0005 0007 0009 0009 000c 0009 0008 0007 0004 0004 0003 0000 0000 0002 0000 0000 0000 0000 0000 0000 0000 0000 0000 0000 0000 0000 0000 0000 0001 0003 0000 0000 0000 0000 0000 0000 0000 0000 0000 0000 0002 0000 0001 0002 0001 0000 0000 0000 0000
0002 0002 0002 0004 0001 0000 0000 0000 0000 0002 0001 0001 0003 0006 0004 0002 0001 0000 0000 0000 0000 0000 0000 0000 0000 0000 0000 0000 0000 0000 0002 0000 0000 0000 0000 0000 0000 0001 0000 0000 0000 0002 0002 0000 0000 0000 0000 0002 0004 0005 0003 0002 0007 0004 0000 0001 0002 0001 0001 0001 0000 0000 0000 0000 0000 0000 0000 0000 0000 0000 0000 0000 0000 0000 0000 0000 0000 0000 0000 0000 0000 0000 0000 0000 0000 0000 0001 0001 0002 0002 0000 0000 0001 0000 0000 0000 0000 0000 0000 0000 0000 0000 0000 0000 0000 0000 0003 0000 0000 0000 0002 0000 0001 0003 0001 0000 0000 0001 0001 0000 0000 0001 0002 0001 0000 0000 0000 0000 0002 0002 0000 0000 0008 0002 0000 0000 0002 0004 0003 0000 0000 0000 0000 0000 0000 0000 000e 0007 0000 0000 0000 0001 0002 0001 0000 0000 0001 0003 0002 0000 0000 0000 0003 0002 0000 0000 0000 0000 0000 0000 0000 0002 0000 0000 0000 0000 0000 0003 0003 0000 0000 0000 0000 0000 0000 0000 0000 0000 0000 0000 0000 0000 0000 0000 0003 0001 0000 0001 0003 0000 0000 0000 0000 0002 0002 0000 0000 0000 0000 0000 0004 0000 0000 0000 0000 0000 0000 0001 0002 0002 0002 0001 0000 0000 0001 0001 0000 0000 0001 0000 0000 0000 0000 0000 0003 0003 0000 0000 0002 0004 0000 0000 0002 0004 0000 0000 0002 0000 0000 0000 0000 0002 0004 0003 0000 0000 0000 0000 0004 0003 0000 0000 0000 0000 0000 0000 0000 0000 0000 0000 0000 0000 0000 0000 0000 0000 0000 0002 0002 0000 0004 0003 0000 0000 0002 0003 0005 0006 0001 0000 0000 0000 0000 0000 0000 0000 0000 0000 0002 0007 0003 0000 0000 0001 0001 0000 0000 0000 0000 0000 0000 0000 0000 0000 0004 0004 0000 0000 0000 0000 0000 0000 0000 0000 0000 0000 0000 0000 0001 0000 0000 0000 0000 0000 0002 0000 0000 0000 0000 0000 0000 0000 0000 0000 0000 0000 0001 0001 0000 0000 0000 0000 0000 0000 0000 0000 0000 0000 0000 0000 0000 0001 0002 0000 0000 0000 0000 0000 0000 0000 0002 0003 0000 0000 0000 0000 0000 0000 0000 0000 0000 0000 0000 0000 0002 0002 0003 0000 0000 0000 0002 0000 0000 0000 0000 0000 0000 0000 0001 0000 0000 0002 0000 0000 0000 0002 0001 0000 0004 0003 0000 0000 0001 0002 0000 0000 0000 0003 0003 0000 0000 0000 0000 0000 0000 0003 0001 0000 0002 0000 0000 0002 0002 0001 0001 0000 0000 0002 0002 0000 0000 0000 0000 0000 0001 0001 0003 0002 0000 0000 0000 0000 0001 0002 0001 0000 0000 0001 0001 0000 0000 0004 0002 0001 0000 0000 0000 0001 0003 0000 0000 0000 0000 0000 0002 0000 0000 0002 0002 0002 0000 0000 0002 0002 0002 0002 0000 0000 0000 0001 0000 0000 0000 0000 0000 0002 0002 0000 0000 0000 0000 0000 0000 0000 0002 0002 0004 0003 0000 0000 0001 0000 0000 0000 0000 0001 0000 0000 0000 0000 0002 0003 0000 0000 0000 0000 0000 0002 0002 0000 0000 0000 0000 0000 0000 0000 0002 0004 0001 0000 0002 0003 0000 0000 0000 0000 0000 0000 0000 0000 0000 0000 0000 0000 0003 0004 0003 0000 0000 0002 0004 0001 0000 0002 0002 0001 0001 0000 0000 0001 0000 0000 0000 0000 0000 0002 0006 0004 0000 0000 0000 0000 0000 0002 0006 0005 0004 0002 0003 0005 0006 0007 0008 000d 000b 0008 0006 0003 0002 0002 0000 0002 0003 0000 0000 0000 0000 0000 0000 0000 0000 0000 0000 0000 0000 0000 0000 0000 0002 0000 0000 0000 0000 0000 0000 0000 0000 0000 0000 0002 0000 0001 0002 0001 0001 0000 0000 0000
0002 0002 0003 0004 0000 0000 0000 0000 0002 0002 0001 0000 0002 0007 0005 0002 0000 0000 0000 0000 0001 0000 0000 0000 0000 0000 0000 0000 0000 0000 0002 0000 0000 0000 0000 0000 0000 0001 0000 0000 0000 0001 0001 0000 0000 0001 0001 0002 0004 0006 0004 0002 0007 0002 0000 0001 0002 0002 0000 0000 0000 0000 0000 0000 0000 0000 0000 0000 0000 0000 0000 0000 0000 0000 0000 0000 0000 0000 0001 0000 0000 0000 0000 0000 0001 0001 0002 0002 0000 0000 0000 0000 0002 0001 0000 0000 0000 0001 0003 0000 0000 0000 0000 0000 0000 0000 0004 0000 0000 0000 0002 0000 0000 0003 0001 0000 0000 0000 0000 0000 0000 0002 0003 0001 0000 0000 0000 0000 0002 0002 0000 0000 000b 0002 0000 0000 0004 0004 0003 0000 0000 0000 0000 0000 0000 0000 0003 0002 0001 0003 0001 0000 0000 0001 0000 0000 0002 0004 0002 0000 0000 0001 0006 0000 0000 0000 0000 0000 0000 0000 0000 0002 0000 0000 0000 0000 0000 0002 0002 0000 0000 0000 0000 0000 0000 0000 0000 0000 0000 0000 0001 0001 0000 0000 0003 0000 0000 0001 0004 0000 0000 0000 0000 0002 0002 0000 0000 0000 0000 0000 0004 0000 0000 0000 0000 0000 0000 0001 0002 0002 0002 0001 0000 0000 0000 0000 0000 0000 0002 0001 0000 0000 0000 0000 0002 0002 0000 0000 0001 0004 0000 0000 0002 0004 0001 0001 0002 0000 0000 0000 0000 0002 0004 0003 0000 0000 0000 0000 0004 0003 0000 0000 0000 0000 0000 0000 0000 0000 0000 0000 0000 0000 0000 0000 0000 0000 0000 0002 0002 0001 0005 0004 0000 0000 0002 0000 0003 0006 0002 0000 0000 0000 0000 0000 0000 0000 0000 0000 0001 0006 0002 0000 0000 0002 0002 0000 0000 0000 0000 0000 0000 0000 0000 0000 0004 0004 0000 0000 0000 0000 0000 0000 0000 0000 0000 0000 0000 0000 0000 0000 0000 0000 0000 0000 0002 0000 0000 0000 0000 0000 0000 0000 0000 0000 0000 0000 0001 0002 0000 0000 0000 0000 0000 0000 0000 0000 0000 0000 0000 0000 0000 0002 0002 0000 0000 0000 0000 0000 0000 0000 0002 0005 0000 0000 0000 0000 0000 0000 0001 0001 0000 0000 0000 0000 0002 0002 0002 0000 0000 0001 0003 0000 0000 0000 0000 0000 0000 0000 0000 0000 0001 0003 0000 0000 0000 0001 0002 0000 0004 0004 0000 0000 0000 0002 0002 0000 0000 0002 0004 0001 0000 0000 0000 0000 0000 0002 0000 0000 0002 0000 0000 0002 0002 0002 0002 0000 0000 0002 0002 0000 0000 0000 0000 0000 0002 0002 0002 0002 0000 0000 0001 0002 0001 0002 0000 0000 0001 0002 0002 0000 0000 0000 0000 0000 0000 0000 0000 0002 0002 0000 0000 0000 0000 0000 0002 0000 0000 0002 0002 0002 0000 0000 0002 0002 0002 0002 0000 0000 0000 0001 0001 0000 0000 0000 0000 0003 0003 0000 0000 0000 0000 0000 0000 0000 0002 0002 0004 0004 0000 0000 0000 0000 0000 0000 0000 0000 0000 0000 0000 0000 0003 0004 0001 0000 0000 0000 0000 0002 0002 0000 0000 0000 0000 0000 0000 0000 0002 0004 0001 0000 0000 0001 0001 0001 0000 0000 0000 0000 0002 0001 0000 0000 0000 0000 0001 0004 0003 0000 0000 0004 0005 0001 0000 0002 0002 0002 0002 0000 0000 0002 0000 0000 0000 0000 0000 0002 0006 0004 0000 0000 0000 0000 0000 0004 0007 0005 0004 0000 0000 0004 0006 0006 0008 000e 000c 0009 0006 0002 0001 0001 0000 0003 0004 0000 0000 0000 0000 0000 0000 0000 0000 0000 0000 0000 0000 0000 0000 0000 0000 0000 0000 0000 0000 0000 0000 0000 0000 0000 0000 0002 0001 0000 0002 0002 0002 0001 0000 0000
0001 0002 0004 0004 0000 0000 0000 0000 0003 0002 0002 0000 0000 0007 0005 0003 0001 0000 0000 0000 0000 0000 0000 0000 0000 0000 0000 0000 0000 0000 0001 0000 0000 0000 0000 0000 0000 0001 0000 0000 0000 0000 0000 0000 0000 0002 0002 0002 0005 0005 0004 0004 0006 0001 0000 0001 0002 0002 0000 0000 0000 0000 0000 0000 0000 0000 0000 0000 0000 0000 0000 0000 0000 0000 0000 0000 0000 0001 0001 0000 0000 0000 0000 0000 0000 0001 0001 0001 0000 0000 0000 0000 0002 0002 0000 0000 0000 0001 0003 0000 0000 0000 0000 0000 0000 0000 0002 0000 0000 0000 0002 0000 0000 0000 0001 0001 0000 0000 0000 0000 0000 0002 0002 0001 0000 0000 0000 0000 0001 0002 0000 0000 000a 0002 0000 0002 0005 0003 0003 0000 0000 0000 0000 0000 0000 0001 0000 0000 0005 0005 0003 0000 0000 0001 0000 0000 0003 0005 0002 0000 0000 0000 0006 0000 0000 0000 0000 0000 0000 0000 0000 0002 0000 0000 0000 0000 0000 0001 0001 0000 0000 0000 0000 0000 0000 0000 0000 0000 0000 0000 0001 0002 0001 0000 0002 0000 0000 0001 0004 0000 0000 0000 0000 0002 0002 0000 0000 0000 0000 0000 0002 0000 0000 0000 0000 0000 0000 0000 0001 0002 0002 0001 0000 0001 0001 0000 0000 0000 0001 0001 0000 0000 0000 0000 0002 0001 0000 0000 0000 0003 0000 0000 0002 0003 0001 0000 0000 0000 0000 0000 0000 0002 0003 0003 0000 0000 0000 0000 0003 0003 0000 0000 0000 0000 0000 0000 0000 0000 0000 0000 0000 0000 0000 0000 0000 0000 0001 0001 0002 0001 0004 0004 0000 0000 0001 0000 0001 0005 0001 0000 0000 0000 0000 0000 0001 0001 0001 0000 0001 0003 0000 0001 0002 0001 0001 0000 0000 0000 0000 0000 0001 0000 0001 0000 0002 0003 0000 0001 0001 0000 0000 0000 0000 0000 0000 0000 0000 0000 0000 0000 0000 0000 0000 0000 0001 0000 0000 0000 0000 0000 0000 0000 0000 0000 0000 0000 0001 0002 0000 0000 0000 0000 0000 0000 0000 0000 0000 0000 0000 0000 0000 0002 0002 0000 0000 0000 0000 0000 0000 0000 0002 0006 0000 0000 0000 0000 0000 0001 0002 0001 0000 0000 0000 0000 0002 0002 0003 0001 0000 0000 0002 0000 0000 0000 0000 0000 0000 0000 0000 0000 0000 0004 0002 0000 0000 0000 0001 0001 0003 0003 0000 0000 0000 0002 0003 0000 0000 0000 0002 0002 0000 0000 0000 0000 0000 0000 0000 0000 0002 0000 0000 0001 0002 0002 0002 0000 0000 0000 0002 0000 0000 0001 0000 0000 0002 0001 0002 0002 0000 0000 0002 0003 0001 0002 0000 0000 0001 0002 0002 0000 0000 0000 0000 0000 0002 0001 0001 0001 0001 0000 0000 0000 0000 0000 0001 0000 0000 0001 0001 0002 0000 0000 0001 0001 0002 0001 0000 0000 0000 0002 0000 0000 0000 0000 0000 0004 0004 0000 0000 0000 0000 0002 0001 0000 0001 0001 0004 0004 0000 0000 0000 0000 0000 0000 0000 0000 0000 0000 0000 0002 0004 0002 0001 0000 0000 0000 0000 0000 0001 0000 0000 0000 0000 0000 0000 0000 0001 0002 0001 0000 0000 0000 0003 0002 0000 0000 0000 0000 0001 0001 0000 0000 0000 0000 0001 0003 0003 0000 0000 0005 0005 0000 0000 0002 0001 0000 0001 0000 0000 0002 0000 0000 0000 0000 0000 0002 0005 0003 0000 0000 0000 0000 0000 0003 0006 0006 0005 0000 0000 0003 0005 0005 0008 000d 000c 0009 0006 0002 0001 0001 0000 0002 0003 0000 0000 0000 0000 0000 0000 0000 0000 0000 0000 0000 0000 0000 0000 0000 0000 0000 0000 0000 0000 0000 0000 0000 0000 0000 0000 0002 0003 0000 0002 0002 0000 0000 0000 0000
0000 0002 0005 0004 0000 0000 0000 0000 0002 0002 0002 0000 0000 0006 0003 0003 0004 0003 0000 0000 0000 0000 0000 0000 0000 0000 0000 0000 0001 0003 0000 0000 0000 0000 0000 0000 0000 0000 0000 0000 0000 0000 0000 0000 0000 0001 0003 0003 0007 0005 0004 0007 0005 0000 0000 0001 0003 0002 0000 0000 0000 0000 0000 0000 0000 0001 0000 0000 0000 0000 0000 0000 0000 0000 0000 0001 0002 0000 0000 0000 0000 0000 0000 0000 0000 0000 0000 0000 0000 0000 0000 0000 0002 0003 0001 0000 0000 0000 0000 0000 0000 0000 0000 0000 0000 0000 0000 0001 0000 0001 0003 0001 0000 0000 0000 0003 0001 0000 0000 0001 0002 0002 0000 0000 0000 0000 0000 0000 0001 0002 0000 0000 0006 0003 0000 0004 0005 0001 0001 0000 0000 0000 0000 0000 0000 0000 0000 0001 0002 0003 0002 0000 0000 0000 0000 0000 0003 0004 0003 0002 0000 0000 0001 0001 0000 0000 0000 0000 0000 0000 0000 0002 0000 0000 0000 0001 0001 0001 0002 0001 0000 0000 0000 0000 0000 0000 0000 0000 0001 0001 0000 0002 0004 0000 0000 0001 0000 0000 0001 0000 0000 0000 0000 0002 0002 0000 0000 0000 0000 0000 0000 0000 0000 0000 0000 0000 0000 0000 0000 0002 0002 0000 0000 0003 0003 0000 0000 0001 0000 0000 0000 0000 0000 0001 0002 0000 0000 0000 0000 0002 0001 0000 0001 0001 0000 0000 0000 0001 0000 0000 0000 0001 0001 0001 0000 0000 0001 0001 0002 0002 0000 0000 0000 0000 0000 0000 0000 0000 0000 0000 0000 0000 0000 0000 0000 0000 0001 0000 0002 0001 0004 0005 0001 0000 0000 0000 0000 0003 0000 0000 0000 0000 0001 0002 0002 0003 0002 0002 0002 0000 0000 0004 0003 0000 0000 0000 0000 0000 0000 0000 0000 0001 0003 0002 0002 0003 0000 0002 0004 0000 0000 0000 0000 0000 0000 0000 0000 0000 0000 0001 0001 0000 0000 0000 0000 0000 0000 0000 0000 0000 0000 0000 0000 0000 0000 0000 0000 0003 0000 0000 0000 0000 0001 0001 0000 0000 0000 0000 0000 0000 0000 0001 0001 0000 0000 0000 0000 0000 0000 0000 0002 0006 0000 0000 0000 0000 0000 0003 0001 0000 0000 0000 0000 0000 0002 0002 0006 0004 0000 0000 0000 0000 0000 0000 0000 0000 0000 0000 0000 0000 0000 0004 0004 0001 0000 0000 0000 0000 0001 0002 0000 0000 0001 0004 0002 0001 0000 0000 0000 0002 0001 0000 0000 0000 0000 0000 0000 0001 0002 0001 0001 0000 0002 0003 0001 0000 0000 0000 0000 0000 0000 0003 0005 0001 0001 0000 0003 0003 0000 0000 0003 0003 0000 0002 0001 0000 0000 0001 0003 0000 0000 0000 0000 0000 0003 0002 0000 0000 0001 0000 0000 0000 0000 0000 0000 0000 0000 0000 0000 0002 0000 0000 0000 0000 0003 0001 0000 0000 0003 0002 0000 0000 0000 0000 0000 0003 0004 0002 0000 0000 0001 0003 0002 0000 0000 0000 0004 0004 0000 0000 0000 0000 0000 0000 0000 0000 0000 0000 0000 0004 0005 0000 0000 0000 0000 0000 0000 0000 0000 0001 0001 0002 0001 0000 0000 0000 0000 0000 0000 0000 0000 0001 0002 0000 0000 0000 0000 0000 0000 0000 0002 0000 0000 0000 0002 0002 0001 0000 0000 0004 0004 0000 0000 0003 0000 0000 0000 0001 0002 0002 0000 0000 0000 0000 0000 0001 0002 0001 0001 0002 0001 0000 0000 0000 0003 0007 0007 0001 0000 0002 0003 0004 0007 000b 000c 0009 0005 0003 0003 0002 0002 0002 0002 0001 0000 0000 0000 0000 0000 0000 0000 0000 0000 0000 0000 0000 0000 0000 0000 0000 0000 0000 0000 0000 0000 0000 0000 0000 0000 0003 0004 0001 0003 0003 0000 0000 0000 0000
0000 0003 0004 0004 0001 0000 0000 0000 0000 0002 0002 0000 0000 0005 0003 0003 0005 0004 0000 0000 0000 0000 0000 0000 0000 0000 0000 0000 0002 0003 0000 0000 0000 0000 0000 0000 0000 0000 0000 0000 0000 0000 0000 0001 0000 0000 0002 0002 0007 0005 0004 0008 0004 0000 0000 0001 0002 0002 0000 0000 0000 0000 0000 0000 0000 0000 0000 0000 0000 0000 0000 0000 0000 0000 0000 0001 0003 0000 0000 0000 0000 0000 0000 0000 0000 0000 0000 0000 0000 0000 0000 0000 0002 0004 0002 0000 0000 0000 0000 0000 0000 0000 0000 0000 0000 0000 0000 0002 0001 0001 0002 0002 0000 0000 0000 0004 0000 0000 0000 0002 0004 0002 0000 0000 0000 0000 0000 0000 0001 0002 0000 0000 0003 0004 0002 0004 0004 0000 0000 0000 0002 0000 0000 0000 0000 0000 0002 0002 0000 0002 0002 0000 0000 0000 0000 0000 0003 0004 0002 0003 0000 0000 0000 0001 0004 0000 0000 0000 0000 0000 0000 0002 0001 0000 0000 0002 0002 0002 0002 0001 0000 0000 0000 0000 0000 0000 0000 0000 0002 0002 0000 0002 0004 0000 0000 0000 0000 0000 0000 0001 0001 0000 0000 0002 0002 0000 0000 0000 0000 0000 0000 0000 0000 0000 0000 0000 0000 0000 0000 0002 0001 0000 0000 0004 0003 0000 0001 0002 0000 0000 0000 0000 0000 0001 0001 0000 0000 0000 0000 0001 0001 0000 0000 0000 0000 0000 0000 0002 0002 0000 0000 0000 0000 0000 0000 0000 0002 0002 0000 0000 0000 0000 0000 0000 0000 0000 0000 0000 0000 0000 0000 0000 0000 0000 0000 0000 0000 0000 0002 0002 0003 0006 0002 0000 0000 0001 0000 0001 0000 0000 0000 0000 0001 0002 0002 0004 0002 0003 0003 0000 0000 0006 0004 0000 0000 0000 0000 0000 0000 0000 0000 0002 0005 0005 0004 0004 0000 0003 0006 0000 0000 0000 0000 0000 0000 0000 0000 0000 0000 0000 0000 0000 0000 0000 0000 0000 0000 0000 0000 0000 0000 0000 0000 0000 0000 0000 0000 0004 0000 0000 0000 0000 0000 0000 0000 0000 0001 0001 0000 0000 0000 0000 0000 0000 0000 0000 0000 0000 0000 0000 0002 0005 0000 0000 0000 0000 0000 0004 0000 0000 0000 0000 0000 0000 0002 0002 0005 0004 0000 0000 0000 0000 0000 0002 0002 0000 0000 0002 0000 0000 0000 0004 0004 0002 0000 0000 0000 0000 0000 0002 0000 0000 0002 0005 0002 0002 0000 0000 0000 0002 0002 0000 0000 0000 0000 0000 0000 0002 0002 0002 0001 0000 0002 0002 0000 0000 0000 0000 0000 0000 0000 0003 0007 0002 0000 0000 0002 0002 0000 0000 0003 0002 0000 0002 0002 0000 0000 0000 0002 0000 0000 0000 0000 0000 0004 0002 0000 0000 0002 0002 0000 0000 0000 0000 0000 0000 0000 0000 0000 0001 0000 0000 0000 0000 0002 0001 0000 0001 0002 0001 0000 0000 0000 0000 0000 0001 0003 0004 0000 0000 0002 0004 0002 0000 0000 0000 0003 0003 0000 0000 0000 0000 0000 0000 0000 0000 0000 0000 0000 0004 0003 0000 0000 0001 0001 0000 0000 0000 0000 0002 0002 0002 0002 0000 0000 0000 0000 0000 0000 0000 0000 0002 0002 0000 0000 0000 0000 0000 0000 0000 0004 0000 0000 0000 0002 0002 0001 0000 0000 0004 0004 0000 0000 0002 0000 0000 0000 0001 0003 0002 0000 0000 0000 0000 0000 0000 0000 0000 0002 0004 0002 0000 0000 0000 0002 0006 0007 0003 0000 0002 0001 0002 0005 000a 000d 000a 0005 0003 0003 0003 0004 0002 0002 0002 0000 0000 0000 0000 0000 0000 0000 0000 0000 0000 0000 0000 0000 0000 0000 0000 0000 0000 0000 0000 0000 0000 0000 0000 0000 0001 0004 0002 0004 0003 0000 0000 0000 0000
0000 0003 0004 0004 0000 0000 0000 0000 0000 0002 0002 0000 0000 0004 0003 0004 0005 0002 0000 0000 0000 0000 0000 0000 0000 0000 0000 0000 0001 0002 0000 0000 0000 0000 0000 0000 0000 0000 0000 0000 0000 0000 0000 0002 0000 0000 0000 0002 0006 0006 0005 0008 0004 0000 0000 0000 0001 0001 0000 0000 0000 0000 0000 0000 0000 0000 0000 0000 0000 0000 0000 0000 0000 0000 0000 0000 0002 0000 0000 0001 0001 0000 0000 0000 0000 0000 0000 0000 0000 0000 0000 0000 0002 0004 0002 0000 0000 0000 0000 0000 0000 0000 0000 0000 0000 0000 0000 0002 0002 0000 0002 0002 0000 0000 0000 0004 0000 0000 0000 0001 0003 0002 0000 0000 0000 0000 0000 0000 0002 0002 0001 0001 0002 0004 0002 0002 0002 0000 0000 0001 0001 0000 0000 0000 0000 0000 0001 0002 0000 0002 0002 0000 0001 0001 0000 0000 0002 0003 0001 0002 0000 0000 0000 0001 0003 0000 0000 0000 0000 0000 0000 0002 0002 0000 0000 0001 0002 0002 0002 0001 0000 0000 0000 0000 0000 0000 0000 0000 0002 0002 0000 0001 0003 0000 0000 0000 0000 0000 0000 0002 0002 0000 0000 0002 0002 0000 0000 0000 0000 0000 0000 0000 0000 0000 0000 0000 0000 0000 0000 0003 0001 0000 0000 0003 0002 0000 0002 0002 0000 0000 0000 0000 0000 0001 0001 0000 0000 0001 0001 0000 0000 0000 0000 0000 0000 0000 0000 0002 0002 0000 0000 0000 0000 0000 0001 0002 0002 0002 0000 0000 0000 0000 0000 0000 0000 0000 0000 0000 0000 0000 0000 0000 0000 0000 0000 0000 0000 0000 0002 0002 0002 0005 0003 0000 0000 0001 0001 0001 0000 0000 0000 0000 0000 0000 0002 0004 0002 0004 0004 0000 0000 0006 0004 0000 0000 0000 0000 0000 0000 0000 0000 0003 0006 0006 0004 0005 0000 0003 0008 0001 0000 0000 0000 0000 0000 0000 0000 0000 0000 0000 0000 0000 0000 0000 0000 0001 0000 0000 0000 0000 0000 0000 0000 0000 0000 0000 0000 0004 0000 0000 0000 0000 0000 0000 0000 0000 0000 0002 0000 0000 0000 0000 0000 0000 0000 0001 0001 0000 0000 0000 0002 0003 0000 0000 0000 0000 0000 0004 0000 0000 0000 0000 0000 0000 0002 0002 0002 0002 0000 0000 0000 0000 0000 0004 0003 0000 0000 0002 0000 0000 0000 0003 0003 0002 0000 0000 0000 0000 0000 0002 0000 0000 0003 0006 0002 0001 0000 0000 0000 0002 0002 0000 0000 0000 0000 0000 0000 0002 0002 0001 0000 0000 0002 0001 0000 0000 0001 0000 0000 0000 0000 0000 0007 0004 0001 0000 0000 0000 0001 0001 0002 0000 0000 0002 0002 0000 0000 0000 0002 0001 0000 0000 0000 0001 0004 0000 0000 0000 0002 0004 0001 0000 0000 0000 0000 0000 0000 0000 0001 0001 0000 0000 0000 0000 0000 0002 0003 0001 0000 0000 0001 0000 0000 0000 0000 0000 0000 0003 0001 0000 0002 0004 0002 0001 0002 0000 0001 0000 0000 0000 0000 0000 0000 0000 0000 0000 0000 0000 0000 0001 0000 0000 0000 0001 0001 0000 0000 0000 0000 0002 0002 0002 0001 0002 0003 0002 0000 0000 0000 0000 0000 0002 0002 0000 0000 0000 0000 0000 0000 0000 0004 0000 0000 0000 0002 0002 0002 0000 0000 0004 0004 0000 0001 0002 0000 0000 0000 0001 0002 0001 0000 0000 0000 0000 0000 0000 0000 0000 0004 0005 0002 0000 0000 0000 0001 0005 0005 0002 0001 0002 0001 0000 0004 0009 000c 000a 0005 0003 0002 0002 0005 0003 0002 0001 0000 0000 0000 0000 0000 0000 0000 0000 0000 0000 0000 0000 0000 0000 0000 0000 0000 0000 0000 0000 0000 0000 0000 0000 0000 0000 0001 0003 0004 0003 0000 0000 0000 0000
0000 0003 0004 0003 0000 0000 0000 0000 0000 0002 0002 0000 0000 0002 0003 0005 0004 0000 0000 0000 0000 0000 0000 0000 0000 0000 0000 0000 0000 0001 0000 0000 0000 0000 0000 0000 0000 0000 0000 0000 0000 0000 0001 0001 0000 0000 0000 0001 0005 0006 0006 0008 0004 0000 0000 0000 0000 0000 0001 0001 0000 0000 0000 0000 0000 0000 0000 0000 0000 0000 0000 0000 0000 0000 0000 0000 0000 0000 0000 0002 0002 0000 0000 0000 0000 0000 0000 0000 0000 0000 0000 0000 0002 0004 0002 0000 0000 0000 0000 0000 0000 0000 0000 0000 0000 0000 0000 0002 0002 0000 0001 0002 0000 0000 0000 0004 0001 0000 0000 0000 0001 0001 0000 0000 0000 0000 0000 0001 0002 0002 0003 0002 0002 0004 0003 0001 0000 0000 0000 0000 0001 0000 0000 0000 0000 0000 0000 0002 0000 0002 0002 0000 0002 0002 0002 0001 0002 0002 0000 0000 0000 0000 0000 0001 0002 0000 0000 0000 0000 0000 0000 0002 0002 0000 0000 0001 0002 0002 0002 0001 0000 0000 0000 0000 0000 0000 0002 0003 0002 0002 0000 0000 0001 0000 0000 0000 0000 0000 0000 0002 0002 0000 0000 0002 0002 0000 0000 0000 0000 0000 0000 0000 0000 0000 0000 0000 0000 0000 0000 0002 0001 0000 0000 0002 0000 0000 0002 0002 0000 0000 0000 0000 0000 0001 0001 0000 0000 0001 0000 0000 0000 0000 0000 0000 0000 0001 0001 0002 0002 0000 0000 0000 0000 0000 0002 0003 0002 0002 0000 0000 0000 0000 0000 0000 0000 0000 0000 0000 0000 0000 0000 0000 0000 0000 0000 0000 0000 0000 0002 0002 0001 0004 0003 0000 0000 0001 0002 0001 0000 0000 0000 0000 0000 0000 0002 0003 0002 0005 0005 0000 0001 0006 0003 0000 0000 0000 0000 0000 0000 0000 0000 0004 0007 0007 0003 0004 0003 0004 0009 0003 0000 0000 0000 0000 0000 0000 0000 0000 0000 0000 0000 0000 0000 0000 0000 0000 0000 0000 0000 0000 0000 0000 0000 0000 0000 0000 0000 0004 0000 0000 0000 0000 0001 0000 0000 0000 0000 0001 0000 0000 0000 0000 0000 0000 0000 0002 0002 0000 0000 0000 0001 0001 0000 0000 0000 0000 0000 0004 0000 0000 0000 0000 0001 0001 0002 0002 0000 0000 0000 0000 0000 0000 0000 0005 0004 0000 0000 0002 0000 0000 0000 0002 0002 0001 0000 0000 0000 0000 0000 0002 0000 0000 0004 0007 0001 0001 0000 0000 0000 0002 0001 0000 0000 0000 0000 0000 0000 0002 0001 0000 0000 0000 0002 0000 0000 0001 0003 0000 0000 0000 0000 0000 0007 0005 0003 0002 0000 0000 0000 0000 0002 0001 0000 0002 0002 0000 0000 0000 0002 0002 0001 0000 0000 0002 0003 0000 0000 0000 0002 0005 0002 0000 0000 0000 0000 0000 0000 0000 0002 0001 0000 0000 0000 0000 0000 0001 0005 0002 0000 0000 0002 0000 0000 0000 0000 0000 0000 0002 0002 0000 0002 0003 0001 0002 0003 0002 0000 0000 0000 0000 0000 0000 0000 0000 0000 0000 0000 0000 0000 0000 0000 0000 0000 0001 0000 0000 0000 0000 0000 0002 0002 0001 0000 0004 0005 0003 0000 0000 0000 0000 0000 0001 0002 0000 0000 0000 0000 0000 0000 0000 0004 0000 0000 0000 0002 0002 0002 0000 0000 0004 0004 0000 0002 0002 0000 0000 0000 0001 0001 0000 0001 0001 0001 0002 0000 0000 0000 0000 0005 0006 0002 0000 0000 0000 0000 0004 0003 0001 0001 0002 0001 0000 0004 0008 000a 000a 0006 0004 0002 0002 0003 0003 0002 0001 0000 0000 0000 0000 0000 0000 0000 0000 0000 0000 0000 0000 0000 0000 0000 0000 0000 0000 0000 0000 0000 0000 0000 0000 0000 0000 0000 0002 0004 0003 0000 0000 0000 0000
0000 0003 0004 0002 0001 0000 0000 0000 0000 0002 0002 0000 0000 0000 0004 0004 0003 0000 0000 0000 0000 0000 0000 0000 0000 0000 0000 0000 0000 0000 0000 0000 0000 0000 0000 0000 0000 0000 0000 0000 0000 0000 0001 0001 0000 0000 0000 0000 0004 0007 0008 0008 0004 0000 0000 0000 0000 0000 0000 0000 0000 0000 0000 0000 0000 0000 0000 0000 0000 0000 0000 0000 0000 0001 0000 0000 0000 0000 0000 0002 0002 0000 0000 0000 0000 0000 0000 0000 0000 0000 0000 0000 0002 0004 0002 0000 0000 0000 0000 0000 0000 0000 0000 0000 0000 0000 0000 0002 0002 0000 0000 0002 0000 0000 0001 0005 0000 0000 0000 0000 0000 0000 0001 0001 0000 0000 0000 0000 0002 0002 0002 0003 0003 0004 0002 0000 0000 0000 0000 0000 0001 0000 0000 0000 0000 0000 0000 0002 0001 0002 0002 0000 0002 0003 0003 0002 0002 0000 0000 0000 0000 0000 0000 0001 0002 0000 0000 0000 0000 0000 0000 0002 0002 0000 0000 0001 0002 0001 0002 0000 0000 0000 0000 0000 0000 0000 0003 0003 0002 0002 0000 0000 0000 0000 0000 0000 0000 0000 0000 0001 0001 0000 0000 0002 0002 0000 0000 0000 0000 0000 0000 0000 0000 0000 0000 0000 0000 0000 0000 0002 0001 0001 0002 0000 0000 0000 0002 0002 0001 0000 0000 0000 0000 0000 0000 0000 0000 0001 0000 0000 0000 0000 0000 0000 0000 0002 0002 0002 0002 0000 0000 0000 0000 0000 0002 0002 0002 0002 0000 0000 0000 0000 0000 0000 0000 0000 0000 0000 0000 0000 0000 0000 0000 0000 0000 0000 0000 0000 0002 0002 0000 0003 0003 0000 0000 0001 0002 0001 0000 0000 0000 0000 0000 0000 0002 0003 0003 0005 0004 0002 0003 0006 0002 0000 0000 0000 0000 0000 0000 0000 0002 0005 0007 0006 0001 0002 0007 0005 0007 0003 0000 0000 0000 0000 0000 0000 0000 0000 0000 0000 0000 0000 0000 0000 0000 0000 0001 0000 0000 0000 0000 0000 0000 0000 0000 0000 0000 0004 0000 0000 0000 0000 0002 0001 0000 0000 0000 0001 0000 0000 0000 0000 0000 0000 0000 0001 0001 0000 0000 0000 0000 0000 0001 0000 0000 0000 0000 0004 0000 0000 0000 0000 0001 0001 0002 0002 0000 0000 0000 0000 0000 0000 0000 0005 0004 0000 0000 0002 0000 0000 0000 0001 0001 0000 0000 0000 0000 0000 0000 0002 0000 0000 0003 0006 0000 0001 0000 0000 0000 0002 0000 0000 0000 0000 0000 0000 0001 0001 0001 0000 0000 0000 0002 0000 0000 0001 0003 0002 0000 0000 0000 0000 0007 0006 0005 0004 0002 0000 0000 0000 0003 0003 0000 0002 0002 0000 0000 0000 0003 0002 0002 0000 0000 0001 0002 0000 0000 0000 0001 0005 0002 0000 0000 0000 0000 0000 0000 0000 0001 0002 0000 0000 0000 0000 0000 0000 0005 0002 0000 0000 0002 0000 0000 0001 0001 0000 0000 0001 0001 0000 0002 0001 0000 0002 0004 0004 0000 0000 0000 0000 0000 0000 0000 0000 0000 0000 0000 0000 0000 0000 0000 0000 0000 0000 0000 0000 0000 0000 0000 0002 0002 0000 0000 0004 0005 0002 0000 0000 0000 0000 0000 0000 0002 0000 0000 0000 0000 0000 0000 0000 0004 0000 0000 0000 0001 0002 0002 0001 0000 0004 0004 0000 0002 0003 0000 0000 0000 0000 0000 0000 0001 0002 0002 0003 0000 0000 0000 0000 0004 0006 0002 0000 0000 0000 0000 0003 0002 0001 0001 0002 0001 0001 0004 0008 0009 0009 0006 0004 0002 0002 0001 0000 0002 0001 0000 0000 0000 0000 0000 0000 0000 0000 0000 0000 0000 0000 0000 0000 0000 0000 0000 0000 0000 0000 0000 0000 0000 0000 0000 0000 0000 0002 0004 0003 0001 0000 0000 0000
0000 0004 0004 0002 0001 0000 0000 0000 0000 0001 0002 0002 0000 0000 0004 0003 0002 0002 0000 0000 0000 0000 0000 0000 0000 0000 0001 0000 0000 0000 0000 0000 0000 0000 0000 0000 0000 0000 0000 0000 0000 0000 0000 0001 0000 0000 0000 0000 0004 0008 0009 0008 0004 0001 0001 0000 0000 0000 0000 0000 0000 0000 0000 0000 0000 0000 0000 0000 0000 0000 0000 0000 0000 0002 0001 0000 0000 0000 0000 0003 0003 0000 0000 0000 0000 0000 0000 0000 0000 0000 0000 0000 0002 0004 0002 0000 0000 0000 0000 0000 0000 0000 0000 0000 0000 0000 0000 0002 0002 0000 0000 0002 0000 0000 0002 0004 0000 0000 0001 0000 0000 0000 0002 0002 0000 0000 0000 0000 0002 0002 0002 0003 0004 0004 0002 0000 0000 0000 0000 0000 0001 0000 0000 0000 0000 0000 0000 0002 0002 0002 0002 0000 0003 0004 0003 0003 0002 0000 0000 0000 0001 0000 0000 0001 0001 0000 0000 0000 0000 0000 0000 0002 0002 0000 0000 0002 0002 0000 0001 0000 0000 0000 0000 0000 0000 0000 0002 0002 0002 0002 0001 0000 0000 0001 0002 0000 0000 0000 0000 0000 0000 0000 0000 0002 0002 0000 0000 0000 0000 0000 0000 0000 0000 0000 0000 0000 0000 0000 0000 0003 0000 0001 0003 0000 0000 0000 0002 0002 0002 0001 0000 0000 0000 0000 0000 0000 0000 0001 0001 0000 0000 0000 0000 0000 0000 0001 0001 0002 0002 0000 0000 0000 0000 0000 0001 0001 0002 0002 0000 0000 0000 0000 0000 0000 0000 0000 0000 0000 0000 0000 0000 0000 0000 0000 0001 0000 0000 0000 0002 0002 0000 0002 0003 0000 0000 0001 0002 0001 0000 0000 0000 0000 0000 0000 0002 0003 0004 0002 0003 0004 0004 0006 0002 0000 0000 0000 0000 0001 0002 0001 0002 0004 0006 0005 0001 0003 000b 0006 0002 0002 0000 0000 0000 0000 0000 0000 0000 0000 0000 0000 0000 0000 0000 0000 0000 0001 0000 0000 0000 0000 0001 0000 0000 0000 0000 0000 0000 0004 0000 0000 0000 0000 0002 0001 0000 0000 0000 0001 0000 0000 0000 0000 0000 0000 0000 0000 0000 0000 0000 0000 0000 0000 0002 0000 0000 0000 0000 0004 0000 0000 0000 0000 0000 0000 0002 0002 0000 0000 0000 0000 0000 0000 0000 0004 0003 0000 0000 0002 0000 0000 0001 0000 0000 0000 0000 0000 0000 0000 0000 0002 0000 0000 0002 0004 0000 0002 0002 0000 0000 0002 0000 0000 0000 0000 0000 0001 0002 0001 0001 0000 0000 0000 0002 0001 0000 0000 0001 0003 0003 0000 0000 0000 0007 0006 0006 0005 0002 0000 0000 0000 0004 0003 0000 0002 0002 0000 0000 0000 0002 0002 0004 0001 0000 0000 0001 0000 0000 0000 0000 0004 0001 0000 0000 0000 0000 0000 0000 0000 0001 0001 0000 0000 0000 0000 0000 0000 0003 0001 0000 0000 0002 0001 0001 0002 0000 0000 0000 0000 0000 0000 0002 0000 0000 0003 0006 0005 0000 0000 0000 0000 0000 0000 0000 0000 0000 0000 0000 0000 0000 0000 0000 0000 0000 0000 0000 0000 0000 0000 0000 0002 0002 0000 0000 0002 0003 0001 0000 0000 0000 0000 0000 0000 0002 0000 0000 0000 0000 0000 0000 0001 0004 0000 0000 0000 0000 0002 0002 0002 0001 0004 0004 0001 0002 0002 0000 0000 0001 0000 0000 0000 0000 0003 0004 0004 0000 0000 0000 0000 0002 0005 0002 0000 0000 0001 0002 0001 0001 0001 0002 0002 0001 0001 0004 0007 0008 0008 0006 0004 0002 0002 0000 0000 0002 0002 0000 0000 0000 0000 0000 0000 0000 0000 0000 0000 0000 0000 0000 0000 0000 0000 0000 0000 0000 0000 0000 0000 0000 0000 0000 0000 0000 0002 0004 0003 0003 0001 0000 0000
0000 0003 0003 0002 0001 0000 0000 0000 0001 0001 0002 0003 0000 0000 0004 0001 0000 0003 0000 0000 0000 0000 0000 0000 0001 0001 0001 0001 0000 0000 0000 0000 0000 0000 0000 0000 0000 0000 0000 0000 0000 0000 0000 0001 0000 0000 0000 0000 0003 0009 000a 0008 0004 0002 0002 0000 0000 0000 0000 0000 0000 0000 0001 0001 0000 0000 0000 0000 0000 0000 0000 0000 0000 0003 0002 0000 0000 0000 0000 0004 0004 0000 0000 0000 0000 0000 0000 0000 0000 0000 0000 0000 0002 0004 0002 0000 0000 0000 0000 0000 0000 0000 0000 0000 0000 0000 0000 0002 0001 0000 0000 0002 0000 0000 0002 0004 0001 0000 0000 0000 0000 0000 0002 0002 0000 0000 0000 0001 0001 0002 0002 0002 0004 0004 0002 0002 0001 0000 0000 0000 0000 0000 0000 0000 0000 0000 0000 0002 0002 0002 0002 0000 0004 0005 0003 0004 0002 0000 0000 0000 0000 0000 0000 0001 0000 0000 0000 0000 0000 0000 0000 0002 0001 0000 0001 0001 0002 0000 0000 0001 0000 0000 0000 0000 0000 0000 0000 0001 0002 0001 0002 0000 0000 0002 0004 0002 0000 0000 0000 0000 0000 0000 0000 0002 0002 0000 0000 0000 0000 0000 0000 0000 0000 0000 0000 0000 0000 0000 0000 0002 0000 0001 0004 0000 0000 0000 0002 0002 0002 0002 0000 0000 0000 0000 0000 0000 0000 0001 0000 0000 0000 0000 0001 0000 0000 0000 0000 0002 0002 0000 0000 0000 0000 0000 0000 0000 0001 0002 0000 0000 0000 0000 0000 0000 0000 0000 0000 0000 0000 0000 0000 0000 0000 0001 0002 0000 0000 0000 0002 0002 0000 0002 0002 0000 0000 0000 0001 0001 0000 0000 0000 0000 0000 0001 0002 0003 0004 0000 0001 0005 0005 0006 0002 0000 0000 0000 0002 0002 0003 0001 0000 0002 0005 0004 0002 0005 000d 0006 0000 0000 0000 0000 0000 0000 0000 0000 0000 0000 0000 0000 0000 0000 0000 0000 0000 0000 0000 0000 0000 0001 0002 0000 0000 0000 0000 0000 0000 0004 0000 0000 0000 0000 0002 0001 0000 0000 0000 0000 0000 0000 0000 0000 0000 0000 0000 0000 0000 0000 0000 0001 0000 0000 0002 0001 0000 0000 0000 0004 0000 0000 0000 0000 0000 0000 0002 0002 0000 0000 0000 0001 0001 0000 0000 0002 0002 0000 0000 0002 0000 0000 0002 0000 0000 0000 0000 0000 0000 0000 0000 0002 0000 0000 0000 0002 0000 0002 0003 0000 0000 0002 0000 0000 0000 0000 0000 0002 0002 0001 0002 0000 0000 0000 0002 0002 0000 0000 0000 0004 0005 0000 0000 0000 0007 0007 0006 0006 0000 0000 0000 0000 0003 0002 0000 0002 0002 0000 0000 0000 0002 0004 0005 0001 0000 0000 0000 0001 0000 0000 0000 0002 0000 0000 0000 0002 0000 0000 0000 0000 0001 0000 0000 0000 0000 0000 0000 0000 0000 0001 0002 0001 0001 0002 0002 0001 0000 0000 0000 0000 0000 0000 0002 0000 0000 0004 0007 0006 0000 0000 0000 0000 0000 0000 0000 0000 0000 0000 0000 0000 0000 0000 0000 0000 0000 0000 0000 0000 0000 0001 0002 0002 0002 0000 0000 0000 0000 0000 0000 0000 0000 0000 0000 0000 0002 0000 0000 0000 0000 0000 0000 0002 0004 0000 0000 0000 0000 0002 0002 0002 0002 0004 0004 0002 0003 0002 0000 0001 0002 0000 0000 0000 0000 0003 0005 0004 0000 0000 0000 0000 0000 0004 0002 0000 0000 0002 0003 0000 0000 0002 0002 0002 0001 0000 0002 0006 0007 0008 0006 0003 0003 0002 0000 0000 0002 0002 0000 0000 0000 0000 0000 0000 0000 0000 0000 0000 0000 0000 0000 0000 0000 0000 0000 0000 0000 0000 0000 0000 0000 0000 0000 0000 0000 0002 0004 0004 0004 0002 0000 0000
0001 0002 0001 0001 0000 0000 0000 0000 0000 0000 0001 0002 0000 0000 0003 0001 0001 0002 0000 0000 0000 0000 0000 0001 0002 0001 0001 0001 0000 0000 0000 0000 0000 0000 0000 0001 0000 0000 0002 0000 0000 0000 0000 0001 0000 0000 0000 0000 0002 0009 000b 0008 0005 0002 0001 0000 0000 0000 0000 0000 0000 0000 0000 0002 0000 0000 0000 0000 0000 0000 0000 0000 0000 0003 0001 0000 0000 0000 0000 0002 0002 0000 0000 0000 0000 0000 0000 0000 0000 0000 0002 0001 0001 0002 0001 0000 0000 0000 0000 0000 0000 0000 0000 0000 0000 0000 0001 0002 0000 0000 0000 0002 0000 0000 0002 0003 0001 0000 0000 0000 0000 0000 0001 0001 0000 0000 0000 0001 0001 0002 0002 0001 0004 0004 0002 0002 0002 0000 0000 0000 0000 0000 0000 0000 0000 0000 0000 0002 0001 0001 0001 0001 0003 0004 0004 0005 0002 0000 0000 0000 0000 0000 0000 0001 0000 0000 0000 0000 0000 0000 0001 0002 0001 0001 0001 0000 0001 0000 0000 0002 0000 0000 0000 0000 0000 0000 0000 0001 0001 0000 0001 0000 0000 0001 0005 0003 0000 0000 0000 0000 0000 0000 0000 0001 0001 0000 0000 0000 0000 0000 0000 0000 0000 0000 0000 0000 0000 0000 0000 0001 0000 0002 0004 0000 0000 0000 0001 0001 0001 0001 0000 0000 0000 0000 0000 0000 0000 0001 0000 0000 0000 0000 0000 0000 0000 0001 0000 0001 0001 0000 0000 0000 0000 0000 0000 0000 0000 0001 0000 0000 0000 0000 0000 0000 0000 0000 0000 0000 0000 0000 0000 0000 0001 0001 0001 0000 0000 0000 0001 0001 0000 0002 0002 0000 0000 0000 0001 0002 0000 0000 0000 0000 0001 0003 0002 0003 0005 0000 0000 0004 0004 0006 0003 0000 0000 0001 0003 0002 0003 0001 0000 0001 0004 0004 0005 0007 000c 0007 0000 0000 0000 0000 0000 0000 0000 0000 0000 0000 0000 0000 0000 0000 0000 0000 0000 0000 0000 0000 0000 0002 0001 0000 0000 0000 0000 0000 0000 0002 0000 0000 0000 0000 0001 0001 0000 0000 0000 0001 0001 0000 0000 0000 0000 0000 0000 0000 0000 0000 0000 0002 0000 0000 0000 0002 0000 0000 0000 0002 0000 0000 0000 0000 0000 0000 0002 0002 0000 0000 0000 0002 0001 0000 0000 0000 0000 0000 0000 0000 0000 0002 0002 0000 0000 0000 0000 0000 0000 0000 0000 0001 0000 0000 0000 0000 0000 0001 0004 0002 0000 0001 0000 0000 0000 0000 0000 0002 0001 0001 0002 0000 0000 0000 0001 0003 0001 0000 0000 0006 0007 0000 0000 0000 0006 0008 0007 0004 0000 0000 0000 0001 0002 0000 0000 0001 0001 0000 0000 0000 0001 0005 0006 0001 0000 0000 0000 0002 0000 0000 0000 0000 0000 0000 0000 0003 0001 0000 0000 0000 0001 0000 0000 0000 0000 0000 0001 0000 0000 0001 0003 0002 0001 0002 0002 0000 0000 0000 0000 0000 0000 0000 0001 0000 0000 0003 0006 0006 0001 0000 0000 0000 0000 0001 0000 0000 0000 0000 0000 0000 0000 0000 0000 0000 0000 0000 0000 0000 0000 0002 0005 0002 0001 0000 0000 0000 0000 0000 0002 0002 0000 0000 0000 0000 0002 0000 0000 0000 0000 0000 0000 0002 0003 0000 0000 0000 0000 0003 0003 0002 0002 0003 0003 0003 0004 0001 0000 0002 0004 0000 0000 0000 0000 0002 0005 0004 0000 0000 0000 0000 0000 0002 0002 0000 0000 0003 0003 0000 0001 0001 0001 0002 0002 0000 0001 0005 0006 0008 0006 0001 0003 0003 0001 0001 0002 0001 0000 0000 0000 0000 0000 0000 0001 0001 0001 0001 0000 0000 0000 0000 0000 0000 0000 0000 0000 0000 0000 0000 0000 0000 0000 0000 0000 0001 0003 0003 0002 0002 0001 0000
0006 0002 0000 0000 0000 0000 0000 0001 0000 0000 0001 0000 0000 0000 0002 0004 0003 0000 0000 0000 0000 0000 0000 0003 0001 0000 0000 0002 0000 0000 0000 0000 0000 0000 0000 0004 0000 0000 0005 0000 0000 0000 0000 0000 0000 0000 0000 0000 0000 0006 000a 0008 0008 0003 0000 0000 0000 0000 0000 0000 0000 0000 0000 0002 0001 0000 0000 0001 0000 0000 0000 0000 0000 0001 0000 0000 0000 0000 0000 0000 0000 0001 0001 0000 0000 0000 0000 0000 0000 0001 0005 0004 0000 0000 0000 0000 0000 0000 0000 0000 0000 0000 0000 0000 0000 0000 0002 0003 0000 0000 0000 0003 0000 0000 0003 0002 0001 0000 0000 0000 0000 0000 0000 0000 0000 0000 0000 0000 0001 0002 0002 0001 0004 0005 0003 0001 0002 0001 0000 0001 0000 0000 0000 0000 0000 0000 0000 0002 0000 0000 0000 0003 0003 0000 0003 0006 0003 0000 0000 0000 0000 0000 0000 0000 0000 0000 0000 0000 0000 0000 0001 0003 0001 0001 0001 0000 0000 0000 0000 0001 0000 0000 0000 0000 0000 0000 0000 0002 0000 0000 0000 0000 0000 0000 0003 0002 0000 0000 0000 0000 0000 0000 0000 0000 0000 0000 0000 0000 0001 0001 0000 0000 0000 0000 0000 0000 0000 0000 0000 0000 0002 0003 0002 0001 0000 0000 0000 0000 0000 0000 0000 0001 0001 0000 0000 0000 0000 0000 0000 0000 0000 0000 0000 0000 0001 0004 0001 0000 0000 0000 0000 0000 0000 0000 0000 0000 0000 0000 0000 0000 0000 0000 0000 0000 0000 0000 0000 0000 0000 0001 0000 0000 0002 0000 0000 0000 0000 0000 0000 0000 0001 0003 0002 0000 0000 0000 0001 0001 0000 0000 0000 0000 0001 0003 0003 0005 0006 0002 0000 0000 0000 0007 0006 0001 0001 0000 0000 0002 0002 0002 0002 0001 0004 0006 0007 0008 0009 0006 0001 0000 0000 0000 0000 0000 0000 0000 0000 0000 0000 0000 0000 0000 0000 0000 0000 0000 0000 0000 0003 0003 0000 0000 0000 0000 0000 0000 0000 0000 0001 0001 0001 0001 0000 0000 0001 0000 0000 0003 0003 0000 0000 0000 0001 0000 0000 0000 0000 0000 0000 0002 0000 0000 0000 0001 0001 0000 0000 0000 0000 0000 0000 0000 0002 0002 0002 0002 0000 0000 0000 0002 0001 0000 0000 0000 0000 0001 0000 0000 0000 0002 0001 0000 0000 0001 0000 0000 0000 0000 0000 0000 0000 0000 0001 0000 0000 0000 0005 0005 0000 0000 0000 0000 0000 0000 0000 0002 0000 0000 0002 0002 0001 0000 0000 0002 0002 0001 0000 0006 0007 0000 0000 0000 0006 0009 0007 0000 0000 0000 0000 0002 0000 0000 0000 0000 0000 0000 0000 0000 0000 0004 0005 0001 0000 0000 0001 0002 0001 0000 0000 0000 0000 0000 0000 0002 0003 0001 0000 0000 0000 0001 0000 0000 0000 0001 0001 0000 0000 0000 0001 0003 0001 0000 0002 0000 0000 0000 0000 0000 0000 0001 0000 0000 0000 0001 0003 0003 0002 0002 0000 0000 0001 0003 0000 0000 0000 0000 0001 0000 0000 0000 0000 0001 0001 0000 0000 0000 0000 0003 0006 0002 0000 0000 0000 0000 0000 0000 0003 0004 0000 0000 0000 0000 0002 0000 0000 0001 0001 0000 0000 0002 0000 0000 0000 0000 0000 0005 0005 0003 0002 0001 0001 0004 0005 0000 0000 0002 0005 0001 0000 0000 0000 0001 0003 0003 0000 0000 0000 0000 0000 0000 0002 0001 0000 0002 0002 0001 0003 0000 0000 0002 0001 0000 0001 0004 0004 0009 0006 0000 0001 0003 0003 0002 0002 0000 0000 0000 0000 0000 0000 0000 0002 0003 0002 0001 0000 0000 0000 0000 0000 0000 0000 0000 0000 0000 0000 0000 0000 0000 0000 0001 0002 0000 0002 0002 0000 0002 0004 0001
0008 0002 0000 0000 0000 0000 0000 0001 0000 0000 0001 0000 0000 0002 0002 0006 0004 0000 0000 0000 0000 0000 0001 0003 0000 0000 0000 0003 0000 0000 0000 0000 0000 0000 0000 0004 0000 0000 0005 0000 0000 0000 0000 0000 0000 0000 0000 0000 0000 0004 0007 0007 0008 0004 0000 0000 0000 0000 0000 0000 0000 0000 0000 0002 0002 0000 0000 0002 0000 0000 0000 0000 0000 0000 0000 0000 0000 0000 0000 0000 0000 0002 0002 0000 0000 0000 0000 0000 0000 0002 0004 0003 0000 0000 0000 0000 0000 0000 0000 0000 0000 0000 0000 0000 0000 0000 0001 0003 0000 0000 0002 0004 0000 0000 0002 0002 0001 0000 0000 0000 0000 0000 0000 0000 0000 0000 0000 0000 0002 0002 0002 0002 0004 0006 0004 0000 0002 0002 0000 0002 0001 0000 0000 0000 0000 0000 0000 0002 0000 0000 0000 0004 0004 0000 0001 0004 0004 0002 0000 0000 0000 0000 0000 0000 0000 0000 0000 0000 0000 0000 0002 0004 0002 0001 0001 0000 0000 0000 0000 0000 0001 0000 0000 0000 0000 0000 0002 0003 0000 0000 0000 0000 0000 0000 0001 0001 0000 0000 0000 0001 0000 0000 0000 0000 0000 0000 0000 0000 0000 0002 0000 0000 0000 0000 0000 0000 0000 0000 0000 0000 0004 0004 0000 0001 0000 0000 0000 0000 0000 0000 0000 0002 0001 0000 0000 0000 0000 0000 0000 0000 0001 0000 0000 0000 0000 0003 0002 0000 0000 0000 0000 0000 0000 0000 0001 0001 0000 0000 0000 0000 0000 0000 0000 0000 0000 0000 0000 0000 0000 0001 0000 0000 0001 0000 0000 0000 0000 0000 0000 0000 0001 0002 0002 0001 0000 0000 0002 0001 0000 0000 0000 0000 0000 0002 0003 0006 0006 0003 0000 0000 0000 0006 0006 0002 0002 0000 0000 0002 0002 0002 0002 0001 0005 0008 0008 0008 0008 0006 0004 0000 0000 0000 0004 0000 0000 0000 0000 0000 0000 0000 0000 0000 0000 0000 0000 0000 0000 0000 0005 0002 0000 0000 0000 0000 0000 0000 0000 0001 0001 0001 0002 0001 0000 0000 0002 0000 0000 0003 0003 0000 0000 0000 0002 0000 0000 0000 0000 0000 0000 0002 0000 0000 0000 0000 0000 0000 0000 0000 0000 0000 0000 0000 0003 0004 0002 0002 0000 0000 0000 0001 0002 0000 0000 0000 0000 0002 0002 0000 0000 0001 0000 0000 0000 0000 0000 0000 0000 0000 0000 0000 0000 0000 0002 0000 0000 0000 0006 0005 0000 0000 0000 0000 0000 0000 0000 0002 0000 0000 0002 0004 0001 0000 0000 0001 0001 0002 0000 0002 0003 0000 0000 0003 0006 0008 0005 0000 0000 0002 0000 0002 0000 0000 0000 0000 0000 0000 0000 0000 0000 0002 0004 0002 0000 0000 0002 0001 0002 0000 0000 0000 0000 0000 0000 0001 0003 0002 0000 0000 0000 0000 0000 0000 0001 0002 0000 0000 0000 0000 0000 0004 0002 0000 0002 0000 0000 0000 0000 0000 0000 0002 0000 0000 0000 0000 0002 0001 0001 0002 0000 0000 0000 0003 0002 0000 0000 0000 0002 0000 0000 0000 0000 0002 0002 0000 0000 0000 0000 0003 0006 0002 0000 0000 0000 0000 0000 0000 0002 0003 0000 0000 0000 0000 0001 0000 0000 0001 0001 0000 0000 0001 0000 0000 0000 0000 0001 0005 0005 0004 0002 0000 0000 0003 0004 0000 0000 0001 0004 0002 0000 0000 0000 0002 0002 0001 0000 0000 0000 0000 0000 0000 0002 0001 0000 0000 0000 0001 0004 0000 0000 0002 0000 0000 0000 0003 0003 0009 0006 0000 0002 0004 0004 0002 0001 0000 0000 0000 0000 0000 0000 0000 0002 0003 0003 0001 0000 0000 0000 0000 0000 0000 0000 0000 0000 0000 0000 0000 0000 0000 0000 0004 0004 0000 0002 0002 0000 0002 0005 0002
0008 0002 0000 0000 0000 0000 0000 0000 0000 0000 0001 0001 0000 0002 0001 0005 0004 0000 0002 0000 0000 0000 0000 0002 0000 0000 0000 0002 0000 0000 0000 0000 0000 0000 0000 0002 0000 0000 0002 0000 0000 0000 0000 0000 0000 0000 0000 0000 0000 0002 0005 0006 0007 0005 0001 0000 0000 0000 0000 0000 0000 0000 0000 0002 0002 0000 0000 0002 0000 0000 0000 0000 0000 0000 0000 0000 0000 0000 0000 0000 0000 0002 0002 0001 0000 0000 0000 0000 0000 0001 0000 0000 0002 0001 0000 0000 0000 0000 0000 0000 0000 0000 0000 0000 0000 0000 0000 0002 0000 0000 0003 0003 0000 0000 0000 0001 0001 0000 0000 0000 0000 0000 0000 0000 0000 0000 0000 0000 0002 0002 0002 0002 0004 0006 0004 0000 0002 0001 0000 0001 0002 0000 0000 0000 0000 0000 0000 0002 0000 0000 0000 0004 0005 0000 0000 0002 0005 0003 0000 0000 0000 0000 0000 0000 0000 0000 0000 0000 0000 0000 0003 0004 0003 0002 0000 0000 0000 0000 0000 0000 0000 0000 0000 0000 0000 0000 0004 0004 0000 0000 0000 0000 0000 0000 0001 0001 0000 0000 0000 0001 0000 0000 0000 0000 0000 0000 0000 0000 0000 0003 0000 0000 0000 0000 0000 0000 0000 0000 0000 0000 0005 0005 0000 0000 0000 0000 0000 0000 0000 0000 0001 0001 0001 0000 0000 0000 0000 0000 0000 0000 0000 0000 0000 0002 0000 0000 0002 0000 0000 0000 0000 0000 0000 0000 0001 0002 0000 0000 0000 0000 0000 0000 0000 0000 0000 0000 0000 0000 0000 0000 0000 0000 0000 0000 0000 0001 0001 0000 0000 0000 0000 0001 0002 0001 0001 0003 0002 0001 0000 0000 0000 0000 0000 0001 0002 0005 0005 0004 0002 0000 0000 0004 0004 0001 0002 0000 0000 0002 0002 0002 0002 0002 0006 0008 0007 0007 0008 0006 0005 0000 0000 0000 0005 0000 0000 0000 0000 0000 0000 0000 0000 0000 0000 0000 0000 0000 0000 0000 0003 0001 0000 0000 0000 0000 0000 0000 0001 0002 0001 0000 0001 0001 0000 0000 0003 0000 0000 0001 0002 0000 0000 0000 0001 0000 0000 0000 0000 0000 0000 0001 0000 0001 0001 0000 0000 0000 0000 0000 0002 0002 0000 0000 0002 0003 0002 0002 0000 0000 0000 0001 0003 0000 0000 0000 0000 0001 0002 0001 0000 0000 0000 0000 0000 0000 0000 0000 0000 0000 0002 0002 0000 0000 0002 0000 0000 0000 0006 0004 0000 0000 0000 0000 0000 0000 0000 0002 0000 0000 0002 0004 0000 0000 0001 0000 0000 0003 0000 0000 0000 0000 0000 0003 0007 0008 0003 0000 0001 0003 0000 0002 0000 0000 0000 0000 0000 0001 0001 0000 0000 0000 0002 0001 0000 0000 0002 0001 0002 0003 0002 0000 0000 0000 0000 0000 0002 0002 0000 0000 0000 0000 0000 0000 0001 0002 0000 0000 0000 0000 0000 0003 0001 0000 0002 0000 0000 0000 0000 0000 0000 0003 0000 0000 0000 0001 0002 0001 0000 0001 0001 0000 0000 0000 0004 0001 0000 0000 0002 0000 0000 0000 0000 0002 0002 0000 0000 0000 0000 0002 0005 0002 0000 0000 0000 0000 0000 0000 0000 0001 0000 0000 0000 0002 0001 0000 0000 0001 0001 0000 0000 0000 0000 0000 0000 0000 0002 0004 0004 0005 0004 0000 0000 0000 0003 0003 0000 0000 0002 0003 0000 0000 0000 0003 0002 0001 0000 0000 0000 0000 0000 0000 0001 0001 0001 0000 0000 0000 0003 0000 0000 0002 0000 0000 0000 0003 0003 0006 0004 0002 0004 0006 0004 0001 0001 0000 0000 0000 0000 0000 0000 0000 0002 0002 0004 0002 0000 0000 0000 0000 0000 0000 0000 0000 0000 0000 0000 0000 0000 0000 0000 0005 0005 0000 0002 0002 0000 0002 0004 0001
0008 0002 0000 0000 0000 0000 0000 0000 0000 0000 0001 0002 0002 0002 0001 0004 0003 0000 0003 0000 0000 0000 0000 0001 0000 0000 0000 0002 0000 0000 0000 0000 0000 0000 0000 0000 0000 0000 0000 0000 0000 0000 0000 0000 0000 0000 0000 0000 0000 0001 0003 0004 0006 0005 0001 0000 0000 0002 0000 0000 0000 0000 0000 0001 0002 0000 0000 0001 0000 0000 0000 0000 0000 0000 0000 0000 0000 0000 0000 0000 0000 0002 0002 0002 0001 0000 0000 0000 0000 0000 0000 0000 0003 0003 0000 0000 0000 0000 0000 0000 0000 0000 0000 0000 0000 0000 0000 0003 0002 0004 0004 0002 0001 0000 0000 0000 0000 0000 0000 0000 0000 0000 0000 0000 0000 0000 0000 0001 0002 0002 0002 0002 0004 0006 0004 0001 0003 0001 0000 0000 0003 0000 0000 0000 0000 0000 0000 0002 0000 0000 0000 0004 0006 0000 0000 0002 0006 0004 0000 0000 0000 0000 0000 0000 0000 0000 0000 0000 0000 0000 0003 0004 0004 0002 0000 0000 0000 0000 0000 0000 0000 0000 0000 0000 0000 0000 0003 0003 0000 0000 0000 0000 0000 0000 0000 0000 0000 0000 0000 0001 0001 0000 0000 0000 0000 0000 0000 0000 0000 0003 0000 0000 0000 0000 0000 0000 0000 0000 0000 0000 0005 0005 0001 0002 0000 0000 0000 0000 0000 0001 0002 0001 0001 0001 0000 0000 0000 0000 0000 0000 0000 0000 0000 0004 0000 0000 0001 0000 0000 0000 0000 0000 0000 0000 0001 0002 0000 0000 0000 0000 0000 0000 0000 0000 0000 0000 0000 0000 0001 0000 0000 0000 0000 0000 0000 0002 0002 0000 0000 0000 0000 0001 0002 0001 0001 0002 0002 0001 0000 0000 0000 0000 0001 0002 0002 0004 0003 0004 0005 0002 0001 0002 0001 0001 0002 0000 0000 0002 0002 0004 0004 0001 0006 0008 0006 0006 0008 0006 0003 0000 0000 0000 0000 0000 0000 0001 0000 0000 0000 0000 0000 0000 0000 0001 0001 0000 0000 0000 0001 0000 0000 0000 0000 0000 0000 0000 0000 0001 0002 0002 0000 0001 0000 0000 0003 0000 0000 0000 0000 0000 0000 0000 0000 0000 0000 0000 0000 0000 0000 0000 0000 0003 0003 0000 0000 0000 0000 0000 0002 0002 0000 0000 0001 0002 0002 0002 0000 0000 0000 0001 0003 0000 0000 0000 0000 0000 0001 0002 0001 0000 0000 0001 0000 0000 0000 0000 0000 0000 0003 0003 0000 0000 0001 0000 0000 0002 0005 0003 0000 0000 0000 0000 0000 0000 0000 0002 0000 0000 0002 0003 0000 0000 0001 0000 0000 0004 0001 0000 0000 0000 0000 0000 0007 0008 0002 0000 0002 0003 0000 0002 0000 0000 0000 0000 0000 0002 0002 0000 0000 0000 0001 0001 0000 0000 0002 0001 0002 0004 0002 0000 0000 0000 0000 0000 0000 0001 0000 0000 0000 0000 0001 0002 0001 0002 0000 0000 0000 0000 0000 0002 0000 0000 0003 0000 0000 0000 0000 0000 0000 0003 0000 0000 0000 0002 0002 0001 0000 0000 0001 0000 0000 0000 0005 0003 0000 0000 0003 0000 0000 0000 0001 0002 0002 0000 0000 0000 0000 0002 0004 0003 0000 0000 0000 0000 0000 0000 0000 0000 0000 0000 0000 0003 0001 0000 0000 0002 0001 0000 0000 0000 0000 0000 0000 0000 0002 0003 0002 0006 0005 0000 0000 0000 0002 0005 0001 0000 0000 0003 0002 0000 0001 0003 0002 0001 0000 0000 0000 0000 0000 0000 0001 0001 0002 0000 0000 0000 0002 0001 0000 0002 0001 0000 0000 0003 0003 0002 0000 0003 0005 0007 0003 0000 0001 0000 0000 0000 0000 0001 0000 0000 0001 0000 0003 0003 0000 0000 0000 0000 0000 0000 0000 0000 0000 0000 0000 0000 0000 0000 0000 0005 0005 0000 0002 0002 0000 0003 0004 0001
0008 0002 0000 0000 0000 0000 0000 0000 0000 0000 0001 0003 0002 0002 0001 0002 0000 0000 0002 0000 0000 0000 0000 0000 0000 0000 0000 0002 0000 0000 0000 0000 0000 0000 0000 0000 0000 0000 0002 0000 0000 0001 0001 0000 0000 0000 0000 0000 0000 0000 0001 0002 0004 0002 0000 0001 0003 0003 0001 0000 0000 0000 0000 0000 0002 0000 0000 0000 0000 0000 0000 0000 0000 0000 0000 0000 0000 0000 0000 0000 0000 0002 0002 0003 0002 0000 0000 0000 0000 0000 0000 0000 0002 0003 0000 0000 0000 0000 0000 0000 0000 0001 0000 0000 0000 0000 0000 0007 0009 0007 0004 0002 0000 0000 0000 0000 0000 0000 0000 0000 0000 0000 0000 0000 0000 0000 0000 0002 0002 0002 0002 0002 0004 0006 0004 0002 0004 0001 0000 0000 0004 0000 0000 0000 0000 0000 0000 0002 0000 0000 0000 0004 0005 0000 0000 0002 0005 0003 0000 0000 0000 0000 0000 0000 0000 0000 0000 0000 0000 0000 0003 0004 0004 0003 0001 0000 0000 0002 0001 0000 0000 0000 0000 0000 0000 0000 0001 0001 0000 0000 0000 0000 0000 0000 0000 0000 0000 0000 0000 0001 0000 0000 0000 0000 0000 0000 0000 0000 0000 0003 0000 0000 0000 0000 0000 0000 0000 0000 0000 0000 0003 0004 0002 0004 0000 0000 0000 0000 0000 0000 0002 0001 0002 0001 0000 0000 0000 0000 0000 0000 0000 0000 0000 0002 0000 0000 0000 0000 0000 0000 0000 0000 0000 0000 0001 0002 0000 0000 0000 0000 0000 0000 0000 0000 0000 0000 0000 0000 0000 0001 0000 0000 0000 0000 0000 0001 0001 0000 0000 0000 0002 0003 0002 0002 0000 0000 0001 0001 0000 0000 0000 0000 0003 0003 0001 0002 0001 0003 0005 0003 0003 0001 0000 0001 0002 0000 0000 0002 0002 0006 0005 0000 0005 0008 0005 0005 0008 0006 0000 0001 0004 0000 0000 0000 0000 0016 001a 0000 0000 0000 0000 0000 0005 0007 0004 0000 0002 0006 0003 0000 0000 0000 0000 0000 0000 0000 0000 0001 0002 0002 0000 0002 0000 0000 0003 0000 0000 0000 0000 0000 0001 0000 0000 0000 0000 0001 0000 0000 0000 0000 0000 0001 0001 0000 0000 0000 0000 0000 0002 0002 0000 0000 0000 0000 0002 0002 0001 0000 0000 0001 0003 0000 0000 0000 0000 0000 0000 0001 0000 0000 0001 0004 0000 0000 0000 0000 0000 0000 0002 0002 0000 0000 0000 0000 0000 0003 0004 0002 0000 0000 0000 0000 0000 0000 0000 0002 0000 0000 0002 0002 0000 0000 0001 0000 0000 0006 0003 0000 0000 0000 0000 0000 0005 0007 0002 0001 0002 0000 0000 0002 0000 0000 0000 0000 0000 0001 0001 0000 0000 0000 0001 0001 0000 0000 0001 0002 0002 0000 0000 0001 0000 0000 0000 0000 0000 0000 0000 0000 0002 0001 0001 0000 0001 0002 0000 0000 0000 0000 0000 0002 0000 0000 0002 0000 0000 0000 0000 0000 0000 0003 0000 0000 0002 0002 0002 0002 0000 0000 0001 0000 0000 0000 0004 0001 0000 0000 0002 0000 0000 0001 0002 0002 0002 0000 0000 0001 0001 0001 0002 0002 0000 0000 0000 0000 0000 0000 0000 0000 0000 0000 0000 0003 0001 0000 0000 0003 0001 0000 0000 0000 0000 0000 0000 0002 0002 0000 0000 0005 0005 0000 0000 0000 0001 0004 0000 0000 0000 0004 0004 0001 0000 0002 0002 0001 0001 0000 0000 0000 0000 0000 0001 0002 0001 0000 0000 0000 0001 0001 0001 0002 0000 0000 0002 0003 0004 0000 0000 0002 0004 0006 0002 0000 0001 0000 0000 0000 0000 0002 0003 0001 0000 0000 0000 0002 0000 0000 0000 0000 0000 0000 0000 0000 0000 0000 0000 0000 0000 0000 0001 0004 0002 0000 0002 0002 0000 0004 0005 0001
0008 0002 0000 0001 0000 0000 0000 0000 0000 0000 0001 0002 0001 0002 0001 0000 0000 0000 0000 0002 0000 0000 0000 0000 0000 0000 0000 0003 0000 0000 0000 0000 0000 0000 0000 0000 0000 0001 0005 0000 0000 0001 0005 0000 0000 0000 0000 0000 0000 0000 0000 0002 0002 0000 0000 0002 0005 0004 0001 0000 0000 0000 0000 0000 0002 0000 0000 0000 0000 0000 0000 0000 0000 0000 0000 0000 0000 0000 0000 0000 0000 0002 0002 0004 0003 0000 0000 0000 0000 0000 0000 0000 0002 0002 0000 0000 0000 0000 0000 0000 0001 0002 0000 0000 0000 0000 0001 000b 000f 0008 0003 0003 0000 0000 0000 0000 0000 0000 0001 0000 0000 0000 0000 0000 0000 0000 0000 0002 0002 0002 0002 0002 0004 0006 0004 0002 0004 0002 0000 0000 0004 0000 0000 0000 0000 0000 0000 0002 0000 0000 0000 0004 0004 0000 0001 0004 0004 0002 0000 0000 0001 0001 0000 0000 0000 0000 0000 0000 0000 0000 0004 0003 0004 0004 0002 0000 0000 0001 0000 0000 0000 0000 0002 0000 0000 0000 0002 0002 0000 0000 0000 0000 0000 0000 0000 0000 0000 0000 0000 0001 0000 0000 0000 0000 0000 0000 0000 0000 0001 0002 0000 0000 0000 0000 0000 0000 0000 0000 0000 0000 0002 0002 0000 0002 0000 0000 0000 0000 0000 0000 0001 0002 0002 0000 0000 0000 0000 0000 0000 0000 0000 0000 0001 0000 0001 0000 0000 0000 0000 0000 0001 0000 0000 0000 0000 0001 0000 0000 0000 0000 0000 0000 0000 0000 0000 0000 0000 0000 0000 0000 0000 0000 0000 0000 0000 0000 0000 0000 0000 0000 0004 0006 0002 0001 0000 0000 0001 0002 0000 0000 0000 0000 0003 0003 0000 0000 0000 0002 0004 0004 0004 0001 0000 0001 0002 0000 0000 0002 0002 0004 0003 0000 0005 0007 0007 0008 0008 0006 0000 0002 0000 0000 0000 0000 0000 0024 0026 0000 0000 0000 0000 0000 0002 0005 0003 0000 0004 000f 000b 0002 0000 0000 0000 0000 0000 0000 0005 0005 0000 0000 0001 0002 0000 0000 0002 0000 0000 0000 0000 0000 0002 0000 0000 0000 0000 0000 0000 0000 0000 0000 0000 0000 0000 0001 0001 0000 0000 0000 0003 0003 0000 0000 0000 0000 0002 0002 0002 0000 0000 0001 0002 0000 0000 0000 0000 0000 0000 0000 0000 0000 0002 0007 0000 0000 0001 0000 0000 0000 0000 0000 0000 0000 0000 0000 0001 0004 0004 0002 0000 0000 0000 0000 0000 0000 0000 0002 0000 0000 0002 0002 0000 0000 0001 0000 0000 0007 0004 0000 0000 0000 0000 0000 0001 0003 0002 0004 0002 0000 0000 0002 0000 0000 0000 0000 0000 0000 0000 0000 0000 0000 0002 0002 0000 0000 0000 0002 0002 0000 0000 0004 0002 0000 0000 0000 0000 0000 0000 0001 0003 0003 0000 0000 0001 0002 0000 0000 0000 0000 0000 0002 0000 0000 0002 0000 0000 0000 0000 0000 0000 0002 0000 0002 0005 0001 0002 0002 0000 0000 0001 0000 0000 0000 0002 0000 0000 0002 0002 0000 0000 0002 0002 0002 0002 0000 0000 0003 0002 0000 0002 0002 0000 0000 0000 0000 0000 0000 0000 0000 0000 0000 0000 0002 0001 0000 0000 0002 0001 0000 0000 0002 0000 0000 0000 0003 0003 0000 0000 0004 0004 0000 0000 0000 0001 0001 0000 0000 0001 0005 0005 0002 0000 0000 0002 0001 0003 0002 0000 0000 0000 0000 0002 0002 0000 0000 0000 0000 0001 0001 0002 0002 0000 0000 0001 0004 0004 0002 0000 0000 0002 0004 0001 0000 0001 0000 0000 0000 0000 0003 0004 0001 0000 0000 0000 0000 0000 0000 0000 0000 0000 0000 0000 0000 0000 0000 0000 0000 0000 0000 0002 0002 0000 0000 0002 0002 0001 0004 0004 0001
0007 0003 0000 0001 0000 0000 0000 0000 0000 0000 0000 0001 0002 0002 0001 0000 0000 0000 0000 0001 0000 0000 0000 0000 0000 0000 0001 0004 0000 0000 0000 0000 0000 0000 0000 0000 0000 0001 0006 0001 0000 0000 0004 0000 0000 0000 0000 0000 0000 0001 0001 0002 0002 0000 0000 0002 0005 0003 0001 0001 0000 0000 0000 0000 0000 0000 0000 0000 0000 0001 0001 0000 0000 0000 0001 0001 0000 0000 0000 0000 0000 0001 0001 0003 0003 0000 0000 0000 0000 0000 0000 0000 0002 0001 0000 0000 0000 0000 0000 0000 0001 0002 0000 0000 0001 0000 0001 000d 0012 0009 0002 0002 0000 0000 0000 0000 0000 0000 0000 0000 0000 0000 0000 0000 0000 0000 0001 0003 0002 0001 0001 0002 0003 0005 0003 0003 0005 0002 0000 0000 0002 0000 0000 0000 0000 0000 0000 0002 0000 0000 0000 0003 0001 0000 0004 0006 0003 0000 0000 0000 0002 0002 0000 0000 0000 0000 0000 0000 0000 0002 0004 0002 0003 0005 0004 0000 0000 0000 0000 0000 0000 0000 0003 0000 0000 0001 0002 0001 0000 0000 0000 0000 0000 0000 0000 0000 0000 0000 0001 0002 0001 0000 0000 0000 0000 0000 0000 0000 0000 0001 0000 0000 0000 0000 0000 0000 0000 0000 0000 0000 0003 0002 0000 0000 0000 0000 0000 0000 0000 0001 0000 0002 0002 0000 0000 0000 0000 0000 0000 0000 0000 0002 0002 0000 0001 0000 0000 0000 0000 0000 0001 0000 0000 0000 0000 0000 0000 0000 0001 0001 0000 0000 0000 0000 0000 0000 0000 0000 0000 0000 0000 0000 0000 0000 0000 0000 0000 0000 0000 0000 0004 0007 0003 0000 0000 0000 0000 0000 0000 0000 0000 0000 0001 0002 0001 0001 0001 0000 0001 0004 0004 0002 0001 0001 0002 0001 0000 0001 0001 0000 0001 0004 0007 0006 0008 0009 0008 0007 0003 0000 0000 0000 0000 0000 0001 001d 0015 0000 0000 0000 0005 0000 0000 0000 0000 0000 0004 0015 0013 0003 0000 0000 0000 0000 0000 0000 0008 0008 0000 0000 0003 0001 0000 0000 0002 0000 0000 0000 0000 0000 0001 0000 0000 0000 0001 0000 0000 0000 0000 0002 0001 0000 0000 0000 0000 0000 0000 0000 0003 0004 0000 0000 0000 0000 0002 0001 0002 0000 0000 0001 0002 0000 0000 0000 0000 0001 0001 0000 0000 0000 0002 0006 0000 0000 0002 0000 0000 0000 0000 0000 0000 0000 0000 0000 0002 0004 0004 0002 0000 0000 0000 0000 0000 0000 0000 0001 0000 0000 0001 0003 0000 0000 0000 0000 0001 0007 0005 0000 0000 0001 0003 0000 0000 0000 0001 0006 0003 0000 0000 0001 0000 0000 0000 0000 0000 0000 0000 0000 0000 0000 0002 0002 0000 0000 0000 0003 0002 0000 0000 0005 0002 0000 0000 0000 0000 0000 0000 0001 0003 0004 0000 0000 0000 0002 0002 0000 0000 0000 0000 0001 0000 0000 0000 0000 0000 0000 0000 0000 0000 0002 0000 0002 0004 0001 0002 0002 0000 0000 0001 0000 0000 0000 0001 0000 0000 0003 0004 0001 0000 0002 0003 0001 0001 0000 0000 0003 0002 0000 0001 0002 0000 0000 0001 0000 0000 0000 0000 0000 0000 0000 0000 0000 0001 0000 0000 0001 0001 0000 0000 0003 0001 0000 0000 0002 0003 0000 0000 0003 0002 0000 0000 0001 0002 0000 0000 0000 0001 0005 0005 0002 0000 0000 0002 0002 0003 0003 0000 0000 0000 0000 0001 0002 0000 0001 0000 0000 0000 0001 0003 0001 0001 0000 0000 0003 0004 0005 0001 0000 0001 0003 0000 0000 0003 0000 0000 0000 0000 0005 0008 0002 0000 0000 0000 0000 0000 0000 0000 0000 0000 0000 0000 0000 0000 0000 0000 0000 0000 0000 0002 0000 0000 0000 0002 0002 0002 0005 0004 0001
0006 0005 0000 0000 0000 0000 0000 0000 0000 0000 0000 0001 0003 0003 0002 0000 0000 0000 0000 0000 0000 0000 0000 0000 0000 0000 0002 0005 0001 0000 0000 0000 0000 0000 0000 0000 0000 0000 0004 0004 0002 0000 0001 0001 0000 0000 0000 0000 0000 0000 0002 0002 0002 0002 0001 0001 0003 0002 0001 0003 0002 0000 0000 0000 0000 0000 0000 0000 0000 0002 0004 0000 0000 0000 0003 0002 0000 0000 0000 0000 0000 0000 0000 0001 0001 0001 0000 0000 0000 0000 0000 0000 0001 0000 0000 0000 0001 0000 0000 0000 0000 0003 0002 0000 0004 0001 0000 000e 0010 0009 0003 0000 0000 0000 0000 0000 0000 0000 0000 0000 0000 0001 0000 0000 0000 0000 0002 0004 0003 0000 0001 0002 0002 0003 0001 0004 0006 0002 0001 0001 0000 0000 0000 0000 0000 0000 0000 0001 0001 0000 0001 0002 0000 0000 0005 0006 0001 0000 0001 0001 0002 0002 0000 0000 0000 0000 0000 0000 0000 0001 0003 0002 0001 0005 0004 0000 0000 0002 0000 0000 0000 0001 0002 0000 0000 0004 0001 0000 0000 0000 0000 0000 0000 0000 0000 0000 0000 0001 0004 0003 0001 0000 0000 0000 0000 0000 0000 0000 0000 0000 0000 0001 0001 0000 0000 0000 0000 0000 0000 0000 0003 0002 0000 0000 0000 0000 0000 0000 0002 0002 0000 0002 0003 0000 0000 0001 0000 0000 0000 0000 0000 0003 0004 0000 0000 0000 0000 0000 0000 0000 0000 0000 0000 0000 0000 0000 0000 0000 0002 0002 0000 0000 0000 0000 0000 0000 0000 0000 0000 0000 0000 0000 0000 0000 0000 0000 0000 0000 0001 0001 0003 0007 0004 0000 0000 0001 0000 0000 0000 0001 0000 0000 0000 0001 0002 0004 0004 0000 0000 0001 0001 0002 0003 0003 0002 0000 0000 0000 0000 0000 0000 0008 000a 0005 0006 0007 0006 0002 0001 0000 0000 0000 0000 0000 0004 0011 000a 0000 0000 000e 0013 0000 0000 0000 0000 0000 0003 0014 0013 0001 0001 0003 0000 0000 0000 0000 0006 0008 0000 0000 0004 0000 0000 0001 0002 0000 0000 0000 0000 0000 0000 0000 0000 0000 0002 0000 0000 0000 0000 0000 0000 0000 0000 0000 0000 0000 0000 0000 0001 0003 0001 0001 0000 0000 0002 0000 0003 0001 0000 0000 0002 0000 0000 0000 0000 0001 0002 0000 0000 0000 0000 0002 0000 0000 0002 0000 0001 0001 0000 0000 0000 0000 0000 0000 0002 0004 0004 0002 0000 0000 0000 0000 0000 0000 0000 0000 0000 0000 0000 0004 0002 0000 0000 0000 0004 0005 0004 0003 0000 0000 0006 0003 0000 0000 0000 0005 0006 0000 0000 0000 0000 0000 0001 0001 0001 0000 0000 0001 0001 0000 0001 0001 0000 0000 0002 0005 0003 0000 0000 0002 0001 0000 0000 0000 0000 0000 0000 0002 0002 0003 0000 0000 0000 0002 0003 0000 0000 0000 0000 0000 0000 0000 0000 0001 0003 0000 0000 0000 0000 0003 0000 0000 0002 0001 0003 0002 0000 0000 0000 0000 0000 0000 0001 0000 0000 0002 0006 0003 0000 0002 0002 0000 0000 0000 0000 0002 0002 0000 0000 0003 0002 0001 0000 0000 0000 0000 0000 0000 0001 0003 0000 0000 0000 0000 0000 0000 0000 0000 0000 0002 0003 0000 0000 0000 0001 0001 0001 0003 0002 0000 0000 0002 0002 0000 0000 0000 0000 0003 0004 0003 0000 0000 0003 0002 0002 0003 0001 0000 0000 0001 0001 0002 0001 0002 0001 0000 0000 0000 0004 0000 0000 0000 0000 0002 0005 0003 0000 0000 0001 0001 0000 0000 0005 0000 0000 0000 0000 0007 000e 0004 0000 0000 0000 0001 0000 0000 0000 0000 0000 0000 0000 0000 0000 0000 0000 0000 0000 0000 0000 0000 0000 0001 0003 0002 0002 0006 0005 0001
0006 0005 0000 0000 0000 0000 0000 0000 0000 0000 0000 0000 0002 0004 0003 0000 0000 0000 0000 0000 0000 0000 0000 0000 0000 0000 0001 0004 0003 0000 0000 0000 0000 0000 0000 0000 0000 0000 0002 0004 0005 0000 0000 0002 0000 0000 0000 0000 0000 0000 0002 0002 0002 0003 0002 0000 0001 0002 0001 0004 0003 0000 0000 0000 0000 0000 0000 0000 0000 0002 0004 0000 0000 0000 0004 0002 0000 0000 0000 0000 0000 0000 0000 0000 0001 0001 0000 0000 0000 0000 0000 0000 0001 0000 0000 0000 0002 0000 0000 0000 0000 0004 0003 0000 0006 0005 0004 000e 000d 0006 0001 0000 0000 0000 0000 0000 0000 0000 0000 0000 0000 0001 0000 0000 0000 0000 0002 0004 0002 0000 0001 0002 0001 0002 0000 0004 0005 0002 0002 0001 0000 0000 0000 0000 0000 0000 0000 0000 0001 0001 0002 0002 0000 0000 0006 0005 0000 0000 0001 0002 0002 0002 0000 0000 0000 0000 0000 0000 0000 0000 0002 0002 0001 0003 0003 0000 0000 0003 0000 0000 0000 0001 0001 0000 0001 0004 0001 0000 0000 0000 0000 0000 0000 0000 0000 0000 0000 0002 0005 0002 0000 0000 0000 0000 0000 0000 0000 0000 0000 0000 0000 0000 0000 0000 0000 0000 0001 0001 0000 0000 0002 0002 0000 0000 0000 0000 0000 0000 0002 0002 0000 0002 0004 0000 0000 0001 0000 0000 0000 0000 0000 0004 0004 0000 0000 0000 0000 0000 0000 0000 0000 0000 0000 0000 0000 0000 0000 0000 0001 0001 0000 0000 0000 0000 0000 0000 0000 0000 0000 0000 0000 0000 0000 0000 0000 0000 0000 0001 0001 0001 0003 0007 0005 0000 0000 0000 0000 0000 0000 0002 0000 0000 0000 0001 0002 0005 0004 0000 0000 0000 0000 0001 0003 0004 0002 0000 0000 0000 0000 0000 0000 0007 000a 0006 0004 0007 0000 0000 0000 0000 0000 0000 0000 0008 0000 0004 0014 0000 0003 0016 0012 0000 0000 0000 0000 0000 0001 000d 0013 0000 0000 0007 0002 0000 0000 0000 0004 0006 0000 0001 0002 0000 0000 0001 0000 0000 0000 0000 0000 0000 0000 0000 0000 0000 0002 0000 0000 0000 0000 0000 0000 0000 0000 0000 0000 0000 0000 0000 0000 0002 0002 0001 0000 0000 0002 0000 0004 0002 0000 0000 0002 0000 0000 0000 0000 0000 0002 0000 0000 0000 0000 0001 0000 0000 0001 0000 0001 0001 0000 0000 0000 0000 0000 0000 0002 0004 0003 0001 0000 0000 0000 0000 0000 0000 0000 0000 0000 0000 0000 0004 0003 0000 0000 0000 0007 0004 0003 0009 0001 0000 0007 0008 0000 0000 0000 0004 0006 0000 0000 0000 0000 0000 0002 0002 0002 0000 0000 0002 0002 0000 0000 0001 0000 0000 0004 0005 0002 0000 0000 0000 0000 0000 0000 0000 0000 0000 0000 0002 0002 0003 0000 0000 0000 0002 0002 0000 0000 0000 0000 0000 0000 0002 0000 0000 0001 0000 0000 0000 0000 0002 0000 0000 0000 0001 0002 0002 0000 0000 0000 0000 0000 0000 0002 0000 0000 0002 0006 0003 0000 0002 0002 0000 0000 0000 0000 0002 0002 0000 0000 0003 0004 0002 0000 0000 0000 0000 0000 0000 0002 0004 0000 0000 0000 0000 0000 0000 0000 0000 0000 0001 0002 0000 0000 0000 0000 0002 0002 0003 0001 0000 0000 0002 0002 0000 0000 0000 0000 0002 0004 0004 0000 0000 0005 0004 0000 0001 0002 0000 0000 0001 0001 0002 0002 0002 0002 0001 0000 0000 0004 0000 0000 0000 0000 0002 0005 0002 0000 0002 0002 0000 0000 0000 0005 0001 0000 0000 0000 0008 000f 0005 0000 0000 0000 0000 0000 0000 0000 0000 0000 0000 0001 0000 0000 0001 0000 0000 0000 0000 0000 0000 0000 0001 0002 0002 0003 0006 0004 0000
