0000 002a 0009 0000 0092 0000 0020 004a 0000 0000 0000 00a2 0000 001f 0000 0052 0094 000c 0006 0023 00a0 0022 0035 0075 0000 0155 0003 0000 009e 0003 0087 0078 0064 0087 0095 0000 00e7 0000 0021 0051 0000 00bd 00be 0000 0000 0000 007f 003e 0039 0053 0046 0053 0046 004f 0050 005b 0059 007a 0000 0000 0084 0075 002c 0000 0000 0001 0064 0000 00eb 0000 011e 0000 00c7 0000 0000 0000 00fb 0000 00fd 0106 0000 0041 0021 00b1 0075 0000 0095 0065 0062 0052 0059 00d3 009e 0000 0006 0026 000f 000f 001d 0016 0011 0020 001a 001e 001f 0018 001b 0000 0000 0000 0000 002c 0000 00fb 0044 006f 004d 005b 0065 00a0 00df 0000 0000 0023 0016 001e 0013 0017 0024 0036 0022 0024 000e 0000 001d 0000 0000 0000 0000 0000 0010 0029 0001 0000 0023 000b 0024 002b 0000 0011 0005 0000 0012 0000 000d 0011 0001 0010 0006 0009 0003 0013 000f 0010 000b 0018 0002 0015 0000 0023 0011 0018 0000 0013 0004 0002 0001 002f 0020 0012 0002 0012 0000 0000 0000 0000 0197 0086 0089 00f1 00c9 0000 0042 0003 0000 0034 0010 0019 0016 001d 0010 0019 0023 0000 0005 002a 0013 002a 001b 0019 0006 000b 0006 0000 0131 010e 0000 0042 0000 0000 0025 0038 0038 007e 00d1 0000 003b 0000 0119 003d 004b 005d 008a 00b8 0000 00ea 006e 0000 0108 00c0 001c 0000 00e9 008d 001d 00a2 0077 0093 00cf 0002 001b 008d 0034 0000
0000 0007 0017 0013 0000 0013 0003 0035 0032 0133 0000 0000 0083 0000 00d6 0143 0000 0003 0066 000f 0000 0025 0000 0000 0080 0000 0027 00e0 0000 0000 0000 0019 0000 0020 0000 004f 004a 0084 0000 007d 00da 0000 0000 010c 0000 010f 0000 0068 0046 004c 0043 004c 0054 004d 004c 006a 0011 0057 0000 009f 007d 0000 008d 0058 00ef 0000 0076 007b 0098 0000 009d 0000 0000 0000 00b0 0059 0000 003b 0025 0000 00df 0000 0044 0019 0000 00e0 0041 005d 0061 005c 005d 005d 0061 00d7 0039 0000 0000 0026 000f 0016 000e 0011 001d 001d 0019 001a 0017 0029 003a 0000 0007 0000 0000 0081 00f1 007c 005a 005e 0060 005d 005d 00d7 0065 0000 0012 0014 001b 001b 001c 000c 002e 0017 0036 001d 0002 0031 0000 0015 001e 0017 0000 000e 000f 000b 0012 0038 0000 0008 0000 0014 0019 0003 000e 0008 0000 0010 000d 0002 0015 000b 0016 0008 0009 000d 0008 0015 0000 0024 000d 001f 0000 0018 000c 0000 0022 0013 0000 001a 000e 001c 0000 0000 0000 018d 0117 0099 0034 0031 00f2 00ce 0000 0022 0000 000e 001a 001a 0012 0018 0016 0012 0016 001c 0015 000c 0002 0032 0026 0000 0018 001c 000f 003e 001d 0002 0011 0000 0000 00c6 00fd 00b2 0002 0009 0000 0000 0000 010c 00d5 011c 0061 0027 000e 009f 0004 0000 007c 0000 000c 006c 0000 006c 002d 0121 005c 00ad 0037 0000 0095 00b4 0000 0043 009b 00b4 0086 0000
0016 0006 0023 000c 0007 0020 0029 0000 0000 0000 00e2 009f 0000 0016 0024 0060 00b5 0003 0000 004f 0074 0000 0079 0000 0042 0031 0008 0000 0000 010a 00a0 0013 0061 00a8 0054 00a1 0000 00bc 0000 0070 004e 0102 0000 0000 0104 0000 00e2 004f 004f 0045 005e 0033 004e 004a 004a 0047 0059 003c 0098 0071 0000 0097 005b 003b 0064 000e 0008 0000 0000 0000 0000 0000 00f2 000b 0000 0000 0000 0016 0020 0000 00f8 0000 0064 0000 0161 0061 0048 0071 0050 006d 005b 005e 0069 005c 0084 00e9 0000 0000 003e 0009 0032 0010 0022 0000 0041 0016 001c 002d 0012 0044 0000 0068 0000 0000 0000 0000 0121 0096 0049 007b 0072 005a 0089 00d4 0000 0000 0003 0037 0007 0026 0000 0003 0008 0003 0015 002f 000c 0008 0021 0020 0014 0027 0000 0006 0000 0000 0000 0004 0000 000a 0011 0000 001b 001d 000b 0010 0016 000b 0005 0008 000e 000c 0011 0010 0011 0000 0021 000a 0016 000c 0014 0014 001f 0015 0019 0016 0014 001d 0000 0000 0166 00f5 013f 0000 005d 0056 004d 00ed 00bf 0000 0013 0012 0025 0015 0018 0012 0016 0011 001b 001d 0018 001a 002b 0000 0028 0015 0026 0000 0034 0019 0032 0000 002e 0019 0000 0026 003e 0000 0000 0030 0000 0000 006f 007c 00fb 007e 0039 005e 0000 001c 0000 004d 0000 0000 0038 0000 0029 0000 013a 0000 0000 007c 0092 0073 009d 0090 0071 0080 00c0 002b 0100 0066 0017 00a0
0023 0027 0000 0033 0025 0021 0002 005d 0000 001b 0000 002e 0008 0027 0000 0000 0000 001d 000b 0124 0009 0000 000b 005c 0000 0000 000a 002d 0161 0000 005a 0088 006a 0052 00d3 0006 0031 0061 0094 009a 0094 0000 0132 0000 002a 0024 0000 0060 0057 004b 0053 005f 0047 004d 0049 0049 004d 0049 0023 0000 0018 0049 0065 0002 008c 0000 0000 00a6 0096 00c9 0000 0000 0000 001e 0000 013f 0000 000a 0000 0120 0000 0000 0007 0061 006f 0084 0062 0051 005e 005f 007f 0058 0059 0062 005f 0050 00ba 00d7 0000 0000 000e 0023 0007 005d 0000 0043 0028 0013 001b 0025 0035 0000 0000 002a 0000 0000 0000 0000 0166 0000 0087 0097 0000 00bb 007c 00f9 0000 0000 0023 001b 0015 000a 0000 0014 000f 0000 0008 0006 0017 0000 0000 001e 0000 002a 0008 0000 0025 001b 001e 001b 000f 000c 0004 000b 000e 000b 000a 0009 0013 0001 0010 0015 0000 0008 0017 0012 0016 0015 0012 0010 0014 000a 0014 0014 0007 0015 0012 0000 00a0 0110 0094 0000 0033 004e 0078 0046 00d6 0082 0000 0016 0017 0015 0015 000d 0015 0018 0015 001e 000b 001d 0018 0019 0011 0024 001b 0019 001d 0027 002a 001c 0018 0028 0022 0000 0197 0000 007c 0093 001b 0000 00d1 00e6 00ab 003a 005d 0081 00c7 0065 00b0 0095 0062 00b8 0089 0000 006d 0000 0092 008b 0000 006c 00fb 0097 007d 008b 0074 008b 0086 008f 0090 0127 0000 0000 0055 0020
0004 0027 0080 0000 0000 0012 0000 0000 0000 0000 001d 0002 001a 0000 005c 0000 0008 0000 003a 0000 0000 00a0 00ba 000e 00a8 00f8 0000 0000 0000 0000 0000 0090 0025 0000 0000 00b5 00a6 0000 0000 0000 0070 0000 000b 00a1 00a0 0000 0052 006f 0043 004d 004c 003d 0049 0047 0048 0048 0043 004a 003f 0070 007d 0001 0082 0000 001f 0031 0038 0041 0006 006d 0000 00ce 0000 0000 000e 0000 0000 0012 0006 0000 000d 002d 0010 0000 0000 003f 0078 007c 0061 006b 0000 007c 0066 0053 005d 0062 005d 005f 00c1 00d0 0000 0000 0026 0000 0065 0000 0010 0049 0026 001d 0038 0015 0060 0000 0000 004b 0000 0000 0000 0000 0104 009f 0000 0094 0031 005b 00cb 00c5 0000 0007 0027 0028 001c 0014 001d 0037 0000 0000 0000 0005 0027 000e 0014 0018 0027 000a 0012 0015 0014 0000 001a 001b 0028 0000 0016 0017 000b 0000 000d 002b 0000 002d 0000 0000 001c 0015 0015 0015 0010 0010 0015 000e 0000 000b 0015 0000 0000 00f2 0000 0000 005d 00b4 0086 0053 0049 011e 0000 0000 000e 0014 0015 0014 0011 0016 0016 0015 0014 0014 001c 0016 001f 0012 0027 000a 001d 001b 0023 0000 001a 0024 0018 001c 001e 0012 0000 009a 0064 007c 007c 008d 0066 003b 0082 0051 00bf 0000 0000 0000 0067 0000 00a2 001a 0000 0020 0000 010f 0000 0000 0048 00e1 0085 0036 0050 0083 00a0 0073 009a 005b 00b3 0000 0000 0000 0000 0000
002e 0000 0000 00b2 0093 0092 007d 0098 009d 0097 0094 0000 0037 00b4 0039 0065 0000 013e 0000 0015 0035 0007 0000 00cc 0000 0000 0097 008b 0095 0077 0097 0000 00a4 002e 00ce 00a6 0000 00e9 0000 00ba 0047 00b1 00c9 0000 0000 011c 0000 0065 0082 003c 0050 0043 004d 0045 004e 0043 0044 0040 0072 0032 0058 0078 004e 003c 0034 0073 0024 0097 0000 00a4 0028 0042 0045 0063 0028 0000 0000 003e 0000 00d2 0035 0017 0020 002c 000a 001e 0088 0051 0062 0071 0078 0063 0079 005f 0057 004f 0062 005c 0057 00a7 0000 0117 0000 0000 000f 0058 0000 0000 0010 0000 0000 0042 0024 0046 0000 0000 0008 0036 0000 0000 0000 0168 0006 00f1 002f 006d 0063 0053 012a 0000 0016 0019 0013 0033 0000 0000 0020 0004 0000 000a 0022 0005 000f 0014 0018 0008 0001 0014 000b 001d 0017 0022 0000 001e 0000 0000 0025 0000 0000 0016 001d 002b 000e 0003 0000 003a 0000 000c 0014 0015 0014 0019 0020 0000 0000 0098 00ad 0063 00e4 00ac 0086 0000 009f 005a 0102 0000 000b 000c 0012 000f 000c 000e 000c 000d 0016 0011 0011 0010 000e 0017 0012 0017 000e 0015 001c 000f 0012 0007 0020 0012 001c 001d 0000 0000 0000 00cb 0076 004c 0079 0025 0072 0052 0063 00e7 0000 000f 001f 003f 0003 004d 0000 0000 00c5 0000 0045 0000 0000 0144 00c4 0068 0091 0096 00a2 0068 002e 008c 0037 003c 00bb 0000 002a 0097 00ca 00af
0000 0000 00bd 001c 0040 0062 0052 0052 005e 004f 0055 0134 004e 0000 0124 0000 0012 0000 002c 000e 002c 002a 00a5 0000 0000 0062 009c 0025 0000 00a5 006b 004f 0078 0045 0000 0000 0089 0000 0098 0000 00dd 0000 0000 0039 00ac 000a 0000 0072 0000 0092 0046 0048 0048 0045 0042 003f 004a 0035 002f 0020 0039 001b 005c 0065 0019 0056 0028 0025 0030 0030 0007 0075 0010 0033 002e 004d 003b 002d 005f 0040 0000 0000 0000 0000 003b 0000 0023 00ad 0057 0054 0057 005e 005c 0071 0070 0066 0048 0065 005a 00a2 0000 0106 0054 0151 0000 0026 0080 0000 0000 0000 0008 0000 0000 0041 0000 018d 0000 0000 0013 000c 0017 0000 0000 0000 0091 0073 005b 0053 0074 011f 0000 0002 002b 0012 0030 0029 000c 0020 004b 0009 0000 0016 001f 0000 000b 000b 0015 0013 0013 0000 0016 0019 0000 0000 002b 0000 001a 0040 0000 0001 0000 0021 0017 0014 0000 0000 004c 0009 001b 001b 000d 0000 0000 013d 0000 00b1 005c 0090 0000 009b 008c 0000 0094 0104 0000 0000 0003 003a 0014 001f 0026 0027 002d 0023 0020 0026 0023 0026 001e 0022 001e 0024 002d 0022 002e 0036 001d 0054 002b 0031 0000 0000 00a7 00bf 0096 0051 005e 004c 0054 0055 0054 0082 00c6 0000 00bd 0000 00ca 0045 0006 00b8 002f 0000 0054 009d 009d 0000 0144 001d 0037 0088 0086 0057 001c 00c1 007d 007b 0062 00c8 0000 0128 0000 0070 0000 00ea
00f4 009d 00b1 0089 009b 0049 0062 005b 004a 005d 003a 00b5 00e0 0000 0165 0000 002f 00ab 0000 0044 0021 0026 0000 00df 00c7 0000 0093 0023 00c0 006c 00a6 0073 0000 00ca 00c0 0000 006a 0000 008e 0000 0000 0021 001c 0000 008d 0069 00b0 006d 0023 0000 007d 0048 0045 003e 004b 007c 004d 00a3 0000 0083 003c 003a 0047 0078 0005 001d 006a 0022 0031 0037 002e 002f 002f 0038 0030 006e 0024 002d 003c 001c 0051 0015 0073 00f0 0000 0000 0000 00b2 0067 006a 0065 005a 005e 0052 0072 005a 0069 004f 0067 006a 0095 00fd 0000 0046 0000 0000 004c 0000 000c 000d 0000 000d 0018 0018 0000 013e 014d 0005 0000 000e 0000 000b 0010 0000 0000 0123 008c 005a 0071 0059 00e4 0000 0000 001d 0016 0020 000f 001a 0012 0013 0014 0001 0008 0009 0022 0006 0010 0010 001d 0017 0014 0027 0000 0013 0002 000a 0005 0002 0000 0013 0007 0000 0007 003a 0000 0000 0007 0008 002d 0016 0000 005d 00a7 00a4 0000 0089 005f 008d 0000 0078 00bb 00a6 00ea 0000 0051 0004 0016 0000 0032 0011 001a 0013 0020 0012 001b 0017 001c 001f 0027 0015 0029 0029 0019 0027 0023 002b 002b 0000 0000 0000 0103 00b1 007c 0059 0069 007a 0020 0078 0065 0066 0075 00ba 0000 0006 0038 0056 0000 0000 00c8 0000 0091 0071 007e 0000 0000 00d7 0089 0096 0057 0031 001d 0055 00c6 0002 0087 007f 00d2 0018 0000 0000 0000 0000 000a 0000
00d5 0088 00a4 0000 003e 006e 004e 0056 005a 004d 0063 0000 00eb 0000 003a 0000 0153 0000 0027 0034 001e 0030 0000 0104 0000 00df 00a4 00f6 0000 0000 0000 00de 009c 0052 0000 00ba 0000 0000 00c6 008e 0004 002d 0000 010c 0023 0071 005a 0046 007f 0000 00ce 003e 0045 0049 005a 0012 0000 0049 0000 0000 003f 0000 0066 0001 006e 0065 0067 0005 003b 002a 002f 0035 0022 003f 0028 0032 000a 0093 0000 0027 001d 0000 005f 006a 0069 00dc 0000 0000 007b 0061 0057 0060 0063 005c 0061 0055 0058 0072 0050 006e 0047 0000 0009 0000 0006 0014 0000 0000 0016 0010 0027 0000 000e 0000 0018 0000 0000 0180 018f 0000 0000 0009 0000 0000 0031 0000 001d 010a 003c 0074 0055 00b9 0075 0000 001f 0009 002b 0014 001a 001b 002a 0000 0032 001f 0020 0010 0015 0016 0001 0022 0005 001a 001b 001a 0003 000b 0007 0004 0004 0006 0006 0014 0000 001f 0043 0000 0000 0000 0000 0000 0000 00a9 007e 0077 0000 007c 005e 009e 00b1 008e 0000 00d1 0000 0026 0000 000e 001a 0039 0009 002d 0010 0021 001a 0024 0023 0025 0022 0017 0024 001d 0021 0026 0019 0026 000c 0000 0000 0105 00aa 00b6 005d 0067 0048 006c 0063 0054 008b 0063 0080 0053 00ed 0000 0000 007c 0000 0029 0051 004c 0000 00c0 0064 008d 0043 0043 009d 0089 0078 007a 008e 00a3 008c 0086 0084 0087 0083 0085 0126 0000 0033 002c 0000 00f7 00a2 0078
0073 007b 009c 005d 002c 0042 0020 0078 0033 0063 00e7 0000 00e3 0043 0000 0000 0070 0000 002c 001c 002f 0032 0000 00cb 00ae 005f 00a5 0000 0000 0076 0013 0000 0006 0031 0016 0010 0000 00c3 0000 0095 0014 0011 004c 0000 008f 002d 0018 00a3 0066 0000 0000 006a 0077 0003 006a 0000 00ec 0000 006f 002e 0000 0061 004d 0000 00a6 0000 0034 0028 0035 0035 002c 0035 002b 0031 0023 0035 003b 000c 00a8 0000 0000 0169 0072 003b 0032 004c 00a8 0070 00c5 0007 007d 0061 0052 0088 0059 0072 0061 0059 0068 0054 0099 012a 0000 0000 0001 0000 0000 000c 0000 000a 0000 0000 0000 0003 0004 0009 0000 0000 0000 004e 01f9 0000 0000 0009 0000 0007 0000 0000 0077 00f5 004d 007e 0006 00cd 0000 001d 0024 0006 0023 001a 0015 0029 0000 003b 0002 0000 0018 0007 000f 000d 0020 000d 0025 0000 000a 000b 0006 0008 000b 000b 000f 0001 0008 002b 0017 0000 0001 0000 01a5 0000 0145 0059 0053 00b2 0090 005e 0087 0000 0072 009f 0000 00d8 0000 001d 001f 0029 0022 000c 0023 0010 0025 0018 001b 001d 001e 0019 001f 0023 001b 0027 0016 001e 0000 0000 0000 00e0 00a1 006b 0050 005c 0063 004b 0089 0083 006c 009a 0017 005f 002a 0104 0000 000f 006b 0079 0000 0076 000d 0015 0011 0000 0005 0000 0000 00e2 0094 0083 0077 0082 007b 0079 0084 007b 007b 007f 0084 00cb 0000 000b 0022 0026 002c 0000 0000 0000
007e 0092 008a 0088 00b8 004a 0083 0025 0076 002a 0000 0006 00e0 00fa 00f3 009f 003a 0030 0057 0020 0013 002b 0000 00b6 0060 0082 008f 00ce 010c 0000 002d 001f 0033 001e 0022 001d 0041 000b 001f 0005 0000 0035 001b 0011 0000 0079 0073 0000 00f0 0000 0027 0000 0003 000e 00c1 0000 00cf 0000 0034 0000 002a 0003 000c 002f 0015 002d 0039 0032 0035 0031 002a 0039 0031 002b 003f 0020 0026 0044 0000 009f 0000 0039 0037 004e 0048 0046 0037 00ca 0000 003a 006c 004f 007f 0000 009e 003c 005e 005f 005d 0056 006d 0086 009e 0000 000c 0003 000f 001f 0008 000c 0004 000b 0008 0006 0007 0008 000a 000b 0009 0000 0000 0229 0000 0000 0000 0011 0000 0004 0000 0000 0129 00b4 001b 00a0 0098 0000 0014 002d 0005 0003 0030 000f 0004 0000 0015 0016 0005 001d 001a 000d 000f 0018 0007 0000 0009 0008 000c 0009 0009 0008 0008 0008 0006 0000 0037 0000 0000 0000 0000 0000 0000 0129 0088 0000 0094 0054 00a3 0000 00b4 0095 0104 0000 0022 0011 0018 0018 001b 001e 0017 001d 001a 0022 001e 0023 0010 0028 0021 0006 0036 0003 0000 0000 0104 00b0 009e 0064 0074 005e 006a 0048 00b2 0083 009d 0000 003a 007b 0000 008e 00c3 0000 0063 003c 0000 0040 003f 0000 004a 0005 0052 0007 0079 0000 0119 007f 007a 006f 0079 007a 007c 007c 0078 007e 007c 007d 007e 00e9 0000 0029 0027 002c 0021 002b 0020 0011
0098 0000 00a9 0087 008e 0048 008b 0071 0073 0000 0047 0000 00ae 0000 0148 0000 0000 000a 0014 003b 004a 0013 0000 00c3 007a 00a0 0000 00d2 00b7 0000 001a 0030 001f 002e 0036 0029 000c 001d 003d 0000 013c 0000 0015 0015 0037 0059 008f 0000 0000 0015 0025 000a 0051 0095 0000 0025 0000 001a 0010 0034 001b 000c 0013 002b 0000 00af 0025 0035 0036 0032 002d 0011 0073 0015 0027 003b 0037 002e 001e 002e 000f 0079 004f 0049 0057 0041 004d 0019 0093 00a8 0095 007e 0043 0093 004c 007a 0068 005a 005f 0057 0071 0071 0097 002c 0000 0000 0004 0000 0000 0004 0008 0000 0003 0005 0006 0000 0000 0004 0002 0006 0004 0000 0000 0187 0000 0004 0000 0006 002c 0000 0000 0000 00f6 00bc 0074 00b7 0000 001a 0013 002d 0016 0020 001d 0001 001e 0010 0011 0014 0010 000f 000c 0019 0004 0003 0008 0009 0009 0008 0009 0009 0009 0007 0009 0004 0000 0169 0154 0000 0000 014c 0000 0000 0143 0000 006a 0059 00ac 00a1 007b 0053 0000 000e 001c 0012 0026 0012 001b 0014 001b 001a 001b 001a 0013 001a 002a 0018 0020 0000 0000 0000 00ff 00bb 004e 0066 006b 0078 0034 0065 0070 0119 0000 006f 00b7 0000 00cd 0069 00c5 0000 00e8 0000 000d 0009 0046 0004 007a 0033 0010 0056 0036 0016 001c 007a 0079 0083 007c 007a 007e 007f 007b 007f 007a 007a 007e 007d 009b 0094 0000 0054 0025 0019 0000 0000 0000 0000
0000 000b 00ab 00a2 0020 006a 000b 0053 00e1 0000 0015 0000 0136 00eb 002f 0057 000a 0082 0073 001a 001e 0034 0000 00f3 00d5 0052 0111 0000 0020 005e 0025 001c 0035 001e 003b 0013 0047 0017 0026 001c 0000 001f 0022 000a 006e 0075 0086 002c 0015 0019 001c 002c 0005 0058 004b 0003 0021 0034 0012 001e 0015 0023 0011 0021 001c 0000 0049 0037 002d 0030 0034 002c 0074 0011 0041 000c 003c 0030 0032 0038 0000 0077 0047 004e 0044 004e 0042 0036 008d 0000 0000 007d 005f 0051 006e 0028 0059 0061 005d 005f 006f 0032 00aa 0000 0000 0000 002d 0012 0000 0010 0005 0007 0007 0004 0000 0024 0000 0000 0004 0000 0002 0003 0006 0000 0054 0000 0000 000d 0000 000f 0007 0000 0000 0000 0130 0085 00b1 0000 0000 0000 002b 0015 0021 0018 0008 0018 000b 0014 0014 0015 0014 0011 001e 0000 0008 000d 0003 000c 0006 0008 0008 000c 0007 0008 0006 0000 019f 0000 0000 0000 0001 0002 0000 0158 005f 007e 0000 009a 00a1 0000 0025 001b 001c 001b 0012 0022 001e 0024 0018 001f 0019 002f 0019 002a 000d 0000 0000 00e1 00b3 00a8 0030 0070 0085 0068 0051 0067 0076 0076 0084 0000 00fd 00c3 0000 0000 007d 00e6 0000 0032 0000 0018 0052 0049 002d 005a 0041 0048 0007 0028 002a 004b 0000 00f2 0079 007f 007e 007a 0079 007c 0079 007d 0075 0086 0072 0080 00cc 0000 0055 0021 0015 0000 00cd 008d 0094 0094
00c6 007b 0071 0087 00ad 0023 0001 0087 0000 0027 001f 0018 0021 003b 00be 0048 0000 003d 0017 0021 0019 0035 002b 0000 0000 00b3 00f7 0000 0000 00f8 0009 0022 0024 0029 001e 002f 0016 0042 001a 0017 0041 0019 0008 00a9 0000 0084 0000 0000 0031 0026 0022 0025 0022 0000 001f 0014 0027 0011 0021 001d 0022 002d 000f 0000 000d 0037 0038 002b 0032 0033 002f 002d 0024 001d 002d 003e 0029 001e 0037 0010 0084 0048 0024 005a 0051 002e 0056 005a 0000 00f6 0000 0087 0075 006b 0052 00a2 005c 005e 0064 005b 0078 0000 0078 0072 0170 0000 0000 0002 0003 0002 0002 0002 0000 0000 0019 000b 000f 0011 000c 0011 001a 0000 0005 000b 0000 0000 0076 0000 000d 0000 0004 0008 0003 0007 0000 00fe 00e9 005f 0012 0026 0004 001a 001e 0024 0000 000b 0015 0008 0012 0013 000a 0017 001b 0000 000c 0000 000b 000e 0007 000d 000a 000b 000b 0003 000a 0007 0000 01d4 0000 0002 0008 0009 0000 0052 0076 00a4 0000 0143 0000 0011 001e 0004 0020 0019 0026 0000 0016 001d 0022 0015 002d 0009 0000 0000 0000 0083 00e3 005e 0063 0078 0075 00a9 0042 003f 0072 002e 0054 0087 0061 0000 00b2 00a6 004f 0054 0062 0000 0009 000f 0041 0022 0047 002a 001f 001f 0010 0063 0019 001a 0000 0000 010e 007d 0081 0081 007a 007c 007e 007a 007c 007b 007f 0077 0079 007c 00d7 0000 0007 0011 0043 009a 005e 0056 0056 0052
00e4 0070 009f 00c3 0000 0096 004b 0100 0000 0029 0021 0037 0024 0000 006d 007c 001b 0027 001b 002c 0049 0018 0025 003d 0000 0000 009f 0036 00a7 0000 0034 0023 0032 0024 0021 0024 0026 0032 0018 003e 000f 0016 005b 0000 004a 005d 0000 002b 0023 0015 0027 002a 0015 0022 0012 0018 002c 0023 001f 001e 0016 0000 0000 0099 0048 003f 002d 0035 002f 002a 0036 0031 0031 0035 002a 0043 0000 0034 003e 0008 007e 003d 00ae 0026 003b 00a1 0040 0045 0048 0064 00ad 0033 0065 0069 005d 0053 0054 005a 0060 005b 0098 0000 009c 0058 0054 00f5 0000 0000 0007 0002 0007 0000 0012 0010 0003 0007 0007 000c 0007 000a 0009 0016 0001 0000 0021 0000 0000 0009 0032 0000 0009 0004 0004 0008 0001 0000 0000 0158 0029 0000 002d 001e 0005 0033 0000 0039 000c 0010 0019 000c 001c 0013 0013 0023 0000 0003 000e 0004 0009 0008 0009 0006 0007 0008 000a 0008 0016 0000 01d8 0000 0000 0002 0008 0000 014b 009b 0191 0000 0021 0029 002a 0014 001f 0013 0015 002c 001b 0015 0018 0015 0000 0000 0100 00b7 0000 009c 0052 006b 005c 0042 0076 0000 0000 00e4 0065 0075 005d 0057 0073 00be 000c 0000 00aa 00dc 0000 0057 002f 0043 0039 0043 0030 001e 0026 002a 0016 0016 0000 0008 00be 00ce 0084 007d 007d 0077 007d 007b 007c 0081 007e 007d 007c 007f 007f 007c 0125 0000 0045 002a 0026 0000 008e 005b 0059 0065
0084 007f 0000 00e7 0000 0083 00c8 0000 0046 0022 0015 0032 0026 0000 0000 0122 0000 0082 001e 0037 0024 0030 0000 0000 008e 0000 0000 0000 002a 0039 0028 0027 0025 0029 0027 0026 0022 001f 002f 0010 0018 000d 0033 001b 001b 0000 0000 0048 0034 0022 002c 001e 0024 002d 0030 001c 0025 001d 0001 0007 0000 0047 0058 002c 0024 0036 002f 0035 0026 003c 001f 0029 003a 0031 0036 0030 0048 0010 003e 0000 0073 002d 009d 005f 0029 0021 0027 0053 0026 00db 0030 008b 0086 003c 0075 0034 006b 005c 005d 005e 009d 0000 00a2 0060 008f 0000 0142 0000 0000 0005 0000 0034 0000 0015 000f 000d 0010 0006 000f 0008 0008 000e 0000 000c 0000 0028 0000 0005 0000 01dd 0000 0006 0006 0003 0007 0002 0000 0000 01ae 00fb 0000 0025 001f 000b 0025 002c 0000 0009 000f 000c 0002 0005 000d 000a 001f 0029 0000 000d 0009 0009 0007 0009 0009 0009 0009 0006 0007 0000 0000 0000 0007 0000 0000 0000 0000 003f 0000 0026 0029 000a 001b 0006 001e 0020 0024 000e 0025 0000 0000 0000 00cc 0038 0000 00d5 00be 0055 0068 0056 006e 0065 00a9 00ed 0121 00b7 0083 004b 0063 0058 0076 007c 0000 00e4 00ed 0000 004c 000e 003d 0010 004c 0021 0030 0017 0051 0003 0027 0001 0008 00f4 008d 007a 007a 007c 007a 0081 0078 007e 007e 0077 0076 007e 0079 007c 007b 00d7 0000 002f 000b 0039 0017 0000 006c 0034 0050 0046
0066 007b 00c3 0097 0047 008c 0000 00cd 0000 001f 003f 002a 0000 00e0 0066 00e0 0023 0000 0026 0025 0010 0000 00da 0093 0072 00b0 0091 0000 0008 0021 0024 0024 0028 002e 002a 0029 002a 002e 0019 0040 002d 0026 002a 0026 0028 001c 0043 000f 0014 0027 0014 0025 0019 0010 001b 0018 0009 0000 006d 0045 0059 0038 0031 0031 0033 002c 0036 0021 003f 003a 0026 0036 0029 0035 002a 001f 0027 0033 0028 0000 005d 0052 0020 00b9 0074 0047 006b 003e 004a 0000 006b 00a3 0000 0084 006f 0064 0063 006e 005a 005c 00a4 0000 00a5 005c 0093 0000 009d 00d9 0110 0000 0000 000e 000a 0000 0004 0005 0000 000b 0008 0009 0007 001a 0000 0000 0013 0000 001f 0001 0007 0000 0000 0006 0004 0004 0000 0009 0007 0000 0000 0000 011b 0000 0019 0021 0015 001d 0012 002d 0005 000a 0034 0025 001a 000f 0000 0000 0010 0009 0005 000a 0006 000e 000a 000a 0007 000c 001a 0000 001b 0000 0013 001e 0009 000c 0000 0000 0002 002c 0017 0010 0011 0042 0000 0000 0012 0016 0000 0059 008c 009d 0066 0093 0000 0000 0080 0053 0066 0060 0058 006d 0075 0000 0000 0000 0040 008a 0066 0056 0055 009a 007c 00ac 0000 003a 0000 00ef 0000 002d 0001 003d 001d 0021 001e 001a 002f 00df 00bd 0087 0079 007e 007c 0078 0080 0077 009a 0084 007c 0079 007e 007c 007f 007e 007b 0122 0000 001e 0014 0028 003a 0000 00eb 0044 0092 0058
00ef 0072 0013 00a7 0021 00a1 00e9 0000 0041 0022 002b 001b 0049 0076 00b5 0009 0066 0096 0009 0004 006b 00c5 0000 00a2 001f 006a 0052 0080 0141 0000 002a 002e 002b 0021 001c 0025 002f 0013 0020 0014 001b 0027 0016 0015 0035 0020 0023 0029 0032 0027 0024 0022 001b 0002 000c 0000 0076 0045 0032 0037 002c 003a 0033 002c 0048 0026 0036 0033 0032 0012 003a 0028 0028 0025 0035 003a 0028 0019 0000 0091 006e 0044 004d 0000 0071 0056 0089 0020 0050 0027 00a6 0016 0078 008e 003f 0053 0079 002d 0068 0060 00a5 0000 009f 0060 0099 0000 0096 0054 0083 0094 0164 0000 0007 0004 000a 0007 0000 0010 0013 000a 0009 0009 0000 0008 0000 0003 0000 0009 0000 0006 0005 0009 0000 0006 0007 0000 0004 000a 0000 0001 0000 00da 000d 0012 0024 0011 0002 0031 002d 002a 0013 001b 0000 0000 013d 0075 0000 000e 000f 0006 0009 0007 0008 000a 000b 0006 000a 000e 0000 001d 0000 0004 0000 0000 0013 0003 0000 0030 0026 001f 002a 001a 0000 0000 0019 0036 0000 00d6 0063 006a 005f 00cd 00c5 0000 008c 005d 00ba 005f 004f 005b 0052 00f7 0000 0174 00e7 0072 0060 006a 005d 0035 0114 0000 004d 0009 0039 0000 0000 009d 0000 001f 0000 003d 0043 0040 0000 00d8 0078 0078 007d 007a 008c 00a9 0073 00b9 001c 0087 00b7 0079 0081 007a 0079 007b 00d3 0000 002f 001f 0026 0020 000f 0050 0000 00b9 0000 007b
009a 00b7 002b 0089 007c 0000 0007 001a 0024 0011 0045 001b 0011 00a4 0000 0016 0022 0000 003e 0000 00a3 0028 0057 0016 006c 0018 0000 000a 0000 002e 0023 002c 002c 001d 001e 001f 0000 0019 0029 0028 0024 0025 001c 002a 001b 001a 0029 0019 0021 0024 0016 0000 0005 007b 0032 005a 0012 0059 002a 002d 0038 002c 0035 0031 002c 0038 0032 002c 0024 003d 002a 001f 003f 003f 0012 001e 0065 0021 0000 008a 004b 0045 0069 0000 00f4 0035 0051 00a3 001f 0041 0062 0059 007c 0039 0075 000e 005d 006e 0065 004f 00c3 0000 009d 004a 00b0 0000 009b 005f 0052 009d 0013 0000 0008 0008 0004 0002 000a 0000 0000 0002 0014 000d 0004 0000 0007 0001 0003 0000 000e 0000 0008 0006 0005 0000 0059 0003 0001 0003 0006 0007 0000 0000 0057 001f 003c 0011 002a 0000 0050 0000 0037 0029 0029 00ec 0060 006f 01e3 0000 001c 000b 0006 000b 0008 000a 000b 0003 0003 000e 000b 000e 0009 0003 0000 0018 0000 0006 0000 0000 003d 000c 0000 0000 0055 00a4 0000 012a 00b8 005f 005e 005b 009e 0000 00e9 00cc 0051 00cb 0000 00aa 007f 005e 006d 0074 001d 0000 0000 005c 006d 0068 005b 0127 0000 0050 0026 002a 0015 0011 004c 0000 0103 0000 0074 0009 0000 0032 0005 00ae 007e 007a 0076 0091 006f 0027 0041 003d 0057 0047 0000 00bc 0076 007d 0080 0077 00f5 00b2 0000 0035 0042 0021 002e 001b 000c 0048 0083 003e
00c4 00a8 0062 0093 006c 0027 002a 002b 001b 002d 0035 0000 00ed 009f 000b 001b 003a 001a 0028 004b 008e 0010 0000 0014 0000 0096 00a8 0012 00b4 0000 002d 0027 0024 0000 0116 0000 014f 0000 003b 0024 0016 005d 0022 001a 0027 001f 0023 0028 0003 000a 0000 0085 0024 0043 003f 002f 0034 002f 002e 0043 002a 0039 0028 0038 0032 0032 0023 002f 0035 0029 0023 0034 001e 0016 003b 002a 001c 0021 0000 006f 0049 004d 0004 00e4 0000 00db 005a 0068 0082 002f 002e 008d 005d 0069 005d 0084 0073 0045 0064 006a 0092 0000 009a 00a4 00db 0000 0098 0057 005b 006e 0076 0176 0000 0004 0002 0003 0000 001b 0000 0024 0000 000f 0007 0000 001c 0000 0002 0006 0000 001c 0000 0001 0003 0000 0000 001f 0006 0004 0001 0004 0000 0018 0000 0000 0000 001b 003c 000b 0000 0000 0000 0000 0006 00be 0000 00f1 0000 0000 0000 000d 0015 0009 0008 000a 000a 0009 0010 0000 0009 0003 0000 0000 0002 0020 0000 0016 0007 0006 0026 0000 0044 000d 00bb 0066 005e 0000 0089 0065 0060 0068 0081 0075 0000 00c8 00b6 009b 00e8 0000 00bd 006b 004d 0061 005d 00b2 0054 003f 0069 0088 00ca 0000 0015 0039 004f 0008 0010 0000 009e 0000 0087 006b 006e 007c 009f 0000 00f6 0087 0077 007d 0083 0093 002e 0060 005c 0059 005c 0058 0066 002f 00a4 0078 007b 011e 0000 0000 0000 0042 0000 0001 0024 0023 0000 00ad 0047 0040
00d1 00fd 0000 0000 0005 0058 0018 0024 0027 003a 0000 00f4 0000 0000 002c 0035 002b 0022 0000 009a 0069 0000 0125 00a4 000d 003b 000d 0000 00c0 0005 001c 0025 0024 0027 0000 0017 0000 0079 0000 001f 001f 0013 0019 0025 0025 0024 0000 0000 0021 0062 005c 0033 0042 0031 0039 0040 0043 002e 003a 0025 0038 003e 002e 0033 0027 002a 0031 002a 0024 002b 0030 0020 0027 0030 003a 0020 0038 0024 0018 0071 004d 0048 0056 0039 004e 0001 007c 0083 0000 0062 004c 0017 0058 0062 007b 003e 006f 0052 0052 0048 0079 002d 008e 0000 002e 0000 0157 00a9 00b8 008b 0063 003c 0120 0000 0000 0020 0013 0000 0000 0000 0004 0000 0015 0007 0008 0007 001a 0004 0000 0000 0001 0000 0016 0016 0003 0004 0000 0004 0005 0000 0000 0010 000a 0005 0000 003e 001c 0000 0000 0118 0000 0000 0024 013a 0000 0078 014a 0000 0006 0000 0000 000b 0009 000a 0008 0007 0009 001e 0000 0016 0014 0000 0000 000f 0000 0000 0003 0000 0000 0176 0000 00cd 0058 00bb 00c8 0000 00a0 005c 005e 0068 004e 00b6 0000 0000 00e5 0000 017b 0000 00a2 006e 0078 005d 0087 00ca 0000 010a 00e5 0000 0000 002e 0030 004d 005d 0000 009b 00bf 0068 0088 0055 0041 0053 0053 006b 0000 00ca 007b 0079 007b 009e 0029 0061 005c 005d 005c 005e 005d 005b 002e 00ac 0087 0126 0000 0036 0000 010f 0000 0185 0000 0025 001a 0000 0105 0034 00b9
0053 0000 0183 000b 003c 0000 0025 0025 0019 0031 0000 00a0 00dc 0000 0043 0035 001c 0032 0000 005e 008c 0000 0000 0013 0000 0010 003f 0040 0033 0007 005a 0021 002e 0037 0030 0032 002a 002f 0010 0034 001b 0020 001e 0017 0003 0007 006e 0043 0064 003d 0041 0016 004a 003c 0039 002b 0020 002a 0026 0044 0025 0016 0055 001d 0046 0031 0028 0032 0024 003b 0024 0028 0032 0026 0027 0052 002f 0012 0006 0062 0051 004d 0030 0051 005c 001d 0092 0083 0098 0056 0030 0058 0071 0066 005d 0062 0061 0078 0000 005e 0064 006a 006d 00b4 008f 0000 0000 0000 0000 00f5 00f8 009f 0062 011f 0000 0000 0000 001e 0011 0004 0000 0017 0003 0016 0001 0017 0000 0000 000a 0001 000f 0000 0000 0008 000a 0000 0011 0000 0011 0000 0024 000a 0009 0007 0010 0000 0000 0137 00a3 00c9 0000 0005 0000 0000 0149 0066 0087 005e 0000 0002 0008 0000 0019 000d 000f 0019 0006 0010 0000 0007 0014 0000 0025 0000 0016 0000 0017 0000 0000 0000 00ee 0076 0084 0000 009c 00b6 0060 0065 0058 0098 0000 00fe 00c5 0000 00b6 0000 0000 0025 0000 00d4 0069 0062 005b 007d 00e3 0000 0000 004a 0033 002f 0005 0000 0000 0000 0009 0000 006a 0073 0053 0059 0063 0055 006b 000e 00b8 0080 007a 007f 009d 0038 0059 005d 005b 0061 0062 005c 0062 0043 006d 0128 0000 0021 0036 0019 0071 006a 0108 0000 0045 0024 002d 0000 009e 0042
0000 0116 0021 003b 0000 002b 002c 0029 0021 0000 00ee 0068 0000 002c 0039 0028 0033 0000 00e3 004f 008d 0081 0000 0000 011b 0000 0134 0000 0038 002d 0021 000e 0023 0027 0021 001d 0023 0027 0029 0030 002d 0011 0013 000c 0058 0029 0051 003b 0027 0021 003b 002c 0037 0037 001d 0029 0038 002b 0035 0024 003e 003f 001c 0031 003c 0022 0027 0023 002a 002a 0033 0032 001d 0024 001a 0058 001e 002c 0000 0072 0054 004a 0060 0012 003f 0031 00a9 0000 0074 005e 004d 002c 0039 002e 0073 0046 005d 006b 0096 0039 0051 0088 0053 006d 00bf 0000 0000 0000 002e 0000 0000 0000 012b 00f4 0000 00e4 0140 0000 0000 0028 0000 0004 0006 000a 0008 000e 0000 001c 0000 0004 0002 0000 000e 0000 0002 0008 0002 0004 0009 0000 0000 0008 000c 000a 0008 000c 0000 0141 00b5 0041 0149 0000 0000 001b 0000 0107 00af 00ef 0000 0000 0004 0004 0004 0000 0000 000e 0000 0010 0014 0022 0000 002e 0000 0010 0000 002e 0000 000d 001b 0009 0000 0118 007b 0000 0098 006c 005e 005a 006f 009d 0138 0000 0000 0035 0000 0050 0006 0021 0007 0000 00c2 005c 006b 005d 009d 0000 0007 004e 0000 0000 0083 00cb 00ac 008d 007b 0075 005e 0054 005c 0065 0039 005e 006e 003d 00a6 00b3 007f 007c 00a6 003d 005a 005d 005e 0056 005a 005f 005f 006e 0049 0000 003e 0018 0024 0000 0075 0035 00dd 0024 0000 0029 0000 0065 006c 0041
0000 00e8 0000 0001 0018 000c 001e 002d 002a 0036 0000 0073 002e 0032 0000 0000 0038 0000 0069 0078 0000 0000 00e5 001b 0000 0014 0000 0000 0011 002b 0016 0069 001d 0033 0040 001d 0026 001f 001a 0000 0000 0066 0039 0055 001f 003e 003d 001c 0021 0046 0011 003d 0025 0022 0044 003c 0035 003e 0039 002b 0034 0030 0031 0032 0027 002a 0031 002a 0027 0036 002b 0015 004e 0033 0055 0000 001f 001f 0000 006a 004a 004f 0004 010b 003d 0046 0000 00ef 0048 006a 00a3 0007 00a2 0069 0061 007e 005d 0061 005f 0043 002b 007d 0077 0053 007a 0099 0000 0000 0000 0009 0003 0000 0000 0000 0050 00f3 0000 0136 003c 0000 0012 0000 0000 0010 000e 0002 0007 0001 0009 0004 000b 0005 0005 000b 0007 0000 0003 000a 0000 0000 0029 0035 0000 0004 000d 000a 0003 0000 0000 00f8 006c 000c 0000 0017 0000 0000 0028 0076 0102 0000 0001 0003 0004 0002 0002 0000 006a 0000 0000 0000 001d 0000 0004 002e 0000 0013 001e 0000 000f 0001 0000 0000 0104 00d1 0000 00a9 005d 0059 00b5 0000 0000 0054 0000 0003 0026 0020 0004 0014 000c 0009 0012 008f 0063 0059 00e0 001c 0014 0000 00d3 00a8 0077 0061 0087 0000 0078 0054 005d 0060 005e 005d 0067 0056 0045 003e 00b5 0000 00b0 00be 003a 0058 005c 005d 005a 005d 0065 005e 004c 0051 0077 0012 000e 0054 0000 0009 0072 0025 009e 010e 0000 0020 0000 009f 0036 00cd
0034 0000 00e1 0070 0000 009e 0010 0017 0040 0033 0004 006d 0000 006a 0000 0129 0000 0159 006d 0044 00c8 0056 0045 0000 019e 0000 0153 00c9 0027 001a 0021 001f 0018 0037 001f 0023 0011 0005 0037 0055 0058 0044 0040 002f 0032 0043 002d 003d 004e 0029 001f 003d 0039 0049 0000 0046 0027 0033 0022 0043 0020 003f 000c 002e 0028 003b 001d 0027 0035 001e 0021 0012 0011 001f 0008 0037 0019 0025 000e 0079 0053 003f 008f 0069 0021 003d 00ac 0000 0080 006a 0000 009e 0057 0069 0007 0053 005a 0042 00a0 0061 0031 0059 007c 0055 006e 0036 00b1 0104 0000 0000 0010 0005 000d 0007 0000 0000 0166 011f 0000 0069 0000 0000 000c 0008 0000 001b 0000 0000 000d 0001 0001 0005 0003 000c 0005 0000 000a 0005 0003 0001 000f 0000 0228 0000 0001 0004 000e 000b 0000 001a 0142 000a 0160 0000 0015 0000 0000 0121 00ac 0000 0000 0006 0003 0008 0007 0000 0000 000b 0002 0012 0013 0011 0000 0000 0014 0015 0000 0000 0018 0005 0000 0000 0000 00d3 0000 0072 0065 0057 008b 0000 0000 016a 0000 001d 001a 0002 0042 003d 000a 001f 0000 00a3 0066 0069 0040 00c9 0000 0159 00ba 0063 0062 0060 0060 00a4 007b 004b 005b 0055 005e 0054 005c 005c 0056 0051 00c1 0000 00cd 005f 000d 006c 005e 0061 0062 0060 005d 0063 0057 0058 0076 0011 0000 00ea 00ac 00c7 0060 0060 0090 00e7 0000 0000 015d 0000 0131 001a
0017 0001 0000 00cf 0054 0000 001a 0025 0018 001b 002e 0014 005e 0017 0001 0000 0031 0000 0064 0053 008c 0000 00ec 000e 0000 0010 007f 0000 0030 001b 0045 003d 003c 0025 0027 001b 003b 008c 001b 003b 0078 0010 005f 0063 002b 0026 0031 0030 0028 0026 002f 003e 002f 0028 003e 0013 0052 002d 0033 0030 0035 0030 006e 0011 0024 0022 004e 002d 001f 0041 0022 0035 003b 0020 0035 0015 0062 0021 0000 0072 0047 0058 002a 0000 00b9 004b 005a 00af 0025 008c 0075 0073 0076 0068 005c 0061 0062 007e 003d 0064 0074 005a 0093 0055 005c 0064 0054 0069 00af 011a 0000 0000 0000 000f 0000 0009 0000 0000 0216 0000 0000 01dd 0000 0000 000c 0000 000e 000f 0000 000a 0006 0008 0000 0006 0005 000b 0007 0000 0000 0000 0000 0006 0000 0000 0037 0000 000b 0010 0009 0000 0000 018d 00b8 00b6 0000 0010 001d 0000 015c 0000 0000 0000 0002 0005 0006 0009 0004 0000 0003 0005 0000 0000 0002 0016 0000 0006 0000 00a9 0000 0004 0002 001d 0000 0141 0091 0098 0061 0059 00bd 00f2 0000 0000 0022 0000 0000 002a 0000 001c 001e 001a 0000 010f 005c 0066 0066 0077 00f6 0000 0000 0078 004c 0078 006c 0050 003c 0052 004c 0064 005b 005e 005c 0054 0064 004d 0032 00a3 0000 00d3 0036 0052 005c 0053 0051 0054 0052 0052 0057 005c 007a 0000 00ff 008c 0084 0084 0099 0075 00b6 006e 0000 011d 0077 012f 0000 00d2
0015 006b 00c2 0000 007e 0000 0037 0022 001e 0000 0163 008a 0000 0053 0000 014f 0013 00b9 006b 0000 0046 00bc 0000 006e 0016 0049 0000 0056 0046 000c 0034 0015 0011 0028 0012 0004 006f 0000 0036 0064 0000 0039 0000 0013 0031 004e 004a 0042 003c 0065 0059 0001 0038 002b 0037 0047 0000 003e 003a 0037 0000 0040 0028 0025 002a 0028 001f 0024 001e 0022 0016 0023 0018 0036 001a 002c 000d 002a 0008 0069 0065 0000 008f 0088 0099 0000 0081 0000 009b 0000 0094 005b 0041 006b 0076 005b 005e 005b 0061 0066 005c 006d 0038 0068 0058 0086 0051 005c 005a 008a 0036 016c 0000 0000 0015 0002 0000 0011 0000 0000 01cb 0000 01c1 004b 0000 0022 0000 0015 0003 000b 0002 0000 0009 000f 0000 0007 0000 0019 000f 000b 0017 0000 0000 0013 0009 0007 0000 0004 000e 0003 0008 0000 000a 00fd 0000 0000 0019 0012 0000 0114 00bc 0000 0000 0000 0007 0004 0003 0004 0000 0019 0000 0005 0000 0022 000a 001b 000f 0000 0003 0004 0008 0000 0000 0000 00d3 0000 0083 00a9 0000 00c3 0131 0000 0008 0035 002c 0000 002b 0025 0005 004f 001d 0000 00c2 0055 0060 006c 0065 0000 00d7 00a9 00c2 0039 007b 005b 0062 0044 0064 005a 005a 005a 005b 005a 0050 0077 00ac 007a 0110 0045 0095 004f 0057 0056 005b 0055 0056 0057 005d 002f 0047 00e5 0087 0079 007a 00a3 0003 0023 0026 00a5 00c2 0080 0100 0000 001c 002c
000e 000a 003e 0002 0000 012e 000e 0000 000f 00e7 0000 0042 000f 0047 0000 00d0 00a6 0090 006a 0000 0096 000a 00bc 0050 0000 000d 005c 0000 002b 004b 0017 002e 001b 0027 001c 0055 001e 0069 0000 002b 005e 001b 0097 0051 0000 000d 0018 0004 000d 0000 0000 0030 0039 002d 002d 0028 001d 0036 0020 002d 0036 0032 0020 0029 002a 0029 0021 001b 0025 0039 0031 0025 0013 0044 0012 0035 0005 0025 0000 006b 0032 00a8 0059 006a 008a 0020 0041 001f 009a 0022 004a 0060 0083 0000 0066 005f 005e 0060 0062 0087 005b 008f 0000 0089 004f 0087 005a 004c 0062 0087 0000 006d 015d 0115 0000 0012 0023 0000 0014 000c 0000 020f 0000 0000 0242 0000 0000 000e 000b 0000 0009 000c 0000 0000 000b 0000 0014 000b 0004 000a 0007 0007 000c 0003 000a 0000 0241 0000 000d 0007 0010 0011 0000 0089 0154 0000 0000 0000 0007 0000 01bd 0000 0124 0000 0002 0004 0000 000d 0002 0000 000b 000b 0000 0014 0000 001a 001b 0006 0001 0005 0004 0005 000c 0000 0144 008b 005f 008f 0014 002f 0000 0045 001d 0015 0013 0021 000b 002a 0000 0028 000b 0000 009b 006a 005f 0061 0060 00cc 0091 00dd 005a 004e 0078 0038 006a 005d 0058 0059 005c 005b 005a 006b 0061 003f 0000 0108 0000 00e0 0032 005c 0058 0058 0056 0056 0059 005b 0046 0062 0035 00b0 0082 007c 007f 007c 00b9 0015 009d 0084 0080 00f0 0000 0000 0094 0056
002c 0094 007d 0002 0009 0000 000a 00a7 0000 005a 0076 00ab 0119 0000 00b7 0000 00cf 0091 006d 0063 004e 0070 0044 0000 006d 00a8 00d9 0023 0000 0000 0079 0000 004a 000b 003b 0004 0011 002d 00da 0000 0039 0024 0000 0004 0030 0022 0000 0021 001d 0000 006b 0031 001a 0045 0027 0036 002c 0026 004e 0048 0031 0028 0027 002b 0029 0021 0032 0021 0039 0020 0026 0020 0031 0015 002a 0020 002f 001e 0001 007c 003a 007d 0051 0084 0000 0040 0044 0077 005d 0068 0016 00b2 005a 0075 0069 005c 0061 0060 0078 0000 0088 00a7 0000 00a5 0059 006d 0070 005b 0060 009b 0000 00fd 0000 0000 001d 0000 0000 001d 0000 0000 0002 0000 0000 01f3 0000 0000 024f 0000 0000 0004 0002 0005 0006 0000 0013 000b 000c 0009 000b 0008 0007 0013 0005 0000 0003 0019 0000 000f 0008 000b 0003 000e 0000 0000 0062 009f 0000 0001 0004 0000 0000 01dd 0000 022e 0000 0005 0003 0007 0006 0000 0000 0008 0009 0000 0016 0019 0000 0000 0004 0006 0001 0006 0000 000e 0000 0155 00d2 0056 00d1 0000 01a8 0000 001d 0025 000d 0020 000f 000f 002a 0043 0054 0000 00ca 0077 0051 0054 00b6 00a8 00cb 0000 00fd 0070 0070 0035 00ae 0044 0059 005a 005a 005a 0062 0045 004e 006f 009c 0000 0000 0085 0000 0074 0057 0057 006e 0059 0054 004f 0069 003d 007d 007d 0082 0080 0072 0075 0089 007e 0096 0080 00e6 0013 0000 0008 000e 000d
0000 0013 0000 0045 00cf 0000 0002 0040 00d0 0066 004e 00e3 0000 010b 009f 0108 0000 00bd 0021 0056 004a 0067 005b 0057 0054 0085 00ca 0087 00e4 0000 0000 00de 0000 0091 003c 0050 0013 0026 0020 0008 0000 002a 0109 0022 0037 0010 001c 0012 0022 0000 0039 0029 0036 001d 0035 0029 0032 002c 001b 0021 0026 0028 0021 0022 0038 002a 000d 003a 0018 003c 002c 0016 0038 0022 0027 002f 003c 0033 0000 007d 001f 001a 0086 005f 0072 007d 002e 0097 0043 007f 00a4 0000 0074 006a 005b 005b 0062 0061 0075 0024 0080 00a9 0000 00ac 0063 0043 0092 0057 005b 0098 0000 00cd 0000 008b 0000 0000 0037 0000 001b 0004 0005 0000 002d 0000 00ca 01b9 0000 0036 0000 0000 0000 0000 000e 0014 000d 000c 000a 0007 000a 000a 000a 0008 000d 000d 0009 0000 001a 0006 0000 0009 000b 000a 000b 0001 0000 0000 01e5 0000 0010 000f 0003 0000 01f3 0000 01d0 0000 0000 0000 0000 0003 0011 0007 0001 0007 0000 0000 0000 0007 000f 0000 0008 0000 0012 0000 0002 0000 0000 0000 00c3 0050 00c5 0000 0016 002f 0011 0006 006e 0010 0013 0011 001b 0000 00d2 0025 0097 0034 0078 005b 0000 015b 0000 009a 0071 0065 0032 0090 0048 005c 0058 005d 0053 005b 0059 0054 0063 0077 003f 0041 0003 0079 0053 0071 0000 0068 0058 005e 0060 0041 00e4 0000 00a7 007b 007d 007e 0093 0032 007c 00b9 004f 0000 001e 002b 0002 0011
00c2 0000 0178 0000 0016 0030 0000 0122 0000 008c 0000 00bf 0018 00b0 0115 0000 0131 002d 0082 0096 0057 0059 0062 00b0 0006 0000 007e 00ee 0075 00e4 0038 0026 009e 0000 0052 0000 0053 002e 0015 0001 0053 005d 0044 0004 0012 0014 001d 0020 0000 0053 003b 0032 001e 0032 0038 002a 0029 0027 002e 0031 001c 0026 002a 002e 0018 0026 0042 001c 0027 0028 0021 0034 0027 003f 0012 001a 0000 0000 0049 0038 00e0 0001 008b 0088 0000 007b 0000 008a 0063 002e 0061 00a1 0074 0056 005f 005f 005d 005c 0061 0053 006a 00b3 0000 00bb 005d 0051 0088 004d 0060 00a7 0000 009d 00a4 00ec 0000 0002 0000 01fe 0000 0000 000d 001c 0000 0002 0000 0000 01bf 0000 0028 01b1 0000 0025 000f 0000 0007 0006 0006 0009 000a 0009 000a 0009 0008 000e 0015 0000 0000 001a 0009 000c 0007 000c 000e 000d 001e 0000 0000 0012 0000 0003 0003 0003 0000 004a 0000 0000 0017 0004 0000 0012 0000 0000 0017 0014 0000 0003 0006 0002 0000 0007 0008 0002 0002 0009 0000 0017 0000 00cb 002f 0084 0051 0101 0000 0039 002d 000e 0001 0003 0035 000b 002a 0000 00ba 0058 0050 0072 0054 0066 009c 0011 0000 00e2 0069 0046 0069 0068 0059 0058 005f 0058 0058 0048 005a 0055 0080 0000 0066 0021 0045 0091 005e 0066 001b 0071 0042 005e 005a 0065 0000 00c0 0081 007c 007c 0081 0096 0049 00d3 00b7 0000 0028 0027 000d 009e 0003
0000 0041 0000 00c9 0000 0000 0000 0000 0057 0000 00bd 0000 00ac 00b9 0000 017a 0000 0000 0007 0000 0000 00a1 00a0 0000 00d0 0007 0000 001d 008a 00ac 0062 00d9 0000 0005 00ac 0000 0043 001f 0076 009a 0059 005d 00c7 0000 0014 0029 001e 0000 0069 002e 001c 002e 002f 001e 0029 0024 002f 002d 0021 0024 002e 0018 0040 0012 0045 001d 002f 002b 0042 002c 0042 001f 0000 0014 0017 001a 0019 0023 0000 0075 00c4 006c 0010 008c 0088 005b 0077 005f 006a 006c 004f 0065 005c 0059 005f 0060 005e 0064 0057 007b 0053 00b8 0000 00ad 0064 005a 0072 005f 005b 0094 0000 00e4 0089 0118 0032 0000 0000 0000 0000 0047 0000 0000 0000 000f 0005 0000 0000 0093 016a 0000 00f5 0000 0000 0003 000a 000a 000c 0008 0008 000d 0006 0009 000b 0008 000b 0000 0003 0000 0000 0018 000e 0000 0013 0004 0000 0005 0002 0000 009a 0000 0011 0007 0004 0000 01d2 0000 0009 0000 0023 0000 000c 0020 0000 0019 0000 000e 0004 0005 0001 000f 0002 0004 0000 0000 0015 0000 0000 0144 0000 0093 006b 00b8 0000 0027 0026 0019 0040 0015 001f 002c 0028 0000 00ac 0067 006c 0069 0065 005d 0075 009e 0000 0000 0092 0081 0079 001d 006d 0054 0055 005f 0051 0055 0056 006f 005d 0000 003c 004a 003a 0000 004b 008e 0041 0054 006c 005a 005f 0039 009a 0088 0080 007b 0081 0070 00ce 0072 0051 0000 002b 002b 002f 001e 0009 0014
013d 0000 0000 00fd 0000 0041 014d 0002 002d 0000 0163 0000 00ec 0023 00d0 00aa 0025 003f 0010 00a8 0024 0000 001f 0000 0047 001d 002f 0000 0112 0000 00e4 00d5 0054 005f 0061 006c 003b 0000 0079 004b 0048 005f 0000 0024 0027 0012 000e 001b 0034 0028 003a 002a 0029 003b 001f 002d 0026 001e 002a 002a 0032 0042 0015 0034 0024 002d 004a 0003 0007 0008 0008 001f 0011 001a 000d 0004 000a 0022 0015 0000 006f 002c 007e 0000 009f 0033 00b1 0042 0060 0068 0065 0057 005f 0074 0057 0054 005c 0059 0057 0088 0052 009f 0000 00ae 005c 0073 0028 007d 0061 0094 0003 0000 00d8 0000 0000 0158 01b6 0000 0000 0000 0075 0167 0000 0000 0004 0010 0000 0000 0000 01e9 0000 00d1 0000 0000 0007 0009 0009 0009 0006 0007 000d 0009 000c 0009 0007 0013 0000 0006 0009 0000 0000 0020 0013 0001 0002 0009 0003 0010 0000 0049 0000 000a 0020 0000 0000 015d 0000 0023 0000 000d 0011 0009 000e 0000 0025 0009 0000 0000 0000 0009 0001 0002 0002 0000 0004 0028 0000 0000 00f3 007a 0052 005e 013c 0000 0013 0001 0036 0019 0018 0024 0000 011a 0067 0063 0065 005d 0062 0073 0054 006c 00a8 0081 0058 006a 0071 004d 006d 0054 0055 005a 0053 0058 0046 005c 0073 004f 002e 0038 0026 00b0 0055 0029 0039 006d 005a 0037 005a 000e 00a5 0085 007a 0098 00b8 00f7 0000 0000 00c9 0000 0015 0028 0015 0004 004a 0000
0003 0000 01a8 0000 002e 0031 0000 0000 002a 0021 0000 0120 0000 005e 0072 00c3 0025 001a 0018 0018 0034 002f 0012 003f 001a 001a 001b 0054 0000 002e 0000 0000 00c4 0094 0054 00ad 007b 0097 0052 0056 004f 0094 0017 0018 0015 0013 0005 0061 003e 0022 0046 0010 002d 002c 0019 0033 0030 002b 0034 0031 0018 002a 002b 001a 0031 0000 0006 001e 001e 0000 0010 000e 0000 000f 0026 004c 002c 0000 000e 0030 0000 00d2 0060 006c 0050 00a8 0000 0092 0055 0062 0069 005e 0059 005c 005b 006b 005f 005c 0054 0083 004a 0081 000f 007d 0056 0090 0000 0093 005f 00a5 0000 00e5 00ce 0000 0000 0000 0000 01a8 0093 0000 0000 0000 01db 0000 0000 0001 0004 0000 0018 0000 00ef 00e6 0045 008a 0000 000e 000e 0009 000c 0007 000b 0007 0006 0008 0006 0017 0000 0005 0007 0004 0002 0000 0000 0003 0004 0002 0001 0003 0000 0013 0005 000f 0009 0016 0000 01bc 0000 0000 001e 0005 000d 0001 000c 000e 0000 0001 000f 0005 000e 0000 0000 0000 001b 0009 0000 0014 0007 0012 0000 00b0 0072 0020 009e 0000 0000 0000 0045 0000 0000 0000 0127 004d 005a 0075 005f 0063 0074 0063 0064 0065 0051 0098 0080 0085 0068 0040 005a 0054 0060 0060 004d 0057 0070 0063 0066 0015 002e 0035 0057 0000 00db 0000 005f 001c 0025 00cf 0003 00ac 0087 0083 00e7 0057 0000 0000 0133 00b1 001a 0000 0025 0024 002a 0000 00bf 005e
0000 0147 0000 0120 0000 012c 006a 003d 0012 001f 0000 00bb 00ce 0013 008c 0000 00aa 0023 000c 0041 001d 001d 003b 0025 0009 0023 002c 0018 0020 0011 0041 000b 0011 0000 0061 0000 0041 002d 0082 005b 00ad 0023 0000 0000 0025 0000 0058 0036 0048 0000 004e 002b 0020 001a 0034 002e 0034 0024 0021 0026 0027 002a 0027 004c 0007 0011 0011 001d 0000 005c 002a 003d 003b 002d 0031 002d 0027 0032 0021 0009 0000 0146 002c 009f 004e 0000 008d 0065 0070 0028 0071 0058 0056 006b 0057 005c 0056 0062 004e 008f 004f 0058 007d 005b 0060 00af 0000 00a1 005f 009f 0000 00a3 0059 00dd 000d 0000 00f3 0000 01a2 0000 0000 0000 0000 003e 0000 0000 0000 0027 0000 000d 0000 0050 014c 0000 01e5 0000 0000 0010 0009 000c 0005 0009 000b 000b 001a 0000 0000 0000 000e 0006 000a 0002 0002 0004 0002 000e 000a 0000 0000 000c 0000 000d 000d 0009 000e 0000 0154 0156 0000 0008 000b 000d 0009 0007 0017 0007 0000 0000 0013 0000 000c 0002 0000 0000 0006 0016 0014 0000 0000 015f 0024 0085 0054 00a9 00e6 0092 0000 00d8 00e0 00af 005c 005d 00be 0063 008c 0072 0062 0061 0067 0078 0038 00a5 0000 00ab 0063 0059 0067 0059 005e 0050 0068 0054 004e 005e 0067 0038 0048 006c 000a 005d 0000 0000 00e7 00a9 009f 007f 009e 0089 00c4 00f6 0000 0081 00b0 002e 0002 0000 0038 0057 0010 0026 0020 0000 004a 00a9
00a4 002d 0000 0000 00b7 00a1 00c2 0000 002f 001f 0000 0140 0048 00d9 000e 0097 0000 0046 005f 0011 002d 0040 002c 0033 0044 0014 0029 0023 0018 0038 001a 0024 003d 0019 0000 0000 0000 000e 0078 0000 0000 0014 0000 0078 0000 0003 0046 0030 0028 0043 000c 0053 0016 003d 001d 0020 0027 0023 0027 0027 001b 0055 0003 0000 0018 0006 0034 0019 003f 0026 0025 0027 0029 002b 0024 0026 0028 001e 003e 0000 0024 0000 00b9 0024 00b1 0066 0062 0065 0074 0079 0079 0054 0069 0054 0067 0060 0061 0068 004c 006d 0067 0046 009a 004b 005f 00b2 0000 00ba 005f 0096 0000 0093 005f 00a5 0000 0137 0000 0000 0098 0000 0185 017d 0000 0008 0000 0198 0000 0000 000a 0011 0000 0000 0000 00f7 0000 0192 0000 0009 000a 0008 0007 000f 0009 0017 0001 0000 0009 0009 0001 0008 0003 0006 0003 0009 0003 0000 0000 0051 0000 0018 0015 0000 0012 0012 000f 0000 0000 0069 0148 0000 000c 0006 000f 0004 0014 0000 0008 0014 0009 000b 0000 000b 0000 0000 007b 0000 000b 0012 0008 0000 0173 0096 006b 0061 0060 007a 00a9 0069 0060 0087 004f 010f 0000 0000 0094 006a 002d 0063 0062 005c 0075 0047 0000 0000 0078 0063 0051 005c 0057 005b 006a 005a 005c 0054 005c 0063 0000 001a 0064 0026 0000 0117 0086 007c 007c 007e 0088 0114 0000 0000 0004 007c 0000 0073 0017 003c 008c 0076 0016 0020 001f 0000 0076 0093
00ff 002b 00dc 0003 00c9 00b1 0000 00d5 0007 002e 006a 0000 00c9 0087 00d8 0000 0018 0016 0029 0011 0033 001c 0028 002e 0031 001c 001f 001c 0040 0024 0033 0028 0028 0000 00b1 0006 00c6 0000 00bd 0042 00e8 0000 0034 0004 0000 005f 0034 0031 0038 0039 000f 002f 003b 0009 0073 0021 001e 0025 002a 0022 0044 0000 0000 0020 0041 0044 0034 0027 002c 001c 0031 0025 0025 0023 0028 001e 0034 0012 0025 0046 0000 0005 004e 009b 0034 002d 006a 007a 007c 0000 006c 0078 004f 0068 0052 005d 005f 0051 0062 0065 008b 0045 008d 0042 006c 00be 0000 00c2 0057 0094 0000 008d 005d 009d 0000 0095 00be 0118 0000 0007 0000 0000 017c 0008 0000 016d 0000 0210 0000 0000 000e 0001 0001 0000 01a0 0000 0000 0000 0011 000f 000a 000f 0000 0005 0009 0024 0000 0001 000b 0000 0006 0003 0007 0002 000b 0000 0000 0003 0000 0001 0002 0016 0012 0000 000e 0014 0000 017a 0023 007c 0000 002f 0012 0000 0000 0008 0000 000c 0000 0004 0011 0000 0001 0004 0000 0013 000b 0011 000e 000b 0000 0000 0091 0061 0067 005f 0070 003f 0088 0046 0153 0000 0040 0014 0000 010f 005d 008e 0075 005b 0070 0070 009f 0000 005e 005d 005c 005a 005b 0059 005d 004a 0052 0057 0050 0095 0015 008c 0016 0000 00d2 0090 009a 00a1 009d 009d 00cc 0000 0006 002b 0037 000a 0111 008d 00df 005f 0023 0022 0018 0020 0027 0000 00ab 0082
003e 005a 005e 0000 00cb 0071 0154 007c 0000 0000 000c 0031 00ca 0056 00b7 009e 0000 002f 0029 001b 004a 001a 0026 002c 0028 003d 0021 0021 0021 0034 000e 003a 0009 0035 0000 0000 0002 0000 0026 00d6 0000 0016 001c 0000 0065 0035 0033 0036 001c 002d 0037 005c 0000 0067 001d 0018 002d 0023 0038 0030 0014 0000 0022 0048 0024 0021 002a 0028 0027 002d 001d 002a 002a 0025 0029 0023 002c 0034 001f 0018 0044 000b 0000 00f8 0064 0084 0022 004e 006b 007b 0059 005d 0046 0062 0067 005e 0053 0077 003e 0062 00b5 0048 0061 0082 004f 00b6 0000 00b6 005f 0074 000b 007d 005f 0092 0000 00a1 005d 005b 0116 0000 0000 0036 0000 0000 01c6 0000 0000 0000 000a 0000 0000 0016 0000 0014 0000 01a3 0128 006b 0000 0000 0016 0000 0009 0009 0011 0007 0000 0000 0000 0009 0006 0004 0003 0002 0000 000b 0003 0000 0029 000c 0000 0012 0006 000c 0000 0009 0008 0000 008b 0000 01bb 0000 0009 001d 0000 0005 0000 001a 0001 0000 000d 0000 000e 000f 0007 000f 0011 000b 000e 0015 0000 002b 009d 0056 004a 0061 0000 0107 004f 0000 0000 0015 0031 0015 0029 0000 00cd 0067 0056 007d 004c 008f 0073 0039 008b 0053 0066 0058 0059 005d 0058 0067 0053 0055 0052 006c 0060 003e 0022 0005 00c5 00b8 0000 003e 003c 0043 0032 007f 00b6 0000 0027 0031 0000 00b5 006d 0066 006c 006a 0002 0020 0021 0001 004d 0097
0140 0000 013a 0000 00c9 00c0 0000 0000 0105 0062 0000 0096 0086 0063 0000 017e 0000 0015 0019 002c 0018 0030 002e 0020 0032 0000 0012 002a 001a 0037 0015 0007 006c 0016 0000 0121 0000 0035 0000 0000 000e 001e 0014 0000 003f 0034 0030 0021 0045 002f 002e 001c 0024 0041 0019 0015 002e 0046 000d 0000 0000 0051 0022 0000 0018 0035 0023 0023 0029 001f 002f 0020 0024 0024 0025 0027 0019 0020 0020 002e 002f 0004 0029 0000 00e3 0029 006e 0073 0051 0062 0081 0060 006d 0073 0041 0072 005a 0058 0062 0053 0066 004c 004e 0095 0052 00b4 0000 00b0 005e 0065 0052 006a 005b 009c 0000 00a0 0059 0066 00ab 0000 0133 0000 0000 0000 010f 0141 0030 0000 0000 01f8 0000 0000 0009 0005 0010 0000 00b2 0149 0000 0236 0000 0023 0000 0000 0003 0000 000f 0004 0017 0000 000c 0000 000b 0002 000b 0004 0003 0005 0000 0001 0007 000e 000c 0000 0062 0000 0009 001c 0000 01ac 0000 0000 000a 0004 001c 0000 0000 000e 0000 000d 0000 000d 000c 0008 000a 0007 000c 000d 0010 0010 0000 000c 00a4 0051 0066 00b7 00b4 0038 009d 0000 001b 0022 0016 002b 0023 0029 0000 0118 003c 0074 0065 0074 006e 009d 001c 0064 0059 005a 005c 0059 005a 005f 0049 0056 0054 0083 0000 0041 0000 00fc 0087 003e 0052 005d 005b 004d 004d 005f 0049 00a6 0000 000a 0100 0028 0094 0084 0045 0081 0000 0021 002f 001e 0000 0037
0000 0199 0000 0070 0000 00bf 0138 0000 0000 0063 00db 00a5 0053 003e 0025 0000 0000 0026 002e 0026 0024 002e 001d 0031 0019 002a 0044 0045 0027 000c 004c 0037 000f 0023 0022 0000 004d 000c 0000 00b3 000b 0011 0000 007f 0033 0025 0032 0036 0028 002c 0049 001c 0014 0030 002a 0041 0040 000c 0000 005c 003d 001a 0028 0036 0046 0017 002d 0027 002e 0023 0024 002d 0022 0029 0023 0032 0023 0025 001b 001f 0019 0048 0006 0000 0000 008a 0070 0036 005c 003a 006f 0051 0038 0067 006c 005d 0070 0060 0078 0045 008a 005a 004f 0093 005a 00ab 0000 00a4 005b 005c 006b 005e 005e 00aa 0000 00a4 0060 005a 00a7 0000 00d2 002c 0101 0000 0000 0000 00d0 016c 0000 0000 016c 0070 0000 0004 0011 0006 0000 0000 01d4 0000 0028 0000 0013 000b 000d 0000 000d 0000 000a 000b 0015 000e 0000 0004 0004 0004 000c 0000 0000 0023 0000 000a 000d 000d 0000 0000 002a 000a 0000 00a5 0000 0168 0000 0005 001f 000d 0013 000f 0000 000c 0000 0008 000f 0008 0009 000f 000f 000a 000b 000d 0013 0000 00a7 0077 0073 0087 00a4 0067 0090 0075 0000 0024 0029 001d 0017 0031 0021 0000 00c0 0071 0064 0058 0070 008d 0047 0059 0059 005a 005f 0059 005b 0055 0069 0050 0056 007c 0014 0000 0104 0087 00a7 003f 005f 0060 005e 005a 0054 0055 005d 0048 0092 0032 0002 00a8 006d 0093 003f 00a1 0000 0025 001d 001f 0000 00b1
0000 0000 0000 0107 0094 0085 0000 0000 0026 0000 0090 0000 006e 0000 001d 00ad 006b 000e 000a 000f 002d 002e 001b 0024 0022 001f 0016 003b 000f 004a 0000 0007 0021 002b 001f 0025 0015 000a 002f 0000 000b 0008 0025 003a 0031 0033 0030 002e 0029 0037 002e 0021 001d 0040 0039 002b 0000 0000 004e 001e 0024 002f 002b 0033 002c 0019 0023 001c 003c 0024 0024 0024 0020 002d 0021 001c 001d 001f 0024 0022 002a 0020 0000 0021 0000 011f 0046 00a9 005d 0051 005e 005d 0086 0065 0047 006a 0060 004e 0060 0041 0084 0049 0069 001e 0079 0081 0000 0095 005b 004e 00a2 0042 0061 00af 0000 00a8 005a 0060 00b5 0000 00dd 0000 00cc 0000 018e 0000 0000 00dd 0162 0000 0184 0000 019f 0000 0000 000e 000e 000a 0000 00a4 0000 0202 0000 0005 0011 0000 0013 0017 0011 0002 000b 000d 0008 0002 0005 0004 0002 0010 0005 0005 0000 0017 0011 000d 0000 0022 0008 0004 000a 0000 0216 0000 0000 0018 0000 0013 0000 0018 0017 0000 0007 0006 0006 0013 0011 0001 0011 000d 000c 000a 0010 0000 00a7 0079 0000 00d6 0025 00aa 0000 0000 00b7 000d 0016 0025 0036 0015 0033 0022 0000 00a7 0067 006d 004b 008a 0044 0056 0052 005d 0059 005d 0058 0062 005f 0053 0058 006f 0000 00c2 0083 008a 001b 0060 005d 0069 004e 0058 005a 004d 0058 005e 005d 0000 00e8 0036 006c 00bb 0041 006b 0000 0029 0022 001a 0000 0000
0136 0000 0000 0000 009e 006f 00ac 0081 0000 00bf 00bc 0000 00e3 006d 00c7 00c3 0000 00e7 0000 0090 0001 001a 001c 001e 002c 001d 0011 0021 002e 001a 001b 0030 0015 004d 000c 0028 0027 0000 0058 000a 0002 0019 0036 0033 0031 0031 0033 0037 001f 002e 0032 0021 001a 0035 0000 0000 005e 003a 0029 0028 002b 0027 001b 0034 002a 0049 0014 001a 001c 0024 0020 001b 0020 0013 0025 0025 002a 0021 001a 002b 0027 001a 004b 0000 0009 0000 0121 0037 006c 0056 005f 0052 0058 005d 0061 0063 004d 0056 005c 0059 007f 0058 009c 0000 0099 0073 0026 0074 005c 004f 008e 0050 005c 00a7 0000 00a8 005b 0059 00bf 0000 00f0 0000 00c4 0000 00a1 0103 0000 0000 0000 01c9 0000 0000 0122 0076 0000 0000 000f 0000 002d 0000 01cf 0000 01f5 0000 0000 000c 0011 0000 0010 000b 0009 0003 000e 0000 0008 0008 0002 0001 0000 000b 0000 0005 0000 0018 000d 0011 0000 0009 000f 0024 0000 01e3 0000 0000 0020 0007 0007 0000 0008 0010 0010 0016 000a 000b 000f 000a 0009 000d 000d 0015 000b 0014 0000 012e 0029 004e 004d 0084 00a2 001d 0002 0000 001f 0021 0022 002c 001e 001d 0016 0099 007a 0072 0064 0071 004d 004c 005f 0059 005b 005a 005b 0059 0060 0043 0055 006e 0000 00cb 0085 00aa 000e 005e 0069 0041 0061 0053 0057 0055 0053 0055 0068 0000 00c5 008a 007b 005e 0059 0071 0000 001a 0029 0000 0111 0000
0000 0105 00c6 00cc 009a 0000 0003 00d9 0000 00c9 0000 0097 0037 0000 0000 0000 00ad 003f 00f6 0037 0002 0037 0011 0021 002e 0015 0005 0012 002d 0034 0026 0018 0039 0016 001a 0000 0005 0109 0005 000c 0000 0044 0060 0021 0033 0033 002f 002a 003f 0028 003e 0024 008f 0000 0021 0045 0025 0028 0022 0028 002c 0019 002a 0046 0025 0030 0016 003d 0008 0035 0036 0031 003e 0023 0022 0025 0025 0023 0026 001a 002b 001b 0020 0053 0009 0008 0000 00bd 004b 0071 006f 0072 0058 0051 006e 0051 0080 0059 0063 0067 004a 006b 00b5 0000 00af 005c 006d 006f 005a 0052 0079 004d 0060 00a9 0000 00b2 005b 005f 00bf 0000 00ff 0000 00c7 0000 007e 00bc 0001 0000 0084 0000 012e 0131 0000 00e7 014a 00e3 0000 0000 0000 0017 0000 0229 0000 0000 0000 0006 0012 000a 0005 000a 0008 0011 000e 0012 0001 0003 0005 0006 000a 0003 0013 0000 0009 0000 0012 000c 0006 0012 0000 0000 0023 0000 01bd 0000 0000 0010 0014 0000 0016 0000 0000 0000 0016 0003 000f 000e 0013 000e 000e 000c 0007 0011 001f 0000 00c5 0063 005e 0055 00c0 0049 0008 0022 001f 0029 001e 0029 002a 003d 0015 0000 00d1 0057 006c 0071 0046 0062 0058 0059 005b 005b 0059 0057 0060 0057 0055 003c 00ce 0069 0084 0070 00c8 003f 0049 0058 0051 0058 0056 0054 0057 0059 0054 0059 0044 0077 009b 003d 0025 00a2 0006 0025 0017 0022 0000 000b
0041 0000 00ce 0000 0096 0000 0000 0000 00cf 00aa 0000 001b 0054 0000 00a7 00ce 002d 005a 004d 0077 0027 0008 002b 0010 0038 0030 0079 003a 0000 0011 0029 0000 0015 000e 0027 0016 0000 0000 0000 0000 0072 0026 0013 0036 0032 002d 0031 0033 0024 0033 003b 001b 0000 003f 0050 0020 0027 002b 0025 002b 0027 0035 0013 0029 0032 0025 0038 002d 0041 0030 0034 002c 0041 000f 001c 002d 0000 004e 003d 0023 001f 002b 001c 0021 0000 0023 0000 0137 0043 004c 0034 006b 002c 0066 005e 0065 0054 005d 0069 006a 0037 0068 00b9 0000 00bd 004e 009c 003d 0060 0059 006c 0060 005d 009c 0000 009b 005d 005e 00bf 0000 010a 0000 00e4 0000 0089 00a5 0000 0101 00e2 0000 0000 0090 013d 0000 0000 0000 01cb 0000 000a 0000 0014 0000 0212 0000 0080 0000 0000 0009 000d 0005 0008 0005 000f 0012 0000 0001 0004 0007 0001 0005 0002 002e 0000 0030 0000 0021 0010 000e 000b 001a 0018 0000 019f 0000 00c0 0000 0011 0009 001a 0002 0000 001b 0000 0017 0000 0000 0011 0010 0011 0008 000c 000c 000d 0000 0126 0068 005f 0046 00f2 002b 001b 000d 001a 001d 0021 001f 002c 0005 005b 0022 0000 00a8 005f 0075 0041 0058 005d 0059 005a 005b 0059 0060 0059 0067 0048 006d 002b 00ac 007d 008c 00d5 002a 0062 0059 0055 005a 0056 005a 0054 005a 004e 003d 00a0 006c 00ce 0000 000d 006f 0012 0000 001f 0039 0026 002f
000b 0021 0000 0124 0000 0040 0019 000a 0000 00c1 00be 0000 0000 0171 0000 0000 00e7 0046 0050 009e 0000 0035 0020 0020 000b 001f 000c 000c 002f 0029 0003 004d 0074 0011 0000 0008 0081 006f 0000 0014 0032 0022 0033 0045 0028 002a 002f 002d 002d 002a 0027 0034 0038 0039 001f 0024 002f 002b 0025 002a 0024 001a 002c 0031 002b 002d 002b 0026 0026 0024 0024 0036 0025 001c 0042 0014 002c 0028 0010 002e 0006 001b 0021 002b 0051 0000 0001 0000 0103 009e 005e 0069 0087 003e 0061 005c 0057 0076 0052 0081 0000 007f 00c1 0000 00b4 004a 0095 004c 005e 0053 0067 0073 0052 00a4 0000 009a 0061 005c 00bf 0000 0115 0000 00d7 0000 007f 00a1 0000 009b 00a8 0000 00ee 0093 0065 00f9 001f 0000 0009 00ba 0000 0015 0000 002d 0000 008c 019e 0000 0167 0000 0007 000a 000c 0005 0014 0000 0008 0004 000d 0007 0005 0000 000b 0000 0007 0000 0000 0002 0000 0009 0000 0004 0012 001a 0000 010c 0000 0000 0000 0004 0000 0000 001b 0003 0006 0007 0008 000d 0006 000d 0006 0008 0010 0017 000c 001f 0000 0096 0069 006c 005b 0025 0019 0014 0021 002e 0021 0022 000e 0021 0007 0028 0025 0067 0065 0067 0079 0050 005a 005d 005c 005c 0058 003c 0049 0053 003a 0065 003e 00a2 00c0 010e 0000 0087 004d 0056 0056 0053 005b 0058 0054 0045 0073 0048 007b 00ed 0000 0000 00a4 0092 00b3 0000 0002 002f 0011 0042
0018 0000 00a2 0000 0147 0000 002c 001d 0012 0000 00da 005f 00a2 0000 0015 0016 0000 0079 0021 0077 0008 0000 0015 0021 003d 000a 0030 000d 0028 0007 001b 008e 003d 0030 007f 001a 004c 0000 0000 0069 0026 0029 0039 0029 0047 0064 0051 004b 0035 0022 002e 001b 004a 0000 0036 0038 001c 0026 0028 002a 0010 0048 002e 002c 002d 0025 002d 0031 0033 0033 0025 0019 001e 0016 000f 0053 0038 001f 0029 0020 0030 0024 003f 0007 001f 004f 0000 0030 0000 0089 005d 0067 0056 005e 0067 0057 006e 004c 005c 0090 0000 008e 00a8 0000 00b4 0053 0081 0059 005c 005e 0055 007f 0056 0091 0000 0097 005b 005e 00c0 0000 0116 0000 00e1 0027 0079 0096 0000 009d 007f 0015 010c 0000 0000 00bd 0126 0000 00ee 0000 0016 001a 000c 000d 0008 0000 0000 01b2 0000 0004 0000 0000 0008 0011 0000 0004 0007 0006 0000 0000 0002 0000 0000 000d 0000 0004 0013 000a 000c 0000 0003 0000 0006 0003 0000 00d1 00bd 01c6 0000 0000 0026 0000 0000 000a 0000 000f 0000 000d 000c 000e 0004 0012 0013 0012 0000 0014 0000 0108 0066 005d 00ab 0000 002c 0015 0017 0021 0021 003b 001a 002c 001f 001e 0000 00e6 0058 0064 0087 0042 005e 005d 0059 0058 003f 009c 008d 0060 0031 006c 0027 0124 0000 0000 0022 004e 006f 0055 0057 005c 004e 0055 005f 0070 004f 0048 00d6 002d 002c 0000 00ea 0018 0000 002c 0027 0011 0017 0000
0006 001b 0000 001e 0000 013c 0000 0018 0028 0000 0000 0042 004f 0024 000e 0004 00c8 00a0 00e0 0000 0019 0007 004c 0016 0019 0019 0027 0026 0019 0021 0009 0010 0000 0000 0071 0049 0092 0000 0048 006f 003d 001c 0056 0072 0000 0000 0000 0000 0046 002b 0041 0012 0040 0000 004b 0025 000f 0036 0025 0016 0035 001f 002c 0025 0033 002f 0036 0018 002d 001d 001b 0039 000c 002f 0032 0012 000f 001e 002d 002c 0016 0028 0013 0041 001c 0016 003b 000b 0000 0145 0050 0046 006f 003f 0072 005b 0067 007b 0060 008f 0000 009c 0085 0000 0090 005b 004f 007e 0054 005e 0050 0097 0050 0098 0000 0098 005f 005b 00bd 0000 0117 0000 00b0 0043 006c 007c 0000 007f 0091 0000 007b 00c0 0047 00ce 001c 0141 0000 01c6 0000 0015 0000 0007 000f 000e 0000 0000 00fa 0000 01de 0000 000e 0000 0001 0005 0001 0007 0000 0008 0000 0033 0000 0000 0002 0000 0005 0004 001b 0000 0009 0005 0003 0004 0009 0000 0040 008d 0000 001b 0000 0000 0027 0000 0001 0012 0001 0014 0002 0016 001d 0004 0017 0000 001c 0007 0000 0000 00a6 0058 0064 00d7 0000 0019 0037 0028 0038 000d 001f 0013 0018 0016 0000 0136 005a 0066 0072 0056 0058 005e 0057 0038 0080 0055 001b 00b1 00be 005c 00d5 0000 0026 0032 0000 007b 005b 0058 0055 0054 005a 0052 0052 005e 0064 0060 005c 0022 0028 0000 0070 0063 00a1 0000 0018 003c 0018 001e
002b 0015 0000 0003 0022 0000 0148 0000 0000 003b 0005 0000 0000 0021 0013 000e 0000 0000 0000 0017 0017 0014 0000 0038 001a 0016 001b 000b 0029 0017 0025 0007 00d2 005f 0026 0000 0000 0035 001d 0000 000c 0004 0000 0000 0016 0014 0000 004c 0038 0032 0037 0001 0028 002f 001f 003c 002f 003e 001b 0015 0053 003b 0024 0051 0000 0024 0025 0027 0022 002b 0027 001d 0012 002c 0014 002e 002a 0042 0003 0020 0022 0013 003b 0011 001b 0037 001e 0000 0017 0000 0109 0063 0050 0060 004b 0063 004b 004a 0054 00aa 0000 00ae 0088 0042 0070 0062 0051 0087 0055 005e 004b 0084 0055 0091 0000 0095 005c 005c 00c1 0000 010f 0000 00bc 0082 0050 0066 0054 0069 009c 0000 0092 00c0 0000 00a8 012c 0006 017f 0000 004a 0000 008e 0000 001c 000c 000c 0004 0000 00dc 0000 0139 0000 0002 0009 000a 0007 0004 0000 0008 0006 001b 001e 0000 0000 0000 0009 0000 0003 0017 0010 0000 0006 0005 0000 0000 01dc 0000 021d 0000 0025 0000 0000 0005 0000 0004 0000 0000 0000 001e 0000 0016 0008 000d 0012 001c 0013 0000 014a 0059 0065 0079 00d0 0000 0016 001f 0000 001d 0010 0025 0024 0026 0001 0000 008e 00b3 006e 0056 005f 004d 0031 007b 0081 0061 00aa 0087 0122 0000 0064 0021 0018 0001 009f 0088 007f 0031 0077 0052 0064 004f 0061 005c 0059 0080 002f 0028 0000 0028 0000 00d1 0000 001f 0000 002c 0021 0015
0006 0020 0000 0089 0000 0038 0000 012e 0041 0000 001f 0019 0012 0014 0012 0009 0019 0011 0013 0013 0017 000c 000e 0001 0014 0022 001d 0006 0021 0006 0009 0028 0000 0000 00af 0070 0000 0013 0016 0026 0004 0014 000e 0018 000f 0013 0000 0041 001f 0040 000d 002c 0044 0030 0000 0046 003a 002a 0012 0012 0048 0015 0025 0028 0021 0027 0024 0029 0022 002a 0021 001d 0054 004a 0020 000d 0057 0026 003e 0046 0012 0019 0000 004a 0007 0042 0053 0039 0000 0027 0000 00b6 00a7 0046 0074 0068 0073 0069 0060 00b7 0000 00a2 0029 006f 0062 0061 004b 0079 0058 0060 005c 0076 0058 0095 0000 0094 005c 005c 00c1 0000 0113 0000 00a0 009b 004d 004b 008a 005b 00a4 0000 0098 009f 0000 0110 0000 00b2 0000 017e 0000 0053 0000 01f9 0000 0000 000a 0011 0000 0000 0199 0031 0000 0000 0004 0000 0002 000c 0007 0000 0017 0006 0000 0142 00d5 0000 0000 0000 0003 000a 0000 0017 0007 0001 0009 0005 0000 01ae 0000 0000 0000 0013 0000 0034 0000 0000 0026 0000 0003 000a 0003 0003 0015 0014 0000 0004 0000 001e 0000 00b5 0064 005a 00c0 0000 0006 002e 001c 0011 0010 001f 0014 001d 0000 004b 001b 0000 00fb 0035 003f 007d 007f 0062 0064 0095 0063 0125 0000 0000 003d 0012 003e 002d 0017 0000 0078 00bd 0009 0074 0045 005f 0041 005a 003e 007c 0004 0008 002d 0000 00c3 005d 00c5 0000 00e0 0000 0020 000e
001d 0013 0000 0000 0012 0000 00d5 0000 010d 00d4 0000 0015 0012 0012 0017 001a 0017 0013 0018 000e 0012 0012 0014 0012 0003 0025 001f 001b 0018 001c 0020 0018 0000 009e 0000 0000 000f 000f 0016 000e 0017 0016 001b 000c 0011 0000 0026 0046 002c 002c 0030 003e 002a 0020 0039 0000 0039 0043 0024 0029 0021 0028 002e 0020 0028 0029 0026 0022 0026 002a 0024 0021 0019 003f 0028 0027 003b 0029 000b 0021 0015 0030 0043 0023 002a 0024 0034 0005 008b 0000 000c 0068 005c 006d 003e 0064 0053 0065 0063 00b7 0000 00ce 005c 008b 004f 005d 0060 0053 005e 0060 007a 003d 006e 0088 0000 0094 005b 005b 00c3 0000 010b 0000 00a6 008b 004a 004b 0096 0050 00ac 0000 00a2 00a4 0000 0094 0142 0000 0000 0000 012d 0000 0000 0000 00af 0034 0000 000a 0003 0000 0000 0180 0000 0046 0000 0008 000e 0000 0000 000c 0000 00d5 00bc 0086 004c 0000 0016 0000 000b 0007 0009 0000 0000 0006 0000 0000 0002 0000 0000 014b 0000 0000 0006 0000 0016 0007 0000 0025 0011 0000 002b 0012 0000 000b 0006 0008 0012 0000 0000 00ea 006d 0064 005f 00d9 0073 0000 000a 001e 0011 0017 003c 0000 0051 0027 0026 0018 0000 00aa 006e 0066 0069 000e 0088 0084 0121 0000 0000 00f7 0000 00c0 0003 0026 0027 001f 00b6 0000 0000 007d 003a 0045 00e4 0023 00fa 005b 0034 0016 001a 0000 00a2 006a 00dc 0000 0008 0014 000c 0028
0031 001c 00e1 0000 0014 000f 0000 0044 0000 0000 0024 0015 0017 0012 0016 000c 0011 0015 000f 0013 0015 0014 000d 0015 0010 0000 003b 0023 001f 0014 001f 0015 001d 0025 0076 0000 002e 0009 0016 0011 000a 0016 000f 0013 001a 0000 006a 0015 005c 000f 001a 0022 0038 0022 000b 0033 002f 0029 002f 001c 0025 0023 0027 0027 002a 0024 002c 0028 0025 0028 0023 0021 0047 0000 004c 0049 001f 0024 0000 004c 0024 0044 0024 0052 0034 000a 0000 0025 0036 0000 0014 0000 013c 005c 005b 004e 0054 0067 005a 009a 0000 00a1 0052 007b 006b 0059 005c 0061 0059 005f 007d 0007 007a 009a 0000 008b 005e 0061 00b8 0000 00f9 0000 008c 0085 004a 006b 0070 0054 00a2 0000 00ac 00a3 0000 0098 0089 0127 0000 008e 0000 0102 004c 0061 0000 01bf 0000 0011 0000 0001 0000 0038 0000 015b 0000 0014 0007 0004 0000 001d 0000 00fb 006c 009b 0138 0000 0000 0002 0011 0004 0008 0004 0014 0012 0016 0000 001f 0000 00d1 0000 0000 000d 0005 0015 0000 0000 0008 0009 000e 000e 0000 000b 0000 0000 001e 0000 0000 0066 0002 0000 007f 0068 0065 00e8 0000 0051 0000 0000 0011 0000 0000 00a0 0059 0000 0000 000a 010c 00d5 0058 006f 0017 00bc 0094 0115 0000 008e 010c 0000 0043 0000 002b 002f 001f 003a 00a6 0000 002d 004a 009e 002e 0037 002c 001e 00ae 003d 0006 0021 0000 00be 0015 006b 0008 0004 0028 0025 0015
0000 0000 0000 002d 0000 002e 0000 0012 0035 0019 0000 0013 0013 0010 0014 000d 0016 0015 000d 000e 000f 0013 000d 0012 000f 000a 0000 0046 000b 001e 0019 000d 001c 0004 000a 0012 0010 0013 0010 0014 0026 0013 0012 0012 000d 0000 0029 0017 0014 0028 0015 0032 0058 0003 0008 0000 0030 002b 001c 0035 002c 001e 0028 0023 0021 0028 0023 0022 0027 0026 0023 000e 006a 0034 002f 0000 0030 0041 000c 0037 003b 0000 004c 0000 003a 0040 0020 0023 003c 002d 0000 002e 0000 00e4 005e 0062 0072 0048 0054 00bb 0000 00aa 005a 0062 0086 0054 005f 005e 0060 0059 0097 0000 0092 0084 0000 0094 005a 0062 00b8 0000 00ed 0000 009a 0076 0039 009b 004a 0055 0098 0000 009b 00b3 0000 00af 004c 007b 00ad 00a2 0000 0000 0126 00dd 0000 0000 0182 0000 0000 0000 0006 0000 0099 009f 0101 0000 0004 0000 0000 0000 002a 007b 00a2 0075 0000 000a 0000 0007 0000 0012 0000 0012 0000 0031 0000 0139 0000 0008 00fa 009f 0041 0000 0014 0000 001a 0004 0000 0012 0001 0003 0003 000d 0011 000d 0000 0047 0128 00e9 004b 0000 0109 005e 00e0 0000 001a 0037 002b 0040 0000 008f 004f 0000 0000 011a 00ca 009d 00fe 0000 00d5 0000 00ce 0086 0130 0000 002f 0000 0055 010e 0000 0031 0000 002c 001e 00b7 0007 0062 0044 0000 00d2 007f 008d 00d7 002b 0000 0000 001d 000a 003b 0000 0014 005f 0039 000d 001c 0018 0019
00a8 011e 0000 0000 017b 0000 0021 0000 0007 0025 0012 0018 0010 0015 0014 0017 000f 0014 001a 0011 000b 0013 000c 000d 000e 000d 0009 0000 0030 0017 001e 0024 000c 001f 000f 001a 0012 0019 0015 0012 000d 0017 000e 0017 0000 005c 0026 0039 0025 0002 004c 004e 0007 002d 007c 0000 0030 0026 0023 0024 0021 0033 0024 0025 002b 0023 0028 002a 0027 001d 001e 0041 0007 0009 0028 0054 0024 001f 0038 0033 0039 0062 0045 0066 002d 0044 0061 002f 0021 0058 0058 0000 001c 0000 0110 0070 0045 0071 0055 0057 00c9 0042 0059 0059 007d 0055 005c 005f 005d 0059 00a8 0000 009c 008f 0000 0086 005d 005a 00c0 0000 00dc 0000 0088 006a 0043 00ab 0051 005a 0071 003b 006d 00b3 0000 00d3 0024 0061 0065 00a3 0006 0056 0000 00fe 0163 0000 0000 006d 0000 0000 0000 0014 0000 0012 0000 00b0 0000 0000 000e 0022 000e 00de 0072 0060 0014 0003 0009 0000 0000 0000 0016 0000 0056 0000 0036 0112 0000 0113 00a4 001e 0148 0115 0000 0000 000c 0000 000b 0000 0000 0019 0005 0001 0000 0000 0016 0005 006d 00a2 00d4 0000 0000 0122 0000 0013 0026 002b 0003 003d 0055 0027 0000 00ee 00bd 007f 0087 010f 0000 002a 0000 0104 0088 011a 0000 0021 0032 005b 0000 0000 0010 0027 0018 0037 0026 009e 00e2 000e 0015 00e5 005f 0079 0088 0078 0017 0015 0022 0026 001a 002f 000c 000d 001d 0000 0021 001f 0015 0023
0000 0020 0019 0000 0000 000e 0001 0022 0022 0017 0011 000f 0010 000d 0010 0013 0008 000d 000d 000f 0012 000b 0012 0009 000d 0013 0010 000e 0000 0031 000f 0014 0013 0013 0014 0018 000a 0013 000c 0019 0008 000b 0016 000e 0000 0031 0026 0020 0022 004b 001f 0020 0049 0029 0064 0000 002a 002b 002b 002a 0028 002d 0019 0029 0026 0024 002f 0023 0024 0027 0027 0028 000c 0041 0038 0029 004e 003b 005c 0053 0000 0000 0004 0000 0001 0000 0000 001b 0062 0000 0067 002b 0019 000f 0000 00ff 0069 005f 0062 0065 0035 0067 005f 005e 0054 0061 005c 0060 005a 0061 00b1 0000 00ba 007e 0000 0089 005b 0060 00c0 0000 00d6 0020 007f 005a 0060 0076 0058 005c 005d 0075 005d 00a9 0000 00e1 0000 0086 006c 008e 0000 011c 0099 0000 0093 00f1 0046 0000 020b 0000 003b 0000 0009 0000 0074 0000 01b6 0000 0008 0000 00b7 0096 007c 008e 0154 0000 0000 0013 0015 000e 0014 0009 0000 001e 0000 0115 00bd 0002 00a7 0110 0000 000a 0000 001f 0000 0015 0018 000b 0017 0004 0000 002a 0001 000a 0003 00d1 0096 006c 00b0 0174 0000 000b 0003 0023 002f 0000 004f 0052 001d 0000 00fb 0085 0083 0082 0107 0000 0000 0000 012a 0090 0122 0000 0025 002d 0014 000e 0031 0016 001b 0020 0021 0010 00d9 0065 00ad 000a 003b 0088 0071 0076 007e 004b 000a 001d 0017 002b 0012 000f 0025 0021 0017 001c 0019 001e 0017 0000
0000 0000 0108 0000 0000 0009 000d 0013 0009 0005 0009 0016 000a 001b 000b 000b 0015 000b 000c 000e 0008 000d 0012 000a 0009 0008 0004 000e 000e 0000 0020 0023 0021 0010 0012 0011 0012 000e 0014 0011 0011 000d 0012 0001 0058 002b 0021 0032 0026 0009 0038 003b 0000 004e 0025 0036 004b 0025 0027 0026 0027 0023 0027 0027 002a 0024 0021 002b 001b 001e 0029 0030 0029 0032 004c 006d 0000 0014 0000 0001 000e 0010 0018 0014 0018 001f 001e 001a 0009 0004 0005 0011 0008 002c 0012 0000 00c1 0069 0056 0054 007a 006d 0055 005a 0065 0060 005b 0060 005d 005c 00c0 0000 00b4 008b 0000 0084 005b 005f 00bf 0000 00c0 0034 00a1 0044 0067 004c 006d 005d 004f 008b 0056 0096 0000 00ee 0000 00b7 0064 008d 0000 0082 0073 008e 001f 00d2 0000 0193 0000 00f3 0000 0000 0000 001b 0000 0198 0000 0000 001c 0005 0012 00bc 006b 00c3 0000 0000 0037 0000 0006 0017 000f 0010 000c 001b 0012 0000 0000 0022 0001 0000 0087 0036 0079 0000 0006 0010 0000 0000 0000 0000 00ad 0000 0000 001d 0037 0094 0034 00ec 001b 0000 018a 0000 003c 001f 004b 0034 0056 0000 0000 00f4 0088 0080 0074 0116 0000 0000 0021 00fb 0097 0124 0000 001c 0025 0011 002f 0026 0025 0014 0025 0019 002c 0029 00aa 0093 001e 0035 00c1 007d 0072 0071 00ce 0000 00bc 00c9 00dc 0016 0033 001e 0019 001d 0020 001a 0016 001a 0001 009c
0000 0058 0000 00f8 0014 0004 0015 000a 000b 0011 0013 0009 0010 000f 000d 0008 000e 0015 000b 000c 000f 000d 0008 0007 0014 000e 000e 0000 0008 0008 0000 0000 002b 0014 0016 0014 0017 001f 000b 000f 0010 000f 001f 0000 0046 0027 002b 0020 001e 0020 0039 0018 0046 0025 002d 001e 0038 0014 0025 0022 002c 0024 0025 0025 0028 001f 0024 0010 0046 002b 0032 0025 0041 0062 0000 0000 0014 0018 000e 0000 0000 0000 0000 0000 0000 0000 0000 0000 0000 001e 0000 0000 0027 0009 002d 0000 0120 002b 0064 0071 004c 005b 0061 0061 005a 005e 0064 005b 0060 005e 00bc 0000 00ba 007d 0000 0087 005b 005d 00bf 0000 00bc 004c 0092 004c 00a0 0000 009b 0052 0057 008c 004b 0085 0000 00d3 0000 00ae 0051 0084 0000 0091 00b0 0000 0124 0027 0000 0087 013d 000a 0000 000f 0000 0007 0000 0033 00a9 0193 0000 003b 000a 0109 00b7 010c 000f 0013 0000 000e 0007 0010 0005 0009 000b 0007 0012 0001 0011 0008 0011 0005 0000 01ad 0000 0000 0000 0000 0000 015d 0138 01c9 0000 0000 001c 0018 004f 00ab 00c9 0000 0031 0000 01b0 0000 0027 002b 0000 005c 001a 0000 00ff 0081 007d 0079 00f8 0000 0000 011a 00b4 00ca 0100 0000 0025 0018 0026 0012 0026 0015 0013 004c 0000 0020 000f 00f3 0068 0094 0036 0068 007c 006f 0071 008e 0000 00be 0075 0065 00e6 0025 001d 0008 0021 001f 0019 001c 0014 0019 0019 0000
0000 0000 0018 00a8 0000 0018 0015 0006 0011 000f 000b 0008 0012 0004 000f 0010 000b 0013 0005 000e 0009 000f 0001 0007 0009 0007 0007 000f 0005 0006 0004 000e 0000 0023 0016 0010 0014 0005 0017 0018 000e 0013 0000 004a 0028 002d 0027 001a 0025 001c 0000 003e 0028 0031 0020 0033 002e 0030 0021 002a 0027 002c 0023 001e 0022 001e 003d 0032 0023 0035 002f 0070 0000 0000 0018 0014 0000 0000 0000 006e 0096 005a 005b 0068 0061 006e 0071 006d 0086 002f 007c 00d2 0000 0001 001d 0016 0000 0130 0056 0067 005f 005a 005d 005e 0058 005d 005f 0060 005d 005d 00b9 0000 00bf 0078 001f 0072 005d 005e 00c0 0000 00b7 0068 0085 004b 00a9 0000 00ac 004f 0072 0063 0052 0073 003b 00b5 0000 00b2 0066 00af 0000 00bd 009a 0000 005b 00cc 00ea 0049 009e 0000 0165 0000 0041 0000 0000 0000 01b2 0000 001c 0000 001e 000b 001b 0000 0027 0000 0003 0009 0009 0008 000c 0011 0009 000b 0003 0009 0004 000b 000b 0000 0000 0000 00f2 00e8 0100 00fc 00ce 011e 0000 0000 0002 0018 0000 0000 00f2 0076 006c 00ef 0001 000e 0000 01a6 0000 0083 0000 004e 0000 0108 0085 0078 0077 00a3 0000 00e5 00d8 00d2 013b 0000 0000 0014 0020 000f 0017 0028 0012 0020 0018 0017 0016 0027 002c 009b 0076 006f 001b 00a4 0073 006f 0076 0084 00a0 006d 006b 0082 005a 0013 001c 0013 0019 001c 0017 0016 001a 0016 001c 0027
00f5 0000 0042 0000 0114 0000 0005 0010 0018 0012 0008 000c 000a 000f 000b 0002 0000 0000 0000 0000 0000 0000 0000 0000 0007 0001 000a 0004 000f 000b 000a 0000 0005 0000 0034 0012 0010 0012 0014 0012 0007 0010 0000 0043 0022 002e 002d 0016 0050 0036 005d 0027 003c 002a 0028 003f 001d 003e 000c 0022 001c 0006 0037 0037 002c 0036 0027 0029 0034 0034 0012 0000 002c 001b 0022 0000 00b0 004c 0069 003a 0038 003c 003f 003a 003e 003b 003b 003f 003b 0047 0034 0033 0062 0083 0000 002f 0010 0000 0107 0044 005c 005f 0063 005b 0065 0060 0058 005c 005f 005b 00c5 0000 00bb 0075 001e 007e 005a 005c 00be 0000 00b0 0076 007b 0057 00b6 0000 00c3 0043 00b0 0043 005b 006a 0043 009e 0000 00ce 0028 00ec 0000 00a5 0088 0000 0088 00d8 006c 006c 0084 0000 00ca 01a2 0000 0070 0006 0027 0000 01b6 0000 01b8 0000 0010 002d 0017 000e 0026 0008 0022 0002 001d 001f 0005 001e 000b 001c 000c 0020 000b 0011 0000 002a 0000 002a 00f2 0081 00d6 0140 0000 0000 0023 0017 000e 000e 0000 010e 00bd 008e 00da 0000 0030 0000 0148 0000 000a 0000 0063 0000 00cc 007b 007d 007e 007f 00a8 00cd 013c 0000 0000 0002 0016 0020 0013 0030 000e 0017 0014 0015 001d 000e 0014 001b 0063 008e 006b 0083 008d 0066 007c 006e 006c 0073 0072 007a 0069 00f4 0005 0000 0018 0018 0017 0023 0005 0021 0019 0017 0010 000a
0013 0131 0000 0005 0000 0017 0007 0011 0008 0009 0014 0000 0009 0008 0007 0000 0004 00d4 00f6 00d2 00a9 00b1 00c4 00ca 0000 0004 000a 0004 0005 0002 0005 0000 000f 0000 0000 002f 000b 000c 0012 000e 0010 0004 0078 001e 002e 0018 0000 004a 0027 001d 002a 0028 002a 002a 002b 0028 002d 002c 0026 0049 002f 0036 002c 002b 002b 0029 002a 002e 0047 0000 0000 0026 000d 0000 0000 0071 0034 004a 003f 003b 003e 003c 003d 003d 003c 003f 003f 003a 0041 003e 003d 003d 0042 0039 0096 0000 001f 0031 0000 012a 0062 0064 0055 0060 0062 005c 005f 005f 005b 005d 00b3 0000 00b4 006c 003b 006b 005f 005b 00bf 0000 00ac 0084 005e 006a 00b3 0000 00b1 0058 008e 0055 0059 0059 007d 005a 003d 00bf 002f 00dd 0000 00a3 007c 0023 00b5 0000 0104 0028 006c 0096 0020 0000 015c 0019 0000 001e 0012 0000 01b1 0000 0088 0000 0000 0004 0012 0000 001d 0008 000f 0010 0009 0015 0005 0000 0000 0067 0000 0000 0000 004a 0000 0145 013c 0000 0173 0000 0000 000e 001a 000e 0012 000c 0012 0019 0008 0000 0142 0020 0036 0000 0000 00d9 0152 0000 0000 0005 010a 007d 0079 007c 0081 0096 013c 0000 0000 0000 001e 001a 0011 001a 000d 001b 0010 0017 0023 0012 000c 0007 0024 002d 00d2 0071 006f 0077 0074 0072 0070 0072 0078 007a 0076 005a 00de 002f 0000 015b 0000 001d 0014 0015 0019 001d 0016 0013 001d 0015
0000 0000 0000 00fb 0000 0000 0015 0007 000c 000b 0008 0018 0007 000b 0000 0000 00ec 0058 004e 005d 0064 0052 0067 0062 011f 0000 0000 0000 0000 0004 0002 0004 0000 0005 0000 0019 0017 0008 0018 000f 0006 0000 0038 001a 0024 0029 0055 0029 002a 0029 002e 002e 0030 0025 002f 0029 002c 002c 0032 0019 002c 002a 0029 002a 0028 002b 002f 0053 0000 0011 0027 0011 002f 0000 006e 0056 003d 0036 0037 0041 003a 003a 003a 003c 003c 0038 0038 0039 0040 003b 003d 003c 0043 002f 0044 0082 0000 0000 002d 0000 00f6 0055 005b 005e 0054 005f 005b 005f 0061 005c 009d 0000 009a 006e 0031 006d 005d 0060 00be 0000 00af 009c 001a 0072 00b7 0000 00b6 0072 0044 0072 0058 005e 007b 0051 00a2 0000 00ef 0036 0000 00af 005c 009d 00aa 0000 000f 0094 0062 00ab 0000 0027 0000 0118 009c 0000 0011 0034 0000 016c 008d 0000 0008 0000 000e 0009 0019 0008 0014 001d 001d 0017 0000 01fc 0000 0000 0000 001a 0110 00c7 00c9 0133 0000 0000 0000 0000 001c 0005 0029 001d 0020 001a 000e 0012 0014 0016 0000 0013 0000 00f3 0068 0097 0066 00ef 00f2 00b9 0086 007a 0082 00cc 0105 00c2 0000 0000 0029 0005 000c 0010 0016 000f 0016 000f 002a 0014 000d 0017 0009 0000 0019 0000 0096 006d 0072 006f 0073 0071 006f 007b 006e 0069 0074 00a4 0032 000c 0000 00ec 0008 000f 000d 0015 0012 0018 000d 0012 002c 0000
0000 000d 0000 0000 0003 001a 0009 0006 0006 000a 000f 0002 000b 0007 0000 010d 0057 005c 0059 005d 0057 0063 0058 005d 0095 0000 005c 0060 0000 0000 0003 0008 0008 0002 0000 003e 000b 0014 000d 000c 0000 0062 0011 0017 003b 002e 0025 0028 002f 0028 0030 002c 0026 002e 002e 0029 002a 002c 0020 003a 002a 002d 002f 002b 002d 002c 003f 0000 000b 0019 001a 0000 0000 009b 0041 0046 0034 002d 0037 003b 0035 0040 0038 003a 003b 003f 0040 0040 0036 0041 003d 003d 003c 0036 0043 004a 0059 0007 0000 0011 0049 0078 005c 0063 0061 0061 0063 004a 0061 005b 0087 0000 0083 0066 0041 006b 005e 005d 00bf 0000 00a4 00bc 0000 0083 009a 0000 009f 009a 0000 0099 005c 0057 0081 003c 00d5 0000 0164 0000 0000 00a5 008b 005a 0053 00f1 00cb 0037 0064 0071 00a1 0000 00b4 0039 009e 003a 0000 0001 0000 0122 0000 015d 0000 0015 000a 0000 0017 000e 000e 0000 0032 001b 003c 0000 0027 010f 00d6 00bf 0077 007d 00e7 0000 0000 018a 0000 01ba 0000 0028 001e 001b 001a 001d 001d 002e 0000 0010 0000 0000 0010 00b5 00ad 0072 0086 007f 007d 007c 0078 008c 0125 0000 0000 0000 0024 0013 0005 002f 0028 0011 0019 000c 000f 0000 0000 0052 00b4 004e 0000 0014 0000 0136 0060 0072 0071 006e 0074 0080 0074 0066 0075 0070 0087 0071 001d 0000 00cc 0109 000d 0022 0010 0017 0010 0013 001a 0029 0000 0016
0025 0021 0009 0011 0008 0003 0008 000a 0009 000c 0005 000d 0001 0000 0117 0059 005c 005a 005e 005d 005b 005f 005f 005c 009e 0019 001d 003f 005c 0000 0000 0001 0000 0007 0000 0000 0016 000f 000f 001a 0000 003f 0005 0068 0024 0023 002e 002a 002a 0029 0024 002a 002b 0026 0029 002c 002c 002a 002c 0028 002b 0025 0027 002f 002a 0039 0000 0016 0018 0009 0000 005d 0045 004b 002b 0043 0045 0027 0039 0044 0038 003c 003e 003d 0041 003c 002c 003c 0046 0037 003b 003c 003e 003c 0044 0036 0031 0075 003f 0000 0000 014c 0052 005c 005e 0060 005e 006c 005c 005a 007a 0010 007e 005e 0051 0067 005c 005b 00c1 0000 00a6 00c6 0000 00a2 0083 0000 007b 00a7 0000 00ab 0053 005e 006c 007e 00bb 0000 0000 000c 0069 0070 008e 0044 00cb 0000 0076 005a 0085 00f5 0000 0119 0000 0141 001b 0006 0000 0000 0014 0000 01b3 0000 00f3 0000 002e 002a 0000 0029 0000 01bb 0000 0031 0004 0000 0103 007e 007f 007b 007d 007d 00d7 0000 0022 0000 0000 0000 0000 0029 0023 0025 002c 0022 0022 001b 0007 0010 0000 0017 0002 00b5 0064 0089 0080 007a 007c 007e 008e 014a 0000 000d 0009 001c 0015 001f 0023 0014 0012 0021 0006 0000 0000 00e2 00d1 00a3 00c1 006a 00cc 0036 002d 0004 00b7 008f 009c 0067 0073 0072 0072 007b 006f 0073 0090 002b 0005 00cf 008d 002d 0027 0010 0000 002a 000d 0010 001d 0000 001a 0008
000b 0000 0009 0000 0008 0013 0003 000c 0000 000e 0000 000d 0000 0100 0061 005e 005a 005f 005b 005c 005c 005c 005d 005a 00c1 0000 0030 0000 0024 004a 0077 0000 0008 0000 0003 0000 0025 0015 0008 0000 006a 0008 000a 0021 0030 002a 0029 002a 002c 002b 002b 0028 0033 0026 0030 002b 002c 002a 002b 002b 002a 002e 002d 002b 0024 0074 0003 000d 0020 0000 007b 0054 004c 0003 004a 0043 002e 003b 0049 0037 003d 0044 0014 0003 0011 000a 0012 0018 0005 0006 0036 0069 0066 0058 0041 003f 0032 0035 002c 0044 0014 0000 00e4 0061 005f 005b 004e 005d 005d 0060 0065 0049 0069 0063 004f 0067 005e 005b 00c1 0000 00ae 00b8 0000 00aa 005a 0071 005a 00c2 0000 00b2 0052 0080 004a 009f 00a5 0000 003a 0000 00ec 0072 0000 00a7 0086 0000 00b9 0059 00cf 0000 0000 00df 0000 0000 0100 00e4 0000 0006 0000 0012 0059 0073 00c9 0149 0000 0006 002f 002c 003d 0000 01aa 0000 0000 00ff 0081 007c 007c 007d 007c 0080 00d1 0000 0000 0000 012d 0000 0178 0000 002a 0033 0011 0029 0014 0028 001f 0013 0017 0013 0003 006b 008a 0090 0063 0081 007a 0086 013b 0000 001c 000b 001b 0017 0014 0015 001a 000f 0019 0014 000f 0017 0021 0093 0099 0093 003f 008c 0080 00b6 00ca 0054 0000 004e 0000 0092 0074 006e 0077 0074 0077 006b 00cb 0021 0000 00ab 0086 002f 0023 0000 000c 0010 000f 0015 0001 0010 000a 0015
0000 00c2 0000 000a 0018 0000 000f 0006 0003 0005 0016 0000 016a 004e 0057 005e 005c 005b 005c 005b 0057 005d 0089 00bf 0000 0021 000a 0089 000e 0025 0016 007d 0000 0011 0000 0000 0035 0000 0018 0000 003e 0037 003a 002b 002c 0028 002f 002b 0026 001d 0031 002c 002b 002e 0029 002d 002d 002a 002b 002b 002b 0028 0027 0028 003e 0000 000e 0017 0000 007c 0030 004a 0023 005b 0045 0025 0047 003c 0000 000a 0009 0000 00a8 00b7 008a 0093 009b 008e 009d 0137 007d 0000 0000 0000 004d 00a8 004d 0035 0037 0048 004c 0007 0000 011d 0059 0060 0061 005e 0060 005d 0058 0077 0057 0060 0058 0062 0057 005f 00c4 0000 00bb 00bb 0000 00bf 004e 009e 0055 00ba 0000 00c3 004a 007d 005f 0070 00ae 0000 0030 0000 00e2 0091 0000 00ef 0000 005d 006d 00f6 0078 0014 0000 009a 00a1 0112 0000 00e7 0061 0000 002c 0007 0008 00bf 0006 00a3 0021 009d 0000 004a 0000 0002 0000 0113 00bb 007c 007f 007c 007d 007a 007d 0087 0095 0000 0158 0000 0000 015c 0000 0043 0033 0030 0031 001c 0024 002f 0030 001c 0000 001a 0056 00cb 0092 0077 0085 007c 0084 0163 0000 000b 0006 0019 0015 000e 0017 0015 0014 001a 001d 0011 0015 0008 0009 007f 0071 0090 004d 0062 0055 0090 0086 00a3 00a5 007e 0083 007a 0075 0070 0070 007a 0066 00a1 001a 0007 00e0 0059 011e 000b 000b 0001 0018 000c 000f 0005 0017 0015 000e 000b
000e 0000 0014 000b 000b 0006 000c 0006 0005 0000 0000 0000 0089 0062 005c 005c 005a 005c 0050 0054 0077 0072 0000 0000 0025 002f 0022 001b 0019 0026 0022 0025 0059 0000 0000 0000 0000 0023 0000 005b 0002 0036 002b 0028 0028 0031 0029 0028 002d 002d 0025 0028 0031 0029 002b 0028 0028 002b 002b 002a 002c 002c 002e 002d 0067 0000 0016 0027 0000 0088 0042 000f 0067 002e 0044 003b 0000 0000 00f9 0086 009d 00a9 006f 0069 006a 0068 00bb 00cd 00ef 0000 0000 0028 001f 0022 0000 0000 0000 0066 0043 0036 0061 002a 0000 0000 0101 0062 005c 005d 0060 0059 004e 00a3 004c 0063 0058 0062 0055 005f 00c2 0000 00ce 00c4 0000 00bc 0055 0085 004a 00b3 0000 00bb 004b 009b 0083 0000 00d4 0000 0049 0000 009c 00a7 0000 00da 0000 00f3 0091 0000 00c4 0000 0109 0000 00a4 0097 0134 0082 00d6 0000 0000 0025 0022 00f7 0000 0124 005c 000c 0030 0000 00e2 0000 0107 0076 0084 007d 007d 007e 007e 007f 007c 0080 0079 00c7 0100 0013 004a 000a 0041 002a 003d 003d 0029 004c 001f 0023 001d 0014 0012 0016 0017 00b1 002d 0083 0078 0084 015f 0000 0014 000d 0018 000d 001b 001c 0014 0014 000d 0014 0008 0008 0007 001a 011c 009f 008a 0054 0085 009e 0096 004b 0089 000b 0097 0064 0080 004a 007b 0080 0074 006d 0073 00c0 0014 0020 0083 00d1 0001 0018 0003 000e 0009 000f 001a 000b 0009 000d 0016 0006
0002 0000 0000 0004 000b 0000 0008 0000 0003 0001 0000 0109 0062 005c 005c 005a 00a4 00a5 00ce 00af 00b0 00fe 0000 0038 0021 003e 0000 0027 0020 0025 0027 0017 0029 006c 0000 0000 0000 001b 0000 0043 0037 0032 0028 002c 0025 0027 002a 002a 002b 0027 0023 002e 0021 0026 002e 002a 002c 002b 002b 002b 002d 0029 0026 005b 0000 001b 0019 0000 0059 0049 002e 0039 0018 0047 0000 0003 0103 0073 0080 0065 0068 0067 0067 0065 00b7 014d 0000 0000 0000 0020 002a 001a 002e 0020 0026 001c 0025 0000 0080 0046 0031 0046 005f 0000 0000 00b0 005d 0058 005c 0063 004c 008e 0041 0066 005a 0066 005f 0052 00ba 0000 00d8 00af 0000 00af 0064 0075 0055 009f 0000 009f 005a 0068 009e 0000 00e4 0000 0022 0000 00a0 0093 0000 00de 0000 0095 00b1 0000 00f0 0000 00cd 000e 0000 0000 0114 0000 0142 011a 0000 0000 0000 00f3 00f3 0000 011c 0000 0000 0000 00dd 00ca 0078 007d 007d 007d 007d 007d 007d 007e 007c 007e 0083 00c8 0000 002a 0049 0028 006a 0004 0043 0039 003d 0034 0038 0030 0028 0024 0011 0018 0000 00e5 00a0 007d 0081 014b 0000 000e 0000 0000 001d 0008 002b 0005 0013 0018 0021 0015 0018 0000 0023 0000 0043 0079 0071 0078 0059 0089 005e 00a5 0065 0060 00b6 004b 0068 00a7 007d 005a 0075 0076 0081 0024 0003 00d7 008f 003c 001a 001b 0006 0006 0011 0004 000e 0012 0011 000a 0000 0019
000a 0025 0000 0003 0000 0009 0005 0001 0000 0000 00ff 0062 0056 006a 009e 00e1 0000 0000 0000 0000 0000 0000 0000 0032 0047 0039 0038 001e 0020 0020 001f 0025 001d 000e 0087 0000 0000 0016 0000 0065 0031 0025 002a 002b 002a 002a 0029 002b 0023 0034 0035 002b 0027 002b 002d 002d 0029 002a 002a 002a 0028 002f 003d 0003 000f 0012 0023 0000 0069 0053 0005 007a 002d 0000 010a 0077 0062 006c 005f 0068 006b 0063 0077 00dc 0000 0000 0014 002e 0023 0000 000d 000a 000a 000c 000b 0000 0046 0024 0000 0000 006e 0048 0039 0044 0000 0106 005e 0071 0058 0060 004d 0080 0055 005b 005b 0053 005a 0067 00b5 0000 00d6 00ab 0000 00b5 0083 0048 0061 0074 0023 0070 005b 005b 00c0 0000 0109 0000 0029 0000 0093 006b 0034 0128 0000 0094 00be 0000 00f6 00d6 008b 0000 007b 00be 0000 0000 0000 00a4 01a1 0000 0017 002b 00ac 00c6 0061 0000 00d4 0006 00dc 0081 007c 0080 007b 007e 007d 007e 007e 007c 007d 007f 0071 00df 0008 0046 0049 0068 0000 006a 003e 0048 003e 0035 003e 002e 0033 0027 002d 0009 0040 0000 00c0 0080 015d 0000 0004 0006 0027 002b 0006 000a 001a 0015 0019 000d 0015 0010 0006 000d 0006 0128 00b1 0065 0070 0061 00a0 006d 0084 0095 0058 00bb 0000 00b7 007c 006b 0075 0077 0075 0077 0091 0048 000f 0082 00f6 0000 0011 0000 0000 0015 0010 0015 0004 000b 000e 0001 0019 0012
0005 0000 0000 000f 0010 0001 0008 0004 0000 00f7 0072 005b 0056 00ab 0000 0000 0000 0000 0189 0000 0066 0042 0062 0000 0000 0000 0052 003d 001e 001d 0023 0024 001f 002d 0023 0000 0000 0000 0000 0064 002e 0028 002b 002b 0028 002b 002c 0027 002e 0028 002d 0023 002b 0028 002b 002e 0028 002a 002a 002a 0028 0031 0051 0000 0023 0016 0000 005f 000f 0039 0058 004a 0000 00e0 005d 0064 0068 0064 006b 0066 0065 006c 0080 006c 0000 0021 003b 0013 0004 001c 0016 0017 0013 0016 0011 0027 0000 0000 0032 0010 0000 008b 002f 004f 0035 0000 0139 003f 0061 005f 0058 0078 005b 0064 004c 006d 0067 0056 00ba 0000 00da 00ae 0000 009c 00ba 0044 0059 005c 0071 006b 0075 0029 00cb 0000 0147 0000 0028 0000 009d 0067 00e8 0000 006f 0086 00c5 0000 0000 006f 006b 005c 0089 005e 00e2 00bf 0116 0000 0000 015b 0000 0006 00cb 00d2 0000 00d4 00bd 0011 0000 00b1 007a 007a 007c 007d 0080 007d 007c 007f 007d 0087 00bc 0000 0054 0044 0048 0071 0000 00b7 0045 0045 0048 0030 003d 003e 0035 003a 0021 0033 0000 0115 0087 014c 0000 0000 0000 0016 0000 0001 0015 0012 000b 0019 0010 0026 0010 0003 000a 0016 0003 0066 0065 0077 007a 0059 0072 0070 0065 006c 007d 0068 00b0 000d 0078 004a 00a5 0071 0073 006a 00d5 0000 0075 00ef 0000 002c 0000 002b 0011 0000 0007 000d 000b 000f 0009 0007 0018 0008
0008 0003 0000 000a 0000 0004 0002 0006 0000 00dd 0051 005a 005d 0123 0000 0063 00c0 00c2 00bb 0007 0017 0023 0020 003c 0056 0005 0000 0056 0003 0023 001e 0026 0017 001e 0018 00a4 0000 0000 0020 0000 0042 002d 0027 002a 002b 002a 002b 0029 003d 0000 0039 0028 002f 0033 0028 0028 002f 0029 002a 0029 002d 0036 0000 0014 001b 0000 0035 003d 004b 003d 0006 0023 00cb 0063 0069 0069 0065 006b 0066 0069 006b 0060 010f 0000 0037 000f 0009 0011 0016 0014 0013 0015 0014 0016 0017 0012 0018 0015 0003 0038 0022 0000 0088 0033 0062 0000 0000 0103 005d 005a 0059 0067 0075 005a 0054 0061 0060 0061 00ba 0000 00e0 00a1 0000 00ac 006e 005f 0061 0044 008d 0053 007d 0002 00c0 0000 010a 0000 001e 0000 009e 00a4 008b 0008 00b5 0069 0074 0000 0000 009d 00c6 0081 005d 0051 00d4 0000 0125 0000 002b 0000 0000 0029 00c7 00ca 00e3 0072 0000 0057 009b 008f 007c 0080 007c 0084 0095 009e 00a2 00a0 00af 00c4 001f 0052 0061 004f 004f 0034 00c7 0000 005b 0050 0045 0052 003e 003b 0043 0015 0040 0000 0000 00bd 012d 0000 0000 0000 00e8 0000 0009 0006 0014 0000 0026 0008 001a 0016 001a 0000 0008 000d 0087 00a0 009b 005f 0070 0083 005c 0081 0070 007f 004c 00b5 0067 0090 007e 00d2 0000 0085 0094 008b 001c 001a 00a3 0000 003c 0001 0128 001f 000c 0000 0008 000b 0011 0006 0012 0004 000d 0018
0003 0009 000a 0000 0006 0005 0003 0000 0139 0060 005b 0058 0096 0000 0000 00c1 004b 00c0 0000 0046 002b 002b 0028 0027 0022 0059 0000 0000 004c 001a 001b 0026 0025 001d 001e 002f 0000 000d 000b 0000 0041 002d 002a 002c 002a 002b 002b 002b 0029 0047 0014 003f 002a 0027 002a 002a 0029 002a 002a 002c 002c 003f 0000 001d 000e 000e 004e 0043 005d 001a 003e 0000 009a 0067 0063 0067 0067 0066 006a 0066 0061 00dc 0000 0029 0000 0015 0016 0016 0014 0017 0012 0017 0016 0016 0014 0015 0015 0015 0016 0003 002b 0018 0000 0055 0031 0069 0000 0000 0113 005b 0056 0038 0079 005b 0049 0057 0061 0058 00ae 0000 00b9 0087 0000 009e 0034 0071 005b 0054 008c 0054 0094 0000 00b9 0000 0046 001b 001b 0000 00b7 008a 0094 0000 0086 00ba 0000 0120 0000 00b5 0000 0098 0054 00ab 0000 00ee 0000 0091 0000 0010 0173 0000 0017 0000 00cc 0000 010b 0000 00fb 0078 0080 0078 008c 00b7 0013 002b 005b 0000 001e 0004 004c 0075 007b 0048 005d 0058 0064 0000 008c 0045 0049 0041 0044 003a 0021 00bc 0004 0000 011b 011f 0000 000e 0003 0019 0000 0008 0037 0001 001f 0015 0000 0018 000f 002a 0032 0000 002f 005d 00a0 007d 0050 0076 006f 006c 00a9 003b 007e 006b 00a8 0000 0086 0079 006e 006f 009a 0060 0047 009e 001d 0000 00f1 0024 0015 00cc 00a4 0021 0019 0000 000f 0007 000c 0010 0001 000c 0027 0000
000b 0000 0004 0000 0000 0005 0001 0000 00cd 0064 0058 005b 00b4 0000 011b 0051 0066 009b 0018 001a 002a 0022 0029 0029 0030 0016 0082 0000 0000 0057 001c 0021 0025 0026 001b 001a 007d 0000 0000 000a 0085 0021 002a 002c 002a 0028 0029 002b 002d 0020 002d 0026 002c 002a 002a 002a 002a 002a 002a 002b 002c 0035 000d 0011 001f 0000 0059 005e 0020 0048 0000 00be 0069 0066 0067 0069 0064 006d 0066 0068 005f 013e 0000 001e 0010 0015 0016 0016 0013 0016 0015 0014 0016 0016 0014 0014 0015 0015 0015 0015 0000 0041 0005 003c 0040 002f 00b9 0000 0000 00ff 006d 005f 0066 006c 0068 0063 0060 0061 00b2 0000 00be 0084 0069 00a9 0000 008e 0058 0070 0075 005b 00a2 0000 00b4 009a 0000 002d 001f 0000 00e0 0000 0157 0000 009f 00fb 0000 0000 00fd 009a 0000 009f 0064 008c 0000 00ba 0108 0000 0140 0000 0000 0019 0000 0106 00a7 0048 0000 0047 00a9 007f 007d 0081 0099 002d 006b 006e 0042 0092 0035 006b 0083 0083 0000 0079 004c 0055 0055 006b 004e 0051 0052 0047 004d 004b 0040 0005 0000 00d3 00ef 0000 000e 0010 002d 000b 0010 0000 000f 002f 0000 0013 0012 0010 0002 0015 0000 01a7 0000 0000 00c2 009f 004f 00aa 006c 006a 006b 0087 0070 0067 00a1 0097 0087 0076 0073 004e 008b 0090 0084 00ca 0023 00b7 008e 000b 00c6 0072 00a9 0046 000c 0000 0002 0011 0000 000e 0005 0009 0000 0012
0000 0005 0000 0000 0017 000b 0000 001e 008e 0057 0057 005d 0093 0000 00a6 004f 00ce 0000 001f 002c 0024 002b 0029 0026 002e 0063 0000 000c 001e 000d 0026 001a 001a 0021 0025 0028 002a 0000 0000 0088 0000 0064 0027 002a 002a 002e 0027 002e 0026 002a 002e 002c 0029 002a 002a 002a 002a 002a 0029 002b 002a 0047 0000 0018 0000 0080 003f 001c 003c 0023 009e 0075 0067 0066 0069 0067 006a 006a 0063 0069 00c1 0000 003c 0000 0018 0016 0016 0012 001a 0016 0014 0014 0016 0013 0014 0017 0014 0015 0015 0014 0019 0000 0005 001c 0036 0037 0017 005b 0000 0000 00d9 0063 005e 005b 004b 0068 0068 0056 003d 012f 003d 0058 0060 00a7 0000 00a5 0052 0083 004c 0062 00b3 0000 00ae 00db 0000 004c 0000 0054 00b9 0000 0000 00b8 00b9 0000 0000 0023 0081 004d 008d 0069 0050 00a1 00c1 0092 0000 0087 00be 00fd 0000 010c 0000 00be 00c2 0000 0090 0051 009d 007c 0079 00d4 0020 0053 006d 002a 0048 0054 0052 0068 0031 00a2 0000 00a5 005f 0051 0050 0055 0054 004a 0051 004d 0049 0041 0047 0000 00eb 00b1 00a8 0000 0013 0025 0012 001b 0009 000b 0018 0019 000a 0015 0007 000a 0005 0009 0031 0000 00d3 00c4 0088 0046 008b 0060 005c 0080 006d 0072 006f 0077 0083 0000 008e 005c 0061 0078 006f 0068 00c4 000c 0006 0095 0089 0000 0090 006e 00af 0032 0008 0002 0007 0008 0007 0002 000a 000b 0007 0006
0001 0000 0000 0000 0000 0000 00ca 00b1 0050 005c 0053 004c 00fc 0000 009c 00fe 0000 0022 002b 0000 0021 0038 0045 0015 0024 0000 0015 0010 0019 0008 0018 001e 002f 0021 0019 0017 004e 0000 0000 0057 004d 0031 0029 002b 002d 0022 0029 0025 002b 002d 0026 002a 002a 002a 002a 002a 002a 0029 002b 002e 0023 0062 0000 001a 0000 0046 0011 0051 0035 0000 00a1 0067 0066 0066 0069 0067 006b 0061 006e 0056 015f 0000 0000 0017 0019 0015 0015 0017 0010 0014 0014 0014 0015 0015 0016 0016 0014 0014 0015 0012 0014 000e 0000 01c8 0000 0034 0042 0000 01ab 0000 0000 010a 004f 0069 0072 003e 007a 0057 0075 005e 0045 0070 0048 00b4 0000 00aa 0048 00a7 004c 005a 00c7 0000 00ad 00db 0000 0041 0000 00c9 0099 0000 0025 0098 0113 0000 0000 0038 006f 00f1 0052 005e 008b 0000 0071 0086 0000 0055 0000 0112 0002 0000 00f9 0077 00b2 0000 0000 0075 008d 0077 00c0 0000 0060 0065 0046 005d 0054 0048 0063 0049 006b 0050 0093 006b 0055 004e 0060 0055 0054 0056 004e 0029 0014 0013 0000 00fc 007f 011b 0000 0023 0021 000e 000f 0032 0005 0014 0000 000a 0017 0008 0014 0010 0002 001a 0000 0103 0088 007e 0089 008c 0061 00c0 004b 0050 0095 0063 0078 0074 0069 008f 00a2 0067 0075 008a 005e 00d1 0008 0000 00f1 0063 0079 0095 0077 0072 00ae 001f 001b 0000 0005 000e 000f 0001 000d 0008 000a 0008
0000 0086 0001 0000 0000 0000 007b 0061 006c 005a 0059 0074 004e 0000 0141 0000 001d 0022 0000 01d8 0004 0000 0007 0000 0000 0045 000e 0025 0000 0021 0000 000c 002d 001c 0024 0020 0014 0066 0000 0000 005d 0027 002b 0029 0027 002a 0032 002a 0028 0026 0033 0029 002a 002a 002a 002a 0029 002c 002b 002a 003e 0000 0015 001d 0000 0072 005c 0042 000c 00ec 0075 0060 0066 006a 0065 006b 0067 0067 0066 00bc 0000 0025 0014 0019 0016 0012 0016 0012 0018 0015 0016 0016 0016 001a 0014 0015 0017 0016 0013 001a 0015 0013 0024 0000 016c 0007 002b 0045 0000 0197 0000 0000 0131 0055 0068 005a 005f 0052 004f 0058 0055 0065 0061 00ac 0000 00ad 006b 0053 006a 0065 00a1 0000 00e1 00a9 0000 0033 0000 00ff 0093 0000 000b 00d2 0000 0031 0000 0000 00cc 0000 009f 005b 009c 0000 0090 00cb 00b7 005a 00ea 0000 00d6 000e 00a5 0081 006a 00bc 00c1 0091 0079 009c 005d 0042 0069 003c 0053 005b 005e 0060 0052 0056 0058 0061 0060 004e 005a 0056 0056 0056 0058 0030 0000 00d5 00b4 00aa 00bc 007e 010e 0000 002d 0029 0025 001c 0024 000d 0063 002e 001f 0009 0020 0005 0013 0000 0059 0000 0110 0096 0055 0086 005a 007d 0086 0022 00ab 0085 0059 0079 0071 006e 0074 0074 0065 0069 00ac 0040 00ea 0018 0000 0059 007a 007c 0063 007a 006d 0068 010e 0003 0000 0000 0018 0003 0010 0007 000b 0007 0011 0000
0007 0000 0000 0160 0000 0000 00c7 00b5 0044 005a 00ac 0082 0015 0000 0000 0030 0029 001d 0022 0000 0000 0000 001d 0031 000b 0007 0000 0000 0000 0048 0053 0006 0000 0038 001c 0025 001b 0041 0000 0000 0052 002b 0028 002a 0027 002c 0029 0028 0029 0023 0029 0029 002a 002a 002a 002a 002c 002b 002a 002c 0044 0000 0020 000a 0000 0064 001d 002e 0000 009c 0065 0068 0068 0066 0069 0067 0068 0066 0067 00bb 0000 000a 0014 0018 0016 0015 0016 0016 0018 0014 0015 0012 0017 0013 0014 0019 0010 0017 0016 0017 000d 000c 0035 0000 00e2 0000 0028 002f 002c 0000 0030 0012 0000 0119 004f 0065 005e 006f 0055 0070 006e 0050 0065 0063 00a9 0058 008e 0000 0093 005a 00af 0000 00ab 00ae 0000 0029 0000 00a6 0064 00d0 0000 017e 0000 003c 0000 00e1 00ad 0000 00a5 005b 0065 0056 00b0 0000 0088 0072 0089 0000 0059 00cd 0080 007b 0080 007b 0078 007b 0081 007f 008a 0042 0056 0050 0053 0058 003b 005e 0047 005f 0058 0054 0054 005f 0052 005a 0056 005d 0008 0093 00bd 007c 0080 007b 0084 00f8 0000 0045 002f 0023 0022 001e 001c 0019 0006 0024 0000 0029 0000 0010 0002 0021 0000 0000 00c4 0053 00af 005a 0086 007e 0089 0071 0068 0070 0075 0070 006d 0082 0070 0072 0075 0070 0054 00d8 0004 000c 0018 00b8 0075 0075 0073 0074 007f 0091 0018 002b 0000 0001 0000 0007 0012 0000 0002 000b 0004 000c
0000 0017 0000 0000 0000 0000 00fe 0000 0096 0097 0000 00e8 00af 0000 0036 0021 0011 006f 0026 001c 003c 0065 0000 000d 0000 000c 007f 005c 0028 0025 0019 005f 0011 0005 0016 0021 001f 0015 0083 0000 005f 0025 002d 002a 002c 002f 0026 0027 0025 0039 002a 002e 0029 002d 002c 0029 002b 002b 002a 002c 003e 0007 000c 0000 0094 0029 004d 0000 0124 0059 0069 0064 006b 0065 0068 0068 0068 0065 0062 00da 0000 001a 0017 0018 0016 001a 0013 0017 0018 0012 001a 0015 0015 0016 0017 0015 0017 0012 0015 0015 0015 0016 0008 0000 00b4 010a 0000 0037 0056 004c 0000 0037 0034 0000 0110 0059 0065 005d 0060 005b 0068 005a 005e 0062 0068 0060 00a1 0000 0096 0065 009b 0000 004d 00ba 0000 004f 0000 0098 0089 0000 00ee 0000 0039 000b 0000 00b0 0062 0043 0074 0054 00b6 007b 008b 0000 00a4 004b 00c3 00eb 0008 009b 0087 007a 007d 007c 007f 007b 0082 009f 0018 004a 004a 004e 0046 00b3 00a1 003e 006c 0065 005f 005a 005a 0056 005d 0054 0052 001c 00c3 0091 007a 0081 0079 00a7 00ee 0000 0035 0023 0039 0021 0020 0017 000c 000d 0001 001c 0007 001b 002a 0043 0024 0000 00ee 00b8 0093 0091 0043 006d 006f 0083 008e 005e 007a 0073 0073 0071 006f 0069 0075 006e 0072 0077 0086 005d 0012 0021 00ba 007a 0070 0069 0077 006b 0063 0111 0004 0020 0000 0022 0033 0000 0000 0017 0002 0000 0009 0005
0000 0000 0189 0000 0000 01be 005e 0023 0061 00a5 0000 0095 0000 0000 0040 003a 0042 0020 0022 0025 0026 0022 0043 003c 0039 0048 0012 0014 002c 0025 0029 0044 0000 0000 00a3 0010 0015 001d 0033 0000 0096 001e 003f 002a 0028 0026 002c 0030 0029 0058 001e 002d 002e 0026 002b 002b 002b 002b 002b 0027 0053 0002 001a 0000 0044 0020 003f 0000 0088 0066 0067 0068 0067 0068 0068 0068 0068 0064 006b 010a 0000 001a 0017 0016 0016 001d 0014 0018 0013 001b 0010 001d 0019 0015 0014 000f 0015 0017 0016 0016 0014 0014 0012 0000 00bb 0097 0000 0012 0032 001f 00b2 0000 001c 002a 0000 010e 0057 005e 0064 006b 004d 0063 005e 0062 0060 0061 005b 009c 005c 0062 008a 0000 009a 00c1 0000 0048 0000 008c 00be 0000 0168 0000 003e 0029 0000 008e 00cc 007c 0059 00a5 0000 00a3 00b2 00bd 0056 009b 0000 0000 0072 009a 0083 0092 008b 0084 0079 0085 0098 0016 00b5 00b8 0076 00ba 0055 0039 0044 0054 005c 0054 0041 0055 0060 004d 0056 0053 0023 00b7 0082 007d 00a2 00c6 00dc 003f 0000 0030 0036 003d 001c 0025 0025 0015 0013 0012 0001 0009 0018 0008 001e 0000 0000 0003 0030 0099 0080 004e 0092 0082 007f 0042 0076 0057 006a 0076 006e 0071 007d 006e 0069 0081 0071 0072 009c 0025 003f 00ab 0079 006e 0073 007b 006f 0082 00db 0000 000d 0003 0009 0000 0000 0019 001f 0012 0015 0019 0000 0006
0015 0033 0000 0001 0000 0000 0110 004d 0067 00b7 0000 000e 0000 0000 0040 0000 0027 0025 0022 002b 0025 0034 0027 0025 002c 001f 002a 0028 0025 0028 0027 0024 0051 0016 0000 003c 0016 0029 0033 0000 0000 0081 0000 006a 0031 002a 0039 0038 0000 0000 0056 001a 002a 0031 002a 002a 002b 002b 002a 0035 002f 0001 001a 0000 0047 002e 0016 00e3 0061 006b 0065 0068 0068 0068 0068 0068 0064 0078 00c1 0000 0027 0018 001c 001e 0015 0017 0015 0019 0015 0018 0014 0013 0016 0016 0017 0017 0016 0016 0015 0017 001c 0015 0003 0000 00b7 0063 00f3 002f 0020 003a 0040 0000 0013 0000 006b 0000 00f5 0068 006a 0048 0078 0045 006d 005e 005e 0060 0069 0061 0060 0065 0085 0000 007d 014b 0000 003c 0000 00b6 00b4 0000 0000 003e 001a 0015 0000 00cc 0000 009c 005f 0090 0000 00d8 0000 0093 005f 0084 0016 0052 00b3 007a 0075 005f 0080 00a6 0099 0087 007e 00a0 0026 00b4 0042 004d 0052 0057 0064 005f 0057 0065 0057 005f 004e 006c 004c 004c 00a2 00b8 00a2 00ac 0029 0000 0017 0034 003b 0046 003d 002e 0037 002a 000a 0027 002c 0000 000f 000c 0004 0000 0000 0080 0169 0000 0102 005d 00b6 008e 00b3 0080 0081 0084 0077 0096 0093 004f 0076 0057 0094 0064 0062 0050 00a8 0028 00b9 0000 00ad 007b 0072 0073 006f 0073 006b 00e2 0028 000a 0018 0000 0019 0002 0009 0012 0009 0011 0000 0008 0014 0000
