0082 0086 0086 0091 0091 0081 007a 0078 0078 008d 0096 0096 0084 0088 0088 0074 0074 0071 0075 0077 007a 007c 007c 0074 0079 0079 0077 006e 007c 007f 007f 0075 008a 008a 0071 007b 007b 0076 007d 007d 0072 006c 006b 007a 007a 007d 007d 0076 0076 0076 006f 0074 0074 006e 0069 0072 0078 0078 0071 0073 007a 007a 0070
0082 0086 0086 0091 0091 0081 007a 0078 0078 008d 008d 0085 007d 0080 0080 007c 007c 006a 0074 0074 0072 0088 0088 0074 0074 0077 0077 0086 0086 007f 007f 0086 0092 0092 006f 007b 007b 0087 0091 0091 008d 008d 0089 007c 007c 007a 007a 0075 0076 0076 0072 0088 0088 007f 0089 0089 0078 0078 0074 0071 006f 006a 006a
007a 007e 007e 008a 008a 008a 008d 0095 0098 0098 008c 008c 0091 0091 0089 0086 0089 0089 007d 007d 007d 0088 0088 0080 0080 0081 0082 0086 0092 0092 0089 0096 0096 0092 007d 0083 0083 0087 0091 0091 008d 008d 008b 009c 009c 0083 0086 0086 007c 0083 0086 0088 008c 0094 0094 0089 008f 008f 008a 008c 008c 0086 0086
007a 0088 0088 0083 0097 0097 009d 009d 0098 0099 0099 009b 009b 0091 0090 0086 008f 0090 0090 007e 008b 008b 0095 0095 0083 0084 0090 0090 0092 0092 0089 0096 0096 008f 0099 0099 0083 0084 0084 00a2 00a2 0097 008b 009c 009c 008a 008a 008a 0093 0093 009d 009d 0094 0094 0094 008d 009a 009a 008a 008c 008c 0087 0086
0086 0088 0093 00a4 00a4 0097 009d 009d 008b 00a1 00a1 009b 009b 0090 0093 0093 008f 0090 0090 0088 008b 008b 0095 0095 0092 0092 0090 0090 008d 0082 0087 0095 0095 008f 0099 0099 009b 009b 008d 00a2 00a2 0097 0099 0099 008d 008a 008a 0090 0093 0093 009d 00a5 00a5 0093 0093 008d 009a 009a 008a 008a 0087 0087 0079
0086 0086 00a3 00a4 00a4 008e 00a5 00a5 0086 00a6 00a6 0095 0099 009e 00a2 00a2 009f 009f 0094 0095 0095 009a 009a 0096 0096 0092 008b 008d 008d 007d 0047 0024 0039 006e 0085 0085 009b 009b 0098 0098 0093 0093 0099 0099 008d 0089 0089 009d 009d 008f 0093 00a5 00a5 008a 00a0 00a0 0088 0088 0093 0093 0087 008c 008c
008d 008d 00a3 00ad 00ad 009b 00a5 00a5 0096 00a6 00a6 00a4 00a4 00ad 00ad 00a2 009f 009f 0099 0099 0098 009a 009a 0096 0096 008e 004a 0048 0048 0034 0037 0037 001e 0013 0035 0035 0024 006b 0098 0098 008a 009d 00a5 00a5 0093 008f 008f 009d 009d 0097 00aa 00aa 009d 0089 00a0 00a0 0090 0099 0099 009f 009f 008c 008c
008d 00a4 00a4 00ad 00ad 00b0 00b0 00a8 00a3 009b 009b 00a4 00a4 00ad 00ad 00a0 00a7 00a7 00a3 00a3 009f 009f 009c 0087 0070 007f 0087 0088 0088 0087 007d 0064 0032 0013 0014 0016 0016 0015 0017 007b 0083 009d 00a5 00a5 00a1 009e 009e 0097 00a1 00a1 00aa 00aa 009d 009f 009f 0096 0096 0099 0099 009f 009f 0084 0090
0091 00a4 00ad 00ad 00a5 00b0 00b0 00b0 00b3 00b3 00a4 00a4 00a4 00a6 00aa 00aa 00a7 00a7 00a6 00a8 00b6 00b6 009c 008b 00ba 00bb 00bf 00cb 00cb 00c6 00b4 0098 0081 0059 0046 001c 0016 0015 0017 001e 0071 0091 0095 00a1 00ad 00ad 00a4 00a4 00a1 00a1 00a3 00a3 009d 009f 009f 00a3 00a3 009d 008b 009d 009d 0090 0090
0092 00a4 00ad 00ad 00b7 00b7 00bf 00bf 00b8 00b8 00b7 00a4 00a1 00a5 00aa 00af 00b6 00b6 00aa 00c5 00c5 00b6 0081 00a5 00ba 00c9 00d7 00d7 00d1 00c9 00c0 00aa 00a7 0073 0048 0034 0017 0015 0015 001e 001e 0084 0094 00a5 00ad 00b4 00b4 00a4 00a8 00a8 00a5 00a2 00ab 00ab 00a4 00b1 00b1 00a1 00a1 009d 009d 0090 0090
009c 00b0 00b0 00b6 00b7 00b7 00bf 00bf 00bd 00c6 00c6 00bb 009d 00a5 00a5 00b4 00b6 00b6 00ba 00c5 00c5 0098 0062 00ae 00ae 00c9 00d7 00d7 00d1 00c9 00c0 00b3 00a7 0080 005d 0053 0038 0022 0015 0013 000f 000e 0094 00a5 00a5 00b4 00b4 00a2 00a8 00a8 00a5 00a2 00ad 00ad 00a5 00b1 00b1 00a2 00a1 009f 009f 009c 008a
009c 00b0 00b0 00b6 00b6 00ad 00b2 00b4 00bd 00c6 00c6 00bb 009d 00c0 00c0 00bc 00bc 00a8 00ba 00ba 0095 0061 008a 00bd 00cb 00cb 00c9 00c9 00c7 00c3 00bc 00b3 00a8 008a 008a 007d 0041 0033 0016 000f 000f 000e 0028 007d 007f 009a 009a 0089 009d 009d 009a 00a5 00ad 00ad 00ac 00ad 00ad 00a5 009e 009f 009f 009c 0088
0055 0074 0090 0090 008c 00ad 00b1 00b4 00b4 00ad 00ad 00a1 009c 00c0 00c0 00bc 00bc 00b7 00b7 00a7 0065 0037 008a 00bd 00cb 00cb 00c9 00c9 00c7 00bc 00bc 00aa 00a8 008a 008a 007d 0041 0033 0016 000e 0018 0018 001c 0056 005c 0071 0072 007e 0087 009a 009a 00a5 00a8 00a8 00ac 00ad 00ae 00ae 00a5 00a5 0094 0087 0088
0056 0063 0072 0072 0079 007b 007b 006d 0068 0068 006b 0078 0094 009d 00bd 00be 00be 00ba 00b7 009c 0041 002d 0068 0088 0088 007a 00b6 00bc 00bc 0062 00a4 00a4 0065 005d 005d 0060 0060 0026 001d 001d 0018 0018 0016 0056 0057 0071 0072 0072 006b 006b 0059 007d 0093 009f 00a4 00a6 00b2 00b2 00a5 00a5 0094 0087 007e
0060 0070 0072 0072 0079 0079 0062 0066 0066 0056 005c 005d 006d 0079 00bd 00be 00be 00ba 0090 0073 002d 002d 00a0 00a1 00a1 00af 00af 009b 009b 0092 00a4 00a4 007c 00a7 00a7 0087 006d 0028 001d 001d 0010 0012 0016 0048 0048 003d 003d 005f 006b 006b 004c 005d 0093 009e 009e 00b0 00b2 00b2 0092 008e 008e 0071 007b
0060 0070 0070 0066 0066 005f 0053 0066 0066 0055 005c 005d 006d 0079 008b 008b 0050 0059 0059 004e 0035 0028 00a0 00b5 00ba 00ba 00bd 00bd 009b 00b7 00b7 00bf 00bf 00b4 00a7 0087 006d 0028 0014 0014 000e 0013 0014 0027 0038 0039 003c 004d 005c 005c 004c 004f 0074 009c 009d 00b0 00b2 00b2 0089 008e 008e 006a 006a
0057 0057 0051 005e 005e 0042 0050 0050 004e 005a 005a 0048 004b 0051 0051 0034 004c 004c 004e 004e 0035 002e 0095 00b5 00ba 00ba 00ca 00ca 009b 00b7 00b7 00bf 00bf 00b4 008b 006f 0040 0013 001d 001d 0017 0017 0017 0026 0038 0039 0048 0048 004a 0051 0052 0073 0073 0081 009d 009d 0094 0094 0089 0089 0073 006d 006a
001f 0031 0050 0050 0039 003d 0050 0050 004c 005a 005a 0059 0043 0051 0051 0043 003d 003c 002e 002e 002e 002e 0073 00a6 00b8 00bc 00ca 00ca 009b 00a9 00b5 00b5 00ad 0098 006d 0053 0031 0013 001d 001d 0017 0017 0017 0014 0028 0028 0048 0048 004a 0051 0052 0073 0073 0081 0081 007f 0070 006b 005b 0044 006d 006d 006a
001f 0024 004b 004b 0040 003d 004a 004a 004a 0052 0059 0059 0043 003f 0045 0045 003d 003c 003c 002a 002a 0026 0043 0085 0094 00bc 00bc 0086 0066 0072 0099 0099 0084 0078 005d 004c 0027 0016 000e 000e 0012 0012 0012 001e 0020 0020 0034 0035 0035 002f 002f 0043 0043 0045 0045 0058 0058 004e 0044 0044 002e 002b 001d
0024 0025 003b 0040 0040 003f 003f 0056 0056 0039 0039 0033 0033 003f 0045 0045 0033 003c 003c 0031 0026 0026 0017 0073 0077 0097 0097 0086 0066 005f 006f 0071 0078 0078 005d 004c 0025 001b 0013 0012 0012 0012 0013 001e 001e 0048 0048 0041 0041 0035 0032 0030 0038 0038 003f 004a 004e 004e 0044 0044 002e 002b 0023
0025 002f 002f 0039 0046 0046 0041 0056 0056 0039 0039 0046 0060 0060 0044 0045 0052 0053 0053 003f 001d 001d 001c 003d 0077 0097 00be 00be 00be 00a8 007b 0071 0071 0050 0039 0034 0021 001b 0016 0016 0012 0012 0015 0016 0022 0048 0048 0041 0041 003d 0033 0029 0038 0038 003f 004a 004a 0046 0046 004c 004c 002c 0023
0025 002f 0036 0039 0046 004b 004b 0030 0038 0038 0028 0046 0060 0060 0046 004b 0052 0053 0053 003f 0023 0022 0022 0021 000f 0064 00be 00be 00be 00a8 007b 0065 0049 003f 0032 0029 0018 0018 0018 0018 0017 0017 0015 0016 0022 0031 004c 004c 0042 0042 003c 0035 0035 0037 0037 0036 0033 0046 0046 004c 004c 002c 0025
0027 002b 0036 0036 003e 004b 004b 0042 003b 003b 0036 005a 005a 006f 0079 0079 0052 005d 005d 0046 0023 0022 0022 0021 0012 0012 0044 0053 0053 003e 003e 002a 002a 0023 0029 0029 0032 0032 001d 0018 0017 0017 0014 0015 001a 0020 004c 004c 0042 0042 003c 003b 0035 0032 0036 0036 0033 0033 0030 0030 0030 0032 0032
0027 0028 0028 001e 001e 003c 0042 004d 004d 0056 0059 005a 005d 006f 0079 0079 0062 005e 005e 004a 0040 002f 002f 001b 0012 0012 000d 0022 006d 006d 0050 0047 003e 0043 0043 005a 005a 0048 0024 0024 0017 000d 0018 001c 001c 0025 0026 0037 003b 003b 003b 003b 0031 0044 0044 0039 0033 003c 0045 0045 0026 0032 0032
002d 002d 002b 0043 0043 0045 0059 0059 004d 0056 0059 005b 005d 005d 0066 0066 0062 005e 005e 004a 0040 002f 002f 0022 0022 000d 000d 0022 006d 0081 0081 0078 005a 004f 0066 0076 0076 0066 0058 0024 0017 0017 0028 0028 001c 0025 0025 002d 0039 003b 003b 005c 005c 004e 0058 006e 006e 0059 0059 004b 004b 0026 002a
0035 0036 0036 0043 0043 0045 0059 005e 005e 0042 0037 005b 005b 0046 004d 0057 0057 005c 005c 0022 0027 0027 0018 0022 0022 0013 004c 0079 0079 0081 0081 007a 0086 0097 0097 0091 0085 0085 005b 0022 001e 0020 0028 0028 0018 0016 0016 0015 0026 003b 003b 005c 005c 004e 0058 0071 0071 0059 0059 0058 0058 0028 002a
0035 0040 0040 0038 0036 004b 004b 005e 005e 0044 0044 0051 0051 0026 0026 0013 0049 0049 0022 0022 0027 0027 0022 0029 0077 008e 00a1 00a1 00b8 00c4 00c4 00a9 00af 00af 00a3 00a3 0096 0093 006f 0030 0026 002d 002d 002d 0019 0019 0021 0021 0029 0035 0065 0072 007c 007c 0073 0071 0071 0052 0052 0058 0058 0028 0022
0035 0040 0040 0038 0044 0051 0051 004b 0049 005f 005f 0052 0052 002d 002d 0018 0042 0042 0017 0012 0025 0025 002d 007a 009c 00cb 00cb 00ca 00ca 00c4 00c4 00b5 00c9 00c9 00ad 00a4 0096 0093 007a 003f 0034 0034 002d 002d 0019 0019 0021 0021 0029 0035 0065 0072 007c 007c 0073 006d 0063 0056 0056 0062 0062 004d 0043
0044 0044 0045 0045 0059 0059 006b 006b 0058 005f 005f 0052 0052 002f 0037 0037 0034 0034 0020 0012 001d 001e 005b 00ac 00bc 00cb 00cb 00d0 00d0 00bf 00ba 00bc 00c9 00c9 00bf 00a4 00a3 00a3 007a 003f 0034 0034 002b 001c 0017 0023 0025 0025 001a 001b 0039 006c 006c 0072 0072 0095 0095 0056 0056 0062 0062 004d 0043
0044 0044 0045 0045 0059 0059 0079 0079 0080 0080 007f 007f 003e 003e 0037 0037 0034 0034 0020 0013 0038 006f 0081 00b3 00bd 00c7 00d6 00d6 00d0 00c4 00bf 00c1 00d5 00d5 00bf 00ab 00a7 00a3 0062 004d 0037 0032 001d 0028 002b 002b 003e 0052 0052 002b 0024 0038 0068 006e 006e 0095 0095 0076 0084 0084 0081 0072 005a
002d 002d 0044 0044 0032 0047 0079 0079 0080 0080 007f 007f 0050 0050 0048 0037 001c 0010 0010 003c 0090 00b2 00b2 00b3 00ca 00ce 00d6 00d6 00c6 00cb 00cb 00c2 00d6 00d6 00ba 00ad 00a7 0095 005f 0050 0056 0056 0053 0058 006c 008e 008e 0052 0052 002b 0014 000e 0030 0031 0031 006c 006c 0076 0084 0084 0081 0072 005a
002e 002f 0043 0043 0036 0040 0040 0037 005e 005e 005a 005a 0066 0066 0048 0011 0010 0010 001d 003c 009a 00cb 00cb 00d3 00d3 00ce 00cf 00cf 00cc 00e0 00e0 00ce 00db 00db 00da 00bc 00b5 0095 0078 0051 0062 0062 005e 0058 006c 008e 008e 004f 0033 0026 0010 0009 000a 0011 0013 0020 002b 002f 002f 0027 003e 0071 0071
002e 002f 0043 0049 0060 006d 006d 0072 0072 0069 0069 0054 0066 0066 001e 001e 001e 0018 001d 002a 009a 00cb 00cb 00d3 00d3 00bf 00bf 00d6 00d6 00e0 00e0 00e0 00e0 00db 00da 00bc 00b5 0095 0078 0051 0062 0062 005e 002e 0021 0021 001a 000b 000b 000a 0009 0009 0009 0011 0011 0020 0020 0023 0023 0024 003e 0071 0071
002d 004b 0058 006d 006d 006d 006d 0072 0072 0069 0069 0035 002e 001e 001e 001e 001e 0028 0031 0043 0043 0057 0091 00ca 00ca 00b9 00aa 00d6 00d6 00d9 00d9 00e0 00e0 00d5 00d5 00a9 0090 0062 0062 0044 002c 0026 001b 001b 0013 0013 0023 0023 0009 0010 0010 000f 000a 0019 0019 000f 0020 0028 002c 002c 0028 0026 0025
002d 004b 0058 006d 006d 0057 0055 0071 008e 0099 0099 001d 001b 001b 001b 0019 0019 0039 0042 0043 0043 0037 0042 0047 0047 0066 0066 0060 007c 009f 00ae 00b6 00b6 0094 0091 0058 004a 004a 0028 0028 0026 0026 003a 003a 0025 0028 0028 0023 0007 0010 0010 000f 000a 0019 0019 000f 0020 0028 002c 002c 0028 001f 002c
0026 0044 0044 005f 005f 0057 004b 0071 008e 0099 0099 001e 001e 001b 0014 0014 0037 0039 0042 0042 0033 0037 0037 0047 0047 0066 0066 005a 004f 004f 0043 005b 005b 0070 0070 0020 0018 0018 0012 001b 001b 0024 003a 003a 0034 0034 0054 0054 004a 0020 001e 000e 0012 0012 000e 0013 0013 0021 0021 001c 001b 0018 002c
0017 002e 003b 003b 0045 0045 003e 0038 0038 0034 0034 001e 001e 001b 0014 0014 0037 0037 0028 0028 0041 0041 0027 0030 0044 0044 005a 005a 004a 0035 0035 003d 003d 0028 0028 001d 0011 000f 0014 001b 001b 002d 002d 0027 0034 0044 0054 0054 004a 002c 001f 0018 0012 0012 000e 0013 0013 0021 0043 0043 002b 002b 0012
0017 003e 004e 0054 0067 0067 006c 006d 006d 0038 0011 000d 000c 000e 000f 0013 001f 001f 0028 0028 0041 0041 0027 0030 003e 003e 0034 002f 0038 0038 0035 0029 0023 0011 000c 000c 0015 0015 0014 001a 001a 002d 002d 0027 0039 0044 0044 0042 002c 002c 001f 0018 0010 0010 000f 000d 0011 0012 0043 0043 002b 002b 0012
0048 005c 005c 0064 0067 0067 006c 006d 006d 0038 0018 0018 0010 000e 000f 0013 0016 0016 0012 0012 0024 0024 0018 0018 0015 0015 0023 0023 0038 0038 0029 0029 0017 0011 000b 0012 0015 0015 0013 0013 0013 0015 0025 0028 0039 0039 0039 0039 0024 001b 000d 000c 000f 000f 000f 0013 0013 0012 0012 0035 0035 0026 0026
0048 005c 005c 0064 0064 0061 0061 0067 0067 001b 0018 0018 0017 0017 0012 0009 0014 0014 0010 001b 001b 0010 000b 0015 0015 0015 001d 001e 0022 0022 0014 0017 0017 0011 0011 0012 0012 000d 0010 0010 001e 001e 0025 0028 0035 0035 0034 002a 0014 000e 000e 000c 000b 000c 000f 0013 0013 000a 000d 0035 0035 0026 0026
002d 002d 003e 0041 0041 0037 003c 003c 0025 001b 0014 001b 0028 0028 0019 0013 0014 0014 000c 001b 0020 0020 0019 0016 0016 0025 0025 001d 0017 0014 0014 0015 0015 0011 0011 0011 0011 000d 000d 000d 001e 001f 0025 0025 0024 0024 0017 0017 0017 000e 000e 000c 000c 000b 000f 000f 000d 000a 000d 001c 001d 001d 0015
0028 0028 002a 0040 0040 0030 0027 001b 001d 001d 0021 0034 0034 0028 0020 0014 0014 000d 0010 0010 0020 0020 0019 0016 0016 0025 0025 0013 001a 001a 0011 000c 0015 0015 000b 0011 0011 0009 000d 000d 0011 0024 0024 0016 000e 000e 0017 0017 0017 000d 000d 000e 000e 0008 000f 000f 000d 000c 0019 0019 0012 0012 000f
0027 0020 0020 0020 0020 001a 001b 001b 001f 001f 0021 003d 003d 002b 0024 0014 0014 0011 0011 0014 0014 000c 0010 0014 0014 0017 001f 001f 001a 001a 000e 000e 0015 0015 0012 0012 0008 0008 000f 0010 0010 0024 0024 0012 000b 000f 0017 0017 0013 000d 000d 000e 000e 0008 000c 000d 000e 000e 0019 0019 0017 0012 000f
0019 001f 001f 0020 0020 0016 001b 001b 001f 001f 001e 003d 003d 002b 0024 0013 000e 0011 0011 0014 0014 001a 001a 0014 0049 0049 001f 001f 0014 0014 000f 000e 0010 0010 0012 0012 0009 000a 0012 0012 0010 000e 000b 0009 000b 000f 0018 001d 0021 0021 0018 0017 0008 0008 000c 000c 000e 000e 0014 0017 0017 0010 000e
0017 0017 001a 001a 0016 0016 000f 001a 001e 001e 0024 0024 0020 0021 0021 001f 001f 0012 0011 0011 0011 001a 001a 0012 0049 0049 0012 000c 0011 0011 000f 0015 0015 0010 000c 000a 0009 000a 0012 0012 000e 000e 000b 000a 000a 000e 0018 001d 0021 0021 0018 0017 0008 000a 000b 000b 0012 0013 0014 0014 0011 0013 0013
0017 0017 0014 0015 0016 001c 0028 0028 0039 0039 003d 004d 004d 0022 0015 001f 001f 0012 000f 0012 0012 0010 001b 001b 0011 0012 0012 000d 000d 000d 000c 0015 0015 000e 000b 000c 000f 000f 000c 000e 000e 000d 000a 000a 000e 0012 0012 0013 0016 0016 0015 000c 000c 000a 000b 000b 0012 0013 0013 000d 000e 0013 0013
0014 0013 0014 0014 0016 001c 0031 0042 0064 006d 006d 004d 004d 0034 0072 0072 0052 008e 00ae 00ae 0090 006b 001b 001b 000d 000e 000e 000d 0012 0012 000e 000c 000d 000d 000b 000e 0013 0013 000c 000b 000d 000d 0008 000c 0012 0012 0012 0011 001b 001b 0014 000c 000c 0009 0009 000a 000f 0012 0012 000b 000e 000e 000b
0014 0012 0013 0014 002c 002c 0031 0042 0064 006d 006d 006b 003f 0035 0072 0072 00b3 00ba 00c6 00c6 00b9 00b0 009f 008a 007c 006c 0011 000f 0012 0012 0012 000e 000e 000d 000d 000e 0013 0013 000c 000c 0010 0010 000b 000c 0012 0012 0011 001d 001d 001b 000f 000f 000a 0009 000c 000c 000f 000f 0010 0010 000e 000e 000d
0014 0014 0013 0013 002c 002c 0031 0035 005d 005d 006b 006b 0032 0035 007a 007a 00b3 00ba 00c6 00c6 00b9 00b0 00a4 00a3 0095 009d 009d 007a 0062 0012 0012 000e 000e 000b 000d 000d 000c 000c 000c 000c 0010 0010 000b 0007 000c 0011 0012 001d 001d 0011 000f 000f 000a 000a 000c 000c 0008 000c 0010 0010 0012 0012 000d
0014 0014 0013 0017 0017 0018 002a 002a 0044 0044 0023 0023 0032 0034 007a 007a 0092 00a5 00a5 0098 00a8 00a8 00a4 00a4 009a 009d 009d 0097 009f 009f 0078 0078 000b 000b 000d 000d 000b 000d 000e 000e 000c 000c 000d 000d 000c 000c 0012 0017 0017 000a 000a 000a 000e 0013 0013 000d 000a 000a 000a 000c 0012 0012 000a
0015 0013 0010 001a 001a 0015 0017 001d 0035 0035 0018 0018 002e 002e 0042 0056 0075 0075 0075 0083 008e 009e 00a4 00a4 009a 0094 0093 0097 009f 00a7 00b1 00b1 0084 0066 0018 0073 0073 0069 0069 0019 003d 003d 0038 0020 006a 006a 002c 002c 0011 000f 000f 0012 0012 0013 0013 000d 000c 000a 000a 000c 000c 0007 0007
0015 0013 0013 001a 001a 0015 0015 001d 001d 0012 0013 0014 0016 0016 0029 0029 003b 0068 0068 0062 0073 0076 009d 009d 0094 0094 0089 0089 0081 00a7 00b1 00b1 0084 0068 003f 0073 0073 0069 0069 005d 003d 0051 0056 0056 006a 006a 002c 002c 0018 000f 000f 0012 0012 000c 000c 000c 000e 000e 000e 000d 000c 000b 000b
000f 0013 0013 000d 000f 000f 0011 0014 0014 0013 0016 0016 0016 0016 006b 006b 005a 0093 0093 0086 0066 0068 0072 007f 0081 0082 0089 0089 0095 0095 0087 0076 0076 0068 0057 0057 0045 003d 005d 005d 0042 0051 0056 0056 004a 002f 0029 0024 0024 0012 000b 0009 000c 000c 000c 000c 000e 000e 000e 000d 000d 000d 000b
0011 0013 0013 000d 000f 000f 0010 0014 0014 0013 0016 0016 0015 0052 006b 006b 0085 0093 00aa 00aa 0076 0068 0063 0063 0075 0075 0097 0097 0095 0095 0087 0065 0061 003e 0057 0057 0045 0030 0038 0038 0042 0042 0038 0032 0032 002f 0029 0024 0024 001f 000b 0009 0009 000a 000c 000c 000c 000c 000a 000e 000e 000d 000c
0011 0011 0010 0017 0017 000d 0010 0013 0013 000f 0012 0015 0015 0052 006a 006a 0085 0085 00aa 00aa 0085 0068 0048 0043 004c 0060 0097 0097 0080 0065 0065 0065 0061 0051 0029 0021 002c 002c 0029 0029 003a 003a 0038 0032 0032 0019 0019 000f 001f 001f 0008 0008 0009 000a 000c 000c 000a 000a 000b 000e 0014 0014 000c
0010 0015 0015 0017 0017 0013 0013 0013 0013 0014 0015 0016 0020 0041 006a 006a 005a 0078 0081 0085 0085 0061 0048 003d 004c 004c 0035 0068 0068 0065 0037 0049 0051 0051 0045 0021 001f 0018 001e 001e 0019 0019 0012 0012 0016 0019 0019 000f 000f 000a 0009 0008 0009 0009 000e 000e 000b 000b 000b 000b 0014 0014 000a
000e 0015 0015 0011 0011 0013 0013 000f 000f 0016 0016 001b 0020 0032 003e 003e 007d 007d 006f 006f 0049 0041 0027 0024 001f 002b 0033 0033 0030 0037 0037 0028 0028 0045 0045 001a 000c 0015 0015 000f 000b 000b 000f 0010 0010 000a 000e 000e 000a 000e 000e 0008 0008 000a 000e 000e 000b 000b 0008 0006 000c 0016 0016
0012 0012 000f 0012 0014 0014 0012 0012 0012 0016 001d 001d 001b 0019 0030 003e 007d 007d 0051 0029 0024 0027 0027 0024 001f 002b 002b 0030 0030 0029 0029 0014 0016 0016 000b 000c 000c 000d 0010 0010 000f 0010 0010 0007 0009 0009 000c 000c 000a 000e 000e 000e 0008 000a 000c 0013 0013 000b 000b 000a 0009 0016 0016
0012 0012 0011 0014 0014 0014 0012 0012 0012 0015 001d 001d 0013 0013 001b 001d 0044 0044 002b 0019 001c 001c 0012 0016 001a 001a 001b 001e 001e 0016 0015 0014 0018 0018 000f 000f 000a 000d 0010 0010 000f 0010 0010 000f 000f 000d 0012 0012 0010 0008 000e 000e 0008 0008 0007 0013 0013 000d 000d 000a 0009 0008 0008
000f 0011 0011 0014 0014 0011 0011 0017 0017 0012 001a 001a 0014 0015 0016 0019 0025 0025 0017 0016 0016 0012 0012 0016 0019 0019 001b 001b 0016 0016 0015 000d 0018 0018 000f 000f 000d 000b 000f 000f 000e 000e 000f 000f 000f 000f 0012 0012 0010 000b 000b 0009 0008 0008 0007 000a 000a 000d 000d 000d 000d 000c 000a
000f 0011 0011 0012 0012 0012 0012 0017 0017 0012 0012 0014 0014 0015 0017 0017 0013 0010 0012 0012 000f 0011 0011 0010 000d 000c 0007 000c 0016 0016 000d 000d 0011 0011 0011 000d 000d 000c 000f 000f 000b 000b 000a 000c 000f 000f 000c 000c 000b 000b 000b 0009 0008 0009 0009 000a 000a 000a 0007 000d 000d 000c 000a
000f 0011 0011 0012 0012 0012 0012 0011 0010 000e 0018 0018 0011 0013 0017 0017 000f 0010 0010 000f 000f 0012 0012 0017 0017 000d 000d 0010 0016 0016 000d 000b 0011 0011 0011 000c 000c 000e 000f 000f 000b 000b 000a 0009 000c 000c 000a 0010 0010 000b 0009 0009 0010 0010 0009 0009 0009 0008 0007 000b 000b 000a 0006
0011 0011 0016 0016 0015 0015 0011 0011 0010 0011 0018 0019 0019 0013 0013 0012 000f 000f 000f 0016 0016 0017 001b 001b 0017 0012 000d 0010 0010 000f 0010 0010 000e 000c 001e 001e 000f 000e 0011 0011 000d 0010 0010 0008 0007 0009 0009 0010 0010 0008 0006 000b 0010 0010 0006 0007 000b 000b 0009 0009 000a 000a 0008
