ffed 0038 002c 0037 0018 0078 000e 0076 0020 003c 0064 0067 002d 0016 0061 0034 0041 0056 0042 0005 007a 0036 007c 0002 004e 0061 0051 002a 005c 001b 0083 0051 0059 0035 0061 004c 0028 0039 000e 004c 002a 0070 0031 0043 0060 0003 0053 ffe9 0051 0097 000f 0093 0049 0049 004a 0041 005a 002a 004b 0066 fff1 006d 0039 000a 004b fff2 004d 0043 0037 0047 003c 0033 0048 0063 003a 0036 0055 0036 003c 002e 0028 0035 0054 001a 007d 0048 fff0 0057 0023 001d 0045 0041 002d 004f 000b 002e 002a 0043 001b 005e 0028 0028 fffc 0052 0031 004d 0003 0054 0051 000e 005f 0031 002d 0022 0032 0032 0041 0026 005e 0010 0039 003e 0016 0050 003d 003f 003a 0027 005f 0013 0017 004d 003e fff3 0014 004a 002b 0028 0017 004a 0019 0010 0012 004f 001c 0018 0022 0031 0032 003b 0037 0052 003e 0018 004f 0040 0039 001f 0050 0047 0044 0032 0037 0028 0051 0011 0041 0043 0010 0013 005d 001f 0023 003a 0031 002d 003e 002e 0051 003b 001f 003e 0042 0015 002d 0045 0044 0047 0036 004d 000d 0046 0047 0039 0065 0027 003f 0055 002f 0056 0020 0036 0033 0033 0026 0047 003e 0014 000b 005e 0038 0020 0046 0035 000b 0064 0010 003e 003b 001c 0020 003e 004e 0005 0035 0019 004d 003b 002e 003b 0009 0025 002a 002c 0016 004f 0026 0033 0030 0016 0057 001e 0030 fff6 0048 0028 003b 0039 fffd 003b 0047 002d 002f 0010 0017 0022 0026 0029 004b 0042 0026 002b 003e 0027 003b 0059 fffa 004b 002e 0039 0012 004d 0036 0027 0058 002c 002e 004e 0006 002c 002b 0029 0046 005c 0024 003d 0046 002c 003c 005b 001a 0042 0059 0016 0033 001c 0037 0023 005f 002c 0027 fff6 007f 001b 0061 001c 004a 001e 0014 0044 0031 001e 004e 000b 0019 0039 0034 006c
0045 0034 002a 001d 0038 0001 005c 001b 0011 0036 0015 000a 0067 0059 0029 fff1 0054 001b 0076 0026 005c 0068 0016 0087 ffe4 0064 0048 002b 0076 0024 0034 000a 003e 0030 001f 0030 0039 0041 0045 001e 0055 0032 0009 0037 004f 0052 003b 0004 0054 000e 0029 ffca 0050 ffea 0058 0017 0090 000f 0046 0035 001d 0012 003d 006c 0027 0067 005c ffff 0078 0055 0022 0082 001c 0017 001d 0069 ffef 0084 000a 0042 002a 0048 0047 0030 0001 003d 000c 0056 fff2 0039 001a 0058 001b 0018 0075 0029 0046 003a 0048 0030 0019 0054 0028 0037 005a 0046 0057 002f 0039 001e 002b 0032 003b 0028 002c 002b 002d 002e 0024 001d 003b 0037 0031 002c 0035 0027 0055 002d 0025 003e 0055 0045 0010 0080 0030 004e 003c 002b 0032 0041 0042 004a 002c 0031 002c 004c 0066 000b 0059 0035 001d 0031 0032 0026 003f 003b 002a 004d 002b 0059 005e 001d 004c 0059 0013 0062 0069 0021 004c 0039 0020 0041 004e 0038 0034 0054 002b 0028 004b 002f 002c 0051 001d 0060 004e 0039 0044 0034 001b 003b 0034 0039 0054 001c 0044 003c 001f 0029 0048 004c 002d 0049 0038 0025 0045 000c 0038 003f 0064 0013 0047 0025 002e 0041 0021 0022 004c 001b 0031 0051 0032 0062 fffb 0048 0034 0026 002e 0067 0038 0036 007d 0053 003e 0032 005e 0035 0050 0032 004f 0018 0052 002d 0043 0045 002f 0056 001e 0040 0053 001a 001e 003b 0043 0043 0030 0049 003a 0032 0023 0020 0063 0048 0021 006a 0018 0027 0040 0021 002d 003a 0053 ffee 0056 0035 0034 003f 0029 002e 003f 0046 003b 003d 0056 ffcd 0081 0036 0019 0056 000d 003b 0052 0027 0017 0059 0051 0025 003e 0041 000c 0044 001a 003f 0044 0049 0021 003b 0050 003d 0031 0023 001c 0042 0015 0054 004f 0046 0045 0018
0010 002c 001a 0018 0057 0047 004c ffff 003a 0040 0053 0023 0049 0070 0010 004d 0031 006c ffe6 003d fffb 0040 0019 0055 005a 0029 ffff 0029 0055 004d 001c 0094 003a 004a 0058 0028 0019 0030 0028 004c 0010 0036 0039 0067 0030 0069 0040 000b 002c 002c 0050 0027 006e 003d 000d 0041 0051 ffab 0077 0043 001a 004e 0082 0000 0072 005e 0006 005a 0025 0025 003e 0002 003f 003e 004f 0037 0043 0038 002a 005e fffa 002c 005d 003b 004d 0026 003d 0032 0050 003a 002d 002a 003d 003e ffee 0046 007e ffef 004e 0040 003e 003e 006e 0007 0037 002b 0034 000f 0037 002a 0047 003b 002b 0049 0034 004b 006e 002b 0021 009d 002d 0035 0020 0059 001f 003d 0034 004a 0037 000a 001d 002f 004d 001a 0049 0037 0010 0082 0034 005b 002e 003a 002d 001a 0049 fff8 0044 0037 002c 0040 0030 0028 0037 0026 0037 0033 0023 0018 0051 001d 0013 0053 0018 0044 001f 000d 0057 002f 002e 005f 004e 0033 0028 001a 001f 000f 0039 003a 001c 0040 0031 001e 003d 0017 002d 001f 0017 0039 0021 0027 0039 000b 0039 0023 0044 001e 0034 002e 0039 0006 0057 0029 002a 0030 0030 0066 0039 0021 fffc 0054 0047 002a 0029 001c 0069 002e 0033 0064 003c ffec 0045 003f 0048 0044 0029 007a 000b 0033 0040 0042 001d 002c 0024 002a 003d 0038 0033 001a 0046 0034 0018 004a 0021 0054 005d 0005 003e 0055 0031 004c 0020 0036 000e 0080 0016 003a 0045 000e 0069 001e 0050 0011 0059 0024 0039 0043 0035 003e 0033 0034 0041 001b 0050 0006 0050 000d 001d 0059 0029 0003 0042 002f 0004 006b 0015 0032 0048 0037 0051 001d 002c 0069 003a 000b 0047 0057 0035 0052 0041 005f 0035 006e 0033 0062 0044 0029 002b 003b 0063 0025 0032 002e 0062 0024 0022 003f 001e 002e
002c 0036 0049 002f 0024 003c 004f 0049 0088 0000 0017 005d 0000 0025 0061 0068 0028 002a 0073 001c 0035 0047 ffd4 006b ffeb 003d 0019 0032 0072 0049 0014 000a 006f 0012 003c 004f 0075 0068 0012 0044 0063 fffa 0042 0048 005d 0044 0027 006e 0057 0021 0031 004a ffe8 004d 0029 0064 005b 0065 0052 0001 005b 005e ffea 0071 0032 0041 002f 0066 000e 0042 0006 0041 003a 000f 0038 0051 003e 0029 0056 0036 0049 004e 000a 0076 003f 0031 006e 001d 0049 001b 0005 0055 0038 ffd7 0043 0031 fff3 001c 0073 0023 001a 005e fffe 006c 0051 0041 0045 0049 003f 0054 003d 0017 003a 0055 0025 0040 0031 005d 0044 0016 0040 0038 0006 0042 0041 0032 0045 001e 004c 0048 002f 001d 003e 0049 003b 0021 0063 0000 0062 0010 0025 003f 004c 0032 0044 0059 0033 0036 0036 004b 0049 0058 0026 0046 003f 0039 0031 0053 004e 0042 0046 0011 004a 003f 0049 0050 0026 0030 0030 0055 002a 0042 002d 0053 0038 0055 0044 0050 004f 001d 003d 003a 004d 003d 002a 004b 0062 0038 0049 0049 001c 0063 0056 0007 0032 0045 0030 004e 0051 0054 0005 002f 0024 0070 0045 fffd 0014 005f 005d fff5 0053 004e 0062 0033 0019 0029 0016 0020 0030 005d 0013 0052 002f 0025 0009 0034 002e 0000 0046 001a 001f 0079 0037 005b 001e 001e 005e 003f 001b 0055 0056 0007 004d 0043 0020 0022 0037 0002 0051 ffde 0060 0045 0052 ffbc 0058 0007 0049 0056 000b 003c 002f 0030 003a 0050 003e 0012 000d 0045 002d 002b 001e 0048 0038 0029 003a 003b 004a 0041 0045 0047 0046 fff9 0071 005d 004c 000a 006d 0010 0014 0045 004e 0010 002a 007c 0030 ffec 0009 0038 005a 000c 0021 0062 0013 0013 0003 006a 0057 0022 001c 0038 0066 000d 001a 0077 0046 004a 004c 0035
0015 002d 0032 004b 0029 002e 0037 0021 0015 0041 005e 0004 0026 006a 0023 0024 0022 005d ffea 006b 004e 0037 004b 0028 0062 002d 0062 004a 002c 0050 003d 0035 000d 0075 0037 0049 fff8 0030 0024 fffc 002f 0046 0037 fffd ffd9 005c fff3 0022 0023 006f 003b 004c 007a fffe 0034 0001 0029 004a 0025 0066 0020 0004 005c 001e 0025 0039 0055 0042 0052 0053 0044 003a 003f 005d 0068 ffe1 001b 0017 004a fffd ffff 002b 0018 0036 ffde 003d 0055 0011 0039 001e ffe1 0060 0030 0040 005c 006e 004e 001e 0016 0039 0000 0079 004d fff5 0037 003d 0006 006d 0015 003c 0031 0060 002c 0010 0050 001a 002f 0009 0032 004c 002b 005c 0021 003b 0055 001b 0045 0040 0036 0026 0019 002c 004b 0014 0015 003a 003c 003c 0036 002f 0038 0037 0019 0042 0025 002b 0064 0031 001a 0020 0005 0044 0028 002f 0030 0032 0050 002d 0030 002d 0051 0043 0036 0045 0045 001c 0069 0032 0036 0042 0032 0027 003d 0045 003a 0031 003d 001d 0036 0067 0028 002d 0038 003e 0046 0024 0025 0046 0020 0049 0034 0024 002b 0056 0035 0039 0026 0025 003c 0061 0043 0048 0054 fff5 0069 004f 002f 0017 0023 006a 0034 0032 fffb 0075 0007 0035 0049 0027 0046 0023 0050 0015 004e 0023 0024 002e 003b 004c 002f 0044 0022 004d 0041 0011 004e 003f 0020 0010 0045 0044 fff3 0072 0041 0006 0077 0059 0047 0040 0032 007d 0048 001d 0000 0059 004d 004b 0045 0023 0047 002f 0029 005b 0026 0013 0017 003b 0028 0028 003b 0053 0047 0038 0048 0067 0029 0060 0007 0016 005e 0012 0047 0052 0038 000e 0019 004b 0049 0039 003b 0022 002d 003d 0048 fff0 006f 0038 0046 0043 0022 005c 0016 002c 0041 006d 003b 002b 0054 0041 0065 001f 0024 004f 0089 ffff 003d 003e 0038 0061
0037 0032 000a 0035 0018 003b 0057 0009 0049 003e fff5 007b 002f 0046 006d fff2 0062 fff3 008b 0035 0037 000a 006b 0054 001a 0051 0040 0042 0061 006d ffe8 007f 0071 ffd2 0053 0037 fffd 003d 004f 007c 0044 ff8d 0091 005c 007c ffba 006f 0032 0044 004a fff1 0053 0046 0042 0048 0056 0044 ffef 004b 004d 0027 005b 0045 0069 0000 0071 004c 0022 0047 0045 0042 0039 fff7 005e fff8 0081 004f 0035 0015 004e 0048 0058 0070 0007 0030 0037 0022 008d 0041 004b 0084 001a 000a 0056 005e 0017 0026 0043 0021 002b 0046 ffd4 0041 0047 0036 0022 003d 0040 0034 002c 0033 000a 0031 0063 002c 0053 003c 006f 0053 001f 002a 003c 003a 000a 0036 002a 0043 003a 0026 0042 0049 000f 0033 0048 0045 0027 0012 0042 0024 000e 0032 0032 0012 0046 0042 0046 002c 0036 0038 004d 002b 0023 005a 0036 0030 0043 003d 001e 001e 0053 0017 003a 0079 ffcf 0041 001f 003a 0013 0041 004d 0050 0000 0066 000e 004d 0014 0059 001d 0036 0020 0061 0007 004c 0041 002e 0032 0048 004f 0046 0049 0032 001d 0052 0018 0068 0009 0042 004c 0003 0039 0053 0044 0037 0066 002a 004f 003c 003b 003f 003f 0031 001a 0069 0015 0045 0030 005b 000b 0011 0050 003c 0039 fff4 0027 006b 002c 000d 0045 002b 0000 0048 0041 fff9 0055 0017 0040 003f 0057 0047 000d 004c 0055 000c 003a 002e 002a 0035 004b 0011 0026 fffe 0070 0037 001d 000a 0038 0040 003c 000f 003d 005b 001c 0056 0046 0076 0004 0066 002d 000c 0034 0029 0041 0074 0002 002e ffff 0051 0070 0020 002c 0074 0017 0018 0021 0080 ffe4 0033 0015 0068 004d 0037 0040 0057 002b 002b 0058 0041 0019 003e 003d 0040 0049 0044 0017 006e 0006 003f 001d 0027 0070 004c 002f 0038 0024 0054 001a 0051 fff0
000c 0023 0059 001d 005e 0056 0061 0030 002c 0034 0053 0043 0039 0007 000b 004d 0033 ffed 002d 007b 0008 0098 ffff 0027 0064 0030 004f 0045 ffd0 0033 0069 002b 0024 007d 004b 003a 0019 006d ffe2 0026 0029 007f ffe2 0001 0052 0074 0039 0027 0066 ffee 007f 0056 004b 0023 0013 0096 001e 0065 004d 003f 006d 0003 007a 0016 005b 003f ffda 0048 0048 0034 0026 0039 005f 0045 0048 0000 001e 005c 007e 003b 0028 004a 002f 003e fffe 005f 0021 fffa 0038 001b 0019 0035 002b 0029 002b 0033 0043 0059 003a 0073 001f 003a 0036 000a 002d 006a 0028 0037 0050 0023 0036 0056 005a fffa 0046 0026 0043 002d fffd 005e 004e 003d 0042 002e 0048 004d 0035 0031 005a 001e 0038 0049 004e 003d 0013 003a 0047 0041 001d 0045 0063 0033 0044 0047 002c 0042 ffef 0058 0042 000d 002e 006b 0034 002e 0057 005f 002b 0050 0050 0022 0051 003b 0020 0050 0051 0007 004f 002d 0046 003c ffe0 004a 003f 0031 0069 005a 000a 0032 003e 002f 0029 004f 003e 0046 0054 0048 0025 0050 001b 004d 004b 0040 0042 0062 000f 006b 0038 0024 007e 0012 0003 0035 0057 ffec 004f 0015 0022 0057 001d 004b 002b 000c 0057 005b 0060 0000 0029 0039 ffff 0051 002a 0024 0078 0034 003c 0042 004e 0045 0034 0037 0017 002d 004c fffc 0078 001e 0046 002c 0038 0038 0038 0030 0047 0033 0049 003b 0054 0012 0021 0049 0067 002c 002c 0067 003b 0014 0026 0048 004f 0040 0019 0033 003c 0023 001b 005b 0034 0032 0030 001c 002e 0013 002c 003f 0001 0078 0019 0013 0044 0037 0000 0037 004e 0076 fffa 006c 0044 005e ffe0 0068 0006 0036 004a 0056 0042 0028 0030 005e fff8 001c 0049 0030 002c 0024 0013 0059 fff1 004e 0038 0007 0037 0014 004c 0032 003b 004c 003c 0025
0040 003e 0035 0040 001e 0051 fffd 001b 0038 0075 001a 008c 004e 001d 000d 005b 002f 0069 0060 ffcd 006e 0034 0032 ffd4 0053 0021 002c 0038 0070 0063 ffca 007c 0042 001f 0013 0065 0032 006e 0073 0050 0067 002a 0057 0056 003d 002c 0005 0077 0059 0041 002d 0023 0053 005e 003e fff9 0056 fff2 0072 0045 000b 0032 001c 0050 002a 003e 0054 0010 0015 0043 0050 0027 002e 000e 005e 0058 001e 0066 ffca 0093 0039 002b 000f 0035 0064 fff1 003f 0062 0026 0013 007c 0038 002c 004e 001e 0004 0052 0015 0047 001c 0058 0049 0058 0038 006c 0017 0019 0048 0001 005e 004b 002f 0036 0053 0069 000e 002d 0036 006e 000f 0033 001a 0038 0037 002e 003a 004e 0031 0033 0037 0056 0031 002e 0058 0035 002f 002a 002c 0038 0020 001b 0040 003f 001c 003b 004e 0025 005a 0034 0045 0062 001e ffff 0046 003d 0032 003a 002d 001f 002f 0023 004e 004a 001b 0045 0021 0052 0029 000f 0026 0060 0034 0027 003f 000d 0036 0055 0042 0049 0057 0048 0042 0037 0019 0018 0053 0049 003b 0065 0028 0028 0044 0018 0042 001c 0033 0068 0034 0031 0044 006e 0023 003b 005c 005d 003c 0051 0036 002b 004a 0035 003e 0024 000c 0029 003a 003a 004b 0025 0060 0031 0046 0018 003b 0037 003d 0000 0060 0066 0000 0059 0038 0064 004f 000a 002d 0032 0042 0037 0021 001d 0034 004d 0020 0059 0035 0003 004e 001d 0049 0016 0021 003d 0027 003a 0041 0051 0026 ffff 004e 005d 0011 004a 0033 0037 0030 0021 0042 0046 005d 0013 002d 001e 005a 0034 004d 0036 0059 0050 003f 005f 003b 0068 0028 0035 001d 003d 0015 0058 fff7 0067 0019 0019 001e 0028 0042 0034 003a 0057 0068 0024 0057 fff7 0068 0036 000d 0064 0039 fff5 0053 0022 0046 0019 0057 002e 0028 001b 0010
003d 001c 0011 002b 000b 003a 0048 005d 0051 0014 0071 ffeb 004b 0071 003f 004e 0048 001d 0073 003a 0033 ffe9 0063 004e 0059 000d 0087 0022 0035 002e 0075 ffe8 005b 007f 0003 0036 0056 ffa9 0066 ffe9 0056 005e ffa3 006a 003d 003b 002d 003c 0033 002c 0053 007f fff4 003a 006b 006e 0006 007e ffcc 008e 003e 005a 0055 0014 0045 004b fffe 0060 005a 0021 003b 0043 0029 0027 0047 0006 0066 fff3 0051 0010 ffff ffda 007b 0014 0057 007d 0016 0038 ffc5 0028 0019 0041 0043 0009 0043 0037 001b 0080 0034 0027 0010 0006 0045 0022 0010 003e 004f 0032 0041 0047 0028 001f 0044 0061 0017 0058 003b 001a 001b 003c 0052 005d 002f 0061 0020 0029 0019 003d 0042 0037 002f 0046 004b 0015 0024 003a 0038 0041 001f 004b 004e 0006 0034 002a 0030 0054 0030 0018 0057 001f ffe9 003e 002b 0053 001f 002f 000e 0038 0041 003a 0044 0015 002c 0052 0054 0020 004b 004b 005c 002d 0017 0048 0062 000b 006a 0041 0024 001d 002b 0017 005e 003a 0020 0046 0079 0006 0040 003f 0003 004d 0010 0029 005f 004c 003b 0046 005d 005d 0029 0046 002b 0041 0030 0037 0012 0038 005e 002a 0090 002a 005c 0031 006e 0035 002e 002e 004e 003d 0033 0062 002a 0019 0067 000b 0046 0054 0048 003d 0034 0031 0023 0045 001f 005c 003f 0002 006d 004b 0041 0042 004d 0043 0035 003b 0040 003e 0075 001d 003a 0030 0068 005b 0034 0023 003c 0064 001a 0034 008c 0014 0040 0075 0014 005e 000e 0005 0057 003b 0018 002c 0072 0039 0041 0057 fff6 0057 0056 001d 0096 0010 002d 0073 0004 0039 005a fffb 007a 0041 003d 0061 0047 0044 001f 0074 0054 001a 0072 0021 0010 007a 0045 0004 0070 004a 002f 006e 003b 000d 006b 002b 003a 0029 0052 0034 0007 004a 0052 0036
0032 0001 007a 003d 0018 0032 0048 0056 004c 003e 0011 0051 002d 0059 0030 005a 0076 fffe 0017 006b 005e 005b 0045 0086 ffc6 006c 003d 003b 0067 0030 002d fffb 0058 0020 0079 0002 0077 0032 0010 0048 004b 0029 0086 003f 001f 003b 000c 0050 0042 ffef 0035 002d 0056 004d 002c 001b 0008 0041 006d 0005 0034 0019 0032 0032 003f 0006 003d 0048 0036 006e ffff 004b 0044 0042 0010 0048 000b 0046 0051 0082 0022 0054 ffd7 0044 0048 fffc 0033 0064 0061 0050 0042 ffd8 0059 0067 0017 0015 0069 ffc4 005d 004b 002b 005e 0031 002b 0031 0042 002f 002d 001c 003b 0051 0022 004a fff9 0049 002a 0055 003b 0053 002d 0040 0031 0042 0035 0049 002b 0050 0038 003a 0028 004a 0056 003d 001f 0048 0049 0037 003e 0057 000d 0061 0058 0034 0042 003b 0039 003d 0015 0039 005c 0052 0018 0058 0018 005f 0031 0016 002f 005c 0023 0032 004a 0069 002e 0011 0022 003b 0019 0004 003e 0042 0025 0040 003a 0018 003b 0044 0046 0034 006b 0006 0031 003e 0039 002c 001e 002a 002b 002e 0032 0042 0023 003d 0020 0047 0036 002d 004b 0033 004a 0057 000e 004d 0042 0058 0024 005f fff0 0041 004e fffd 005e 0027 0064 0024 004a 004a 0016 0036 0035 0044 0047 0042 004f 000c 000b 0064 0032 0039 004e 0000 002c 0052 0030 0033 003b 003b 002b 0043 0031 0046 0051 0024 001f 0047 ffff 0036 0035 0040 0051 003b 002a 004b 0028 003e 0041 002d 005e 001d 0075 0009 0060 fff4 002d 0027 0066 0018 0065 007a 0002 005d 0019 0053 0068 003f 0011 0037 003b 000f 0077 004b 0028 0065 0061 0034 0043 002f 0033 fffc 002e 0053 005c 0045 0027 0059 001a 0028 006c 001a 0035 0029 0066 001c 0061 004e ffe5 0057 0054 0017 0054 0017 0028 003c 000d 0055 0034 002f 0035
0045 0019 0023 002d 0068 0043 000e 0026 0068 003b 006d 0049 0054 0061 0067 0057 0066 0029 0064 0029 0051 0014 ffc8 0037 0034 002d 006c 0051 000a 0055 003d 0088 0047 000e 0046 0087 ffde 0085 0081 fffa ffe0 006b 000c 005f 0075 0014 0061 0067 0036 0042 0054 0050 0046 ffbf 007a 002b 005a 0059 004b 0037 0005 008f 0063 0078 002d 005a 0030 0022 0035 0000 0020 0082 001b 004a 0046 001a 0031 004a 002e ffd9 0057 000a 0083 ffd9 005b 002d 0029 0084 ffc8 005a 0050 0070 0053 0039 0027 0008 0037 0063 0008 0056 0024 002d 003d 0059 0029 0023 0047 005d 001f 0037 000d 003b 002a 004e 003a 0027 005b 0035 005e 0009 0050 004a 0042 0039 003f 0047 0048 0033 003d 0050 002f 0024 0032 0063 001a 003e 0022 0035 0044 003a 0013 0040 003a 0049 005b 000d 005e 0020 004a 000f 0026 005d 0001 006a ffef 0042 0072 0044 000f 0058 0033 003a 0008 0037 0062 0040 001e 004a 0059 0012 0031 0061 003e 0021 0033 005e 002a 0046 0044 0015 0056 006a 003d 004f 002b 0067 0037 0045 0055 0046 003a 0043 0039 0060 003f 0035 0046 0033 004a 004e 005a 0021 0032 0023 0083 0023 005a 0026 0049 0039 002c 0035 0058 001e 0053 0027 0073 0055 0050 0033 002c 003e 0047 0038 0062 0054 0051 004d 0048 0010 005c 0032 0036 0040 003c 0037 0033 0039 002e 0032 002d 0029 0047 0037 0044 0058 0036 0049 0044 0000 0047 004f 0034 0042 0039 0038 0030 0011 0040 fff2 0050 0029 0046 005a 0008 005b 0017 0042 ffe7 0079 0046 0019 0062 0020 001f 0087 ffe3 0045 007b ffc1 0052 006c 004b fffd 0035 000a 0064 0063 0050 0065 0048 000c 0035 0034 005e 000b 0063 0036 0082 0011 0036 0007 0064 0035 0006 0066 0020 0035 004a 0053 0026 0053 0031 0058 001b 0027 001f 0028
0033 0042 0048 0039 0014 0050 0017 0085 ffe7 0052 ffef 0054 0020 0010 fffb 0015 0035 004f 0014 0054 0065 0061 0082 004b 0064 0046 0046 fffb 0064 0033 0041 ffd0 0050 0034 0044 0024 ffea 0058 001a 0073 0083 fff7 0071 ffe9 0051 0054 0022 0007 007c 001b 0008 0044 0085 004b 0022 004f 0051 0022 004b 0001 0073 ffd6 000e 0019 fff9 0042 004a 002a 007e 0048 0050 0031 0078 004b fff0 0080 0015 ffea 0064 0040 0051 0060 0058 0019 0029 0047 0032 fff2 0063 002e ffff 0007 0051 ffdc 0051 0040 0044 0006 0038 006f 0004 004a 0024 003e 0048 0064 0008 004f 002e 005e 0043 0065 002f 0061 004e fff5 0036 0047 001b 005b 0022 002c 0041 0035 0055 002b 0014 0042 004d 0008 0060 002b 0005 0042 004e 0040 0039 0056 0034 0015 0044 0054 0052 0024 0017 0073 fffa 003d 0031 0048 0045 0034 005e 0013 007c 0020 0017 0017 0071 0038 0009 0064 0053 0055 0001 0036 0087 000f 0031 003d 0057 0020 0046 005e 005a 0022 002d 0043 0040 0030 001c 0031 003f 0023 0040 0009 0040 0032 004e 0000 0037 005f 0025 0058 002c 0049 006b 004f 0015 003c 0016 004a 0063 0041 0006 004c 0059 004e 0046 003a 003a 0056 0043 003a 0008 003b 0028 0054 001b 0042 0039 004c 003a 0059 000a 0072 fff0 003b 0058 001c 0050 0053 002a 0030 0034 004d 0028 0050 004a 005b 0031 003f 0047 0043 0043 0050 fff8 0047 0029 006b 0017 0033 0037 0029 002e 000b 0039 002e 0032 0078 0052 007b ffe4 003d 0066 0043 002f 0051 007f fff5 0057 004b 0013 0035 004f 0004 006e 005e 0032 008d 0053 fff3 0053 0026 0073 002f 0024 004c 005b 002f fff1 0050 0047 005e 004f 0013 0027 007b ffeb 0045 0056 fff6 005f 0014 0060 0045 0013 000b 0026 005e 0049 0014 0055 005f 0018 0048 000d 002a
fffa 005e fff9 0037 002b 0023 006b ffce 0094 0061 0007 001b 0055 008e 0052 0072 0036 0059 002e 003a 0032 000c fffb 0017 007d 001d 0025 005d 003b 0043 004c 006f 0053 0047 0059 0049 006a 004a 0064 005d fff4 004f 004a 007f 0027 0032 0064 0064 0036 003c 004c 001a 0029 0037 003a ffec 005b 002e 0035 003d 000d 0070 0059 0069 0033 0059 002e 004a 000b 0054 004f 0021 0042 000a 002e 005f 005b 004a 0068 006c ffce 000f 001b 0062 007b 004c 0045 0087 ffe9 0063 0063 001a 0042 0046 0050 0028 0019 0071 0011 001d 0050 0032 0041 0058 0037 001b 004d 0044 0042 002f 0023 0045 003d 0012 0025 005d 0004 003d 0061 001b 0065 0042 0041 0052 005a 0015 0051 0031 0032 004a 002f 0045 003a 006a 001e 004b 0027 003d 0057 0048 001f 004e 002a 002f 003c 0026 004c 0026 0059 004c 001c 004a 0030 0046 002b 0032 003a 0056 0031 0041 004e 0037 0036 002e 0043 0055 003b 002c 004f 0042 0014 0037 0027 0053 0015 0039 0036 0042 0042 0032 004e 0045 0039 0039 0052 004f 0033 0056 0046 003d 005c 0040 0047 ffe3 0062 0026 002f 001e 004b 004a 0055 0034 0032 003c 0004 0038 0039 0045 0036 0057 0042 004a 004d 0047 0065 0039 005b fff1 0055 0034 004b 000b 0037 0023 004a 001a 0059 005c 000b 0052 007b ffe9 0049 0042 0041 004e 0039 0050 0021 0011 005a 001b 0030 002c 002d 002f 0041 0030 0078 0033 0031 0049 003e 0041 0055 003b 004f 0060 004a 0048 001a fff9 0076 003c ffd5 0035 0035 0059 ffe1 0070 0052 003e 004f 0010 0059 007a 0019 002f 0053 002b ffe7 0070 004e 006b fffb 0032 0038 0035 ffe3 006c 0027 001f 0065 ffee 0053 0055 002b 0030 004e 0043 0045 007d 0045 006b 0012 0021 0061 0053 003e 002d 0025 0046 0035 003b 0033 0041 004b 001e
0040 000d 007f 004c 0022 006a 0038 006d 0016 0066 0066 002a 0070 ffcb 007f ffee 006d 0023 0039 0035 005c 0061 0065 0056 ffe4 0081 006c 0009 007b 0052 001a 002a 0020 003d ffe3 0048 0025 0040 0067 fff8 0071 fff6 005c 0040 001b 0048 0032 004c 0077 0003 005a 004a 0050 0017 0049 0063 0048 0078 0027 0066 0040 0044 005f 0040 0048 002b 0079 006b 003e 0039 0040 004c 0030 0052 0040 0045 002f 0050 ffd9 0000 0091 0042 002e 005c fff5 fffd 0012 0002 002c 003f 002d 004c 0035 004f 0022 0051 0061 0046 0025 004b 0022 0038 003b 002b 003a 0053 0023 0048 005a 0019 0053 0051 0009 0058 002c 005a 0055 001e 0027 0078 000f 0039 0036 003b 0033 0047 003e 004c 0044 001f 0024 0054 0048 0002 004f 0037 0051 0021 0040 0024 0044 0044 004f 0061 004d 0042 0037 0030 004a 002e 0052 0042 003c 0026 005e 0047 0051 0020 002c 003d 0031 002e 005c 0022 0044 001e 0051 0040 0021 0029 004c 0044 0037 004c 0051 0032 0037 0039 0037 003f 0013 0066 003e 0041 004c 000c 0052 0030 0066 0035 0034 0036 0036 005d 0044 0044 004f 000b 0068 0012 0030 0034 005b 000e 006d 000f 003c 0069 004c 0026 0043 0023 0027 003c 005a 005d 0015 0050 003f 006f 0042 0032 007a 0036 0040 0034 0084 0030 004c 0015 0000 005d 0035 001e 0075 003a ffd3 0064 003d 003e 0068 003f 005d 003f 0057 0063 0036 0046 fff7 0058 0069 0014 0073 0016 002c 0056 002d 002c 0042 0018 0029 0056 0043 0039 0059 0039 0018 0058 0027 0068 000d 005e 0053 0056 0042 0024 004c 003a 0065 0053 005e 0040 007a ffe8 0048 004a 0060 0030 0021 004d 0061 0025 0027 004a 0043 ffea 006f 0036 0019 0020 0064 0022 0043 0039 0025 0079 0013 0049 002b 0038 0055 004a 0025 0041 0038 ffff 0041 004e
0013 004d ffef 003f 004f 0041 0043 0030 0053 0042 0004 0035 0048 0027 0055 005f 0044 0065 ffea 0069 003c 0064 fffc 0049 0072 0019 007a 0040 0052 0011 0035 0036 fff5 003e 0085 0062 0042 0061 0036 001f 005c 0045 0052 0086 0064 0041 0063 0041 000a 0066 0049 0067 001b 005e 0058 fff3 0042 0005 0076 ffea 002e 004e 0025 0036 005d 005a 0007 0012 0006 0031 0055 0053 001f 0055 003c 000d 002b fffb 0084 0051 ffd3 004e 0056 ffd8 0066 0045 005f 0071 ffd4 0059 0023 005f 003d 0029 004f ffd8 0047 0050 fffd 0058 0014 004b 0038 004d 0026 0042 0036 0037 0034 0043 0055 0015 0057 0058 003c 0028 0049 006a 0053 ffc0 0068 000e 002b 004d 0047 0036 0020 0040 0010 0068 0028 002f 003e 003e 0047 0027 0046 0056 0034 003a 0046 004e 003a 0036 0042 004c 003c 0053 002f 0059 0049 000b 001f 0051 002d 001b 0057 003e 004f 0038 002a 004a 0022 0048 005a 0038 003f 0041 0053 004c 0048 0046 0049 0026 0021 0030 004e 0048 0033 0012 0055 0012 0053 0008 0033 0034 003e 0029 0027 002c 003a 0014 0077 002f 0012 008b 0021 004a 0033 0065 003e 0049 003a 003c 0067 002e 0074 001e 0050 003e 0034 002d 008e 001e 003f 003d 0075 0007 0056 002a 0059 0035 003d ffee 0063 0038 0009 005a 0028 0017 005b 0045 0091 0019 003e 001b 0054 004d 003f 0032 001c 0039 0029 fff8 0044 003a 0012 006b 0068 0037 0014 0060 0022 0037 0043 0040 0005 0073 001f 0066 004c 0038 005c 0049 004f 003e 0051 001e 0044 0055 0057 0033 0031 0036 0073 0061 0033 0038 006b 0029 0047 004d 003d 003e 0036 0055 002c 0042 0045 0086 001b 004c 0046 002d 0033 0061 0015 0058 0071 0014 0039 005b 0039 004e 006b fff4 0075 ffe3 004b 0053 003f 0034 005f 0001 0028 007b 0017 ffdc
0027 0045 0032 006f 0027 0052 0055 0029 003f 0074 0046 003f 0060 002a 0056 0062 0066 0040 000a 0067 0023 005b 004f 0055 0070 001d 005c 003e 002a 003c 0093 004d 0050 005c 000e 0024 006a ffef 0079 0028 004d 0018 0049 001b fff3 009f 0006 007c 0054 0004 003a 003a 004d 004d 006e 006f 0077 002b 0027 005a 0068 005c 0058 0059 005a 000b 004c 0040 008d 004f 000d 004e 0043 000c 0023 007f 000f 0050 0033 0033 0072 0027 003e 003e 006a 003e 0019 0023 0047 0025 005c 0015 004e 0033 0041 0066 0044 0020 0059 0031 0053 0011 004e 0032 006a 0038 0032 0051 003f 002f 002f 0020 0059 003d 0033 0051 0038 003d 004c 007b 003d 004c 000b 0029 004d 0025 003e 0071 003e 0036 002b 0038 0061 0032 0037 003d 0052 002a 0043 0065 0044 002c 0056 005e 0008 0041 0007 0041 0042 0044 0026 004f 002d 0045 004b 0043 0026 004d 004b 0033 0061 001c 005c 0052 0021 004a 0053 0055 0021 0029 005a 0048 0048 0053 0023 006b 0020 0049 005b 0052 004c 0055 0019 0058 006d 0028 0062 002e 0054 0028 0063 005f 0029 0049 005b 003c 0046 002b 0046 fff4 0044 0027 0045 0048 000d 0072 0057 0044 0025 004e 0042 003e 0011 0047 0061 003c 0015 004d 0025 0055 0019 003e 0040 0051 003b 0023 0067 005e 0046 0049 0011 0034 0005 0010 003d 0049 002b 0041 0061 0045 0025 0066 004c 0029 0067 0046 0081 0024 0033 0057 0027 0043 0011 0030 0012 004e 005e 0011 0059 0025 0044 0028 0054 ffd8 0083 0038 002b 0072 0074 0036 0034 fffe 0071 000f 0031 0056 0065 003c 0066 ffe8 fff7 005c 002e 001a 0050 003f 002f 0059 0034 004a 0032 005a 0050 004e 0026 0025 008d ffdf 0045 0080 001d 0028 0049 002f 0005 0053 0018 0071 003a 0013 0052 0045 000c 0057 0037 0013 001f 005d
0020 001d 0029 004a 005a 0055 0031 005f 0072 0023 003c 004e fff5 0087 ffdc 0066 0033 002b 007f 0003 007d 0027 004e 002b 005c 0027 005c 0010 0051 0037 003b 0043 0056 005c 007c 004a 0041 0057 002d 0041 0080 0065 0024 0077 0072 ffbb 0073 004d 005b 0054 0068 0023 005c 003f 0057 0048 003e 0035 0079 002e 0012 002b 002e 004c 000a 0058 0061 007f ffc8 004f 007c 004b 0031 0077 0022 0038 0031 0041 0040 0085 ffe6 0068 004b 0032 ffff 0069 0061 0063 0034 0057 004a 0021 003a 0041 0045 0034 004d 0039 0045 003f 0036 0058 0022 0051 0040 0045 0029 001f 0044 0032 004f 0048 0033 003d 002e 004f 002f 0051 0058 002b 0066 003b 0069 004a 001a 0067 0035 000e 0043 003c 0049 0050 001c 002e 002f 0048 0044 0035 0056 003e 0046 001d 0046 003a 004c 0049 006e 0053 0034 0043 0068 0040 004c 003e 005a 0042 0050 002a 005a 002f 005b 0069 0032 003d 006a 0048 0039 0050 001d 003d 0036 0031 0039 0052 0041 0018 0043 0053 0035 003a 0048 0043 0069 0035 0042 004b 003e 0042 0029 0044 0038 002d 0049 fff9 0040 0050 fffe 0067 0020 006a 0037 0074 0035 0029 005f 0039 fffa 0050 0059 0046 002c 0049 007c 0026 004a 003b 005c 0044 002f 0039 002c 0090 0011 0054 0045 0062 0033 002f 002f 0050 0027 005a 0059 0066 0030 007e 0040 0068 fffc 005f 003c 0036 0045 0051 0025 0054 ffe5 004f 0045 004d 0039 004a 0064 0042 0055 fffe 0052 0061 001d 002e 003e 0062 000f 0054 0020 0037 0061 0028 002c 0029 0062 0072 003d 0063 003b 002f 0020 0035 003b 0055 0046 003b 0063 0026 006e 0057 007b 0004 0086 fff9 0048 005d 000a 0035 0034 0067 ffda 008c 002d 005e ffff 0072 0048 0069 0052 002e 0008 007c 0000 003f 003f 0060 0057 0025 0013 005b 0041 001c
0035 004d 0061 0033 0034 001f 001b 0040 000a 0054 0047 002d 006c 005f 0062 003c 001f 0066 ffef 0069 0037 005c 0027 005f 0073 ffde 003f 005e 0001 0075 004a fff3 0062 002b 0044 0036 005b 0059 0010 008c ff6f 0077 0035 0040 003f 0084 0062 003f 0020 004f 0006 007e 006f 0021 0046 0030 004c 0072 0007 003f 0034 003a 003a 0037 0056 001f 0044 ffe4 006b 0038 003b 0047 ffef 0042 0043 0033 005b 0038 000c 0035 0051 004c 0000 0058 002e 004b fff8 0073 ffd1 003a 0016 006a 0052 004e 0057 0043 0011 005d 0023 0018 0048 0023 004e 0001 0048 0051 002c 007b 0023 0054 001c 0025 0038 0054 0000 0070 0007 0057 002d 0041 003c 0028 0047 ffff 0068 0019 002d 005e 002e 0029 003f 0038 0055 0048 003b 0050 0033 0054 fffc 0053 002b 006b 000e 0054 002d 0034 0048 001a 0059 0042 002f 0063 002e 004a 0051 003f 0034 0061 003e 0077 0043 0028 005f 002e 0043 0053 0063 003b 0057 000d 004d 0053 003b 003f 0033 005d 0020 0049 0049 002b 0046 0022 0012 0066 000c 002e 0031 0018 0044 005e 001e 0036 003a 001d 0050 0026 0054 0048 0048 003f 0042 0012 0033 0031 0013 0044 0046 005c 0053 0053 0040 0031 0038 0050 0054 0027 0045 0028 005f 004f 0040 000f 0072 002c 003e fff1 006c 0063 0053 003d 0068 0002 003a 003b 0071 fff0 005a 0014 005e 0044 0046 0016 005c 0050 000a 006e 005d 0035 0036 002c 002a 003b 005c 0031 000f 0078 004d 0045 0052 fffc 0054 0056 0058 0005 0075 004b 002c 0040 0038 0059 ffef 0054 004f ffdc 003f 0061 0045 0069 0023 0030 0066 003d 001a 0056 0036 000b fffc 0067 ffdd 0078 0016 003c 0062 0046 0058 0022 007e 0024 0039 0005 006a 0023 0043 0010 ffe2 003c 0036 0040 0054 003e 0025 000e 0042 0035 0044 0015 005d 0025
0009 0039 003e ffe0 004d 0074 ffd2 0068 005a fffd 0045 fffa 007b ffd7 0042 0060 ffe4 0074 0071 0026 0081 001d 0053 ffe7 0053 007d 006e 002c 0072 0012 0058 0057 fffd 0026 0042 0063 0060 001e 006f 0009 00a0 005b 0056 006c 0027 002b 0048 0025 0059 0041 0070 002f 004c 004d 0053 004a 0010 0047 0041 0038 0073 0050 0048 0002 0044 005e 003c 005b 005d 0015 0010 0078 0058 0036 0039 006c 002b 0039 0004 0059 006c 000a 005d 0057 0067 0013 007b ffe8 005c 0058 005a 0010 003f 0037 0033 0002 0043 001f 0062 0033 0036 0045 0064 0024 002f 0038 003a 0043 0044 0030 005c 0059 004e 0015 0074 0041 0056 0031 0058 0026 0035 005f 0033 005c 0013 006b 002e 0047 0048 002f 0075 0034 0030 000d 005a 004c 003c 0052 0040 0028 0060 0051 0025 0052 0042 0037 0042 004c 0055 0030 006e 0028 0056 005b 0006 0049 0034 0049 004a 000b 006a 0054 0016 007f 0041 0042 0050 0049 004a 0069 0060 002f 004c 0049 0036 004a 0059 002b 005e 0059 0049 0049 0035 0040 0031 0054 004e 004e 002e 004a 0059 0046 0033 0029 0061 0014 0014 0034 002f 0056 0029 0046 0059 001d 0031 0068 0060 0023 0027 006d 0030 004d 005d 0056 0034 0044 0073 003d 003a 0043 0027 007f 0016 0046 0073 002a 0042 0042 002b 0055 0056 006e 002b 005e ffe9 0087 0019 004b 0043 003a 004f 006e 002c 0034 0013 001d 003b 004c 0024 0048 005e 0028 0055 001e 0053 0037 0018 0023 002d 005f 0032 0005 0054 003a 0021 0055 003c 007b fffd 004d 006d 0019 0046 0081 0065 ffd6 008a ffe6 004a 0067 0018 002d 0043 003d 0036 003a 0020 003e 0070 0063 0049 0039 0041 001e 005e 0049 0039 0039 005e 003a 0028 003d 002b 0059 0061 0059 002f 0061 0031 0035 0061 0037 004c 0036 0019 0054 0026 0044
0065 fffb 004c 0065 0012 005c 007b ffa8 0068 0063 005c fff7 0068 ffe8 0076 0068 ffdd 005f 0024 0045 ffee 004f 007b 0045 0052 002d 003e 003b 004f fff5 0050 002e 006b 0085 0027 0053 ffd1 0062 007a 000b 0065 0015 003a 0048 0035 0056 001d 006f 005a 0056 fff9 007d ffcf 0062 0070 0037 0074 004b 0030 0055 002b 002d 0036 0060 0057 0023 0052 0060 0012 007a 002a 0043 0073 0035 004e 0041 003b 006d 0061 0035 ffe7 0060 0064 ffd2 006c 001f 005f 0052 0066 002f 0017 005c 005b 0040 002e 006f 0037 0046 004d 0037 0046 004c 001c 0051 005e 003a 0040 0031 004c 003e 0052 0038 002d 0048 0047 0054 0058 000e 0032 004c 006c 0006 0040 0070 005e fffe 0060 002d 0037 004b 002b 0040 005c 0059 0026 0050 0047 0046 0026 005e 0034 002d 0057 0041 002a 0048 0048 0015 0059 004a 004c 006a 0019 0020 0076 0035 006e 0042 002a 0070 0027 0048 0030 004b 0033 0065 003e 002d 0051 0047 0021 004e 0063 0034 0050 0039 0052 0056 0051 000f 005e 0065 0047 001c 0067 0048 0024 0051 0024 0026 003b 0056 002f 0055 0059 0053 0039 001d 0084 0015 0040 0061 0055 004a 005a 004d 002e 0082 0054 0027 005b 004c 001d 0035 0045 0050 001c 003b 0055 004b 004f 003d 0046 007e 0067 ffd2 006d 0023 0050 0062 fff0 0037 003f 0028 0078 0021 0037 0047 0056 0028 0066 ffeb 0028 0074 006f 0045 0070 0044 0049 0060 0002 0063 0013 0034 004d 0067 006d 0046 0053 0010 006b 000f 0066 006b 0048 0004 006e 0044 0054 0072 0033 003d 005a 0054 0021 0085 ffef 0040 0063 000f 0044 006e 0056 005f 0040 0070 0077 002d 005f 0002 0032 0033 0076 0046 0026 0028 004b 0026 0024 007f 002d 0057 0065 0022 004d 002c 0003 005a 002b 005f 0014 0052 003d 004d 002d 0017 0045 0054
0000 009b 0036 0053 002f 006b 0069 006a 0042 ffe5 0057 0057 002c 0030 0026 003d 0090 004e 0024 0062 0039 0064 0035 fff9 0065 0026 0042 003a 0038 0093 0051 0059 000f ffe8 0077 0058 0034 004b 0029 0044 0062 0038 0036 002f 006d 0024 004f 0061 002b 0046 002c 002e 0082 003b fffe 003a 0039 0070 0025 009a 0043 0020 0061 0050 003f 005a 003b 0054 003d 0026 004a 0065 000a 0046 0032 0052 004b 002f 0030 0010 006d 0045 000a 0083 0024 0047 004b 0049 0007 0070 0048 0038 0038 001a 0051 003f 005b 001e 0061 0025 0002 0063 003c 0008 0066 0034 0032 004a 0034 0020 002b 004f 0020 0031 003f 0035 003c 0055 0028 0049 0007 0063 0044 001b 0040 004d 003e 004d 004a 004e 0038 0052 0007 0046 003e 0034 003c 0049 0042 0022 0034 0061 0032 004b 0045 003a 0032 0078 004d 0029 003d 0042 0051 006a 0017 004a 0021 004c 003e 004d 0054 002c 0045 004e 002a 0033 0069 003d 0042 0053 003f 0042 0031 003a 004d 0051 002b 0045 004c 0050 0049 004a 0030 0042 0042 0035 001e fff3 0075 004c 0058 0009 0061 005a 000e 001f 0074 0069 fff1 004c 001d 0030 000a 0048 003d 002d 0049 0038 0041 0041 003e 0049 0043 0071 0054 0044 0078 0050 0018 004c 003b 004c ffea 0072 0015 003b 0041 0037 005c 004e 0016 0093 003a 0060 004e 0036 0055 002a 0037 0029 0052 0090 0000 006c ffdc 0058 0061 000b 0054 0053 0047 004f 0055 0075 001e 0036 000d 0040 0024 0064 000e 0074 0022 0028 005a 0064 0048 0035 0008 0011 0087 fffe ffcd 0096 000a 004a 0068 0061 ffff 0047 0030 0059 003d 0019 0075 ffec ffee 004e 0038 0047 0045 0065 ffe9 0039 0058 0048 0055 0045 0035 0022 0051 005c 0024 004e 001a 0057 0069 0020 003d 0055 002c 0017 0029 002b 0046 0038 0047 ffdf
0041 0012 005d 0029 0051 0023 fff1 005f 002b 0056 005a 0040 0065 006a 006b 0053 002f 0052 004e 0054 0065 fff8 005e 0061 005c 005a 0052 0064 0039 0034 002b 0000 0099 0011 005e 004a 006b 004a 0027 0050 0044 0043 0054 0056 004a 0060 003b 0043 0016 004a 006e 005f 002c 0037 0065 006c 0029 002f 0062 ffe6 0024 0087 ffff 0058 004a 0054 0044 0031 0048 0058 005e 0040 002c 0075 005f 0008 0023 004e 0036 004c 0026 002d 006c 0038 0059 004b 0049 0059 0049 003e 0060 005a 0052 003d 0039 0052 0010 0052 0041 0045 003e 0036 0051 005a 0032 0049 0054 0042 003e 006f 001d 0057 0051 0036 0032 0048 0063 0069 0022 003c 0069 0047 001a 0056 0041 0053 003b 002f 0045 0048 002f 0044 0035 006a 0043 002e 005b 0031 0064 0045 0031 0025 0053 0019 0035 005e 0033 004e fff9 0046 003d 0029 001f 003f 002f 003f 0043 0048 0046 006f 002a 005d 0046 0044 0032 005a 0041 0055 0052 0051 004b 0030 006a 004e 0050 004a 0065 0040 003d 0056 004a 0025 0048 0038 0051 0056 003d 0068 0039 004f 0033 005d 0005 001a 005a 0052 0034 0027 0056 0048 005e 007b 006f 005d 0022 0075 004b 0071 003b 0057 0066 fffc 006f 001a 003d 002b 0004 004b 006d 004b 003a 0037 006e 004e 0037 0061 003c 005d 0011 000e 0056 004d 0022 0019 000c 0077 0010 006d 0059 004a 0027 0049 005d 001e 0040 0011 006e 0040 0048 0042 000f 006d ffff 003e 006e ffe6 008e 0054 004b 001c 0052 0056 0067 0063 0053 004a 0050 005b 0056 008c fff7 0094 ffe8 007a 005c 004c 0050 0042 0002 005e 002e 0077 ffc9 0075 002b 0055 0097 ffed 0083 002d 0025 001e 0069 001e 0041 007d fff0 0013 0088 0004 0046 fff4 0054 002d 0083 0042 004c 005e 0037 004b 0073 0013 004a 003e 0057 0040 0026 002e
0033 003e 0051 0008 0008 004c 0061 0031 0051 0054 0007 0051 0022 002c 0044 0035 000a 0042 0050 0040 0030 005e 003e 002c fff4 005f 006c 000a 0049 004f 0055 004c 0056 0015 0033 003d 0048 0047 0086 0031 005b 0010 007e 0061 ff95 006f 0058 0033 005f 004e 0007 0079 005c 0027 0058 0046 0023 006e 0047 0018 0081 0061 ffeb 005a 004b 0050 005d 004f 0053 0029 0050 004b 0091 0045 0002 0077 0064 0050 0044 005b 0032 006d 000a 0066 0002 0045 006d 0018 0011 005b 0045 0008 0062 004f 0054 000d 0054 003b 0070 0009 004d 005c 0024 002e 0031 003b 004a 0041 005d 0045 0039 003b 0047 0051 0064 001a 0044 002a 005f 004e 0067 0015 0048 0044 003b 002c 004d 0046 0043 004b 003c 0053 005c 0015 0048 0046 004d 004a 003f 0049 003e 0050 004f 004b 0061 005d 003b 0040 0072 0062 0046 0062 0048 0052 0051 0037 0051 005a 006d 002b 0045 006e 002d 0050 004d 000c 0054 003a 0038 0048 0076 006a 0024 004f 0058 003d 003d 004a 0052 0033 0040 0033 005c 0052 0020 0055 0029 0062 0013 001d 0062 0051 0003 0091 003c 002c 0044 0012 0022 006c 004d 001d 0036 0044 005c 001a 0047 0043 0056 005e 0065 004f 0051 0057 004c 0052 0063 0050 002c 0057 004d 001c 0073 ffe6 0073 0047 0074 ffe1 0019 0057 0041 0037 0057 0082 0025 0055 0060 0016 002a 0053 0050 0062 0006 0070 0064 0040 0030 0057 000b 0039 0094 ffe7 0059 007a 0003 007f 0045 004e 0065 0049 0012 0060 fff2 0031 004a 0022 001a 0059 0006 0021 0049 004e 0040 0082 001c 0064 0025 0028 0046 0064 0016 0035 0068 0054 0042 0000 0043 0059 001b 0050 004d 0037 0040 0082 0027 0040 0035 004e 0031 001b 0033 004c 0044 0048 fffa 0076 ffe6 0062 0074 0024 0027 0067 0035 0029 0055 ffff 0071 ffed
0035 0051 0035 0061 0063 001a 0024 0062 ffcd 005e 0057 0072 0030 fff4 0054 003d 0068 0046 0038 0049 0047 004c 0055 0025 008b 0065 001e 005b 0067 003b 000a 009f 0020 0017 006d 0068 0061 0037 003d 0049 0095 fff6 0057 007d 0051 005d 005e 0032 0056 002d 0069 0003 004d 0032 0046 0049 004b 0040 004e 004e 0000 005d 007a 0045 0052 0023 0035 003f 0065 0018 0047 0059 0006 0059 0051 0044 0064 0036 0007 0043 0037 003d 0044 004a 0055 006c 0017 0034 0057 0006 0046 0061 0020 0063 000f 003c 007e 0004 003a 005b 0052 ffff 0078 0034 005f 005c 003b 0025 0017 0011 0056 0044 004b 0047 0019 0050 0017 0048 004b 0030 0048 0020 004b 0051 004a 0069 002b 005f 0041 001e 0055 0035 0050 005a 0029 0035 006e 0047 0043 0032 0041 004d 003e 002f 006c fff9 004e 0068 0037 0034 0062 0035 004e 002b 0031 0053 005c 0022 002e 004e 0044 0034 0051 0015 0063 0047 0054 0048 003e 0045 0034 000b 004f 002e 0021 004d 0040 0053 003a 003c 007a 0026 0049 0039 0074 0039 0019 0039 007f 0012 0050 005c 0036 0049 004f 0078 0049 007e 0024 005a 0042 005d 0040 0044 0031 004f 005d 003b 0057 0012 0042 0014 0040 0053 003d 0037 0047 0051 004b 0038 0049 0056 0034 004a 0057 001e 0045 0057 006f 0077 001e 0042 003b fff3 0005 0074 001c 0049 005f 0041 0078 ffec ffb9 0079 004c 0038 0029 001b 005e 0074 ffcc 0083 002e 005c 0055 0061 ffe9 0013 003f 0056 0059 0065 003a 0076 004d 0057 0066 006e 0000 004e 0074 ffff 004f fff3 005d 0035 0050 0074 0032 0056 0025 0011 002e 003b 0026 005e 005c 008a fff0 006d 0040 0057 000c 0018 0083 003c 0067 0023 007c 0044 004c 0005 005f 0051 0045 0041 0051 001a ffee 005c 0057 ffe1 003f 0041 0024 0052 001e 0058
001b 0058 0042 0029 003b 001b 005b 006c 002e 0064 0016 0027 005a 007c fff6 006c 0012 003d 0008 0041 0042 003e 0041 0044 0037 0018 005b 002f 004b 0035 009d 0023 0024 005d 0068 ffe8 004e 005f 0022 0021 0015 0074 001d 0052 0057 003a 0075 002d 0022 004a 0039 006d 004d 0027 005e 0050 0052 003d 001e 0087 0036 003e 0053 003f 004b 0039 0045 003a 0058 0059 001c 006b 0065 0049 0043 0027 0010 005f 0068 0032 0046 0084 ffeb 006d 001a 0051 0021 006b 0042 004c 002f 006a 0062 0034 0030 0038 0046 0067 0034 0007 003f 0060 001b 0062 0039 0044 002e 0076 0048 0068 005c ffe7 007a 002d 002a 0050 007a 0035 0045 002f 0052 005c 0037 0070 003c 0028 005e 003b 004a 004e 004e 002d 002e 005b 005d 002d 0048 0037 0027 0068 0020 001e 0084 005e 0031 0057 002c 004f 0042 0054 0027 0056 002c 0064 0048 003b 0040 0050 0052 0056 0042 0067 0043 0044 005e 0038 006c 004d 0073 0058 0053 0069 002f 006e 004e 004a 005d 004e 0053 0031 0028 0052 0036 0057 0032 0020 00ab 0035 0056 005f 0032 0007 0060 002a 0048 000b 0092 001c 0057 0050 0041 0038 0040 0039 005b 0058 0022 006d 0034 0030 0086 004c 0026 003e 0031 0042 0056 0037 0038 0043 0024 0036 0067 001f 0036 0063 ffed 0040 fff5 fff7 0056 0028 002f 006f 006c 0017 0044 007e fffb 0019 0036 0065 0090 fff3 006c 001a 006e 0054 0030 0033 0065 002c 0009 005c 004a 004f 0066 005f 0045 003c 0072 fffb 0013 0006 0065 0040 0012 0036 0059 006b 0043 007b 0036 005c 003b 0066 003a 0056 0049 0025 0068 0053 0048 005d 004c 002f 000c 007a 004a 0031 005d 0011 001e 0046 000a 004f 0022 0019 0046 002b 0055 0009 003c 006a 001c 0014 006c 0051 004e 001f 0024 007d 004d 003c 003a 0060 0033 0024
0046 0032 0012 002b 006d 0030 002c 0031 006a 005a 003e 001d 005d 0023 003d 0051 004c 0061 0070 0037 0036 0032 006a 0041 006f 0065 0074 0041 007d 006b ffd9 008a 0051 0045 0033 007a 005f 004e 0051 0060 005d 0068 0052 001e 004f 004d 0017 0058 0053 0030 0092 001a 006d 0027 0064 0047 0031 005c 0061 fffc 0068 0046 005d 0036 004f 0043 0033 004d 0029 001e 004f 0045 0020 0027 006d 0035 003e 002a 005e 0071 0045 0052 006c 0063 0066 0035 0057 005e 0033 006a 0051 0023 003d 005a 0054 0048 004d 004f 0039 005a 0041 0036 0055 0033 004b 0056 0048 000a 005d 0033 003a 0069 001d 0053 003f 003c 0069 0026 004a 0058 002c 0056 0025 003e 0039 0059 0060 0039 0048 0051 0038 0063 003d 0021 004c 0048 0047 005e 003f 0036 005b 0064 0004 0021 005b 0058 0057 0061 004f 0050 003a 002f 0085 0055 0064 0044 0073 0057 0029 006a 004c 0028 006e 0046 0051 004d 0044 004c 0069 0048 005b 0030 0029 0048 0044 0038 0036 0069 000f 0043 006c 0056 0038 0009 004e 0065 ffae 0068 003b 0031 0038 0057 002d 0038 0044 006b 000e 0021 0031 002f 0054 0030 005e 004a 0037 0038 0024 003f 0036 0078 0013 0065 007a 0046 003d 005a 003e 004c 005a 003a 0033 0044 0033 004a 003b 0011 0078 0049 0057 005d 0059 005f 005d 001d 0040 0036 0038 0035 0069 004d 002e 002e 004b 005a 0030 0032 0006 0028 0067 ffd8 006f 0004 006b 0071 ffda 0040 002e 0025 0062 004c 003a 004d 0054 0067 002c 001e 0067 002f 006e ffe0 006b 0060 001e 009e 0000 0052 003c 0064 0028 0003 002b 004a 0042 0076 004e 001e 006f 0047 005f ffd1 006e 006a 0063 0059 0044 0051 0045 0058 0023 004d 0020 001c 006b 0045 005a 0056 001e 0052 002b 0060 0028 0039 0036 0014 005f 000e 006a 0056
0060 0007 005c 004b 0034 0043 0066 0015 0065 ffca 005e 0030 0089 0028 005d 005c 004e 0046 0020 0061 0064 0064 0063 000a 0073 000a ffe8 0037 0037 002a 0047 0034 0062 004d 0042 0034 0057 004e 0044 0056 ffeb 0012 006d 004e 0072 0040 003b 0067 fff4 0072 fffe 007c 0047 0047 003a 0041 0053 0035 0025 0088 0029 0026 0056 000c 0046 0076 003a 0038 007d 0047 002d 004f 0027 004d 0021 004a 0069 005e 0025 002b 003c 0032 0030 001b 0045 005c 0043 0020 003f 0041 003d 002f 001e 0036 0052 0050 003d 004b 0046 0052 0029 004f 0046 0030 003d 0054 002a 004e 001c 0024 004a 003a 005b 0050 0044 0013 004a 002f 004a 0058 002f 0035 0055 0066 004d 0025 0047 0056 0031 0052 003f 0046 0024 0072 003e 0055 003e 0028 0083 0020 0066 0056 0036 007e 0039 006b 0050 0075 0041 0037 004f 0036 ffc1 ffe2 ffd0 0005 ffd6 ffd6 fffc ffea ffda fff5 ffbe fff0 0004 ffeb 000a 0026 ffde 0037 003a 0056 006e 0035 004b 004b 006b 003a 0047 0092 fff9 0062 001f 007c 001f 0056 0086 0061 ffea 009d 0055 001c 0038 0062 005b 001a 005d 006a 0031 003a 003c 002e 0066 0039 0038 004f 005e 007c 0028 003c 0042 0051 0026 001b 004b 002d 006d 000e 006d 0039 006c 0050 0018 004c 0042 0036 0053 fff7 0034 0052 002c 0054 0021 0024 0052 006e 000a 0069 fffd 004e 0027 004f 0063 001c 0065 0019 0069 003b 002c 0096 004f 0050 0056 fff3 00ba ff93 008a 0075 ffd5 004d 0062 0088 0017 0084 0047 003c 003a 006f 000a 0064 0071 ffbc 009b 0049 005b 003b 003e 0033 0090 0015 0077 0037 0079 002d 0059 0073 ffec 009c 003d 007f 0059 003a 001e 0062 0054 0025 0059 0023 0047 005d 0029 0031 ffe5 0045 0053 005c 0020 0057 0065 ffea 0068 000a 004d 0057 0048 0045 003b 0023
004b 0067 003a 0028 0045 0077 0002 0057 0055 006f 004c 0077 fff2 005e 003f 0035 0046 0017 0077 0029 0059 0077 ffe9 008c 0057 005e 0032 0067 0033 0038 0066 004a 0046 005b 0058 001d 006e 002b 003b 005a 0076 005e 005c 0010 0053 0057 002d 0031 0092 0046 0063 003d 003b 006a 0066 0042 0032 0067 002d 003e 0005 0081 0050 006c 005a 001a 004d 001b 0059 004f 0015 0072 0021 004b 0048 006d ffef 0064 004e 0038 0046 004e 0048 005f 0062 0052 0043 005a 0025 002e 005e 0054 0057 0055 0053 001d 0050 0053 fff2 0044 004b 0035 0066 fff5 005b 0059 002a 005f 003d 006e 0023 0060 0052 0020 005c fff2 0058 003c 0080 000b 0055 0041 0063 004f 0045 003a 0074 001d 0058 0051 0040 004c 0054 0044 001f 005b 0062 004c 0060 004c 002b 006a 004c 0011 0001 0006 000e ffd8 0009 ffe2 fff6 ffd1 001c 002e 0014 004b 0027 0033 0025 fffe 0000 0046 005b ffe7 0018 001f 0011 fff5 ffe1 0002 ffd4 0001 ffd7 0064 ffff fffd 0020 003f 008b fff5 0081 000c 0069 0036 0058 fffb 0045 002e 007b 0033 0013 007e 0037 0016 0049 0038 003a 0049 0060 005f 0061 003b 0049 002b 003a 0045 0020 0028 0075 002e 004d 003e 003d 0051 0041 006e 0029 007a 0031 0053 0034 004e 004d 005c 001e 0038 0039 0059 0046 0056 006a 0007 0067 0046 0040 0009 008e 003a 0006 0070 0065 007f 001a 0022 0055 005e 0016 005d 0057 0005 0022 008c ffd3 00b9 ffca 009f 0050 ffc7 006a 004a 0047 002c 0053 ffef 001a 006d 0066 005e 0006 000c 001c 0083 001e 0078 0057 0034 0044 003c 0059 0019 003a 0010 0054 005b 0020 0031 0058 ffe8 0044 005d 0020 001b 005f 0026 0062 0048 003d 002f 0038 003a 006b 004b 0062 005d 0034 fffc 00a1 ffb9 0071 006a 001e 003e 004e 0029 002f 003b 000e 007a
fffe 0033 005c 0064 0011 0037 0002 0046 002c 0029 0030 004a 0061 0067 002c 0064 0085 0025 0051 0074 004a 003a 0051 0035 0068 0026 0072 0028 0070 0048 0013 0077 0039 0062 003a 0019 0064 0036 0062 0034 002f 0030 0058 0003 0054 003b 004e 0018 0002 0047 000b 004f 007e ffeb 0042 0061 0020 005b 001a 005c 0045 002e 0040 0035 0043 0057 002f 0068 fff3 0055 006b 003f 0071 0078 0014 006c 002a 0035 0037 005b 0034 005e 005c 002e 003e 004c 0034 0030 0054 0053 004f 002a 0061 0032 0069 0014 0042 0057 0064 0046 003b 0068 000a 0074 004e 0001 005b 0032 004a 0035 005a 0017 005d 005e 002e 0075 004a 0047 0040 004a 0050 0047 0025 003a 003a 0082 0001 0069 0043 0025 0050 0034 0066 0036 006b 0035 0051 004b 0037 0044 0013 fff5 0003 001d 0000 fff5 001c ffe8 000d 0017 002d 001d 0006 0013 fff3 0022 fffb 003d 0027 fffb 0014 fff9 0010 002b 0031 000a 0000 001a 0021 0000 001e 001b 0024 ffd9 0000 fffe fffb fff6 ffe4 0010 0015 001a 0026 009d fff3 007b 0072 006e 0000 0038 0090 ffe1 0070 003a 005a 0040 002b 003f 0071 0011 0063 003a 006a 0053 0068 003b 0049 0042 0053 0050 005f 0050 0068 005c 0058 0043 0061 0038 003a 0038 005a 005c 004c 0018 0068 0051 004c 0005 0080 fffb fff9 0066 0008 001c 0048 0033 0044 003c 006e 002d 0070 0027 0064 003f 0070 fff5 005b 0003 002b 0092 0039 0057 008e ffe2 0063 0031 0051 0056 003b 0069 0062 001d 0018 0075 002a 005c 0004 0055 0040 005e 0023 0050 007f fff6 003e 0050 002e 0072 ffd4 004e 0050 0071 0026 0036 0097 003b 003b 006d 0053 0031 005b 0050 0027 0043 004b 002a 006b 0052 0054 0027 002a 005d 002f 0064 0076 0030 0030 0099 002d 000b 0078 0056 004a 006c 0028 006a 005a 0017
0048 005b fffb 0063 0014 0044 006e fffc 0052 007e 0054 0066 0066 002b 0028 0046 002f 0073 0010 0003 0070 0049 002e 0064 005a 0031 0066 0064 fffb 0058 0079 0073 0014 002b 007d ffed 0037 0053 002e 0057 0044 0065 0041 003f 004b 0050 0053 003a 0076 007c 003f 0057 0046 0062 0036 0072 0028 004a 003a 0044 0048 0026 006c 001b 004d 0057 0050 003e 0089 005e 0027 0026 0025 004d 005b 0048 005b 0047 005e 0020 000f 006e 0051 003e 0061 001a 006d 006c 001c 0045 0059 000b 001d 0036 0063 0061 001a 003d fff3 0058 0045 001c 0046 004e 003a 0051 0059 0048 005c 004d 002f 0021 0047 006d 003b 0017 0047 0033 006a 005d 0033 005c 0071 004a 005f 002a 0086 0062 0058 0031 0060 0070 0058 005e 004f 0075 ffda 0040 ffc1 ffff 001f ffe5 0016 ffdb fff9 0032 0002 0008 fffc 0009 001b 000d 0016 ffeb 0017 ffea 000e 003f fffb 0003 002d fff7 fffd 000a 0021 fff3 0018 001c 0015 0029 fff5 0005 0013 000d 0001 0021 fffb 0012 004a 0013 0011 ffd8 ffde 0000 fffb 0029 0040 004d 0082 004f 003c 0044 0029 006d 0025 0040 005c 0065 0002 0039 004e 003d 0034 0036 003d 0072 0028 0042 0043 006d 0012 0051 003c 0029 003e 003f 0057 0035 006a 0054 ffde 007f 002d 0072 0028 0019 0057 0037 0047 0056 007f 0008 0053 003a 003a 0063 0048 ffe1 0061 0012 003d 002b 002b 0043 002a 0006 004e 0016 00b0 ffd3 006c 004b fffc 0081 0052 ffb5 005a 0042 004e 003c 0028 003e 004e 0066 0021 003f 0016 006a 004d 0048 007c 003b 0011 0067 006f 0014 007a 0027 007a 001f 007a fff4 006f 0050 003b 0052 0038 0040 0043 0083 ffe4 0092 0032 0068 0023 0079 003f 0029 0028 0076 002f fff5 0044 0025 0057 0023 000a 0029 003f 001d 001c 0036 0049 000a 0055 004c fff8 003d
ffeb 004c 0043 0082 0004 003c 0047 0037 0072 001b 0045 005f 003d 006b 0040 0050 0051 0041 005f 005a 0078 0043 005e 0048 003c 0034 0062 001c 0068 003b 005c 0001 0069 0024 005f 0044 0048 0054 004d 0049 0028 006a 0068 004b 0067 0033 004c 0040 003d 0060 0037 0056 004d 0041 0053 0013 0068 0050 0020 0050 0048 0071 003a 004b 0059 ffe5 004a 0061 ffe8 003b 005b 004a 0059 0057 002b 0050 0063 0038 004d 0053 0077 0053 0022 002d 0030 0052 0059 0050 0030 006c 0053 004c 0028 0088 ffdd 004d 0055 003c 004f 004b 004b 005b 0060 0067 0000 006e 002d fffb 0000 005c 0055 002e 006d 0018 005a 0043 0042 005d 004f 004e 004a 0047 0051 005f 0020 0066 0000 005b 0031 0061 0038 0044 fff8 0046 ffe4 fff8 fffd fffc fff5 000f 0019 002f ffdf 0050 0016 0015 0041 0033 0009 0002 0001 0009 000a 001a fff6 fffe 0012 ffea 0000 000d fff5 000b fff3 0015 fff7 ffe1 0023 001a 000f 0033 0013 0038 0020 0010 0013 fffe 000f 0038 fffb 0026 ffef 001f 0027 0027 0001 000f ffce 0021 fffc 0054 0037 0060 0075 ffbf 0035 0069 0055 0008 0073 004e 005b 0048 0023 004c 007a 0023 0044 0063 0048 003f 0069 0033 0063 0054 0018 0051 0026 0074 001c 003c 007e 001a 0046 001d 0049 0025 0052 0054 004d 0028 0039 0054 0054 0059 005c 0048 005f 006a 0014 0064 004b 0049 0061 0035 003e 007b 0048 0047 000a 006c 0017 005e 0052 0077 ffda 008a 0068 0053 0056 0033 0059 0047 0075 002c 0030 004e 00a2 0014 004c 0065 003f 001c 0075 0064 0003 0070 0001 0049 006a 0030 000d 008f fffc 0063 006a 003e 0055 0028 0051 0016 006f fffd 007d 0052 0028 0022 0055 004b 0081 fffa 0070 0077 003e 0019 0055 ffff 006c 0067 0052 001d 0071 0002 0042 0044 003e 0062 0053 001e
0069 002f 0028 fff0 0095 000b 004c 0008 0044 0058 0044 ffe3 007c 000d 0026 0034 0066 0069 002e 005b 0030 007a 0017 0042 0064 0060 ffff 0062 005c 006c 0018 fff6 0077 0055 0039 0044 007a 0024 0066 004b 005d 001f 0041 001b 0031 0062 001c 004e 0046 0050 0030 006a 004b 0057 0031 0086 003f 007b 006f 0049 0049 0004 0071 0031 0054 0030 0064 0040 004c 004b 0046 0059 0044 005e 0051 0033 0070 004b 0058 0066 0020 003f 0060 0059 0061 001a 0065 0061 0024 005a 0065 0032 004a 005c 004f 0055 004f 003c 005b 0038 0057 0051 0057 002b 0070 0036 005b 005c 003d 0056 0065 005f 0053 0047 0032 0049 0041 0037 006d 0038 004e 005d 002e 0070 0040 003e 0062 0061 002a 0031 007a 0032 ffe8 fff3 0014 0005 fffe fff3 fff6 0016 000c 0012 0063 fffd 002f 005f 0013 ffee 0002 000a 0002 002f fffb 0013 000d fff1 000a 0023 000a 0005 fffc 000b 0008 000a 0008 003d fff5 ffef 0003 0004 fff0 ffe5 001a 0035 0004 003a 002d 0012 000b 0000 0022 fff9 0013 fff2 0028 ffe8 002b ffe8 fffd fffd ffe6 0067 005b 0067 0069 0023 0062 0067 0032 0069 0037 0029 0060 0035 0037 0058 002d 0072 0047 006e 003f 0028 0061 0042 0064 0024 0069 0034 0066 0044 0058 fffb 0066 001f 0044 004d 0024 005a 002a 0041 0031 0046 0058 001d 0045 0043 0041 0041 0068 000e 0039 0073 004a 0071 001f 0021 0053 003d 00a4 0020 004f 004d 004d 003c 0072 005a ffcf 0069 002b 0044 002b 0073 001e 0045 0056 003a 001c 0065 002c 002c 002c 0040 0056 002b 0069 0036 0089 004a 000f 0040 0076 fffa 0088 002b 0055 001e 0031 0071 0067 0030 0074 0023 0044 004a 0077 0025 005e 004a 000c 0036 006a fff8 0048 0067 002c 004d 0046 004d 002b 0053 0053 0070 0010 0029 0083 fff5 0054 0020
0032 0059 006c 003b 005d 0016 0064 0095 006b 0054 005e 0094 001b 007d 0031 0044 0062 0053 0045 0047 0037 0014 006d 0044 003c 005f 0037 003d 004f 0017 0066 003a 001f 004f 005f 002d 0052 0045 004a 0020 006a 0052 005f 005d 0058 003d 005a 0047 004f 0026 0066 0050 0069 000c 005c 000f 0053 0020 0039 0072 0044 006b 005b 0054 005a 005b 0061 0043 0068 001e 0076 0051 0069 0038 0053 0052 0002 0075 0020 0075 0041 0069 0049 002c 0059 0061 0027 006b 0041 0034 0060 0082 005d 006d 004a 0042 006e 001e 0045 004d 0049 0017 006b 0047 0043 003d 0045 0022 0058 0019 002d 003f 0022 007c 003f 002b 0039 004a 0023 004c 0060 0001 007e 0021 0043 0041 0048 0015 0057 0020 ffe7 ffde 0000 0014 ffef 0013 fffe 000a 0041 0004 000a 0017 001c 0031 001f 0008 0000 001e 001f 0003 0031 0005 0018 0000 0001 0013 0008 000f 0003 fff5 0002 0012 fff9 000a fffe 0003 ffff 0021 fffa fff3 0043 ffef fff7 fff8 ffee 0013 0017 0014 003e 003b 0037 002d fff1 002a 0014 fff7 000a 0037 ffef ffdf 0020 ffd6 0024 003f 005e 0023 0059 0042 004e 002a 0055 007c 003c 0029 003b 0053 004f 0043 001f 0039 0027 006e 0036 004b fff6 0054 0049 0016 0065 0013 0029 0061 0017 006b 0046 001d 004e 0051 0036 0050 0074 0038 0035 0018 0049 005f 0012 002d 0049 008c 0021 002a 003f 003a 002a 006b 0005 0071 000a 0044 004a 0028 0055 0029 001b 0060 005d 0031 005a 003c 0059 0040 0040 0054 fff8 0055 003d 005b 003e 0074 001d 0078 001b 0055 002f 0037 002a 001c 0052 005b 0001 0076 005c 0022 0025 0061 005c 005c 0011 0076 003b 007b 0038 0024 0054 002c 0054 001f 0079 0027 005e 0064 003d 0035 0028 0055 0047 fffd 006f fff8 006f 002b 002f 003c 002e 0067 003e 0057
0027 002d 0027 0047 0030 0059 003d 0048 ffd8 001b 0055 ffc7 00a3 005c 004e 007f 0018 0041 0037 0039 0078 0079 fff5 0088 0037 0027 003d 0042 003c 003a 00a4 001d 0056 0060 fff3 007a 0077 000a 004f 0074 0010 0056 0048 006d 0057 0035 0053 0030 0067 0040 0051 0041 0056 005f 0043 0045 0022 005b ffdf 0004 0065 0037 000b 006e 002c 0038 003a 0050 001e 0078 003f 0034 0066 005e 005c 0022 0090 001b 007c 0030 0040 005d 003b 007f 0043 0046 0079 0003 0047 0063 0011 0021 0049 0015 0065 0032 0046 004a 0065 0038 0045 0048 0028 0074 0040 006c 0043 0063 004e 0065 0059 003a 0059 0049 0057 0051 0059 004e 0063 006a 0008 0087 0011 0041 0076 003f 003a 0033 ffef ffe6 ffe9 0007 000a 000d 000f 000d 002f 000b fff4 0053 fff7 004f 0026 0047 001b 002d 0028 001a 002a 0001 fffb 0041 000b 001f 0008 fffe 0003 001f 0005 001c 0012 000b 0000 0026 0001 0016 000a 000a 0037 0015 ffe5 fffe 0006 0010 fff7 0002 ffe7 001d 0000 ffed 0010 004b 0000 0034 0030 0012 fff4 0010 0011 0034 ffeb ffe7 ffeb 001b ffc6 008b 003d 003b 003a 0069 002c 0049 004a 0053 008e 0022 0058 005b 0044 0052 006f 004c 0043 0055 004d 0046 006e 0041 0047 0048 003f 0049 0057 004a 003e 0088 0026 003d 005d fff7 002b 006f 0056 004b 005c 0002 004a 006c 001e 002d 0065 0057 0040 0063 005e 005e 0088 001e 0081 006d 0038 005f 000c 0063 005a 005a 0068 0049 0061 005d 004a 004d 004b 0046 006d 0029 0061 003f 0055 0035 006a 000a 0079 0038 004d 008f 003c 006b 005b 0026 0076 002b 0049 006e 004d 0045 0048 001b 003b 0045 005c 000e 0032 0065 0052 0025 0047 0065 0019 005a 0030 0020 0045 005a 0017 0075 0023 006e 004a 0034 0064 002e 005b 0077 001d 0046 003c 0019
0061 0016 006b 0069 fff2 0070 0018 0026 005b 0067 004e 0077 002e 000d 0072 0056 000b 0069 004f 005f 007c 0031 0080 ffe8 006b 0039 0088 0066 0083 0033 002e 003d 0031 0063 0079 001f 0036 0087 005f 003d 003a 004b 002e 0032 0036 002f 0072 003d 0044 004a 0048 0074 0054 0022 004c 0073 0033 0058 006f 005b 0046 0044 0044 0057 0027 0054 0020 0054 006e 003f 002a 002b 0023 0024 0022 0056 0028 0060 0055 0033 0053 0069 003f 003d 0068 0046 0017 008c fffe 006a 008b 0062 003c 0056 0037 0016 004e 0039 0059 004e 0069 0046 001e 0032 005f 0049 004b 0025 002d 005c 0011 009a 001c 0054 0079 0041 0074 0032 0041 0055 0033 0036 0074 0021 0028 0083 fff6 ffeb ffea 0028 0022 0008 0002 0025 0013 001b 0002 0022 0033 0003 0022 0020 003d 001b 001c 0000 003d 0011 0002 0027 001a 0000 001a ffee 001f fffa fff9 0014 000a 000e 0002 001f 0002 0001 000e 001c 0009 0001 000e ffea 0027 0014 fffc fffc 0030 000d 0008 fffc 0000 0015 ffe7 fff6 0025 0007 001e 002d fffb 0008 001c 000f 0026 001d 001f ffe2 0011 ffd1 0000 00bf 0053 0049 0053 003f 0059 0051 0015 004e 0031 0051 0043 006b 0022 006f 004f 0023 0077 003c 0037 0056 0067 003d 0029 0045 ffee 0044 0083 0011 0065 005d 0061 005b 0038 003a 004f 0057 ffe2 0088 004f 0044 0033 0075 0049 000f 0064 003d 000e fff8 0025 0084 0023 004f 0015 006d 0052 0047 0044 0025 003e 0054 0030 002c 0065 0045 0066 0058 002e 005b 001c 0033 0069 002b 0065 006d 0053 0034 0051 001a 0068 0029 0035 0070 001f 005a 004c 0057 0052 0032 005e 0025 0064 0044 0035 0068 005e 004b 0024 0063 001e 0038 006e 002f 0018 007b 0068 0048 0081 fff9 006e 0018 0058 004b 0015 001b 0030 0032 0059 0013 006c 0027
002c 0045 0025 0006 0077 004b 003d 0077 0039 002d 0079 0054 0044 0066 fff3 fffc 0066 0021 004c 000b 004c 002c 008c fff5 0056 0039 002d 003e 0035 0067 0052 0060 0060 0041 0015 008c 0069 0028 0041 0066 002e 0078 006f 0047 0033 0062 005c 003d 0038 0065 0048 002e 0087 004a 0058 0068 0043 fff5 0067 007e 0042 0059 0052 0052 005f 0052 0055 003c 002b 0042 0058 0035 0079 0045 0041 005a 0032 005a 001b 007d 0037 002f 005f 0046 003a 0035 0061 002c 004e 0054 0027 007b 0008 0063 0039 006b 0070 0057 001a 005c 0055 0035 0051 0062 000b 002a 0048 0059 005a 0058 0063 0059 0060 002d 002f 004e 005a 0019 0065 0033 0053 0049 0024 0077 004c ff9d 0011 fff6 0039 0004 0000 0036 0046 0012 0001 001c 002f fff6 000c 0035 ffe6 005d 0030 0012 003a 0019 ffdf 0000 0011 fffe 0002 002d 000f 0001 0007 0012 0020 0017 0007 0024 0030 0002 fff9 0001 fffa 0024 001c fff3 003c 001b fff5 000b 0008 fffa 0012 fff7 0013 fffb 000a fffc 0004 0008 fff7 fff6 0001 fff4 0042 fffc 0023 0012 ffe6 000d 0004 0006 fffa fff7 0000 ffd0 fff6 0067 0030 0072 0044 0001 006a 0022 0057 0075 004f 003f 002d 003c 0048 0065 001f 0042 0059 002a ffff 0061 005c 005a 0059 0076 0013 0071 0000 001a 0011 0051 005c 0046 003c 0036 004e 003f 004b 002f 0056 000f 0059 0049 005c 0014 005d 0091 004a 0043 0062 005f ffea 003d 0044 003a 005b 0034 0057 0055 0069 0043 0062 0023 0040 0048 005c 001c 0054 004e 0040 0048 0053 004d 0030 004d 0056 0038 006c 000c 0077 0025 003e 0059 0044 0052 0023 0068 0044 0067 0049 0071 0055 001e 0042 0050 004f 003a 004e 0054 0022 005a 003c 0033 0047 001d 002a 003e 005c 0016 005d 002b 0073 0048 0043 0047 006a 003c 002b 0034
002f 0033 0055 005a 003a 004a 004d 004b 0009 005f ffd3 0057 fff9 0051 0080 0041 0071 0063 004e 0045 004e 008f ffff 007e 0031 007b 0046 007f 0033 0022 0054 003b 0020 0059 004f 0053 002f 005b 0068 005c 0042 0028 0050 0076 0052 0063 0027 001b 0069 0073 0047 0054 ffcb 0087 0071 0020 005e 003f 0062 0013 0055 006c 002e 002f 004c 0037 0040 0058 004a 006c 005f 008a 0011 003c 006b 002a 0041 0059 005f 0022 0050 0060 000b 0059 0022 0068 001f 0074 fffd 0060 0058 0033 004a 0018 004d 0048 003c 006f 004a 0046 003e 0054 005d 0044 0064 004c 0053 004c 003f 006a 002d 005c 001c 005e 002f 0074 001a 006c 0043 0078 004d 0043 0048 fff4 ffe7 0064 001d 0013 0033 002f fff9 0007 000d 0035 002e ffec 000d 0016 0036 0002 0086 ffeb 0073 0048 0029 0010 001c 0023 0002 002c 004b fff2 0034 000d 0002 002b 003d fffa 0003 0007 0005 0013 002c 000e 0001 0020 ffee 001b ffeb 0019 0031 0000 ffe9 002f 0014 fffa 0008 0005 0008 001c fff1 001a fff8 0012 000a 0019 ffe5 003f ffe9 0008 003a fffe 000a 0007 0000 0006 000d 0001 fffd ffd2 0091 0037 001b 007e 0054 0065 0023 0018 0057 0033 001f 0068 0048 0036 0067 0049 0069 0064 003f 0056 005b 0041 0055 0040 0031 0059 0056 0068 0050 003c 000f 0052 0050 0054 0063 0010 0046 003c 0066 0059 0039 005e 0038 0068 0055 0021 0029 0056 0066 ffd5 009c 0052 0045 0068 0042 0059 006f 0044 0030 004c 0031 004f 006e 0022 0065 005b 001d 006f 004a 004a 0060 002d 0013 0058 0049 0058 000a 006e fffc 006d 0040 003c 0062 0049 0033 0065 0024 004a 005e 0014 003a 0063 0069 0032 005b fffc 0054 0057 001a 0057 005f 005e 0052 006e 0058 004a 0024 0026 005b 005c 0022 0014 0059 0039 0026 0032 003e 0038
0057 0010 0043 0049 003d 006c 0020 005d 0087 fffc 0085 008d 0019 0087 0031 0027 0024 008f 0009 004b 0044 0036 006e 005d 005f 000a 0066 0015 0071 005b 0047 0065 004d 0039 0054 0053 005b 005d 003c 0045 005e 0081 0068 0048 004b 001b 005b 004f 003f 006b 0048 0082 0085 0041 004a 0073 0052 005e 005d 0032 006c 0040 0077 0023 0039 0078 0063 005a 003b 005e 004a 0016 0082 0078 0034 0047 005e 004c 0058 0064 0030 0037 0052 002d 0061 004a 0052 005e 0038 0088 ffee 0045 0053 0060 0049 004f 0062 0045 005c 0012 0050 0029 007d 0037 006d 003a 005a 0050 0031 0064 0032 0024 0066 0030 006c 0071 003b 000c 0055 0050 0001 0030 fffd fff3 000f fffe 002b fff4 0005 0036 0016 002d 0020 0020 000f 0059 001b 0008 0019 0024 003c 001c 000c 0010 0037 0035 0018 0016 0024 0000 000d 0006 0000 0004 001c 000a 0017 0016 fff0 0038 0005 0005 0002 000d 000c 002e 001c ffff 0035 0002 fffd 000a 0036 ffe9 0012 0010 fffc 0013 000c 000c 0022 0008 001f 000b ffed 0015 0016 ffe5 0038 001a 0008 000f 000c 000b 0022 fff4 0010 0005 fffe ffde fffc 0068 0076 0062 0042 001a 0083 0049 001a 005f 0072 003c 0071 004f 003a 007d 0026 0062 0038 004a fff5 006e 001e 008b 001b 004a 001b 005f ffff 0056 006b 0050 0035 0049 0027 003e 003b 0061 0041 000e 0065 0030 0066 0031 0072 0074 0030 0052 006b 003c 0059 0059 003d 0039 0063 003b 005f 0026 0055 0050 0028 0063 0039 0059 0037 0063 0061 0010 0079 005b 0006 00a3 0025 002f 0040 005d 0046 005e 0055 004a 005f 003f 003a 001d 0080 0019 0031 004d 0040 003a 0066 0046 001e 0048 005d 0068 0039 0047 0052 0040 004d 006a 002c 004e 0026 0012 004c 0071 0030 ffe4 006a 0056 0025 0069 fff6 0071 002f 0033
003a 000d 006d fffd 006b 0045 0038 003d 0020 007d 0067 ffe8 007b 006d 0001 005c 0022 0041 005a 0071 0082 002e 0024 004f 002e 007b 003d 0078 0051 004f 0037 004a 005a 0057 0057 0068 006a 0036 006c 0031 004c 003a 004a 002d 0088 003c 006f 005e 0049 0053 002a 007f ffff 004d 005b 004d 0046 000b 0047 003d 0050 001a 003e 0097 0048 0032 0056 002d 004c 0030 0056 006e 0016 004c 0052 002f 003a 0062 004c 0061 005d 005c 0066 0062 003f 004c 0073 0028 000c 004f 0066 0055 002a 0058 004a 004c 0035 0048 0058 004c 0043 0036 0034 0046 0048 0026 0037 004a 003c 005b 0084 0040 0076 0071 005b 0025 006e 002d 008b ffea 0032 0021 fff7 fffd 000b 002f fffa 0014 0021 002f 0014 0013 0010 0030 000b fff9 0017 0010 0007 0027 002a 0048 0004 0013 ffef 0004 0020 000a fff0 001a 0028 0004 001f 0018 ffec fffb 0013 fff5 0006 fff4 0005 001c 0021 fff7 002a fffb 0006 0001 000c ffec 0010 001d 000a 0017 fff0 0018 fffe 001c fffe 0001 0009 ffe8 0006 0003 000a fffc fff8 0008 ffe6 0025 ffef 0001 0001 000b 0000 fff7 000c fffa 0027 fffa 000d ffd5 ffee 0077 0051 0042 005f 0022 007a 007a 0007 005c 003a 003a 0065 0055 0040 0065 0056 0052 004c 0042 0059 005c 002c 0051 0042 0038 0062 0071 003e 004d 0052 0017 0065 0080 004d 002c 0056 0040 0063 003c 0024 0087 ffea 0031 008c 0066 ffff 0051 005d 0000 004a 002b 003a 0056 0053 0068 0055 003f 0058 003a 0019 0058 0078 003e 004c 0050 002f 0056 004c 0040 005d 0073 0031 0047 006c 003c 0034 0030 0066 0063 007a 0038 003c 0061 0047 0064 0039 004f 004c 0037 0071 000f 003c 0037 003f 0020 0059 0026 0079 0002 004d 005a 0059 0029 0060 000a 005e 0081 fff9 0052 0067 002e 005b 0010 005b 0050
0045 005b 0053 003f 0021 008a 003c ffe3 0072 0063 002f 005d 005e 0022 008c 007b 005e 0076 004d 0018 0059 0034 0090 002b 004d 007b 005b 0066 0006 007b 0033 008c 004d 0047 0068 000a 004f 0068 003f 0036 0059 007b 0022 0062 005f 0033 0058 002b 0055 005e 005a 0045 0055 0058 ffe8 006d 0064 005a 005c 0058 0035 0045 0072 fff1 0084 0019 0070 0071 007c 0049 0036 003e 0064 0071 0036 0061 0061 0039 002e 005a 002f 0050 003a 0042 0018 008b 0003 0059 0031 004e 003c 0071 005e 0025 0065 005d 000a 0072 0035 006a 005a 0067 0052 0052 005d 0022 008b 0022 0050 0045 0035 0069 0014 004c 0044 0082 0034 0093 ff9a 00a4 fff0 fff7 000b 0036 0005 0007 002b 0013 ffe6 001b 0009 fff2 0022 0006 0025 0029 0001 0030 0015 003b 0070 0015 0038 0054 0028 0002 ffe8 0035 0014 fff9 fffb 0006 fff8 fff4 001b 0013 000f fffd 0013 fffc ffee ffee 0003 fffd 0018 0000 001f 0016 0031 0026 fff8 0014 fff2 0012 0018 0019 0005 fff9 000a fffb 002f 0001 0013 0005 fffa 001a 0002 000a 001a fff0 0019 0011 fffe 000a 0028 0012 0015 000f ffff fffb 0006 0000 fff3 ffef 0060 004e 0051 005f 0018 003a 0058 0072 0065 0052 003e 0057 0042 003b 005f 0058 0056 0065 0043 0043 006b 0028 003a 0035 ffde 0071 0007 0050 0042 006e 000d 0036 0019 0067 0021 006e 002b 005e 005d 0001 0044 004a 0011 007a 0043 0042 0050 0061 004a 0051 0059 0034 006b 0046 004e 0056 0005 005f 0061 0049 0040 0052 003f 0052 0073 005f 0061 0055 002e 003c 0060 002c 002f 006d 0067 0002 0053 005e 0033 0036 0054 0030 0074 000a 003b 006b 0034 0044 0019 007f 006f 004f 0039 006a 002b 0024 0039 0090 0038 001f 006c 0023 0078 0031 000f 0048 007e 000c 002f 000f 0058 0031 0050 0013
0041 0035 fff0 007e 0043 ffdf 0088 0034 0074 0018 0064 fff5 0080 006d 0015 003d 004e 0032 0066 0057 0067 0056 0047 0004 0084 ffd3 0078 003a 004d 004a 003e 0034 0043 0040 0039 0045 0041 003c 0027 0073 0043 005e 0056 002e 006c 0052 006c 0047 006b 0059 005e 0084 000d 0045 0064 0046 0078 005e 000e 0071 0049 003f 006a 000c 0084 004f 004d 0014 0067 0036 005f 0053 005b 0039 0083 0079 0033 004d 004c 0078 004d 0057 002a 0091 0039 0015 0046 006c 0026 007c 004a 0029 0059 0057 0033 0083 0025 0049 0084 004f 0056 003a 0030 0044 004d 0048 0038 0061 0070 0021 008e 004f 0054 0049 006f 0029 0052 ffd7 0058 ffcd ffee 0038 ffff fff2 0034 0020 0009 000e 0002 0012 0014 0010 003a 002e 003b 0038 0071 0034 0066 001f 0020 0095 0051 0061 0057 0099 0068 0046 0036 0041 003d 0062 0042 002a 0051 0029 0039 0028 fffc 000c 0011 0024 0000 fff4 002c 0004 000d 0008 0007 0013 0016 000a 0014 001c fff6 000d 0004 0012 0013 fffa fffb 0019 0003 000d 0004 0011 0010 ffff 0006 000d 0004 0012 fff0 001c 001f 0004 000e 0009 0008 0018 0007 0003 fffc ffec 000e 004a 003f 006a 0036 005f 0064 003f 006d 002f 006f ffff 0070 003a 002c 0020 0056 001d 005a ffe9 006e 0030 ffd2 0068 0081 0006 0064 001d 0053 0054 006f 0026 006d 0043 0059 0018 0062 0025 0061 0071 004a 0060 0028 0037 0055 0053 003a 0053 0052 0034 005e 002c 004f 0040 0058 0050 004f 0069 0021 0074 0044 0040 0068 0062 003b 0039 0062 006b 0053 006d 0022 0058 0063 0039 0067 0095 0059 0014 005d 0048 0044 005b 0004 006a 004c 0061 fff1 0059 0059 0016 0000 0067 0057 fff4 0062 0054 004b 004a 000e 0066 0051 003d 0023 001d 0088 0028 0012 0088 0054 0029 005e 002f 0043 0051
005c ffd8 0084 fff2 002b 0062 000d 0082 0021 0068 0071 005f 003f 003f 006c 0016 005c 0045 005d 005b 006c 0024 006f 0068 0012 0090 0038 006d 003c 0081 0050 006f 003d 0065 0058 007d 0069 0065 0053 0048 0043 0051 007f 0026 0076 0082 001a 0064 0003 0055 005a 0011 0084 004a 0060 006f 002e 0026 0076 003a 0050 005a 0055 0076 fffa 0045 006d 000e 0040 003d 0052 005c 0043 0057 0028 002b 005d 0061 005f 004e 0042 004e 0047 002f 0045 0064 0072 0047 002a 005f 0051 004a 006f 006e 0010 0041 0070 0043 0023 0050 005e 003a 008a 0034 005d 0060 004b 0045 005a 0051 0058 003a 0056 001e 006c 002d 0088 002f fff7 0011 0027 fff6 0023 fffb 000b ffed 0004 000c 0065 001a 0069 003b 0061 000a 004f 0047 0025 007e 0068 0050 0078 0009 0041 0005 0043 001d 0035 005d 0034 0033 0042 003f 0062 0026 0034 0040 002b 0031 0031 003b 003c fff7 0031 ffe3 ffea fffe ffe9 0039 ffe3 000a 0000 fff4 000b fffa 0007 000e 000d 0010 0002 ffff 0011 0003 0003 0000 0005 0016 000c fffb 0016 fff5 000c 000a 000c 0003 000a 0004 0008 0019 0025 ffe7 001d 0000 0009 0004 ffe5 ffeb 0067 005d 0047 0068 006d 003d 0057 0047 006b 0057 0047 0048 005f 0066 0030 006e 005e 002b 0097 0072 006e 0074 ffef 0074 0037 007e 002c 0020 0037 0065 0033 007c 002e 005c 0028 0053 0052 0051 0027 0060 0064 0058 0034 003e 0066 0033 004f 0053 004a 0045 005f 003f 004e 0059 0045 0023 005b 005a 0060 0039 0042 0069 004d 0060 004c 0058 0037 001d 0062 005d 002a 0089 001e 0022 006e 0045 004f 005d 0044 002e 0076 002e 0064 0040 007f 003b 003a 0050 0069 0031 0018 0071 004a 0051 0058 004c 0078 ffea 008a 001d 0050 006e 003f 0037 006f fff3 0080 0073 0021 0056 0075 0010
0039 0059 0068 0057 004b 0087 005d 002a 004b 0066 fffb 00a3 0025 005b 0011 0057 0084 007b 005d 0039 0033 0048 0036 0075 0044 005f 0050 005f fff9 0048 0064 0054 007f 0041 0040 0005 004e 0015 0057 0057 0006 0064 004f 0065 0064 0033 0061 0048 0054 0049 0064 0074 0040 0056 005e 0024 0061 005a 003b 002d 0069 002d 0075 0053 0060 0051 0080 004d 0068 0068 0056 0068 0055 0036 0073 0057 003b 0052 fffd 0059 004a 0024 0066 0065 0061 003a 0055 005e fff9 0051 0046 005a 004f 002c 003b 009d 0028 0054 0042 004f 004b 005f 001d 0055 0045 0057 004f 006b 0067 003a 004a 0060 009b 0055 006f 0033 0007 fff8 0049 000d 0009 0015 ffed 0025 004b 007d 002f 008d 0027 002c 0060 006c 0072 008d 0056 006b 0062 005b 0031 0032 0054 0089 0092 00c8 004a 0046 0057 005b 0056 009f 0034 004b 0036 0047 0044 0049 005e 0042 003d 0032 002b 004d 0029 003f 0018 0026 001b 0028 0009 002e 000b 0005 0018 ffff 0018 0013 fff0 000d 0008 0007 000a fff0 0018 0008 000e fffb 0006 0000 0006 0004 fffe 001d 0009 fffa 0017 fffa 0020 ffef 000c 0031 ffe8 000c 000f fffe 0002 ffe3 fff3 0076 0028 0076 0050 ffe7 0066 002b 002a 0047 0049 004e 0046 0032 0053 0025 0086 0029 0047 005f 0026 0033 0078 0069 0042 000d 0075 0064 0045 0022 0059 002b 005f 0059 0029 002a 0068 0049 0061 002a 005b 0045 0055 000a 0051 002e 005d 005a 0044 003f 006b 005c 001e 005f 0047 005f 0027 0070 004d 004f 005d 0035 005b 005f 0028 0050 003c 0033 003d 0064 0061 000f 005e 005e 000c 0077 0038 0058 0031 0050 ffe2 008d 0059 0009 0036 004f 003a 0062 004c 0059 0052 0052 001f 005d 003b 005b 002c 003f 0025 0093 ffe1 0057 003a 0002 0052 0024 001d 0049 001a 0049 0000 0057
0058 003e 0049 fffb 004b ffeb 0046 0068 0041 004f 0039 0061 004e 004a 0078 0080 000c 0024 0068 0065 0049 0086 005d 0035 00aa 002a 0060 0062 004c 0066 0055 0053 007f 0027 009e 0037 004b 007a 0039 006e 0019 0064 fff3 005c 0071 0081 0013 003f 0063 0050 0059 fff2 0093 003d 0073 002c 0066 0058 0044 0051 0026 003b 0029 0050 0062 002e 0039 001e 0082 0011 0065 fffa 0053 0064 0050 0037 0063 005c 006e 0070 004c 0054 0045 005c 0074 0037 0045 003b 0061 0003 006b 0022 0019 0059 0038 0045 005b 005e 002d 0048 004d 0058 005a 0028 008d 003e 0069 0052 007b 003e 0088 0034 004c fff7 0080 fff0 000d 0052 ffe4 0014 ffc9 0037 005f 0057 0024 0029 006d 001d 0091 0072 007b 0021 0043 0067 0074 0037 fffa 0024 0046 005e 003f 005f ffc6 0016 0085 000d 0088 003a 003a 0008 0011 0044 0013 0000 0037 0031 0015 0037 0077 0019 0044 003f 0000 0042 0035 0009 001d 0026 001f 000a fff9 0028 0043 000d fff9 0014 0010 0015 0012 0002 0008 0023 fff6 0009 000c 0024 fff0 0017 000d 0023 fff7 001c 0010 0014 001f 0018 fff5 0000 0012 fffc 0012 fff6 0011 fffa ffff 0010 0009 ffe7 003a 006b 0040 0086 004d 0053 0081 0068 0011 006c 0042 0055 0046 0056 0077 005b 007f 0013 0074 0051 0006 008b 0044 003f 0064 0084 0019 008d 0051 0022 0027 002f 006a 0088 0042 005b 005a 0037 004c 006c 001c 0088 0059 002e 0081 0062 004f 0034 006d 0055 0043 0057 0015 0070 0038 0046 0024 005f 0053 0084 002b 0038 004f 0068 000b 00c2 0029 fffc 004f 005e 003d 006e 0061 006e 0046 0043 002a 0093 0058 001d 0045 004a 0059 0053 004e 005b 0038 003e 0048 0054 0034 002f 004b 005a 003c 0073 fffe 003c 0072 0058 0053 0044 0038 000d 007b 0046 0074 0020 0053 0035
005c 004e 0051 fff1 0053 0062 004a 005a 001f 007f 0040 005b 0059 005d 0077 0020 004a 009e fff2 005f 0031 0032 002f 0054 0013 0028 0036 0046 0057 005f 005c 002e 005c 0058 003a 0073 0087 0006 005f 0037 005b 0078 007c 002c 002c 0046 0043 0067 0048 0051 0055 0072 fff8 007c 004c 002b 007f 0026 003d 006c 004e 0066 004b 006e 0055 005e 005b 0052 0037 003c 005d 0080 0064 0042 0074 0042 005d 004e 0041 0045 0056 0059 0060 003d 0014 0059 006b 005a 0047 0057 0051 004e 002d 0052 0048 0069 005f 0030 0067 0044 004e 0054 0046 005b 0056 0033 003d 0023 005b 006e 0016 0032 003f 00b0 ffc6 002b 0003 ffff ffe5 001b 0048 0025 0045 0038 0057 0089 0064 ffb6 ffdf 0059 0046 0066 0017 008a 0047 0095 008b 005d 008d 0083 002e 008f 00b7 fff7 0058 0054 005b 0075 0074 005a 0070 005e 0072 007a 0030 003d 0073 0007 004d 004c 0012 0063 0037 0024 002e 0005 002c 000e 0006 0031 002a 001e fff7 001f 0005 0005 0002 ffec 0009 001d 000f 0000 000a ffff 000d fff7 0018 0008 0003 fffe 001e fff2 fffc 0007 0000 fffd 0020 fffa 001c fff1 001e fffd 0009 0016 0023 fffc ffed fffe 0003 003b 0054 005f 0065 0061 0000 005b 0070 0046 0040 0058 003f 0069 0022 0063 0067 0023 0069 001a 0031 0052 003b 006d 0036 0030 0076 0030 003f 0053 004c 008e 004d 0008 0043 0041 007c 0063 0063 003b 007d 002d 004e 007c fff0 003b 0066 0060 0024 0052 0056 0034 0067 0039 0083 0046 0043 0044 0079 0030 0020 0065 0024 003c 00a7 ffd3 007b 007a 002c 006e 0066 ffd3 0065 0041 fff9 0060 0069 000a 004c 007c 003d 0073 0019 0070 fff5 005f 0066 004a 002e 0045 003f 0065 0036 0046 007c 0013 007f 0000 0028 0083 002e 0044 0099 ffdf 005c 0046 003e 003b 0067 001e
fff6 0047 0004 009c 003a 002c 0063 0031 0022 001a 0072 0028 005c 0051 002e 007c 0065 0012 009d 005e 003a 0058 0065 003d 005b 0040 005a 006c 0014 0061 0050 006c 006f 0044 005f 002f 004a 003d 006d 0039 0077 001f 007e fff8 006f 006d 0068 002a 004d 0068 0026 0075 0069 0049 0061 005d 0005 006b 0053 0028 0063 0052 0033 0071 0068 003c 006a 0067 0020 005f 0078 002d 0026 004e 003b 0062 0033 0063 0036 004d 0039 005e 0058 002a 004b 005c 0005 005d 002e 006a 005c 004b 0039 006a 0049 004c 005c 0050 0060 003c 0053 0067 005b 005f 0062 004a 0046 005c 0055 0021 0051 004e 0088 fff9 0011 003f 0019 fff8 0055 003f 0032 0047 0008 001b 002d fff6 003c 0085 0086 0029 00a7 006f 007d 002c 0086 0044 0078 0083 006b 000f 0056 005b 0069 0074 0040 008d 007b 0059 007d 0061 004a 006b 004e 003d 007d 0070 007f 007d 0013 007e 0040 001f 0024 0045 0023 0023 0038 0021 003e 002b fffe 001b ffff 0033 001c 001a 0010 0017 ffe4 0012 002d fffa 0024 0003 fffb ffff 0001 0009 0003 0002 0006 ffee 002e ffef 0022 0004 001c 0004 fffa fffd ffff 002e 0005 0001 fff3 0013 0025 ffe4 fff8 0003 0035 0048 0045 0017 0076 0044 0038 004f 006f 0067 0066 0028 005d 002a 0057 0065 0048 0053 004c 0052 005e 006b 0045 0058 0035 006a 002f 0061 0044 006d ffe3 007c 006e 0031 003b 003c 0045 005b 0010 0068 005a 0045 007a 0058 0068 0027 006d 004a 004d 0055 0054 0042 004c 0018 0067 0067 004a 0040 006a 0015 0084 0049 0042 00a2 0017 001d 005b 004e 0009 007f 0070 ffea 0065 005e fffb 0091 0041 0044 004f ffe0 0086 0049 0064 007e fff2 006c 005f 004e 0041 0043 006a ffce 0051 0072 0030 0035 0099 ffef 007c 0045 0000 0062 0065 fff7 0036 0048 002d 0011
001a 0044 007e 001b 0059 0024 0064 005d fff5 0086 002b 0021 004a 0071 0023 0061 006c 006d 0034 005a 005b 0064 0027 0050 0070 0069 004a 006b 003b 0058 0083 fff3 0061 0018 0059 0070 006a 0056 0063 0029 005e 0037 0066 0049 008d 0037 0075 004d 0067 0055 0064 0044 0060 0084 fffd 0059 0056 007d 0066 003e 0066 001b 0087 0019 004f 0078 004a 0029 0071 0043 005d 0058 0057 0028 0064 0061 006d 0026 0066 004b 0070 0058 0055 0063 004f 004b 005b 0043 0033 004d 003e 0068 0054 003e 0068 003b 0058 006a 005b 006b 005f 0046 0053 003b 0069 0043 0086 0051 0078 002c 0028 0078 fff7 000a 001f 000d fffa 0031 0012 fff0 002a 0074 000f 0059 0058 006c 0084 0073 0053 009e 000d 0055 00af 0048 0066 006b 004b 0041 004d 0093 001a 008b 0066 002a 004f 0067 007f fff3 0033 0066 0083 0050 0061 0052 0047 0045 002a 0036 0056 001a 0058 0049 004c 002e 001a 0039 0026 0030 0024 0023 0027 003a 0030 0018 0015 fffa 000c 0001 0036 0004 fff5 000a 0023 000f 0011 0007 fff8 000a 000b 0003 0000 000c 0010 0002 0013 001f fff8 0019 0023 0002 0005 001f ffff 0006 001a 0019 000d 001c fff9 fff6 fffb 0090 004e 0062 005e 0046 002d 0069 006f 0045 003e 0056 0032 007d 0024 005f 0071 0054 0000 0082 0077 fff8 008f 0062 0041 0055 0067 0045 004d 003b 008a 0048 0037 005f 0057 006c 0036 004f 0077 0032 0055 002c 006a 0017 0065 004c 004d 003a 0061 0049 003e 0051 004e 004f 004b 0018 0044 0054 0043 0067 000f 004e 0073 0012 007e 0036 0036 004a 0041 0033 002b 008a 0030 0046 0074 fff5 005b 007f 0050 006f 0028 0029 0070 0027 006c 0023 0045 000b 006d 002d 0042 0085 0080 ffeb 0065 0037 0040 0020 005b 002b 0078 0042 0054 0035 0053 0073 0018 0058
0077 0019 ffef 005c 0043 002e 0003 0057 0071 0031 006e 0043 0051 004e 0058 0026 0048 0026 00a0 0036 005e 0048 002e 005a 0078 0052 003e 0086 0049 002a 005f 007e 0025 006f 0020 005f 004e 0032 0051 0049 0078 003b 0071 002f 0044 002d 0062 002a 003a 0041 005a 0044 003d fff8 0092 0054 005f 0035 0027 005c 0074 0045 007f 004f 0032 005c 004d 0050 0049 0025 0069 0040 0065 0056 006e 0035 005b 0037 005a fff0 002f 0043 0055 005c 0053 004d 009e 0052 003a 0066 0036 0054 003d 006d 0052 003e 004c 0034 0051 0048 0048 0078 0046 0078 0035 0059 003b 004e 0048 0030 0053 0000 001f 0015 0036 0015 fff1 0023 0023 004b 0055 0034 007f 0049 0060 001a 001b 0090 0064 0073 0017 0094 ffd1 0091 008e 0011 009e 0070 0074 0052 0085 0035 008c 0045 0094 007b 003f 0081 0071 0067 0042 0051 0067 005f 008b 005e 0073 0073 0046 005d 0051 001c 005a 0033 0045 003e 003b 0038 0028 002e 0010 0004 0027 fffc 0020 0000 002a 0001 0007 0006 0016 0005 fff4 0000 0015 fff7 0018 0002 ffff 0007 0018 fffd 0007 0004 ffe8 0014 0006 000e 000c 0009 0008 0004 0007 0008 fff6 0004 000b 0017 fff2 fff1 000b ffe8 000e 006c 002c 007a 0066 002e 0040 0062 0045 006d 005d 0044 0071 0063 0035 0043 0060 002c 006e 0074 0039 ffe7 006f 0035 0054 001b 0048 008c 003b 0030 0056 0087 0014 fffb 005e 004f 001f 0075 000e 0093 003c 0038 005c 005f fff4 0074 0022 0055 0059 0045 0049 0076 0031 006e 0039 004c 0051 0060 0059 0031 0063 0072 001c 008c 0026 0063 0065 007d 0005 0057 005b 005c 005c 006d 0050 000d 005e 0043 003e 004f 0036 0033 0051 005b 0047 0053 0033 0063 003f 001b fff9 0080 000c 0065 0055 004e 003b 0056 fffd 008b ffeb 0067 0066 0041 0034 0045
0011 0083 001d 0035 0046 00ac 0029 0054 0054 0043 003c 0042 004e 0043 0036 005d 0007 0023 004d 003a 0073 0052 0060 004f 002a 0022 006f 0052 0041 0077 0065 0044 0044 0071 0082 005c 0030 006c 006d 0030 006a 0057 fffc 0077 0071 0028 006a 0070 0032 0084 0066 0064 0043 0075 0026 0080 0069 0049 0073 0053 0079 004f 0015 006a 004d 0038 004a 0058 005f 005a 005d 0034 0046 0068 0050 006b 0055 0040 0072 004a 005e 005a 0056 003c 0043 0052 ffee 0059 004b 003f 0078 004e 0051 003c 0058 0041 006f 0044 0070 0042 0059 0062 003d 004c 0057 004f 0056 004e 0055 002e 0041 0031 0033 ffff fff1 fff7 001c 0057 0032 0017 0077 0011 0026 007e 0080 0078 0067 005e 0046 008c 0028 006a 008d 0072 0080 0066 006f 0069 0070 0055 008f 0049 0072 0061 005e 006c 007e 005d 0068 007f 0056 0067 0073 0045 0058 0035 004c 004d 0052 0044 0050 0052 0049 003a 0054 0018 0032 001b 0013 0021 0043 0017 0014 002d 0021 0013 000c 001a 0029 ffff 000d 001d fffa 0018 ffff 0014 fff9 fff5 0005 0013 0014 000e 0012 000a 0010 001a 0015 000b 0006 000c 001b fff8 000f 0004 0020 fffd 0010 001e 000f 0007 ffe7 001d 0058 0024 0023 0056 0047 005a 0045 003c 005e 0079 0019 005f 0033 0051 0065 0071 0024 0066 0041 0005 0061 0075 0063 0059 0059 008a 002b 0072 0031 0086 0042 0047 0065 005f 0056 0079 005d 0050 0047 0045 0052 004c 0067 0040 007b 0034 0047 0063 0059 003f 0042 0073 002f 0072 0040 003c 003c 0056 002e 008f 0031 002d 005c 0031 006a 0071 0021 004a 006d 0064 ffdd 0064 0058 0065 005a 0040 008c 003f 0032 0060 0053 0034 0073 004a 003f 005d 0053 000c 0088 0045 006c 005b 005b 0058 ffc0 0095 0043 0036 0082 0025 008b 0061 0003 0068 0045 0036
003c 005a 0010 0078 0088 ffde 0053 000a 0042 0066 0048 006f 004c 006a 0023 0055 0075 0049 004e 006f 003e 005d 0036 0056 0085 001b 0064 0045 0044 005a 004e 004a 006c 0031 002b 0092 0057 0034 0061 0056 0048 0050 006e 0068 0025 0070 002a 00a0 0057 0045 0030 0051 0056 004f 004f 0045 0068 0040 0065 002d 0056 004a 007f 002e 0035 0083 006d 003b 0079 0039 002c 0076 007c ffb2 0090 0048 0036 0057 0053 0070 0082 0027 0062 0061 004e 0065 0095 0029 0022 0056 0038 0053 0056 0087 002e 007c 0030 002e 0050 0079 0041 0031 0074 0047 004e 0052 004d 0074 003e 0041 004c ffd3 fff9 0003 0002 0024 0002 0047 0045 0061 0035 0077 0062 0083 0059 0058 0085 0036 006f 0074 005f 0060 007b 0060 0065 002c 006b 003e 0094 005a 004a 0078 0047 007d 0078 004f 0023 0089 0083 0021 004e 0062 0021 005b 005f 007b 001b 0072 0035 005f 003f 0040 003f 0034 0049 0033 0054 0015 004f 0025 000f 000c 0031 0011 001a 0011 000a 0015 0004 000f 0017 0026 0006 0009 0007 0009 000d 0015 0009 fff9 fff8 fffe 0011 ffff 0010 0005 000c fff8 000e 0004 0002 001b 0016 fffd 000e 0007 0019 0006 0016 fff6 0013 000f ffc3 00a2 0044 0071 003d 005a 0059 006e 0070 0021 002a 0034 0034 005a 005e 001f 006c 0058 005b 0064 003c 0049 000f 005e 0060 0031 0044 005a 0072 0038 0056 0058 001c 0089 0061 0039 005e 005b 0055 003c 004b 0060 0063 0019 006b 003d 005c 0029 0055 0043 0070 0069 001f 0043 005b 006e 0042 006b 0071 005f 0070 004d 005d 003a 005e 001e 0071 0037 005c 0022 009d 0038 006d fff9 0054 004b 0015 007b 001c 0057 005a 0053 001f 005e 0043 004b 0055 0059 0022 0026 0084 0016 0051 003d 0037 0061 0014 0020 0018 0089 ffcb 0053 0067 0016 0076 0016
ffe4 007c fffd 003c 003b 0011 007d 0055 0048 0063 002f 0053 0013 0078 004b 0037 005f 0064 006f 004c 004a 0032 0027 005c 0035 0066 004f 0077 0049 004e 0055 0053 002b 0057 0050 0048 0065 0043 0096 002a 0080 0042 005e 0062 0078 0030 008f 0009 0072 0085 0055 0045 0062 0047 004d 005a 0053 0055 0027 0090 0033 0032 0076 0042 0079 0018 0085 0030 006f 0064 007d 0044 0056 0089 0046 0091 0047 0035 006a 0055 002f 005f 0067 006c 003f 0044 0061 005b 0023 004d 0061 003c 0045 0036 0034 0056 0052 0071 005c 0073 004d 006b 003f 006b 007a 0028 0059 0052 0036 004c ffb6 ffff 002a fff6 ffee 0014 0032 0019 0010 003b 0048 0044 0068 ffe8 0071 0077 0054 0080 007d 0053 0039 0091 005a 0076 0020 0080 0075 004f 006f 0066 0070 0065 0084 005c 0066 0060 0074 001b 007a 006f 004f 007d 0062 0055 008c 0067 0054 005e 0046 0076 0035 0052 001e 0065 001d 002e 0038 002f 0006 003b 0044 0018 0020 003f 0013 002c 0009 0023 0015 0007 0000 0016 0000 001c 0014 ffee 0037 fffc fffb 0007 001d 000e fffd 0003 fffb 0009 000d 000a fff9 0001 001e ffff 0018 0003 0008 fff2 000a fffd 000c 0005 fffb ffff 0015 ffc9 0069 0044 005f 005e 006b 0043 0026 0069 0049 0068 0069 0020 0074 005f 0045 0032 005c 000b 004e 005a 0069 0043 0023 0073 0048 004a 0045 0065 0038 0056 0054 0027 0016 006f 0058 0057 003d 004a 005c 005b 0054 0048 0056 0061 0036 004e 0072 002b 0035 0051 0051 005b 0060 004f 002a 003d 0043 0049 004e 0062 0042 006a 0051 0044 0078 0041 006d 0049 0053 0038 0069 0073 002f 0033 006d 001b 0069 004b 003f 0056 003a 0065 001b 003b 0039 0037 0076 0057 001a 0076 0033 0080 0027 0021 0071 005c 004f 0023 007f 0070 0035 0073 0022 0064
006f 0046 0060 0071 0059 0079 0021 0040 0068 0045 001e 0067 003b 006d 002c 0072 0038 0048 0032 004c 006d 003c 003a 003f 0040 0084 0064 0065 0050 005f 006d 0029 007d 0031 007c 007b 0069 0057 0032 0070 002c 007b 001b 0065 0063 003b 0076 0004 006d fff8 0062 0070 0068 004c 002b 0051 0031 003b 0055 005d 007f 001d 0054 0045 0056 0056 0012 0063 0062 001e 005b 0059 0046 0044 0058 001e 0055 0043 0057 0061 0072 004f 007f 0068 0030 0096 006e 0073 0037 0071 0009 005e 006e 004b 0085 002b 005e 0055 0052 005b 0078 007f 007c 0037 0028 0075 0059 0070 ffd1 0028 000b 000f 0006 0006 0022 0028 002a 003a 002f 003f 002f 005b 0070 008c 0047 0081 003f 0062 002c 0088 003d 0072 0068 0065 0046 008b 0079 0070 0053 0054 0062 0071 0078 007b 0017 0072 0079 006e 005c 007a 006e 006f 0035 0088 0022 007a 0043 005d 006a 0049 0055 006d 0071 0048 005f 0026 004e 0031 003d 0014 0032 0022 001b 002e 000d ffef 002d 0010 ffff 0010 0041 fff3 001b 000b 0008 0000 0001 000f ffeb 0035 fffa 0000 ffff 0019 fff5 0003 0011 0000 fffc fffb fffc fffb 001b fff7 0008 001e fff8 0010 0006 0015 000c fff6 000b ffcd 0073 003c 004f 004b 004a 003f 0059 0061 0041 003d 004f 005c 0042 0062 003b 007f 001c 00a1 0058 005d 0027 0051 005e 004d 0055 0050 0059 0033 0042 0060 0030 006a 0062 0036 0073 0054 0055 005a 0040 0054 0062 005d 0048 0060 005a 0054 002e 0071 002b 0038 0030 003e 007a fffe 0055 0076 001f 0054 0072 0068 0041 0068 003d 007a 0048 001e 0060 0063 0058 004c 0038 0061 0053 0043 0079 005d 0034 0066 001e 007e 002e 0055 0037 0054 0027 004c 0050 0013 0074 0046 0033 0000 003f 0056 001d 0053 0094 003c fffd 0035 0023 0044 0050 0036
003b 0061 0037 0020 0073 004c 0044 0048 0063 0028 0076 004b 006a 0080 003a 0042 0055 0057 0030 0053 0050 0052 009b 003f 0067 002e 004c 0064 0081 0015 009a 0059 003f 007b 003b 0027 007b 005d 0073 0053 006d 0025 0072 0059 006d 006e 0062 0078 0084 0062 005d 0046 0054 0069 0050 0047 006b 0071 0059 0078 0027 0057 0077 0074 003e 007f 0056 0039 0079 0029 0077 0014 006c 006a 0053 0040 0080 0046 006c 005b 006d 004a 0044 0039 003c 003b 0028 0032 0034 0086 002d 004d 0058 0055 003f 0035 0070 001a 0083 0038 002b 0045 004f 0062 005a 0042 0062 ffd0 0049 0024 ffe6 0005 0012 ffeb 0012 004c 0048 0030 0042 0036 002e 006d 0052 005f 0076 0077 0017 0080 0076 004d 00a9 0010 007b 0094 0003 0071 0081 002c 0083 0070 006a 006c 0040 0071 0048 0085 0027 0074 0067 006c 0056 0028 008b 0034 007f 0051 0075 0041 004c 003a 0056 005b 001b 0047 002c 0033 002b 002d 0030 0038 0029 000f 003a 0028 0021 004e 0001 002c 001c 0015 fff7 001c fffe fffe 0008 0023 fff0 0003 001f 001d 0010 0042 000d ffe4 0024 0006 0005 000b 0025 0009 fffa 0007 fff7 0008 ffff 002c fffc 0009 0002 0009 000b 0002 fffe 0029 ff91 0082 002f 0065 004d 002f 0065 0050 0055 0067 0058 0048 003e 003e 0041 0045 0060 0028 005b 003f 005f 0063 004e 004e 0062 0038 0076 0041 0035 0075 005d 0051 0070 005d 003e 0034 007d 0044 0066 0059 005b 0043 0049 0043 008b 001b 006f 0046 0067 0067 003c 004a 0052 0089 003b 004c 0077 0045 0048 0072 0049 0058 0065 004b 005a 005e 0069 0064 0058 004d 0080 0016 004b 006a 003f 0038 005b 005d 004d 0051 0057 006a 004d 0059 004f 0052 006f 0025 006d 0037 0043 007b 0060 0067 0020 005a ffe5 0066 0052 0020 005d 0046 0027 0054
0055 0064 003f 0068 ffff 0071 0044 0057 004b 007f 001f 006d 0063 003d 0072 005f 0038 0086 0063 0043 0056 007d 002a 0052 005b 0049 005b 0057 002d 0080 004a 0039 0069 0075 005b 0077 004a 0041 003d 0076 006b 008a 005d 0074 0067 004e 005f 0050 0039 0070 003c 0066 0050 006b 0062 0074 0061 0053 0059 0067 0037 004a 0036 0041 003d 0062 0060 0050 0059 004f 007a 0067 0058 0062 0045 0089 0013 004a 0045 0057 0036 004b 0050 005e 004b 003b 007b 006f 0028 008c 003f 0019 0067 0053 005a 0080 0075 004b 004e 0085 0035 007d 0041 005d 0088 0000 0021 0035 0043 0077 ffe8 000d ffff fff9 001e 0023 0019 004d 0032 0091 0025 0076 0051 0025 003e 005a 0046 007d 0051 0085 003f 0081 0071 006e 003d 008f 0089 ffe4 006b 0097 0007 0092 0022 0083 003c 0074 0065 003d 0056 007c 0044 006e 0038 007e 0025 0064 0041 0054 0054 006a 003d 000b 0059 003c 0039 0031 003a 0034 0028 0019 0024 004c fffa 0024 0003 002d 001a 0011 0000 0024 000b 0004 0014 001a fff7 000b fffa 000b 0010 fffb fffa 002c fffb 002c ffe4 0034 fff2 000e fffe 0012 0022 0001 000c 0002 fffd 0019 fffe fff7 0001 000b fffb 0006 000c 0003 ffea 007b 0063 0028 0064 005c 004f 0033 005a 004c 0033 0040 0058 0036 0027 004d 000d 0047 001f 005d 004f 003b 004f 0050 006c 0058 0044 003a 007a 0019 0019 0080 0030 0058 005b 006a 0052 004b 002e 004b 004c 0056 0073 0072 001e 0058 0048 0047 0030 004b 0049 0053 0055 003a 005b 0039 006f 0044 0046 003b 0067 0065 0035 006e 0053 004d 0054 004a 0066 0030 0021 0090 0048 0050 0039 007d 0020 0055 0021 0041 0049 0035 003e 006b 0040 0046 002e 0048 0062 000c 0058 ffee 0067 004c 003d 002a 0058 0068 0040 0083 0010 004c 0057 0041
0032 003e 0044 004a 0082 0000 0056 0077 002c 0064 0045 0070 004c 0076 0052 006a 0067 0051 002d 0071 0046 004e 002a 0061 0057 0030 0051 007a 0049 0058 0051 0065 0049 0062 0033 005d 0037 007a 006c 004c 004f 002d 0075 001a 007d 006f 000a 006e 006a 0065 0067 005b 005d 0027 007c 0031 0072 009b 0029 0046 006d 007c 0046 0052 0067 005d 0043 0044 004e 0054 003c 005b 0046 0068 0041 0047 004a 0078 006c 0074 0057 0063 0052 0062 0029 0069 003a 0056 0028 0058 006e 0023 004f 005f fffa 005e 0033 004e 0059 007c 0043 003e 0069 0065 0029 0044 003c 0035 0044 0025 ffd9 000f 001b ffea 001a 000b 001b 0026 0012 003c 003d 0025 005f 0062 003e 007b 0078 0051 0057 0055 0070 0079 0022 009a 0023 0047 001f 00ba 0055 0070 0004 0093 005a 008a 0040 0080 0053 0070 003c 006c 0052 0060 0081 006a 004d 006b 003c 002b 006a 0014 0060 0032 004e 0047 004a 0039 0035 002d 0046 003d 0034 002c 002a 0031 0015 0029 ffed 001a 000c 0018 001a 000e 000f 000a 0028 ffe6 0047 0017 ffdf 0038 0011 ffec 0026 0010 0040 fff4 0006 0005 0011 ffff 0007 0001 0002 0017 fffb 0013 000e 0007 0019 0004 0006 000c 000c 0000 0000 ffb7 00ba 003b 004a 0045 005a 003c 002e 003d 0018 005f 0055 004f 0055 0057 006e 0052 005e 005a 0055 0058 0035 0023 0067 0053 0029 0010 008b 0049 0060 002d 004f 0060 005a 0046 0098 0031 0053 0059 005d 0044 0070 0009 0064 006c 001b 0085 003d 0045 006d 0036 0050 0058 002f 0058 0044 007b 0042 0076 0054 0046 0045 004e 006e 006b 0041 006a 004f 0060 0049 005a 0027 0076 004e 006d 0064 0031 006e 0043 0071 0034 0066 0018 004a 0069 005b 002a 0040 0061 0045 0043 0037 fff7 006f 0070 0050 003e 005d fffe 0045 0060 0021 004b
0022 004f 0062 0030 0086 0050 0017 0046 004a 0065 000b 002b 006c 006c 0024 0027 0055 0073 0010 0040 0054 0052 0032 0065 0031 0079 004b 001a 0065 007a 0047 0093 0055 0064 0059 003f 0072 004a 006b 006f 0042 0078 005f 0059 0082 0005 0076 005c 0052 008a 0038 0058 0043 0061 0021 0079 0041 006b 004f 0043 005f 007d 0050 003a 0045 006c 0057 008b 0067 0001 005f 004b 0087 fff0 0065 0050 0069 004f 0041 004c 0037 003c 0066 001d 0095 0033 0042 0085 002a 0032 0067 0032 0057 0067 0059 0045 0077 0060 0053 005e 0086 0066 008e fffb 0012 003e 004a 0034 001e fff6 0012 fff4 000a fffd 003d 0049 0039 0027 0068 004b 0063 002f 002c 007e 006c 0056 0070 0076 004c 005f 0075 0040 0092 0040 0090 0059 009c 0022 0075 0084 0057 0050 0039 0058 0077 002f 0076 0051 0077 0041 004f 0071 0036 007d 0028 003f 0063 0086 0040 0062 0024 0055 0043 003a 0020 0050 001b 0057 000c 0032 0046 0029 0026 0033 000f ffff 0040 001b 0013 0030 0023 0002 0030 ffee 002c 0006 fffb 001a 0017 ffe7 ffff 001d fffc fff2 fff8 ffec 0033 ffff fff1 000f 0007 0003 0008 fffb 0004 0004 fff9 0000 000e fff5 0014 fffb 0000 000f fffd ffe4 0051 0027 0098 fff8 0058 0053 0005 0087 0002 006e 0048 003a 004c 0031 fff9 0046 0036 008a 001a 006a 0045 0068 ffcf 0082 0055 0048 0052 0017 006b 0058 004a 0069 001e 0052 0035 0044 ffea 0088 000b 0074 0003 0046 003e 0078 0057 0028 0066 006a 003b 0068 0067 0035 005d 0058 0052 0036 0042 0036 0033 005f 004b 006b 0037 0035 0052 0051 0049 004c 0064 004d 0056 0056 0041 004f 0034 005c 0042 0068 003c 0068 0032 006e 005d 0012 0083 0045 0010 0068 0058 002b 0061 005e 0033 0060 000c 0085 0034 005f 0051 0051 0036 005b
003b 0054 0029 0034 003e 0023 0092 fff1 005d 0049 0080 006a 0059 0047 0070 007e 0034 0071 0022 008e 0044 0092 0027 0046 005b ffe8 004d 006a 0062 0046 0052 0027 006c 0069 0047 0088 0053 0041 006d 005e 0021 0056 005f 0052 0053 006f 006c 0034 006c 0051 006d 008c 003d 0072 005a 0071 005f 004a 0050 0047 0064 0029 0057 0059 0058 0064 0038 0003 0088 0052 004f 0058 0022 0076 0072 005b 003d 004f 0048 0077 0045 0073 004e 0059 0010 0073 0065 0062 0073 003f 008e 0041 002c 006a 0049 0071 005f 0060 007c 0025 0017 0080 ffa3 005a 003d 0038 004e 0019 0017 0029 ffef 0009 0037 ffe5 0012 0010 0038 0033 0062 006a 002e 008a 000c 005b 006a 0084 0033 003b 0056 007a 0069 007a 0010 0099 000f 0082 002e 009d 0036 0070 007f 0068 0044 005a 006f 0051 0069 0066 003e 0093 005f 003f 0064 0049 004c 004f 008c 0006 0069 005c 0079 003c 0052 0048 0038 0052 004a 0066 000f 0047 0026 0022 0051 0019 0021 0014 0032 0032 0021 000f 0025 0020 000e 0038 001a fff6 001f 0000 ffff 0018 0004 0002 0018 ffee 0011 0036 ffe1 001d 001f fffe 0006 000d 0008 0005 0013 fff9 000d 000b fffe fffb 0008 0008 0001 fffd 0009 0014 ffe7 0055 0028 0057 003c 0048 0066 0020 000e 0072 0029 004d 004d 0054 005d 0076 0044 0047 009f ffcb 004f 0028 0044 0048 0006 004d 0049 0064 0036 0049 0068 0031 0052 0063 0004 006a 0059 0040 0087 005f 0059 0050 0074 0034 0059 0043 003e 005d 0052 005f 0063 006b 0051 006d 004c 0064 0053 0064 0046 0047 0055 002f 0072 005c 0062 0043 0051 0058 003a 0051 004f 004c 0038 005f 0061 0035 0051 003f 0069 002f 0060 003a 0028 0078 0029 0087 fff2 005c 0060 0038 0068 002e 0034 004b 0043 0018 0052 003c 003d 0046 0035 0052
0073 0046 0033 0089 004d 0070 000b 0076 0044 003c 0044 006d 0044 0041 0064 004a 0079 0043 002d 0045 003a 0066 003e 0052 0030 009e ffe2 006e 0026 0076 0094 fff8 004a 0043 0068 005b 004b 0067 0034 0021 0068 0035 0086 0058 0072 0040 006f 004e 0090 009d 0062 0035 0098 0036 0059 0068 0070 004a 0077 007c 0066 0039 0067 0059 004f 0073 004d 006a 0044 0045 0038 006b 0035 001b 004f 006c 0041 0049 0055 0068 006e 0056 0053 004a 0034 0070 0000 0074 ffc2 002d 007e 0052 0026 007f 002c 003b 007a 002e 006b 0063 0060 0019 0035 0031 0051 0027 0006 fff0 fff2 004a fff8 002d fffb ffdc 0070 0030 002f 0023 fff5 0055 0031 0077 0040 007b 002a 0068 004b 0071 007e fffe 00a7 003d 0080 005b 001d 007f 0045 003d 006e 0060 0073 0062 005c 0056 0057 007d 0060 0066 0041 0056 0053 008b 0084 ffec 008d 0038 0027 0077 0011 000a 0010 005f 001e 0022 006d ffff 0043 fffd 005b 0036 0049 0022 001d 002f 0050 0035 001e 0034 0044 005d 0029 fffe 0031 0025 0014 fff8 001b 001e 0022 0007 fff3 000d 0002 001f fff3 0000 0014 0016 fffa 0000 fffa fffa 001c 000e fffc 0016 0000 fff8 0009 0005 fff4 001e 0009 0007 fff0 0017 ffd7 0049 fff5 0048 0051 0023 fffa 0027 006a 000b 0061 0032 003a 003b 004f 000d 0041 ffce 005c 007b 0028 0026 006c 0031 002c 0065 0030 005c 0050 0057 000a 005d 0034 005a 0058 fffb 0050 0076 001d 003f 0037 0021 0067 005f 002a 0061 0024 0031 0039 0046 0031 0075 ffd9 003c 004c 004b 002f 0062 0052 0057 0041 0051 003d 0052 0045 005d 007f 001a 007c 006a 0042 0075 0038 005b 006a 002b 0059 0044 0049 003c 0051 006e 0036 004d 0049 0025 0052 0051 0005 008f 005b 000a 0075 004a 0048 0052 0030 0074 0034 005f 0053 0047
002d 0023 0040 004d ffd7 0015 0046 004e 0062 001f 0054 001b 0097 0064 002d 0045 0074 0038 004b 0053 0054 0029 0064 003d 003e 0022 005f 0068 0046 0078 004e 0068 0061 0080 0037 006d 0051 007e 0063 0048 006f 0077 002d 0063 006d 0074 007e 007d 000f 002b 0063 003d 000f 009a 003c 0070 0066 0071 004a 0050 005d 0078 0044 007b 006a 003f 0061 0052 0044 0054 0058 0069 0072 005f 0061 0036 006a 0074 005b 0034 0046 0068 005e 0047 0080 0068 0085 003c 0036 0093 0058 0034 0062 007c 003b 0080 0042 0069 005b 00a5 ffc6 007e 001b 0069 0020 fffb ffed 004d 000b ffff 0052 ffe1 0012 002e 0013 006a 0027 0027 005a 004b 004d 0057 005a 0031 003f 0041 0070 005f 0083 005c 0001 0070 0087 0041 006a 0089 001d 0089 007f 0000 0076 006a 003b 0083 0061 0038 0052 0077 0052 0075 0064 0057 0037 007a 0062 004c 0037 0065 0000 006d 003e 006b 0033 0067 0044 0072 003e 005f 001b 0080 000f 004f 002b 0064 0008 004c 0047 0014 0036 fffc 0043 0038 0006 001c 0027 0022 000b fff4 fff5 001c 0016 001d 0002 0016 fff5 0016 fff5 0010 000c 0022 0003 000b fffd 0005 000b 0004 0005 000e 001c 0003 001b fffd 000b 0001 fff1 001b ffed 0051 0061 0016 0032 000b 0032 006e 0005 002e 003e 0050 004e 0013 0048 004e 005e 0050 0016 0034 0040 0028 003b 0044 0037 000f 003e 0058 0035 0053 006d 001e 0067 004e 0032 001f 006a 003a 0066 007b 003b 003e 0047 004f 0078 003e 0059 006c 005e 004a 004c 005d 0051 007f 0036 003b 0071 003a 0065 003d 0092 0052 0053 0052 0060 002a 0030 0059 003f 0042 0077 003c 006b 005b 003a 0060 004e 005a 0068 0038 0053 004d 005e 005a 003c 0049 0079 0021 0097 ffed 001c 005f 003a 0051 007b 0053 003f 0022 0050 0055 005c 0050
fffe 001b 003a 0041 005e 0070 0020 002c 0052 0081 0084 0030 0018 0093 0059 0048 0060 003d 006e 0041 0028 002e 001e 003a 0022 0047 0026 0010 006d 006c 0041 005a 001f 004f 0046 0085 0049 0046 0043 006e 0076 0034 0087 006c 0062 0056 0020 0027 005b 003e 003c 0038 0021 002a 005c 005e 0064 0064 0032 0079 0066 005a 0044 005f 0062 0051 0080 003f 005b 002b 0064 003d 0047 0009 0063 0030 003c 005c 0050 0068 003a 004d 003b 0063 003a 005c 0000 0089 0037 0066 006e 005f 002f 0088 0034 0088 0061 0051 004e 00a0 000e 002d 0031 004d fffa 0002 0042 0006 0013 002e ffdd 0027 ffe3 001f 0018 0015 0026 0057 0010 003a 008e 0028 0062 0072 0053 0034 0061 0064 0054 0058 0090 009f ffe5 0090 007f 005f 0011 0085 0044 008b 0070 0046 006e 004e 0075 0053 004d 00a0 0011 0064 006f 0079 0072 005e 0068 007d 0052 0039 009c 007a fff6 0091 0046 0041 006c 0030 0055 003e 0062 000a 0033 005b 0052 0045 001d 005e fffd 0058 0020 0054 0000 0034 0034 0028 0010 002f fff1 001b 0006 fffc 0011 0012 000c 0007 001a 0021 fff9 0029 fff4 0000 0019 fffc 0001 0006 0008 0014 0004 fff8 fffe 0005 0002 0006 fffe 0003 004f fff2 fffd ffff 001f 004e 001d 003a 0042 004a ffee 002b 0033 004d 0001 002d fff3 0036 0051 004d 0057 0035 0020 0045 fffc 0057 004e 0056 003d 0055 0066 005a 0044 004b 0039 0035 0037 0043 004a 0051 0043 005a 0071 fffb 002b 0039 0047 003b 005c 0075 0048 0056 0062 005a 0055 0059 005b 004d 004d 0038 0063 0051 005f 0032 0043 003c 0054 0045 006f 0026 0051 0078 0035 0054 0062 003c 0045 004a 0057 003b 0036 006a 005e 0047 004a 002f 004b 0018 0048 0089 ffd1 00a4 004d 0051 005b 0017 0012 0064 0057 0044 003b 0045 003d 0056
0056 0047 0049 0052 0039 0003 0055 0044 ffef 004a 0016 0019 0027 001b 003b 0041 0016 0028 0018 003f 000c 006a 0022 0046 0040 004d fffc 0080 0000 0076 005a 0068 0048 0036 004b 0064 004b 007b 0058 004f 0047 0078 0077 0017 0067 0041 004e 0056 0049 0038 007c 005a 0021 0096 0023 007c 0050 0032 004f 0033 0060 0066 004a 0030 0063 0049 0048 0062 0051 0047 008c 0017 005a 0083 0032 0054 007e 0048 0074 001e 0064 006d 0062 0083 fffb 0079 009a 005b 0058 0066 0059 005a 005c 002c 005a 0052 005d 0058 007b ffba 0040 0046 0050 000b 0070 000e 000e 0032 002f fff2 001c ffef 0007 005e 0017 0079 0036 0060 0084 0000 0043 0011 0075 006a 000d 009a 0027 005a 0089 005f 0067 004b 009c 005d 0029 0072 0052 0041 0096 0023 006d 0050 0073 0075 006d 005c 0077 0052 004b 0056 004d 0046 0036 0074 002d 0057 004e 0006 0093 ffe1 0039 0063 ffea 0065 0039 0052 001d 0073 0042 0059 0065 0033 002c 004f 0044 0034 0065 0053 0025 0034 0053 0033 0027 0015 0013 0042 000d 001a fff8 0028 fff9 0005 001b fff6 0013 ffff 000c fffa 001b 0003 fffd 001b 0016 ffff 0012 fffe 0004 0029 0001 fffc 0001 0002 0007 000a fff6 0008 fffe fff1 0036 0010 004b 0073 0018 0033 002b 002d 002e 0021 0049 0066 0050 0012 001c 000b 0095 ffdf 0054 0029 0075 0044 0015 003a 0048 0055 0037 0076 0009 0087 0055 fffc 0056 0060 0027 004a 004e 004c 0064 0027 0040 0078 0019 005e 001f 006b 0045 0014 003e 0072 003b 0056 0049 0064 0055 0058 0046 0058 0038 0083 0066 002f 0040 005f 0064 001d 0058 0021 0080 0057 003f 0052 0062 0034 0018 0068 0013 005e 003c 0057 0056 0062 006d 004c 0056 0044 0041 0008 004f 003f ffe2 0062 0075 0015 0039 0047 0031 0047 004e 004b
0018 001e fffd fffe 0027 006d ffdd 003c 0078 0007 0037 004e 003d 0026 ffbc 0098 0055 0056 0074 0010 0080 ffce 0041 0041 003b fff3 0090 004b 004b 0010 0048 0067 0067 008c fffe 006c 0069 007f 003a 004c 002a 0082 0041 0053 004b 007e fff5 0093 004a 0025 0029 0092 002c 005a 0052 0046 004b 0070 0068 007e 0045 002a 006d 0083 0056 0076 0027 0042 0074 003d 0044 008b 004a 006b 0077 005e 0025 0060 0070 005c 007b 0056 0076 0062 0020 006b 001c 005f 004e 0037 0085 0034 0041 007b 0054 007c 003b 005c 004f 0047 0030 002f 0054 ffe1 ffda 003e 001e 0009 000b 0001 0012 0028 ffee 002b 0036 0039 005f 002c 0066 0064 0052 00a9 000f 0005 00af 004c 0095 004a 0032 0085 006e 000f 0069 004f 009a 005a 007a 0085 0069 0060 006c 0077 0038 004c 0073 0077 003b 0049 006b 007d 005d 007f 001a 0070 0035 0050 0061 0068 0071 007a 0087 005f 0042 004f 0082 004a 0031 0031 006e 0034 0055 0050 004b 0031 0037 005f 0049 000e 0045 0049 0018 fffd 0031 0022 fff6 002d 0027 001b 003b ffe3 001b 0016 fffb 0001 0010 0004 fff0 0004 fff4 0017 fffc 0001 0002 000e fffb 001f fff2 000a fffa 002d ffff 0007 000e 0000 0015 fff2 0028 ffd5 0089 002a 004c 000d 0016 fff0 0024 0055 0025 0060 0028 0022 000b 004d ffdc fff9 ffd1 0052 0029 ffeb 0061 000a 0050 0045 005e 0065 0031 0057 004d 0036 002a 0030 0047 0079 0039 0067 005f 002a 002e 0036 0052 ffe3 008b 0066 0077 002c 0034 0089 0055 0035 005b 0059 005a 002e 008e 0043 0082 003d 006a 002e 005e 007e 004c 006d 003e 005b 0062 005d 0054 0041 0073 0042 0028 004c 0083 0077 0052 0039 003a 0048 0049 0045 003f 004d 0052 0062 004e 006a 001f 005b 006d 0041 003e 0060 fff9 0075 0063 0031 003f 0071
