ffe7 0034 0029 0012 0021 ffcf ffdd ffe4 0031 0029 0013 0020 ffcd ffda ffde 0027 0024 0021 ffcd ffd8 ffe0 ffe7 0029 0021 0023 ffc0 ffe2 ffe7 0002 0029 001f 0024 ffd3 ffe5 ffdd 0023 0020 001b 0025 ffd0 ffe4 ffe2 0030 0028 000b 0023 ffc9 ffe1 ffe0 002f 0021 001f ffcf ffe4 ffde ffe0 002e 001e 0024 ffbe ffd7 ffdd ffef 0033 0022 0024 ffc6 ffe3 ffe6 0019 0024 0020 0026 ffcf ffe2 ffe7 0034 0029 0012 0021 ffcf ffdd ffe4 0031 0029 0013 0020 ffcd ffda ffde 0027 0024 0021 ffcd ffd8 ffe0 ffe7 0029
ffc0 ffe3 ffe9 0004 002b 0020 0024 ffd3 ffe5 ffde 0025 0021 001b 0025 ffcf ffe3 ffe3 0032 0029 000b 0023 ffc9 ffe2 ffe2 0030 0021 001f ffcf ffe4 ffdf ffe2 0030 001f 0024 ffbe ffd7 ffde fff0 0033 0022 0024 ffc6 ffe3 ffe7 001b 0026 0020 0025 ffcf ffe2 ffe8 0036 0029 0011 0021 ffcf ffde ffe6 0032 0029 0013 0020 ffcd ffdb ffe0 0029 0025 0021 ffcd ffd8 ffe0 ffe8 002b 0022 0023 ffc0 ffe3 ffe9 0004 002b 0020 0024 ffd3 ffe5 ffde 0025 0021 001b 0025 ffcf ffe3 ffe3 0032 0029 000b 0023 ffc9 ffe2
0021 0020 ffcb ffe1 ffdc ffde 0031 001f 0024 ffbf ffd3 ffda fff1 0033 0021 0029 ffc6 ffdf ffe3 001c 0026 0020 0026 ffcb ffde ffe9 0036 0029 0011 0022 ffcb ffdb ffe2 0033 0029 0013 0021 ffc8 ffdc ffe0 0029 0025 0021 ffce ffd4 ffdd ffe3 0031 0021 0023 ffc1 ffdf ffe4 000a 002a 0020 0025 ffcf ffe1 ffdf 0025 0021 001b 0026 ffcb ffe0 ffdf 0033 0029 000b 0023 ffca ffde ffde 0031 0021 0020 ffcb ffe1 ffdc ffde 0031 001f 0024 ffbf ffd3 ffda fff1 0033 0021 0029 ffc6 ffdf ffe3 001c 0026 0020 0026
ffe9 0036 002a 0012 0023 ffcc ffdb ffe2 0033 0029 0014 0022 ffc8 ffdc ffe0 0028 0025 0022 ffcf ffd4 ffdd ffe3 0031 0022 0024 ffc1 ffdf ffe4 000a 002a 0021 0026 ffd0 ffe1 ffdf 0025 0021 001c 0026 ffcb ffe0 ffdf 0033 0029 000c 0024 ffcb ffdd ffde 0031 0021 0021 ffcc ffe0 ffdc ffde 0031 0020 0025 ffbf ffd3 ffda fff1 0033 0022 002a ffc7 ffdf ffe3 001c 0026 0020 0027 ffcc ffde ffe9 0036 002a 0012 0023 ffcc ffdb ffe2 0033 0029 0014 0022 ffc8 ffdc ffe0 0028 0025 0022 ffcf ffd4 ffdd ffe3 0031
ffe2 ffe1 ffc9 ffee 000a 0023 0049 fff2 ffdd ffba 0005 000a 0024 0046 ffeb ffdd ffbd 0013 001c 0020 0046 fff1 ffe2 ffbe 0014 0022 0040 ffea fffd ffdc ffbe 0014 0024 0047 ffe1 fff5 ffdb ffd1 0013 001e 0047 ffe9 ffdf ffc3 fffd 0007 001f 0046 ffee ffdb ffc5 0016 0018 0021 0045 ffef ffdd ffc2 0014 0021 002c 0044 ffec ffdf ffc0 0006 0024 0044 ffec ffed ffda ffc4 0013 0023 0044 ffe2 ffe1 ffc9 ffee 000a 0023 0049 fff2 ffdd ffba 0005 000a 0024 0046 ffeb ffdd ffbd 0013 001c 0020 0046 fff1 ffe2
fff3 ffec 003a 001a 0010 0010 ffbb fff2 ffee 004b 0020 0014 fff3 ffd2 ffe7 fffb 0042 000d 0006 ffef ffc6 fff0 ffde 0043 000e 0004 ffd4 ffde 0001 fff2 003f 0010 0004 ffc3 ffee fff9 fff0 003d 000f 000c ffcb ffec ffef 0043 0017 000c 000c ffcd ffed ffee 0048 000a 0003 fff8 ffc4 fff0 ffef 0044 000e fffc ffe4 ffcb fff4 ffeb 0040 000c 0017 ffbd ffe6 0004 0001 003f 000e 000a ffc4 fff6 fff0 003d 0021 0014 0010 ffb9 fff0 ffee 004b 0020 0014 fff3 ffd2 ffe8 fffc 0042 000c 0003 ffed ffc6 fff5 ffe3
0014 ffe5 ffcd fff3 ffe2 0033 0025 0014 ffd1 ffd8 ffeb ffe0 0038 0020 001d ffdb ffdb ffdf 0036 0020 0020 001c ffe0 ffdc ffde 003b 0018 0014 0005 ffd4 ffe0 ffdf 0037 001f 000d fff5 ffdc ffe4 ffdb 0030 0018 0028 ffce ffd5 fff5 fff1 002f 0020 0020 ffd0 ffde ffde 003b 0021 0024 0020 ffd0 ffdf ffde 003c 0027 0023 0011 ffd4 ffdd ffe1 0037 001c 0016 ffef ffd5 ffe5 ffd4 0034 001d 001d ffd0 ffd4 ffe8 ffd1 0037 0023 001e ffcf ffd8 ffeb ffe0 0038 0020 001e ffd6 ffdc ffde 0039 0029 001e 0022 ffc9
003a 0019 0013 000e ffd0 ffe2 ffc9 0040 001b 001d ffe6 ffdc ffe6 ffd2 0032 0019 0022 ffcd ffd5 ffe7 ffe5 0030 0022 0022 ffce ffdc ffdc 003a 001d 0020 001e ffd0 ffe0 ffde 003b 0025 0021 000f ffd2 ffdd ffe2 0037 001d 0018 ffef ffd2 ffdf ffcf 0033 001e 001d ffce ffd1 ffe8 ffd1 0034 0020 001e ffcd ffd8 ffec ffe0 0036 0022 001c ffd7 ffdb ffde 0037 002a 001e 0020 ffc7 ffe0 ffdc 0039 001d 0013 0011 ffd4 ffe2 ffc9 003e 001b 001d ffe6 ffdc ffe6 ffd2 0032 001a 0022 ffcd ffd4 ffe5 ffe5 0031 0023
ffe0 ffdc 0035 001b 0024 0021 ffd8 ffde ffde 0037 002b 0024 0014 ffce ffde ffe2 0037 0021 001a fffb ffd3 ffde ffd2 0035 0022 001a ffd8 ffce ffea ffde 0035 0025 0018 ffce ffd7 fff0 ffe3 0039 0025 0021 ffd1 ffdc ffdf 0033 0025 0022 0025 ffd9 ffde ffe0 003b 0025 0018 0007 ffd3 ffe0 ffdb 0035 0022 0023 ffde ffe1 ffeb ffd1 003a 0022 0020 ffcb ffd3 fff2 ffdd 0034 0023 001f ffcf ffdc ffda 0037 001b 0021 001f ffd4 ffdc ffe0 0039 002d 0024 0012 ffcc ffe0 ffe5 0037 0024 001b fff8 ffd6 ffe7 ffd8
0019 ffd6 ffce ffea ffdd 0035 0024 0016 ffcd ffd3 ffeb ffe2 0035 0022 001f ffd0 ffdc ffde 0034 0020 001c 0023 ffd6 ffdb ffdd 003a 0023 0018 0006 ffd0 ffdf ffda 0036 0022 0023 ffdd ffe0 ffea ffd0 0037 0021 0026 ffd3 ffd4 fff7 ffe1 0039 002a 0024 ffce ffe4 ffd8 001c 002d 0022 0025 ffc6 ffdf ffe1 002d 0034 002d fff8 ffd1 ffe3 ffd0 003a 0028 0021 ffeb ffd9 ffe4 ffe0 0037 0024 0020 ffde ffce ffde ffe8 0037 0025 0025 ffc6 ffd0 ffe8 ffdd 003a 0025 0026 ffc0 ffdf ffe1 0023 002c 0023 0013 ffc1
000f 0022 003c 002b fff6 ffe4 ffb3 0017 0022 003f 0017 fff4 ffd9 ffb9 0015 0029 0047 fff1 ffe6 ffcf ffd2 000d 0023 004a ffee ffe0 ffbc 0000 000a 0025 004b ffea ffdd ffbb 0008 0010 002e 001e fff7 ffe3 ffb7 001a 0009 003d 0023 ffd5 ffed ff94 000c 0030 002c ffdb 001b ffc2 ffc3 0010 0023 0048 ffec ffde ffce ffb8 001d 0028 004c ffe6 ffdc ffbc fffe 0011 002b 0039 ffe5 ffe0 ffb9 000d 0020 003c 002d fff4 ffe3 ffb2 0014 0023 0040 0018 fff5 ffd8 ffb8 0012 002a 008d 0123 01cc 01c3 01c6 0205 020f
0165 0076 ffbe ffcb ffec fff0 0037 0015 0010 ffc3 ffce ffe7 0005 0046 0018 000e ffad ffee fff4 0023 0036 000f 0014 ffb4 ffea fffa 0036 0023 0008 0013 ffb4 ffe8 fff3 0049 0018 0003 0013 ffbf ffef ffef 003a 0013 0019 ffb6 ffd2 ffef 0005 0049 0018 0015 ffbd fff0 ffe7 0020 003c 0013 0012 ffc5 ffed fff1 003a 0034 0010 000b ffb8 ffec fffa 0046 001c 0009 000b ffbb ffee ffea 0047 0011 0012 ffc1 ffce ffec ffee 0036 0016 0012 ffc5 ffd0 ffe6 0002 0044 0015 0019 fff3 ff7c fc92 fd38 fd29 fd41 fcff
fc8f ff2a 0091 001d 0028 ffc8 ffda ffe1 0036 0027 0018 0028 ffc3 ffd9 ffdb 0029 002a 0028 ffcb ffd3 ffd5 fff1 002b 0026 0028 ffc7 ffde ffde 000d 002c 0026 0025 ffd6 ffda ffde 0028 0017 0017 001c 00c8 01c2 01be 020e 0211 0213 021a 01c2 01c6 01b3 020d 020e 021f 01c8 00db ffe3 ffdc 0024 001c 0026 ffbf ffd2 ffd7 fff5 002f 0025 0026 ffc6 ffde ffe1 0018 0026 0021 0029 ffcd ffdd ffe8 0035 0029 0015 0024 ffcd ffde ffe1 0032 0024 0015 0022 ffcd ffdb ffdf 0027 0026 0069 00bb 00d2 00d9 00dd 0127
00b0 0044 ffe3 0008 0029 0022 0027 ffd0 ffe0 ffde 0024 001f 001d 0028 ffcd ffe0 ffe3 0031 002a 000d 0025 ffc7 ffe1 ffe1 002f 0020 0022 ffcd ffdf ffdb ffdd 0031 001f 0026 ffbf ffd2 ffcc 002b 0028 0127 fc18 fd24 fd13 fd26 fd26 fd27 fd28 fd19 fd18 fd19 fd2a fd28 fd30 fc1e 012e ff94 0013 ffe7 0030 0029 0014 0021 ffcc ffdc ffe0 0028 0024 0022 ffce ffd9 ffdb ffe8 0029 0022 0024 ffc1 ffdf ffe4 000a 002a 0021 0026 ffd0 ffe1 ffdf 0025 002d 00de 01c8 01ae 01c3 01bd 020c 020f 0202 0220 01c6 01ce
020f 021e 01c7 01db 01a5 00a7 0030 0021 0025 ffbf ffd3 ffd8 fff6 002d 0024 0025 ffc7 ffdf ffe2 001b 0025 0020 0027 ffcb ffde ffe9 0036 002a 0012 0023 ffcc ffdb ffe2 0033 0029 0014 0021 ffc1 ffdb ffdf 0126 010d 010f 00bb 00d2 00d9 00e6 0128 011a 0127 00c7 00de 00cb 00ef 000f 002b 0035 ffe3 ffdd ffc3 000b 000d 0021 003e ffe8 ffe3 ffc9 0018 0021 001b 003a ffdf ffe0 ffc8 0019 0023 0038 ffe2 fff5 ffd9 ffc4 0018 0020 003d ffd6 ffe9 ffe4 004f fd77 fd33 fd3d fd25 fd17 fd12 fd12 fd0f fd29 fd2e
fd10 fd0e fd21 fd26 fd0b fceb 00b2 ffc0 0018 001f 0024 0037 ffe5 ffdd ffc6 000f 0023 0038 ffe3 ffee ffd6 ffcc 0011 0021 003a ffd8 ffdf ffcd fff2 0010 0022 0040 ffe8 ffdc ffc5 000a 00fc 0207 0222 01c7 01ca 01bb 01f9 01eb 012c 009a 009e 0164 01af 01c0 01e2 01de 0201 01f9 01ef 01f8 015b 0099 0005 001d 000e 0005 fff7 ffd6 0003 ffe1 0027 0005 0006 ffe9 ffe7 0001 0005 0020 0006 0000 ffe1 fffb fff9 0005 0024 0004 0002 ffdb fffa 0004 ffff 0029 00c7 00fa 00d4 00ec 00ee 0108 0101 0101 00fb 00d5
0112 0107 00f4 00ed 00d6 00cd fff7 003b 0002 fffc ffe4 ffdb 0006 0005 0030 0006 fff9 ffd6 fff9 0004 0009 0041 0008 fff9 ffd6 0002 0006 002d 0025 0007 fffc ffc8 0000 0008 003a ffff 0117 fc1c fd04 fd2f fd38 fd36 fd0f fd44 fc91 0000 ffd4 fe6c fcd9 fd6e fd3d fd00 fd20 fd1f fd2b fd33 fcc4 fe2a 0054 ffff 0004 fffe 0020 001c 0010 ffe7 fff6 0000 001c 001a 0014 0004 ffd7 fff5 0000 0019 0014 0001 fffb ffe2 fff5 ffed 0030 000e 0028 0106 01da 01df 01c8 01f9 0110 0019 ffea fff4 fff8 fffc 002e 000b
004c 0121 020c 0207 0209 0219 01c4 01b4 00be 0035 002e 001f 0020 ffb9 ffe8 ffe1 003b 001e 0016 ffed ffd1 ffea ffc6 0041 001e 001d ffca ffda ffdd ffd5 0041 0026 001c ffc2 ffdc fff8 ffdc 0134 0105 0104 00bd 00de 00d9 0127 0112 0053 0045 0046 00d8 00c6 0127 0112 0108 00ed 00c1 00dd 00cb 00cb 0025 001e ffc6 ffdb ffe6 ffdf 0037 0020 0010 ffc9 ffde ffdc ffec 002e 0026 0020 ffc7 ffe4 ffdc 0031 002c 001f 001f ffd1 ffdd ffdd 005b 007c fc70 fd06 fd1c fd1d fc3f 00c5 0036 fff0 0002 ffcd ffd9 ffee
0021 ff1e fc75 fd1b fd26 fd2c fd27 fd1e fc79 00b5 ffea ffdc 003d 0020 001a ffcf ffdd ffdc 0034 002c 0028 001a ffc6 ffdf ffda 0035 0024 001e 0003 ffd7 ffdf ffce 0037 0027 0123 01c6 01d9 01be 00b8 002f 0027 0016 ffcf ffd6 ffd3 ffe4 002a 002e 0025 ffd0 ffe0 ffd8 0042 0113 01ff 0215 01cf 01c8 0190 00f4 001f 001c 0014 ffcb ffdc ffe0 0039 0021 001a fffe ffd3 ffdf ffd1 0034 0022 001a ffd9 ffd0 ffe7 ffdc 0033 0024 0019 ffcf ffd7 000f 00d7 0133 0110 010d 00bf fff0 ffde 0039 0022 0022 0025 ffd3
0048 0077 0105 00f8 00bf 00db 00d5 012d 00fc 0022 ffe0 ffdd ffe4 ffd2 0037 0020 0021 ffcd ffd2 ffef ffdb 0037 0027 0021 ffd2 ffe0 ffda 0033 001e 0024 0021 ffd8 ffdb ffd8 0134 fc3c fd2b fd0c fc52 00f1 ffd1 003a 0021 0019 0002 ffd5 ffe9 ffca 0035 0020 001f ffcf fff1 0070 fc78 fd3b fd2c fd15 fcf0 fcd8 00db 0001 0030 0026 0021 ffd1 ffdc ffde 0032 0023 0022 0025 ffd8 ffdb ffdb 0038 001f 0018 000a ffd2 ffde ffd7 0037 0121 021e 01d9 015e 0065 ffcf 0039 001f 0021 ffcd ffca ffd6 ffbd 0028 0023
ffe0 ffdd 003b 0015 0082 018a 01cf 01c0 01af 020e 0112 001f 0014 ffce ffdd ffe1 0037 0021 001a fff9 ffd4 ffdd ffd2 0035 0021 0019 ffd8 ffcf ffea ffdd 0034 0024 0019 ffcf ffd7 00ec 00df 0133 0108 0017 ffd2 ffdc ffde 0032 0022 0021 0023 ffd9 ffcc ffbd 0018 001d 002e 0037 00d3 00d5 00b4 0112 010b 0106 fff4 ffe8 ffda ffb0 0017 0021 0040 ffeb ffe0 ffdf ffbc 0015 0022 003f fff0 ffe5 ffc1 0018 fffe 0021 0042 fff3 ffe3 00b1 fc1b fd19 fcb5 fe92 0090 ffc3 ffc4 0017 001d 002b 0031 0033 000c ffa3
003d fff1 ffe6 ffb6 006f feed fc93 fd2d fd5e fd11 fc2a 00c6 0012 0024 003f ffed ffd9 ffbe 0015 0008 0023 0043 fff6 ffda ffbb 0018 001c 0031 0025 fff0 ffdd ffbb 0105 01fa 021d 00ed fff4 ffd9 ffae 0021 00e6 01eb 01c0 01b6 01ca 01ad 0202 0208 0117 0021 0008 0009 ffce ffdc fff9 ffe8 0117 01ef 0203 01c7 01cc 00e4 001f 0033 000e 0006 ffc8 fff1 fff6 001f 002d 000d ffff ffca fff3 fff1 0027 001e fffa 001a ffc8 ffe4 fff6 003d 0112 0102 010a 0052 ffee fff2 0042 0008 000a ffd7 ffd4 ffe1 fffd 0034
ffca fff0 0001 0011 002b 0079 010a 00c3 00d9 00e3 0109 002a 000b 0001 ffc8 fff3 0001 003a 0015 0002 0002 ffc5 fff1 fff5 0042 0014 000a ffcd 00c0 01b0 017f 00f2 00e3 fc60 fcf8 fc2a 00d3 0010 0047 0010 0095 fd12 fceb fd5d fd53 fd30 fd32 fd0e fc0c 00ff ffec 0034 001e 001e 0018 ffab 011e fc4f fd25 fd2a fd15 fc66 00a1 ffe7 ffe0 0038 001a 0017 ffe2 ffd7 ffe7 0005 0030 0024 001d ffdc ffe5 fff0 ffff 0026 001d 00f9 01a6 01ca 018b 00d2 0038 0024 00dd 01a0 01c8 010a 005a 0027 001d 001a ffe7 00ef
001b 001c ffdc ffd1 ffe9 ffe7 0033 0124 0218 01cf 01d1 01c9 00e4 0031 0020 001a ffc9 ffe2 ffe9 0010 0028 001c 0024 ffce ffe8 ffde 0029 0026 0101 fc77 fd34 fd31 00b5 0119 0112 0100 0021 ffcb ffdb ffdd 0041 00da 010e 00b5 00c2 00de 00e2 0129 010e 001d ffaf ffe6 ffe9 0007 002c 0024 0014 00b5 00e3 00db 0121 0113 0021 001f ffd0 ffe1 ffe4 0033 0021 001b 0019 ffb8 ffd3 ffd1 002b 0025 0130 01d7 01cb 01cf 01be 02e1 feb5 fe0d fcd5 fd48 0062 ffcb 010e fd1c fcee fc5b ffea 0011 0007 0000 0049 0086
00d6 0035 0027 0016 0021 ffb7 ffec 00bb fc46 fd2d fd1d fd15 fc24 00ca ffdd 0039 002c 002a 00c2 01c2 01c4 01bf 0209 020c 0222 01b0 01bd 00c1 0007 0111 00ff 01da 01c5 0197 0091 0025 002b 0125 0217 00d0 ffe5 ffe1 0032 0024 001d 0016 ffca ffd9 ffe2 011d 0204 011a ffca ffe0 ffdc ffde 0033 0021 0121 01ba 01cd 01c3 01b1 010c 0026 0024 ffc7 ffdf ffe2 0018 0027 0024 002c ffd0 ffdd 000e 00cd fc42 fd20 fd16 fd15 fd14 fe07 fd38 0210 00d2 0013 ffdc ffdb 00ad 0124 010e 004f ffcf ffdf ffe4 ffe7 0045
ffc0 ffdc ffe2 000b 002b 0026 0026 ffd7 00dc 00da 0122 0120 010c 0028 ffcc ffdf ffeb fffb 012b fc5c fd03 fd36 fd0f fd28 fd2c fe2d fef9 fe99 029b 01d9 01a4 02f9 fe17 fed9 fe3a 0084 ffeb 00c6 fc3b fc4f 00f5 ffde ffd6 ffe9 0018 0023 001c 001f fffb 0093 fc73 fc33 012b 0012 0023 ffcc ffdc ffd6 0137 fc2e fd1e fd1a fcfd fcaa 009e 0027 00f7 01f4 01c8 01d3 01c5 01c2 01ff 0208 021d 01b7 01de 02be 02de 029c 0298 030f 02ac 01cf ffe2 0029 0118 0206 0122 ffcb ffe1 ffe5 0032 002c 000e 0024 ffc9 ffe2
0108 018f 0057 ffdb ffdf ffdf 002d 0021 0025 00ca 01cd 01c5 01c7 0137 0042 0023 ffc3 ffeb ffe5 00fd 0122 0102 0115 00b9 00e2 01c6 fd47 fe05 fd1d fd28 fd15 fd1d fe22 fe2a fce6 0115 002e ffa9 00e3 00d7 0033 001f 0023 ffcc ffd4 ffda fffd 0027 002b 004c 00c6 00db ffc5 ffe3 0007 0022 0048 fff7 ffdc 00be 00fd 0104 0110 011c ffe5 fff7 0096 fce7 fcf6 fd30 fd36 fd39 fd0e fd22 fd43 fe6d ff10 ff0d fef9 feb4 00e2 fea0 ff05 fe66 029e 00d2 00a8 fc2e fc0b 0123 0045 ffe2 ffe2 ffca ffed 000b 0026 0048
010b fba9 fea9 0098 003a ffef ffdd ffb9 0019 010b fc36 fd36 fd39 fc48 0006 0122 01fd 021e 01c9 01d1 01c3 01d7 0201 020a 021a 01c1 02c7 02bf 02d7 02f5 02ee 0301 01c9 00d4 00bc 000c 0108 012e 0056 fff3 ffe0 ffc6 000d 001a 002d 0038 ffe8 ffdc ffca ffcf fff3 00d4 010e 0029 0014 0015 ffaf fff5 fff5 0025 0103 0201 01ec 01ba 00ed ffe0 003c 00ec 0112 00dd 00cb 00e2 00e4 012b 0159 0094 fd4b fe03 fe32 fe37 fdbd fe13 fe01 fdfc fd2c fc32 013d 0100 0114 0013 ffb4 fff5 fff4 0036 001a 0019 fffb ffb7
002f 010b 0086 fff5 ffc8 fff1 fff1 0047 0014 0006 00dd 00cb 00e2 00e0 0066 00ff fc5b fcf5 fd1f fd30 fd39 fd35 fd19 fd00 fe10 ff14 ff0f ff0b fe12 fd3a fd06 fd25 fd2c 02c8 0216 020a 01c1 fb3f 0087 ffea ffe8 003e 0016 000f ffde ffcb ffee fff5 0046 0023 0024 00aa fb70 00ef ffce 0038 002a 001c ffc6 ffcf 012d fc36 fd2e fd34 fd39 02b5 01cb 01bb 01ff 01e1 016f 0079 ffcc ffd9 ffc9 00df 027e 02ff 02e2 02b7 02ca 02b8 030d 0206 010c 01e0 00c6 ffe8 ffe3 0034 0025 001e ffd0 ffdc ffe5 ffeb 003a 0028
ffe1 ffe4 0128 0116 0031 0020 ffd3 ffde ffdc 0039 002b 011b 0208 01c6 01bf 00c7 012d 0115 0107 00e8 00c1 00db 00cf 0137 0207 fd19 fe09 fdff fd58 01ab 0132 0107 01fd fc0f fd21 fd21 fc34 0224 0028 002a ffd3 ffde ffdd 0031 0025 0021 0024 ffd4 ffda ffda 0036 0021 00f7 0002 ffd3 ffdd ffd7 0035 0021 0021 ffce 00c7 00e2 00c9 0223 fc63 fd06 fd25 fd0e fd0a fd0e feec 00a6 0009 0103 025a 0060 fda4 fd1d fd3b fd13 fd1f fd3a fd28 02da 02f1 fd1a 0226 ffbc ffdd ffe0 0037 0020 0019 fffb ffd1 ffdc ffd1
0019 ffe2 0088 fb6b 0082 0042 0024 0018 ffce ffd8 ffeb 00d5 fc64 fd2c fe11 fe52 02a6 0190 0112 000d 001e 0028 ffde ffdc ffd0 012e 011d 010e 0116 00fc 01ca 01b1 020b 02f1 02f7 0258 0167 ffe0 ffc7 0034 001f 0021 ffcd ffd3 fff1 ffdc 0034 0022 0021 ffd2 ffe0 ffd4 0118 0105 0022 0021 ffd5 ffdf ffdd 0037 002e 009f 018c 01ca 01c8 01fd 016c 0106 0107 00e8 00a9 004a ffdc 0001 0122 fc01 fdc0 fcfe 0219 00b2 0137 011a 00f1 013f fc68 fd21 fe26 fc2d 0120 0027 ffd0 ffdc ffde 0032 0023 0022 0025 ffd8
0035 0021 0024 00f4 ffe2 ffde ffd5 0032 001e 0023 ffe2 ffe1 00da 00ce 0206 fd1b fd16 fd2b fc21 0122 ffe8 0023 002a 000b 00da 01f0 019e 00e1 005d 0051 fc44 fd17 fd20 fdda feef fed2 000a 0173 0004 ffd3 ffe0 0033 0021 001d fffb ffd9 ffe3 ffd2 0031 001f 001a ffd3 00e1 fb4b 00ce 002d 0026 001e ffd4 ffdb ffe7 0054 fecf fda2 ff11 fe5f 0184 012e 003d 001f 001d 0027 ffda ffe6 ffd8 0132 0105 0107 fffd ffdc 009d 0181 0205 020d 0300 01e2 00e2 00db ffc9 002e 001d 0024 ffcf ffd4 ffef ffd8 0032 0023
ffe0 ffe5 006a 0168 010a 001a ffd6 ffe2 ffe1 0032 0026 002c 00f7 01cd 01cc 02cc 021e 0114 0102 ffea ffdb ffed ffd7 0017 0123 fc15 fd18 fc45 00d3 000c 0127 010e 0113 0181 fe0d fde4 fdae fc71 010f 0028 ffcc ffe5 ffe4 0026 001d 001e 0016 ffd2 ffd6 ffc3 0016 0017 002d 0105 fffb ffe3 ffc9 fff9 0028 002c 000d fffc 005b 01bc fd16 fe21 fd72 fc53 008c ffde ffdb 0005 001c 002f 00d5 01cd 01b5 00eb 000c 001a 00f0 fd38 fcd1 fd62 fdf1 fe39 0287 0226 00f9 ffe8 ffd4 0008 001f 0037 0018 fffd ffe6 ffb0
0040 fff8 0040 ff36 fb6a 0103 0021 003b fff3 ffe6 ffd8 ffcf 00ed fd8a ff12 ff09 fd23 0094 0025 0002 0021 0032 fff0 ffeb ffc2 0112 0106 011c 001a fffe ffe5 ffdb 00db 01e3 02bb 02c8 02a1 01a3 ffb9 000e 0022 0036 fff5 ffee ffd5 ffd6 000a 001d 002b 0035 0017 0010 ffda 00d1 00ed fff0 0042 0016 0014 ffb5 ffde ffef 0007 0121 02fa 02ff 02a5 01cc 0009 001a 0033 000f 0016 ffad 0125 fc40 fd25 fc71 00f3 0013 ffc3 00ab 00d6 0120 0213 fd06 fd20 fd00 fc68 009e 0048 0012 0012 ffbc ffd6 fff3 ffee 0048
ffb6 fff1 fff8 0063 0129 0010 000d ffca fff1 fff8 002d 0031 0034 014d fd3d fe10 fd2b 0143 ffba 0021 0006 ffc4 ffef ffdd 011b 01fa 0206 00cd ffcd ffef ffe7 0059 008c fcf6 fcdc fe20 ff10 feaa 02b3 00c6 000b ffbf fff1 fff8 0019 0034 0010 0017 ffc0 ffe8 ffce 0027 0037 00e9 fb37 00d3 ffd5 ffde 0034 0028 0012 0025 008e 0297 fe20 fee3 fde6 fc83 00ba ffd6 ffe2 ffe0 0034 0020 0014 00b3 00e1 00d8 0004 002b 0021 001d ffd9 0033 0128 02f3 02fb 02b4 01bc ffe0 ffe3 ffde 0033 0026 001e 0010 ffd2 ffdf
0020 0020 ffc9 00d2 00d8 ffe9 0034 001e 0024 ffbd ffd4 ffd9 fffb 0104 02a0 02fe 02a7 00cd fff0 001c 0027 001f 0025 ffc3 0124 fc30 fd23 fc43 010f 0023 ffcd ffda fff4 0105 0111 01fb fd0c fde0 fcd8 fd5e 00d5 0024 0021 ffcd ffdc ffdb ffe8 0029 0021 0023 ffc7 ffe3 ffe3 0012 0127 001f 0027 ffd1 ffe1 ffdf 0024 0028 00ea fce4 fddc fdfd fdb9 01ef 0029 000c 0023 ffca ffe7 ffe9 011e 020d 0219 00c5 ffe1 ffdc ffde 0031 0022 007b ff0d fc72 fe10 feb4 ff6a 01bb 0030 ffc8 ffdf ffe2 0018 0028 001f 0027
ffe9 0036 0028 010f fb6b 0094 ffda ffe4 0033 0029 00c3 01ce 01d4 0235 ff6f fe0f fd19 fc4d 00f4 ffbc ffdf ffe8 0029 0020 0012 00af 00de 00de 000a 002a 0021 0027 ffd4 ffdf ffdd 0111 02f7 02f6 030a 0177 ffe1 ffe4 0032 0029 000b 0024 ffc9 ffe2 ffe2 0030 0021 0021 ffcf 00e1 0183 007c 0026 0020 0025 ffbf ffd3 ffd8 ffee 0117 0216 0304 0294 01a6 00ac 001c 0025 0020 002e ffa8 00d3 fc42 fd23 fc47 010c 0023 ffcc ffdb ffe1 0032 007f 00f1 01ff fd0c fdd5 fc36 00ed 002c 0022 ffce ffd9 ffdb ffe8 0029
ffbf ffdc ffe5 000d 0121 002b 0026 ffce ffdc ffdd 00d8 fdb4 fcd0 fd24 fdbf fd23 01c8 012d 0022 000e 0022 ffc8 ffe2 ffec 0129 020e 0213 00be ffde ffde ffe2 0038 0021 0010 ffdc 00a7 fd14 fee7 ff0b fe20 021b ffc5 ffde ffe5 0020 0026 001d 0024 ffc9 ffdb ffe9 003a 0033 0104 fbd7 fd71 00be ffdb 0031 0115 0201 021d 01c6 01ed 0246 fd5a fd29 fcf1 fcdd 009f ffe2 ffed 002f 002b 0022 00ad 00ee 0147 0058 0024 0024 0024 ffce ffdc ffdb 0024 010a 02ed 0307 02b5 00dc ffdc 0036 002b 000a 0022 ffc8 ffe4
002e 0026 ffdd 00c2 01ad 00c4 003f 0026 0023 ffd2 ffc5 0080 00ff 0132 01e2 02e3 01b7 01c5 00c6 001d 002a 0021 0023 ffd3 0098 fc46 fd27 fc68 0113 0021 ffc3 ffda ffd5 0043 002c 001b 01e7 fd67 fe04 fe2b fc2b 0125 0024 ffcd ffce ffd9 fff2 0037 0037 0046 ffec ffd9 ffc4 ffd9 010e 00ce 003e ffe2 ffd7 00b8 fc53 fcfd fd29 fd33 fd3b fd5b 0172 011b 00e6 002c 0030 ffea ffda ffb4 0117 0211 0232 00d9 fe50 006d ff9d 0018 0023 0045 fff2 ffeb 00da fd19 ff1f ff02 fd2b 011f ffcc ffba fffd 000d 002b 004a
ffab 0004 0025 00f0 fc9f fc49 00bd 0009 0166 020b 020c 0220 01ba 01c2 027a fdfe fcfb fd39 fc4b 00e7 ffc8 ffcb 0011 0024 0050 00db 00d1 00d8 00f8 010d 0025 004a ffe7 ffd7 ffad fffe 0015 01e9 02f3 029e 02b6 00ae 0015 001d 002e 0032 ffe9 ffd9 ffc3 ffd1 ffee fff6 002b 007e 014e 010a ffba fff4 fff1 0044 0111 0111 00ff 00c1 00dc 01d0 0227 01e9 0114 0008 ffd0 fffd ffe6 004d 0101 fc07 fd0a fc3e 014a ffd1 004b 0016 0014 ffc0 ffee fffe ffec 0230 fd15 fdff fd47 00b5 fff2 004c 0016 0010 fffe ffb4
004b 0013 0008 fff6 00b2 00de fff1 0084 ff65 fc6f fcfb fd26 fd28 fd3c fd36 fcf9 020c 00bd 00d7 ffee 000f 003d 0011 000e 00bb 01db 01ce 014e 0062 fb3c 0112 ffc0 fff6 fff4 004b 0028 0003 00cc fd44 ff41 ff07 fd40 0107 0008 ffe9 ffcb fff4 ffe4 0048 001f 0022 ffd9 ffda 0021 ff7f fb99 021e 021c 01cb 01c9 01c5 0146 019f 0208 0159 00f4 fc29 fd17 fc9d 0075 0045 000f ffc8 ffe2 ffe1 0134 010c 0103 fffd 00d5 01a8 00b4 001c 001e 0017 ffe0 ffe0 ffea 01c1 030c 02f0 021d 00ce ffd7 ffde fffc 0033 0026
ffe0 ffdb 0035 00a9 01ab 011e ffd5 ffe4 0032 0131 011d 010b 0101 00b8 00da 01b0 01f9 020b 0213 00f6 ffcd ffdd ffd1 003a 011b fc21 fd14 fc0f 0139 00d8 0031 0024 0017 ffcd ffd7 ffef ffe5 0048 01ea fcfe fdfd fd4d 00c2 0032 0023 0021 0024 ffd8 ffdc ffdd 0037 001e 0014 0009 0016 00df 00c5 fc3f fd26 fd1a fd14 fcc5 ff44 fcb5 fc78 ffe3 014e 00ba 00c1 0011 ffdc 0039 0029 0022 0030 012f 01b6 01e3 00ea 0102 fc1d fcc8 007d 000e 0031 002e 0024 0015 01a0 fe0d fef2 fe83 fcaf 010c 0012 ffcf ffe3 ffd4
0019 ffd8 ffca 0068 fea0 fd2b 030c 0212 01c3 01c1 00e0 ffd9 0119 020e 0151 00e3 fc9e fd11 fd28 fc36 0121 0023 ffd8 ffdb ffdd 0134 010e 0102 fffa ffd0 00cb 01b2 0129 002c 0028 ffdf ffdb ffe3 ffe0 0229 02f0 02fb 01c7 00db 0002 ffe0 0034 0024 0022 ffcd ffd9 ffda 0039 0118 0204 011c ffdb 00db 00dc 0130 011f 010b 0095 00b5 00d2 0026 010e 020e 0216 00f8 ffe0 ffe3 ffd7 0025 0089 ff27 fc7a fce0 fd13 00b8 0129 00fa 002a ffc5 ffda ffed ffde 0036 0122 fd29 fe09 fdd5 ff67 00b9 0003 002a 0012 ffd2
003d 0022 0010 0024 00d0 ff76 fcb6 fd2c fd2d fd31 fc21 00c3 00fe fc37 fc65 0028 0115 00bc 00d6 00e2 ffe6 003b 0023 0022 00ae 01a0 01ac 0201 011f 0031 010c fc1d fc30 00b6 0023 0038 0025 0017 ffde 0186 fe28 ff17 fe1c fc3d 00c3 ffc2 fff6 ffcb 003b 0023 001c ffdf ffce 017c fe35 fdfb 030f 0218 0101 0015 fff4 ffdb 011a 0211 0155 fffc 00f9 fc36 fd2c fc3a 00fd 0018 ffd0 ffe2 ffe0 009d 0111 0107 00b2 ffcf ffe7 00d5 01f0 0116 0027 ffd4 ffde ffe5 ffe0 0135 0213 02eb 0242 01c8 00e7 ffe5 0033 0021
ffd3 ffd6 0028 010a 01c5 0156 00b3 00d7 00d5 0135 0127 002a 000a 00ae 00dc ffff 0134 020d 021c 012c 0013 ffdc ffd5 0034 010b fc96 fd35 fcf3 fc78 006e 004f 0115 0113 ffc8 ffd8 ffe7 ffd9 003e 002e 00f4 fd08 fe12 fd4b 01dc 0041 002d 000f ffcf ffc5 ffb3 0017 0021 0034 012b fd6a fe06 fd05 fd07 fc62 003e 001d ffe9 00e6 fc16 fc39 0020 0071 00d4 00db 00c6 ffce 0016 0106 0218 01c0 01c2 01b1 0201 0103 0024 0053 009e fc52 fc06 00ed 0016 0028 0036 ffea 00bc 028c fe1e ff0d fe22 fc58 00b0 000f ffaf
0047 fffa 00c1 02e4 fdc1 ff75 02b0 0143 ffef ffdb ffc9 ffb3 0119 0213 016e 0028 009c fc30 fd04 fc56 ffe0 0078 fff0 ffd7 ffb2 00f9 0106 0127 010c fffd ffda ffb6 0120 0208 0132 0009 fff6 ffd1 ffb6 001e 0115 01ce 0255 01c8 01bb 00c9 001a 0025 0039 0032 000d 000e ffc3 00d9 01c7 00e4 0134 010e 0112 ffe2 ffe3 ffed fffb 0131 0110 0046 ffb6 00dd 01ce 0207 0125 0011 00f0 fc43 fd20 fd3d fd3b fd18 fc36 010b ffb9 fff7 00db 0131 0018 0002 000f ffc3 fff1 00dc fca7 fe03 fdf9 fd4c 01a6 fff9 fff1 003c
ffb5 ffec 010a fc3b fe26 fdc8 fd18 fc1b 00c4 fff8 0038 0035 0104 fc07 fc4d ffd6 002e 012e 0116 00f9 0054 00bc 01df 01cc 021c 01fa 020b 01b5 01c8 00dd fff1 005b 00a4 fc4c fc0d 00d0 ffd7 0007 0047 0010 0109 0250 ffaf fde3 fd52 fc38 00f3 001b ffba ffdd ffe2 0117 0217 02cb fd46 0201 0028 ffde 002c 0029 0014 0022 00cb 01c5 0110 006b 002a 010c fc25 fd0b fc2c 00bf 0038 0101 0111 00b0 00de 00e2 00ff 0029 0021 0029 ffd2 00ca 01b6 0114 0023 001b 0026 ffcc 00cc 00ea 0223 02f2 0205 01fb 00a8 ffe8
0020 001f ffc5 01d4 01d9 00e1 0131 010e 002b ffbf ffd3 ffd9 fff1 0132 0110 0059 ffc6 00cb 01bd 01f4 0116 0123 fc17 fd13 fd28 fd26 fd2d fd2f fd0d fc7a 00ba ffdb fff5 0127 0113 0013 0025 ffcd ffdc ffd8 0137 fc29 fda8 fd53 0188 00e1 ffed 0029 0021 0021 ffbe 00e1 fc4e fd31 fe11 fcd9 ff44 002a ffff ffd5 0025 0022 0113 fc22 fc6a ff80 0022 0033 0116 0106 011b 00cb 01cc 01b7 0201 017e 018f 01c2 01d9 00cf ffcc 002c 000f 0115 fc17 fc1c 00bc fff3 0033 001f 011d 01af 0296 fe06 fe04 fd01 fce4 00e1
00e8 020f 0212 0302 fc2b 00c9 ffc8 ffe6 0035 002a 0012 0020 00c6 01bf 01b1 0106 0020 0111 fc16 fd08 fc38 00b4 013a 010d 010c 00ae 00da 00e5 010c 0118 0024 0028 ffce 00ca 01b6 01e5 00f9 0025 002a ffcc ffde 00e4 0132 0205 020a 021c 00d3 fff7 ffe7 0037 0029 0020 01be 02a9 01d3 00d5 0081 0025 001d ffcb ffce ffd9 fff2 012f 0114 0066 ffc2 00cd 01bf 01f7 00da 0132 fc1c fd0f fd2c fcb9 ffd5 fcb7 fd1b fc22 00f2 fffa ffdd 0038 0117 0102 0026 ffc6 ffdc ffdd 0129 fc56 fd2a fde8 fd81 01a6 00cd 0034
0068 fc3c fd15 fd16 fd1b 011e 003a ffe0 ffdf ffbf 0019 0017 0117 fc45 fd24 fc44 00d8 001c 0110 0109 020a 01cd 01c8 00ba 0019 0025 0081 0127 01be 01a2 009f 0014 0028 0123 fc29 fcff fcac 009e 000c 002d 002d 00c0 01c7 02af fd1c fd0f fc4b 00e3 ffd8 00d8 01bb 01fc 0305 fd00 fc85 00d3 ffdb ffd1 0022 0022 0022 0035 00c7 01be 01b0 0115 0032 011e fc2a fd1e fc30 00d2 00fc 0118 0121 00b4 0053 00cd 00fa 0118 001a 002e ffdb ffd6 00a8 0201 01ee 0109 0038 ffdc ffda 00ca 011e 0119 01fa 021f 01c5 00de
001e 00fe 01f4 01e9 00f3 fffa fff9 0009 0009 000c fffa fff7 fff8 00f0 00f5 00f1 0003 004d 0140 01df 02b1 fccc fd24 fc2a 010b 000d 0027 ff92 fc80 fd02 fd02 00bd fff6 fff7 00f4 00f5 00dc 000b fffd fffa ffe1 0132 fc29 fd26 fd2b 01f8 00ee 000b 0020 00f1 fc48 fd1a fcfb fd44 01fa ffbc 001c 001d fff6 ffea ffea ffee 00fc fc64 fd3b fc3f 00aa fff1 00f1 00ff 01f9 01f0 01da 00d5 ffe7 000c 0015 0103 01e9 01e2 00e4 ffe8 000c 0012 013d fc38 fcff fc70 00c0 000b 0014 00f5 01d2 01e4 02b2 fd15 fd34 fc48
01dd 01e9 01bd fb3d 0118 000c ffff ffec fff1 fffc 000d 0012 00ff 01ec 01ec 00ec 0001 0063 ff5d fc91 fcc6 fe9b 019b 00f5 0008 0006 0006 003d 00eb 00e4 00cf 000b 0010 0000 fff7 00f6 01eb 00fe 0007 000e 0003 ffe1 00e7 00f0 00e9 00ee 01e9 01e8 00f8 ffd8 00e2 01bf 02ee 01e2 0011 0027 ffce ffe7 ffe5 003e 0026 001a 000b 00b1 00d8 00da 0048 001d 0114 01e6 02a3 fd33 fd2c fc7b 010d 0010 ffcb 00d8 fc37 fd34 fc31 011f 000e ffc6 ffd7 00e9 00e0 0120 001e 0018 ffc3 00e4 fc79 fd27 fd35 fd2e 01fd 0088
fd21 fd43 fc2b 01f2 ffc6 ffe7 ffe1 003d 0018 0013 ffdd ffd3 00d7 fc44 fd2e fc28 0107 ffc8 0032 00ea 01c0 02b9 016c 0082 ffbb fff7 fffa 0118 0200 0204 01c5 007e ffea ffe5 0042 0110 fc24 fc1f 00c9 fff6 ffeb 0043 0112 020b 01d4 01fd fc1d fe2a fe09 02f7 0228 01a0 fc4f fc83 00c2 0032 0024 0018 ffcf ffd7 ffee ffe2 00d2 01be 021c 00cd ffdb ffe3 0115 fc3c fd25 fd36 0194 00c8 00bc 01fc 012d 004b 00f8 00be 00dc ffd7 0036 0021 001f 00c0 01ae 01cb 00bd 0037 001f 001b 00ae 00d1 00f4 00ce 0116 0213
0141 0222 0223 0031 0031 0021 ffd5 ffdf ffdd 0037 002b 0024 0014 00b8 00db 00de 003a 0020 0118 01e5 02d2 fd1b fc84 ff12 0091 0015 ffdc 009d fc3b fd2c fcd9 fdb9 00bd ffd1 ffd7 fff2 00e0 0133 0023 001d ffd7 ffbb 00f0 fc3a fd2e fc32 020b 01ad fd23 fd3a fd24 fc31 01e5 00e5 ffd1 ffdd ffd7 0036 0021 001c ffe5 ffdb 0080 fdcd fcd9 fc2e 012a 0073 0166 02c8 02b4 0305 0116 0019 00ef fc11 fcc5 0006 0140 020e 021b 00d3 ffe0 ffdd 003b 00f6 fceb fcf0 fc34 00be ffe2 003b 011f 0211 01f4 01a5 02f5 fdf8
0292 fedc fb98 00bb ffa4 0042 0024 0017 ffce ffd8 fff0 ffe2 0030 011b 021c 01ca 00d7 ffdd 0133 fc2f fd1d fd21 027e 01aa 01ae 0212 0200 020e 0217 00e9 00e0 0083 0034 001f 0020 ffe8 00d4 01cb 01a5 0126 0027 0027 ffca 00d1 00ee 00d5 002c 0118 030b 02b1 02b1 01bb 0042 001e 0028 0020 ffd8 ffdc ffdd 0038 002d 0025 0015 0063 00df 00cf 0040 009d feeb fedb ff0b ff01 fd23 0116 0014 010a 00af 000c 00b4 fc45 fd2d fc31 010f ffcf ffd9 ffef 00b6 0133 0110 0023 ffd1 ffe7 00bd fc56 fd27 fd32 fcfb fe45
fc1c 0134 0129 002e fff6 ffdf ffb8 0020 0018 0036 fff2 ffed ffd2 00d8 fc1e fd18 fd3b 02c0 01be 02d2 02b8 0305 019b fe71 fce0 fd1a fd06 fd3f fd30 0256 0220 01a2 009a ffcb 001f fffc 0126 fc35 fd2d fc42 0089 0026 0023 0128 01ef 01ca 01bb 02d4 fe0f fe27 fd29 fcaa 00a3 ffdb ffb5 001e 0023 003b ffe8 ffe5 ffda ffc2 0017 0110 021c 01bd 00ba ffca 01ba fd0a fe1c fe1b fe21 0299 01d0 020e 020a 0212 020b 02ba 02c7 02a8 0215 020a 01f1 00b9 ffeb 00cd 01ad 01f0 0108 0040 ffeb 00d3 00e0 00c1 0110 01eb
026b 007f fff5 ffd8 0002 fffd 0029 000a 0002 fff7 ffea fff7 0015 001f 0101 0100 01ed fc30 fd72 fe53 ff07 fef5 fe0d 0245 00e3 00dd 0100 0107 01f1 fc37 fd1a fcf2 fd55 00de 000b 0009 0005 00dd 00f0 00e4 0039 fff6 000d 00b6 fc2e fd26 fd57 fd21 fe10 fd1a 019e 00f7 fff8 0019 0033 000c ffed ffd2 0005 0001 0013 002d 0000 00ff fc0c fdfc fe75 02e8 01ed 02ff 02d1 02ca 02e1 fc53 fd30 fd13 fd05 fd05 fd09 fe14 ff12 ff0e fdff fd0d fcd4 fd0f 00a6 013a fc43 fcf9 fcbd 0074 fffc 00e0 01fa 01ff 01ef 02fc
fcbf feba 0096 0019 fff6 ffe2 fff2 ffe9 0025 000e 0007 000c ffd9 00bc 01a9 01fb 0101 010f 00d1 0101 fd46 ff37 0010 fe12 0315 01df 01df 01d8 01e2 02f5 02f3 02e6 0292 01df 01c8 01dc 01f5 01ff 01e5 01e2 00df ffe7 0026 001c 0107 00d5 00d0 00e5 01d8 0306 020d 0113 ffca ffe1 ffdf ffe1 0039 001d 0020 ffbc ffda ffdd fff4 0034 010e 0200 fd01 fd18 fd29 fe12 ff0a ff11 fe2d 0386 01b5 00e4 0134 0115 010a 0200 fd04 fe07 fd61 01fe 011c 00d0 0025 ffbb 00da 00de 0108 002b 000f 00f7 fc2a fd2d fd26 fd24
00a1 005c ffe3 0009 0031 001c 0021 ffcf ffe5 ffe3 0028 0023 0018 00f3 fdab ff0a fe07 02cf 01ba 00c9 020d 0394 fe10 fe1c fd31 fd23 fd14 fd13 fd16 fe11 ff06 ff07 ff0e ff0d feae fdbd fd20 fd43 fd2a fd2b fc18 0112 ffd2 ffe5 0108 020c 0207 011a 00cb fc26 fd27 fc38 012c 0012 0023 ffcc ffda ffe1 0033 0029 0014 0022 ffc8 ffd3 00b9 01f7 02f8 0212 00bf 01c7 fd1d fefe fffd feeb feed 029d 01c8 01c0 01e4 0203 02f5 030a 02ad 01cb 01b4 01fc 01fb 020c 0223 01c8 01c8 00c6 0031 0019 00f1 010c 00b9 00dd
0203 020c 00c9 ffe5 ffde ffde 0030 001f 0025 ffbf ffd3 ffd9 fff8 002b 01e0 fd07 fe08 fd1e fccc feed 0392 fe1f feff 0417 01e3 0123 0139 0116 0117 01ca fd1c fe0e fe29 fe26 fdb2 ff12 0162 00c7 0101 00b9 012c 0014 0022 ffce 00c6 fc29 fd28 fc28 011f 0115 00af 00da ffe2 0003 0029 0020 0025 ffd5 ffe0 ffde 0023 001f 001d 00fd 02b6 fe43 fef3 fd15 00f8 0009 01ef 03ec fe75 fe88 fdfe fd3a fd37 fe26 ff08 ff01 fefb ff11 ff11 ff16 ff0e fef6 ff04 feea fe0a fd2c fd19 fc37 00d2 ffde 0112 01ff 020c 021b
fc2d fd69 fc31 011a 0012 ffcf ffd9 ffe5 0031 0029 0014 0022 ffc7 ffd9 00cb 0300 02fb 0210 00bd 0156 fcd5 ff88 0000 ff00 fe75 015a 0226 0192 01e8 020e 020e 012a 00c6 00db 00d6 00ba 0026 00a7 01af 01c7 01c6 00d2 0036 0025 006a 01db 0188 0144 ffd0 0072 016e 021d 0172 0087 ffdd ffe0 002e 001e 0025 ffbe ffd7 ffdc fff5 0104 fcc2 fddf fe06 fd25 0105 0111 02f0 fe33 ff8d 01a6 034c 01b0 0104 01c6 fd2c fe01 fe06 fe16 fe25 fe24 fe0e fe38 fdf0 fe35 fd46 01c8 0115 0110 0020 ffce 00c4 fc28 fd26 fd1b
00cf 00d4 00c6 ffe4 000c 0020 0045 fff3 ffe0 ffb8 0003 0004 0022 012e 02cb fe11 fe11 fc1c 010e 001c 0290 0122 ff91 ff04 fed2 ff16 ff2f ff15 ff08 feff fe17 028a 01bf 0160 011e 011b 0165 0282 0018 fdc9 fd4b fc47 00c2 ffb4 0081 ff6a 00e2 0075 013e 006a ff37 fc65 fcc2 fde7 00ea fff1 ffe1 ffc5 000f 0020 002c 0040 fff0 ffe4 00a4 0206 02ef 02fd 00be 00b9 fd28 fff0 fff8 ff27 fdd9 fc50 0100 00ac 02d3 0303 02d3 01f9 00e1 00de 00b6 00f7 0103 0106 012d ffe9 00d3 01ab 0204 020f 0202 030c 02ba 02c5
ffec 00cf 0219 00f7 0009 0017 ffc0 fff2 fff1 0048 0022 0011 000c 00a6 fc43 fe1f fd39 01c8 000c 0098 0288 fe9e 0004 ff0a 04a7 0020 fed1 fe0a fe1a fe33 fe20 fd3d fcab fe70 fe2d fe47 fea6 fcd4 fdae fd16 01a9 00e1 fff3 0043 001b 0170 fc6e fd6f fc39 00d3 0076 0114 0105 009e ffc4 fff2 ffe6 0041 000f 000b ffd4 ffcd ffef 00c3 022a 02db fcf7 fd40 fc14 0134 0230 fe1d 0000 ffa7 00af 032d 01d9 0315 fe1f fdc8 fcf2 fce7 00c1 fff7 004e 0028 0015 0003 ffc5 00cc 01e4 fc66 fd35 fcff fd09 fe04 ff12 ff0d
010f 00ec fc14 fc36 0126 fff8 0031 0016 ffce ffd7 ffed ffe0 0035 0028 010d 01c1 02c8 01c6 020c 01bd fe7c ffaf ff00 fe1a fd42 fdfd fd14 0203 011f 0201 02cc 01bf 0130 00b3 00af 0076 0071 00e7 00cd 0128 00c5 01cb 01c5 01c4 01d3 01b7 030b 02fa 02fc 01b7 00e3 00d0 020f 01f1 0114 0029 ffd3 ffe3 ffe1 0036 002b 0021 0015 00e1 fc20 fd23 fd48 01fd 010c fff4 00ad 038a ff18 000b ffcc ff10 feaf fdae fddf fe0b 0207 0095 001d ffc5 ffce ffe4 ffd3 0040 002b 00c6 fb8d 01b0 00d6 012e 0119 020e fd06 fe04
00d6 0017 0104 00f2 ffc4 ffeb ffd7 0036 0021 001c ffe4 ffe0 0000 00d4 01fe 030a fd16 fd12 fd22 fc24 02ad fe3c fef2 0415 02a1 0284 02bf 0123 006e ffe5 fc57 fc2c 00d1 ffe1 0037 002d 0024 0013 ffce ffd3 00c7 fdc4 fccf fd3a fd10 fdb7 fe9d fefc fef4 fe58 fc4f 0192 fc24 fd18 fc52 00e8 0032 0015 ffcd ffd7 ffef ffe2 0036 001e 010d 00cd 01ce 01bb 020c 01ed 02ca fe27 ff0f fe1d fe24 fe1d fdda fed0 0191 0193 01cd 00d7 0039 0024 001f ffe7 ffe2 ffe8 ffd3 0059 020f 021c 01cc 01cb 01d3 01b6 030b 02fa
01b7 00c1 0129 01f7 0122 0032 ffcf ffe0 ffdd 0038 002d 0025 0024 004d fc46 fd30 fd26 020d 0103 00ea 00c9 03a4 ff2f fdfe fe1f ff1c ff14 fd21 00e3 0011 0134 0111 0016 ffcd ffd8 ffeb ffde 0039 0026 0022 ffc1 008b 00dc 0129 011a 01aa fedc fdc3 fe0f fd20 01f8 002e 0105 00f8 00b9 ffe9 ffd7 003b 001f 0022 ffdf ffdc fffd 00d3 020c 0213 01da fc22 fd0e fd04 fdbc fefc ff0e 03c8 02c2 01da 00e3 00bb 002d 0121 fc17 fc2d 00cd ffdd 0038 002d 0024 0013 ffd1 ffe5 0076 fc50 fd27 fd17 fd15 fd2c fe0f fef7
fd0b fc86 0178 fc38 fc3c 00c6 003b 0016 ffce ffd8 ffeb ffde 003a 003c 010d 00bc 00c8 00b9 020e 0201 0300 fdbc fe96 fd45 02e2 fd4d fe13 fd1a 00dd ffdb 00cc 00c5 003b 001f 0022 ffe0 ffdd ffe5 0086 01d3 0207 021e 01c9 01c7 01d4 01b7 02ac 02f4 030b 02b6 01cf 00cf 00af 0180 020f 011f ffcf ffdf ffdd 0037 002e 0025 002c 0041 fc4a fd2f fc32 020d 0107 00e7 01a2 03b2 ff0a fe14 fdb3 fdba 02b8 01dd 00db ffe6 0130 0111 0017 ffce ffd8 ffeb ffde 0039 0026 0025 ffe2 00dc 00dc 0130 0118 012b 0182 fd53
01e1 0103 003f 0119 00e5 fff2 ffb3 0017 0023 004b 0006 fffc fff8 00c4 0210 0206 0121 0139 fc20 fd0c fd05 fea1 00d9 0397 00c2 00c3 00ca 00ef 000f 002c 0134 fb50 00c8 ffb9 0013 000a 0026 003a 00aa fd3b fced fcfe fd26 fd39 fd3a fd4a fd8e fe6c ff02 fefc fe11 fc54 0138 fe7a fc8d fc05 0127 003c fff6 ffe5 ffd1 ffba 0012 003c 0132 00e4 00e5 009f 01e5 01f1 02ff fd24 fe1f fd4f 02e6 00d2 fe9c feee fd1d 00f6 00a9 0074 0017 0023 004b 0006 fffd ffe3 00ae 0210 020d 021e 018e 0185 01cd 01b5 0223 02ef
0203 0114 ffb5 00d7 01d1 01a7 011f 0012 0017 ffa6 ffd4 ffe6 0018 00ca fc35 fd01 fc31 00bb 00da 0118 0215 03f1 febb fe50 fc94 0232 0202 0206 0107 0012 ffb8 00d3 fff8 004c 001b 0007 0015 ffb4 ffeb 00a2 012c 0116 0110 00bf 00c7 00e3 00ff 003a fd81 fded fd8c 01a9 fff1 008b 012b 0113 0017 ffba ffea ffe7 002b 003a 002c 012e 01ae 01ca 00cc 00fe fcc7 fd06 fd4d fe85 039a 02ae 01d7 fe86 fdb8 fe07 fd96 00cb 0075 fc91 00d1 0019 ffa8 ffd6 ffe5 fff7 0133 fc1e fd09 fd06 fcec fe58 fd1e fd35 fd1a fe03
fe11 fc2f 0123 011d fc1a fcff fca0 00aa 0033 002e 001d 002a ffc1 ffef 00d3 0129 010e 0028 00ae 01a9 02a2 fd40 fe21 fe68 0271 0298 fdac fe95 fdf2 01d8 001a 002c ffc8 ffd8 ffd5 0019 0020 0107 0194 0046 ffe4 ffe8 0048 0123 0205 014e 0034 016a 02ae 030d 02e2 0124 ffd5 fffa 00e8 01bc 0104 0015 0025 ffca ffd7 ffdf fff8 00b0 fc46 fd18 fc58 00cc 00c2 0110 0244 02b0 fe51 fedd fd03 017c 0237 02e9 02cb 0114 ffdc 0099 ffe0 002d 002b 001a 0023 ffcf ffe2 00e1 011d 010f 010e 0088 00c8 00e6 00c4 0236
fd21 01c6 ffe6 0003 0129 010e 00f6 ffe4 ffde fff0 000d 0024 0022 0129 01ce 01cb 00d7 0022 0109 fccd fdee ff04 03c8 0282 fc94 fd64 fd8c 004f fd78 fca4 00b6 0036 0021 0025 ffca ffd7 ffd7 00f1 fc1d fe89 00b7 ffa6 ffa3 00e1 fc46 fc49 00aa 0103 fe54 ff02 fe16 fc36 0112 003d 007b fc39 fc19 011a 0024 0027 0013 0020 ffcf fff9 00e3 011f 0107 0025 009f 0198 021d fd1c ff0b ffd5 fef7 00cf ffe8 fc5e fe54 fd48 0116 0023 ffe2 ffdf fff1 000e 0024 001f 0029 ffce ffe0 ffe8 0034 002b 00f5 020b 00d4 ffec
02f8 0122 ffcd ffdf 00c7 01b4 0200 0100 0024 ffbd ffd7 ffd9 fff4 011d fc2e fd18 fc24 00dd ffd9 00f5 0227 fe43 ff06 fe2a 0310 00d0 0225 0284 02f5 0243 0018 ffda ffe2 0033 0027 0013 0020 ffc8 00c5 0061 0027 002e 0030 ffcf 00d0 00d9 000c 0165 fd17 fe04 fd19 01bf ffe5 0009 0047 010d 0113 ffc1 ffe1 ffdf 0025 007b 0172 0219 01b8 01c3 00cd 003a 00ce fd39 fd5f 01b7 03f6 fe21 fd40 011a 0033 00d4 018f fc3c 00aa 0033 001d 0024 ffbc ffd7 ffd8 fffa 0019 0026 0027 ffcb fff3 ffb6 0139 fc48 fc38 018a
fde2 fc2b 011a 0018 0113 fc19 fd1a fc52 011e 0023 0015 0021 ffcd ffdf 00de 0126 010f 001d 00c2 01c2 00d8 0185 fe1f ff0c fc39 00ce 0199 fd6e fe57 fd5e ff9f 0073 ffd0 ffe1 ffdf 0025 001a 0015 0028 00c9 01c8 01b5 0204 015f 0145 0212 01c5 00df 00d9 0218 02f7 0120 ffd1 ffe2 ffd1 00c1 020c 0115 002f ffc2 ffd3 0033 ff2b fc93 fd43 fd3a fc1f 00d3 ffeb 00e7 01ee fd82 ff1a ff17 029a fff4 003c 0117 020a 030b 00d1 ffdc ffe2 0033 0029 0014 0021 ffcc ffe0 ffe0 0027 0022 001f ffd5 ffd3 00d2 00e2 00a1
fd60 01b3 ffe0 ffe5 0009 0110 0135 00d9 ffdd ffc1 0009 00fa 0205 0223 01c7 01c8 00fd 0059 0119 fc4f fd56 02ce 0409 fd13 01b3 0011 013b fc81 0182 fc7a 0111 0006 0022 0049 ffe3 fff7 ffd5 fff4 0006 011d fc4b fd30 fd3f fc4d 006c fc99 fd25 fc3c 01cc 02ca fd8b fc98 0115 0013 0045 0112 fc23 fc0f 00df 0017 0031 003d 0041 00db 00bd 0109 0116 002d 00c5 01d0 00be 030b fefd ff20 fc71 0162 004a 00d8 fd1d fe19 fc3c 0149 fff4 ffde ffb9 0003 0002 00dd 01f4 01c8 01ca 019f 01ed 020d 0201 0217 01bd 0123
01b9 00db 002c 0035 0011 00fe 0196 0190 00a4 005f 0000 0116 fc26 fcff fd2b fd42 fc80 ffd2 002e 00df 01ac fd2d feff ff01 0213 001d ffc6 01c0 0223 02ac 0136 0018 0018 ffb9 ffeb fff9 ffee 0037 0014 0018 00a5 00dc 00d1 0139 006e 00fc 0109 00a0 0125 fc45 fda0 ffa2 0071 fffe ffbd ffe4 00c7 013b 0012 000e 00d6 01b4 01f9 01cf 020c 01f5 01e5 00bf 0125 fc3f fcbd 038f ff0f feaa 0200 006f fd79 009c 0222 fc2a 01b5 ffc6 ffee ffea 004a 0022 000f 00d4 fcf1 fcf8 fd38 fd1a fdac fced fd0d fcfb fd52 fc94
02b2 fbe7 00b7 ffea ffd7 0114 fc83 fcec fd73 0040 00d4 01a3 02fd 02f9 030f 029f 02c2 01ee 020e 0182 008d 02e8 fdff fe17 fc9e 016f 0038 013c fd1d fe23 fc42 008e 0044 001d 001b ffeb 00d4 01c3 018a 00f7 0021 0029 ffc9 ffea 00e5 0142 0186 0209 0113 00c5 00d8 0052 0038 001d 0025 0023 00ce 01c0 00d7 003e 0130 fc34 fd12 fd19 fd19 fd2a fd35 fc26 0104 00f1 0145 ff2f ff8c ffb0 ff4b 00a9 0068 ffd8 00d8 02b0 021c 0112 0017 ffce ffd7 ffef ffe2 0034 00e3 010e 00bf 00db 00be 012f 0118 010f 0109 00d5
fcca fee2 00bf 0009 ffd4 ffe1 00c4 012e 00be 0066 01f9 fe77 fef2 fe1c fdc4 fec7 ff10 fe46 fd5e fcb5 fe94 0285 fe3e 03d0 0240 fd7e 00c8 ff6f 021f fc2c 01d0 ffec ffde ffde 003a 0021 0122 fc16 fd05 fcea 009e 0038 0022 0034 006c fbaf ffb7 fc8f fd23 02d4 0209 00d0 ffc9 ffea ffdd 0035 0114 fc4c fd0b 024e 01cd 02b0 030b 02f9 030a 02bb 02c5 02b5 020d 01fd 018d 02c6 fe10 fe99 fd4b 017c 0185 0217 02d6 fd27 fd22 fc25 0126 0024 0020 fff0 00e1 0134 002c 0037 0021 0020 ffcb ffd2 00cf 01a7 020c 020b
00ea 007d 0033 001c 0024 0022 00d2 01c8 0145 00e5 0002 fd6b fdf9 fd13 0272 feb7 fdc4 fdb4 009b 011f 006c 018b ff0d ff18 fd2b 018f ffd4 ffeb 00d6 02b5 0215 010f 0020 ffd3 ffd7 fff1 ffe2 0133 010e 00e7 ffd3 ffdc ffde 0032 003c 010f 008b 00b5 020a fc37 fd0b fcaf 00fd 0007 ffd4 ffe2 ffdc 013a 0194 fe20 feed ff11 fe15 fd29 fd2d fe2a ff12 ff10 fe0d fd1c fc99 00b7 fe56 0492 fff3 0259 ff60 fc96 fd32 fd10 020e 00c0 ffda ffd3 0030 0045 00be fbc4 fef5 003f ffdb 0038 0024 001b 00d5 fc70 fd0c fd2e
02e2 00da ffd2 ffed ffdd 003b 0122 fd18 fe9d 0058 027e 02ae 0301 02f8 0213 0264 02c1 02a1 024d 01fa 0205 0302 fe23 fef3 fe0d 020a 010a 010b 030c fd1b fd1a fc43 0114 000a 0026 00d4 01cd 00da ffcb 0038 0027 0026 ffcb ffd2 ffe3 00bb 0128 0122 0204 02af 01dc 00cb 0034 002e 001e 0022 0006 010d 01bf 02dc fd32 fe14 fd1e 01b2 00e5 01c4 fd3d fe18 fd0c 01f3 00be 017c ff61 fed1 febe fcd2 fe3e 01b7 00b7 01cb 020c 0205 011a ffd9 fff2 ffe2 fff1 0127 0084 0027 ffbf ffdf ffdc 0036 002c 00fa 0103 00bf
fd14 fc22 013a 001b fff9 ffea ff9e 020c fd15 fe92 ff1f ff08 fe1f fd08 fcfa fd41 fe19 ff1e fef8 fe21 fd0d fd09 fdae 047b fe12 03ab fd0e 03e9 fe0b fe96 0307 0137 ffd6 ffc9 001d 0105 fc51 fc42 010e ffd7 ffbc fff6 002a 0041 000e 0127 fb36 0177 fd30 ff2e fe1e 025c 005d fff1 ffbc 009e 01de 01cc fe4b fe4e 02ed 0120 0111 0028 004c ffe1 00db 00bb 0174 016b 0205 028a 016d fe85 fe10 0357 013d 0117 01e1 0204 fc25 fd0c fc0d 0112 0067 011f 00d3 ffd4 ffac 0099 00af 0051 ffee 001a 0007 00c9 010f 000c
02fc 0214 ffd4 ffd0 ffeb fff1 0030 0110 0307 02cc fd17 fe14 fd24 0224 0114 00ff 01d8 fd1d fe2b fd2e 0211 0147 02ed 0055 fee2 fd7c fe2d fd31 fe31 fe8e 00a7 001d 019b 005b ffde 000f 010a 00b5 ffe4 ffea 0043 0015 0012 ffbb ffd0 ffe0 00f6 0041 0209 fd08 fe05 fccc fe60 0031 0055 00a7 fe29 fcd9 fe1a ff0e fe75 012e 012b 000a ffbe ffd9 00e6 01d9 0266 0108 fd68 fd12 fd87 fd25 03c8 fd94 0084 0319 fe16 fe2d 03b3 02ee 02fe 011a ffe6 ffe3 fb8f 0114 003e 00a2 fd66 002e ffe8 0039 ff05 0170 fb18 0105
ff01 fe0a 02e3 0119 0029 00c8 01bf 02da fdff fd13 01e3 011b 00b5 ffd5 ffd5 0032 001a 0112 00bc 00c5 00a3 0200 0107 feef ff57 024e 0233 01e9 02aa 02a2 fcd2 fd83 fc37 0065 00f8 01fb 0114 0025 0116 00cc ffe6 ffed 0030 002c 0116 020d 00c2 ffdb ffd4 0219 02f0 0301 01bc 006a ffec ffe1 00c6 01ff 02f9 0369 fdfa fd56 fcb8 00fe 0027 002a 0080 fcf8 fcfd fd8f fd29 021c 01ce 02ff 0272 fdd5 fda5 fd2e fe19 fe3a fe34 ff03 ff0f fd17 0111 0044 0107 ffc4 ffdb ffdf 00b2 0028 0024 ffcc 0013 ffda 00e6 002a
fe04 fe15 fd2d fc26 0126 0115 fc20 fd10 fe1e fe50 02d3 01dc 00e9 0029 ffce ffdf ffe3 0117 0208 0203 02d8 fece fe9e fe7b ff35 ff46 fe6f 0306 fe0d ff20 0380 02fd 02f7 0144 00a4 fc22 fc27 00cd 012a fb73 00d4 ffc7 0001 ffc4 012a fc2e fc2b 0120 00d9 02c1 fe0f ff29 fe6f 00e5 0269 019b 01f0 0278 fda4 fd10 fd9d 01f3 009d ffdf ffe0 0028 0025 00e7 00bc 00d1 00e6 ffd3 0227 fe06 fea8 00f3 0349 02b0 01de 0146 0143 fd2e fe00 fd31 01b6 0133 004d 0020 005b 0001 ffe2 ffe1 0023 001e 0009 0114 0109 0035
020a 0301 02b4 02d1 01b7 00e8 0148 0105 0218 037b fd2c fcff fce8 00f9 0024 0026 ffc1 00cc fc56 fd25 fd30 fde1 fe85 02df 0292 fe3b fe0f fd50 fe0f fdc7 fe16 ff05 ff04 fd1f 00fd 010a 010e ffd0 ffdb 00d3 0036 0025 001c ffd2 ffd6 00d9 00e6 002b 011c fc1f fe0b fe0b fe11 fdc3 fd18 fd3f fd1c fd2a fd25 026a 02fb 01fa 0111 002e ffd3 ffdd ffd7 0024 011c 01fc 022f 019b 02c8 ff21 fffb ff99 ff28 ff14 fd3f 00e9 ffff 020f 02ec 0211 00ad fb7f 0002 fff5 0063 ff18 0063 ffc0 ffec 0001 000b 010f fbb7 ff9e
0254 fe1c ff06 ff11 ff04 fe9b 01bd 0148 00e5 fc35 fd36 01ca 00ad ffe0 ffd6 001d 0023 0029 00ba 00d7 00d0 00ff 01c6 fd5e fece 00df 034f 02b3 01ed 0129 0207 fd29 fe17 fd17 01ab 010d 0026 0122 0124 ffcd fffe 00e5 01f8 0202 0102 0121 00ca ffe0 ffdd 0117 0100 010d 01e9 02c5 02cc 02c1 02f0 02ee 02fc 02bf fdf2 fddc fc2a 010a 0014 001b ffe9 fff1 00ea fc2c fd21 fd32 fe13 0000 ffa2 feb5 fe26 fe15 fd1b 011e 00b3 0286 fe51 fdd5 01de 00f3 003c fff1 ffee 0022 000d 0017 000d fff0 ffea ffe8 00ed 005f
fd0e fef5 fde5 fdff fe02 fe04 fd5c fc4e 00fc 01b9 02e5 01fe 0107 0010 000a ffec ffe1 ffff 0006 00b4 01ae 01d2 01fe 03e1 fef7 ffe9 fe49 fd75 fc75 00c4 ffd3 01ec 02eb 01f9 0136 fb46 00db 00a1 fb1b 0127 0057 0044 fc62 fd39 fc02 0203 fb30 0124 00e4 00e4 ffdb 0094 0218 fe24 ff03 ff39 fdf2 fd0c fd0e fd27 fde7 fe4e 0193 fff5 ffd7 fff9 0012 0025 0010 00fd 00ea 00c2 0208 fd19 feb2 0102 0339 01c4 00ea fffc 00eb fce9 fe05 fe0a fe02 01c8 0008 0030 0022 0000 00f0 01de 01fa 01f8 0118 0112 00e4 ffeb
00e2 00af 012a 0198 0272 0307 02b8 02bd 01ba 0315 fe2d fe02 fc0a 010f ffda ffea 0046 0000 0004 00a8 fdb5 fcdc fe2e ff08 0002 fef8 fd51 00b2 011c ffb3 003e 0204 fe07 fe13 01d9 00ed ffeb 004b 0110 0013 ffb7 000d 00d3 012d 0117 0016 00f7 ffb8 0115 fb3f 0119 0068 feee fd77 fe04 fdfd fd63 0214 0106 0104 01cc 0282 01d5 00d5 003a 0017 0013 ffc0 ffe2 ffe7 fff3 004a fff5 021c 0398 feb2 fe2d fc3c 0130 0001 0013 018d 02b5 01ef 0159 fb55 0117 ffdf ff84 001c 00d6 fc47 fd1b fd0b fc21 0194 fb53 015a
001d ffb7 00f0 01f4 00b8 fdc9 fd4f fd11 fd24 fd13 fe17 fd30 0223 0018 0027 ffc7 ffde ffe1 0038 001a 00bf 0123 0155 fd38 fe3c fe18 03ce 0254 00fb ffde ffc9 0134 fd27 ff02 fe29 01b0 0012 0005 fff1 012e 0208 011c ffcc 00cb 01af 01b9 0128 0027 0018 00be ffe6 ffe1 00a4 0115 010f 010c 00bf fff1 ffd9 0116 02f2 fd26 fd30 fc1d 00e5 ffdf 0036 0021 001c fff4 ffc7 000b 00aa 0309 fe18 ffff ff05 0296 ffec ffe1 0028 0200 fe58 fe14 01c5 00df ffe0 0044 0033 001a ffd4 00db 00dc 0130 0119 0026 010f 003b
00bb 0028 010d fc26 fd7e fd46 0111 015a 0109 0112 01c5 02b1 01c4 0159 00d2 0020 0021 ffcd ffd4 ffee ffd7 0028 0031 021a 02af 0379 fd71 fd1e fc2f 0124 0025 ffbf 01c1 02aa fd74 fc35 013d ff46 001a 0060 fc6c fc32 011c 0115 fc0d fd59 fc1b 00b6 0039 0028 0019 ffd8 00c9 01ca 01bc 012d 003b ffe6 ffa9 0107 fc4a fd1d 0220 0111 001b ffd0 ffdc ffde 0032 0025 0024 0019 00c3 fc29 fe14 fe1c fef2 fe83 02da 00ce ffd0 0114 fd2e ff09 fe10 01f2 00d1 00de ffd0 0122 0200 0116 ffcd 00c7 01cf 01b4 0121 0022
ffe3 ffdb 0035 0115 010f 0110 fff8 ffd9 ffdd 0129 02e7 fe45 fe28 fccb fdac 0085 0036 0021 001c ffea fff3 ffcf 0111 02ce fe22 ff1c ff0f 03a2 01e2 ffdc 0031 011a 0300 fd43 0368 0173 ffe1 0062 0022 0034 00b8 00d8 ffde 0031 0119 0101 0112 ffd6 ffeb ffa9 0032 001d 011a fc26 fd24 fc30 0086 0041 0028 0023 00cb 01c4 01cb 01a9 01b6 00b3 0028 ffdb ffd9 ffe9 ffce 0025 002e 0207 02d8 02cd 02cc fd1e fd2f fc33 012f ffd8 00e3 02b5 fddb fcf7 01d4 fb3f 00e3 00bd fc35 fc45 011b 0113 fc34 fd2d fc29 00b1
0029 ffe6 00cf 01ca 01b5 011b 000f 0033 ffe7 00bb fc35 fe0d fd13 020b 00ce ffdf ffdd ffd0 0025 0017 001f 002b 00ab fc38 fe18 fe0d fed0 fee5 fe1d 01da ffe4 00cc fc40 ff01 fe86 fee2 016a 00d2 ffd8 0134 020b 01bd 0165 01c3 01d4 0121 0084 0021 0026 0000 fff4 fff1 0008 00fd 00f9 00f7 0016 ffee fff4 00ec 01f5 0310 fd18 fd27 fcbc fddd 00c4 0003 0009 000c fffd fff0 00ed 028c fe57 ff0d fe0a 03c0 02b8 01c2 0000 000f 00f1 02b4 fe70 02a3 fff9 00fb 000b 000f 00e9 00e9 fff0 000d 00f1 00f9 00f3 000b
fff0 0005 0119 fc3f fd31 fc47 00c2 fffe 000c 001e 010e 00fc 01ea 01df 01e9 01f8 0105 0008 fff2 ffee ffe3 fff3 00d3 02b9 02d9 0228 0231 fde9 fdf9 fc34 00e3 0029 00e9 01d4 fcea fd6a 01d9 fb63 0124 0070 fc2b fcab ff03 fcec fd32 fca2 ff0c 003a ffef 000a 0019 001e 00f8 01ed 018b 009f 0000 001e 000b 00f1 fc24 fcfe fd25 01ea 0113 00a3 fff1 ffe4 0002 ffed 0006 001c 0101 fc4b fdf9 fe0e fe09 fe42 fe35 fcc8 00c9 fff1 00ef fd17 ffcb fd05 01d1 00cf 00d9 01e1 01f2 01ef 01e6 01e1 01e9 00ea fff6 0003
0015 0018 ffc1 00d6 00da 00d5 003e 0013 001b ffc0 00da 01cb 01e0 fc4b fd25 fd0f fc1d 00e2 000d 0011 0031 001b 01bc feee fe6e fd04 004c 0315 02ee 02df 00a2 ffe0 00d0 0214 02f9 01d5 0017 00bb ffe5 0002 0126 010f 00af 00b7 00d2 00d9 0051 0035 0018 001a ffc2 ffd1 00b4 fc62 fcdf fdbd 00c7 ffc6 ffeb ffe9 0121 0112 0114 012e 01b0 01ce 01c0 020f 0104 fffc 0018 00be 01d5 02b5 0308 01fd 0114 0199 fc1f 01ab ffe9 003a 0017 01f8 fcee fded 0147 fc10 01e7 fc6f fd00 fd0e fd21 fd30 fd35 fc32 010a 0020
ffe8 0023 010e 0206 0127 ffd2 ffdb ffe1 0039 002d 00dc fc3c fc20 01d2 00bf 012c 0110 001e ffc7 ffdb ffdc ffe2 012e fcf3 fdc1 ff07 01da fc80 fd28 fcfb fd0f 00d7 00e3 fd16 fefc fd1b 01eb 00e0 00f1 0193 01ca 01bd 020c 020e 01f3 0119 ffce ffe2 ffe2 0030 0021 0028 ffd6 00d1 00d9 0089 0031 001f 0025 ffc6 00d6 01b7 01a4 00ea fc69 fd24 fd0b fd3a fc21 0125 0024 0123 fd15 ff0e fe08 fc2f 0114 0124 02f3 021b 00d0 ffe8 00bd 01f5 02f5 01d0 0033 00a2 ffde 00cf 0126 0110 010f 00bb 00d1 00d9 ffea 0029
ffbe ffd0 0135 fc2c fc32 0105 002e ffce ffdc ffde 0031 011e 010c 0024 00cb 01c6 01b9 0208 020f 0202 021e 01c5 01cd 02b6 021c 00ae 001e 008a 009b 00e7 00b1 0038 0019 01f5 fd13 fd10 019b fbe9 01cd fd33 fce1 fd14 fd18 fd2a fd23 fc71 00f3 0029 ffc9 ffdc ffe1 0021 0111 0204 0121 ffcd ffdb ffe2 003c 0028 00f0 fc22 fc80 fed9 0167 011c 0110 0106 00b7 ffd1 ffdd ffe4 0230 fd13 fd20 01e9 ffa3 00f0 fc3a fd32 fc3d 0101 0093 fd8d feea fd19 0219 00d4 004a 00e1 01c8 01bc 020c 0205 0109 0032 ffc8 ffe3
002b 0027 ffbe 00c4 00d8 ffe3 0028 002c 002a 00cd 01c4 01c1 01ba 012f 012c fc2a fd0c fd2c fd27 fd2c fd23 fd2d fd8b fe8c fd27 00a0 0040 0122 020e 0221 01bb 00cd ffd4 011c 02fa 0237 0061 0097 ffdc 00a5 0132 0112 0113 00ae 00c8 00c8 fff9 0034 0037 0049 ffe0 fff6 00fa fc0e fc0b 0119 004a fff3 ffd9 ffad 0017 0104 0119 00a0 ffe4 ffe8 006c 01bf 0210 0211 0219 01b9 0134 0141 0123 001b 0051 fff1 00e7 00d6 00b5 0007 002c 020b fd27 fd36 01bf fb27 0112 00a9 fc5a fd3c fd16 fcfd fc4b 00ab 003b 004a
ffbe 00f8 0213 020c 012e ffec ffe6 ff9f 001d 00fc fc50 fd33 fd47 fc32 0064 011a 0111 0133 00d4 00ea 00d0 00ca 0186 ffb3 fcab 011d ffd4 00ac fc4c fd02 fd1e fc79 00e6 00fb fd12 fd62 00cd 0107 0033 00c7 01c3 01b6 0210 0212 012d 0045 ffe8 ffdb ffc6 ffcb ffea ffe6 0025 0125 0110 0015 ffb3 0039 0122 0220 01ff 0203 01f6 00b6 0028 ffc5 00e4 fdb6 fcb4 fd05 fd0a fd23 fd5b 0035 0116 0031 ffb8 ffda 00e1 01c8 021d 0108 0027 00c1 02c7 02c7 00de 0139 0013 002e 00a7 00dd 00dc 0134 010f 0026 fffb ffb3
0047 0117 fc07 fd08 fc27 00ec ffe4 004e 0012 0014 00ce 00c9 00dd 00dc 0054 0011 001c 0094 01b1 01ca 00d7 0025 0009 008d 00ba ffe6 fff1 0034 011b 0110 0114 00ad fff0 fff2 01f0 fc82 011c fca4 005f 0136 fc3e fd3d fd15 fd06 fc20 0095 0000 ffe1 004b 0026 0081 0141 01c5 01ca 0123 0095 0027 0071 ff3c fc88 fd1e fd27 fd2d fc3e 00f9 ffd6 ffe3 008a 0130 0118 0119 00fc 0111 ff34 fbd0 00ed 002f 0016 0114 fc18 fd0f fc50 00f0 0107 fd24 ff02 fd2a 00d0 fff7 00f0 01e1 0222 01c8 00e2 ffe7 ffed 003a 0029
