0000 0000 0000 0000 0000 0000 0000 0000 0000 0000 0000 0000 0000 0000 0000 0000 0000 0000 0000 0000 0000 0000 0000 0000
0000 0000 0000 0000 0000 0000 0000 0000 0000 0000 0000 0000 0000 0000 0000 0000 0000 0000 0000 0000 0000 0000 0000 0000
0000 0000 0000 0000 0000 0000 0000 0000 0000 0000 0000 0000 0000 0000 0000 0000 0000 0000 0000 0000 0000 0000 0000 0000
0000 0000 0000 3dcd 1de4 0583 10bd 369b 0000 0000 0000 0120 0000 0000 0000 0000 0000 0000 0000 0000 0000 0000 0000 0000
0000 0000 3c3e 0000 0000 1e60 3362 0000 0000 0000 0000 0000 0000 0000 0000 0000 0000 08c9 371b 0000 0000 01a0 0000 0000
0000 0000 0000 331f 0000 0000 0000 3943 03cd 0000 3f6c 3285 30d4 2b30 323f 31e7 3447 0000 22a0 0000 0000 0940 0000 0000
0000 0000 0eed 355b 02a3 0000 3848 2841 0000 0000 33f3 1da1 213b 14db 27d5 0000 0000 0000 0000 067b 1145 0fd4 0000 0000
0000 0000 3fe2 0000 2055 363d 1eb8 1af7 2137 0000 0000 0000 01a2 031f 0000 1726 0000 0000 0000 0000 0000 0eda 0000 0000
0000 0000 20c0 2252 2df7 0000 0000 0000 0f9b 2b3b 0000 0000 0000 0000 2dd1 0000 0000 1944 0000 0000 1d43 06a0 0000 0000
0000 0000 04b6 0220 0000 0000 0000 0000 0000 0000 0000 2709 39de 0ef0 25d1 2fa2 0069 0000 1854 068e 0000 0000 0000 0000
0000 0000 0000 0000 0000 0000 0000 0132 0325 0000 0000 0000 0000 0841 0000 2a50 1bbf 0000 0000 0000 0000 0000 0000 0000
0000 0000 0000 0000 0000 0000 0000 0000 0000 0000 0000 0000 0000 01c0 2778 2077 0000 0a45 31d2 3d13 0000 0000 0000 0000
0000 0000 0000 0000 0000 0000 0000 0000 0000 0000 0000 0000 3797 1133 0000 0000 1601 0000 0000 0000 0000 0000 0000 0000
0000 0000 0000 0000 0000 0000 0000 0000 0000 0000 0000 0000 13e3 33e4 297d 0000 0000 1377 2ba6 0000 0000 0000 0000 0000
0000 0000 0000 0000 0000 0000 0000 0000 0000 0000 0000 1c3e 0000 0000 0000 0000 3e4d 0000 0000 0000 0000 0000 0000 0000
0000 0000 0000 0000 0000 0000 0000 0000 0000 0000 3938 0000 188e 093b 0000 0000 0b8a 38ff 0000 0000 0000 0000 0000 0000
0000 0000 0000 0000 0000 0000 0000 0000 0000 0000 0000 0000 0000 0000 16c0 0000 0000 0000 0000 0000 0000 0000 0000 0000
0000 0000 0000 0000 0000 0000 0000 0000 0000 18c1 0000 0000 0000 2648 0426 0a31 3799 0000 0000 0000 0000 0000 0000 0000
0000 0000 0000 0000 0000 0000 0000 0000 3b5c 0000 23d8 2ce9 2650 1eaf 3cfd 3abe 0000 0000 0000 0000 0000 0000 0000 0000
0000 0000 0000 0000 0000 0000 0000 0000 0000 033a 0000 0000 2725 0000 0000 3658 0000 0000 0000 0000 0000 0000 0000 0000
0000 0000 0000 0000 0000 0000 0000 2132 0000 166a 02fe 0000 3778 0000 33d1 0000 0000 0000 0000 0000 0000 0000 0000 0000
0000 0000 0000 0000 0000 0000 0000 082c 14a1 0000 31a7 0000 1371 0000 0000 0000 0000 0000 0000 0000 0000 0000 0000 0000
0000 0000 0000 0000 0000 0000 0000 2778 0000 339c 0000 0000 144e 0000 0000 0000 0000 0000 0000 0000 0000 0000 0000 0000
0000 0000 0000 0000 0000 0000 0000 3026 0000 0000 0000 0000 0000 0000 0000 0000 0000 0000 0000 0000 0000 0000 0000 0000
