f0e1 f0e5 f24b f247 f1b3 f0e4 f0e5 f259 f247 f0e6 f0e5 f22c f247 f264 f0e5 f0e2 f247 f257 f101 f0e5 f177 f247 f268 f0e5 f0e4 f246 f257 f0f1 f0e5 f18b f245 f247 f106 f0e5 f23c f247 f12d f0e5 f0ff f247 f244 f0e5 f105 f228 f247 f1c4 f0e4 f0d7 f258 f246 f0e1 f0e5 f24b f247 f1b3 f0e4 f0e5 f259 f247 f0e6 f0e5 f22c f247 f264 f0e5 f0e2 f247 f257 f101 f0e5 f177 f247 f268 f0e5 f0e4 f246 f257 f0f1 f0e5 f18b f245 f247 f106 f0e5 f23c f247 f12d f0e5 f0ff f247 f244 f0e5 f105 f228 f247 f1c4 f0e4 f0d6
f111 f10e f23c f22d f19f f10c f10e f232 f22d f118 f10e f22c f22d f232 f10e f109 f22d f22f f115 f10e f195 f22d f245 f10e f10e f224 f22d f110 f10e f1ac f234 f22d f114 f10e f20c f22d f11e f10e f120 f22d f227 f10e f116 f225 f22d f1b6 f10e f108 f230 f22a f111 f10e f23c f22d f19f f10c f10e f232 f22d f118 f10e f22c f22d f232 f10e f109 f22d f22f f115 f10e f195 f22d f245 f10e f10e f224 f22d f110 f10e f1ac f234 f22d f114 f10e f20c f22d f11e f10e f120 f22d f227 f10e f116 f225 f22d f1b6 f10e f105
f186 f191 f18a f1aa f19f f18b f191 f1b1 f1aa f179 f191 f169 f1aa f13b f191 f16c f1aa f1b0 f17e f191 f1cf f1aa f176 f191 f190 f1a0 f1aa f1c2 f191 f19c f1b4 f1aa f166 f191 f1ae f1aa f1f0 f191 f223 f1aa f1c6 f191 f169 f1bd f1aa f16d f191 f1c8 f1ae f198 f186 f191 f18a f1aa f19f f18b f191 f1b1 f1aa f179 f191 f169 f1aa f13b f191 f16c f1aa f1b0 f17e f191 f1cf f1aa f176 f191 f190 f1a0 f1aa f1c2 f191 f19c f1b4 f1aa f166 f191 f1ae f1aa f1f0 f191 f223 f1aa f1c6 f191 f169 f1bd f1aa f16d f191 f1c5
f21b f22d f100 f10e f177 f228 f22d f132 f10e f23d f22d f12d f10e f10d f22d f236 f10e f131 f21e f22d f196 f10e f0f2 f22d f22a f108 f10f f240 f22d f1c5 f110 f10e f1eb f22d f11d f10e f22c f22d f24b f10e f123 f22d f1ef f11c f10e f1a1 f22c f242 f112 f0fe f21b f22d f100 f10e f177 f228 f22d f132 f10e f237 f22b f10a f02c f037 f24d f321 f1cf f140 f221 f232 f196 f10e f0f2 f22d f22a f108 f10f f240 f22d f1c5 f110 f10e f1eb f22d f11d f10e f22c f22d f24b f10e f123 f22d f1ef f11c f10e f1a1 f22c f241
f1e0 f1f9 f12a f142 f1b7 f1f9 f1f9 f162 f142 f1eb f1f9 f11e f142 f140 f1f9 f1e9 f142 f160 f20b f1f9 f18a f142 f13d f1fa f1e7 f140 f144 f228 f1f9 f186 f13c f142 f1fa f1f9 f146 f142 f22c f1f9 f204 f142 f141 f1f9 f1ff f12e f142 f1a9 f1f7 f219 f145 f141 f1e0 f1f9 f12a f142 f1b7 f1f9 f1f9 f15f f0ba f0f9 f190 f0d5 ef6d ef82 f24a f3d0 f2b3 f16d f2f6 f2f9 f1a5 f14a f13b f1fa f1e7 f140 f144 f228 f1f9 f186 f13c f142 f1fa f1f9 f146 f142 f22c f1f9 f204 f142 f141 f1f9 f1ff f12e f142 f1a9 f1f7 f219
f0bf f0c9 f284 f264 f1bb f0cd f0c8 f252 f264 f0c6 f0c8 f1ff f264 f246 f0c8 f0cb f264 f252 f0eb f0c8 f16a f263 f2a9 f0cb f0c8 f264 f273 f0e9 f0c8 f182 f25d f264 f0e9 f0c8 f294 f264 f110 f0c8 f0c4 f264 f28e f0c8 f0ed f240 f264 f1cb f0c8 f0c8 f273 f261 f0bf f0c9 f284 f263 f1ba f0cd f0cc f14f f053 ef06 f00e f230 f16c f3a7 fe78 00d3 fe6f f35a f2ed f318 f29c f35e f29d f0cb f0c8 f264 f273 f0e9 f0c8 f182 f25d f264 f0e9 f0c8 f294 f264 f110 f0c8 f0c4 f264 f28e f0c8 f0ed f240 f264 f1cb f0c8 f0c8
f0f5 f0f9 f24c f244 f1ae f0fd f0f7 f23e f244 f0e6 f0f7 f22c f244 f254 f0f7 f0f8 f244 f244 f109 f0f7 f182 f242 f264 f0fa f0fb f232 f240 f102 f0f7 f18d f245 f244 f10f f0f7 f239 f244 f121 f0f7 f0f0 f244 f23b f0f7 f114 f235 f244 f1b1 f0fb f0ec f240 f232 f0f5 f0f9 f24c f242 f1ac f0f6 f00b ef5e efc2 f133 f99c ffd9 fff1 0004 0008 fff5 ffeb ff0a fffa 00e8 f503 f59a f333 f0f4 f0fb f232 f240 f102 f0f7 f18d f245 f244 f10f f0f7 f239 f244 f121 f0f7 f0f0 f244 f23b f0f7 f114 f235 f244 f1b1 f0fb f0ec
f130 f13d f225 f20e f1b7 f12b f12d f1d3 f20e f12c f12d f22c f20e f20f f12d f126 f20e f1f8 f11e f12d f1c7 f20d f21a f13d f131 f206 f1fa f12c f12d f190 f217 f20e f130 f12d f23e f20e f121 f12d f127 f20e f247 f12d f133 f223 f20e f168 f132 f137 f1fb f20d f130 f13d f225 f20e f1b3 f02f ee5e f02c f1e2 01d4 0208 0009 ffca ffea 0019 ffa6 ffbe fe0a fe22 ff10 fff8 02d2 f45c f21e f16c f206 f1fa f12c f12d f190 f217 f20e f130 f12d f23e f20e f121 f12d f127 f20e f247 f12d f133 f223 f20e f168 f132 f137
f23c f23d f0fb f10d f198 f235 f23d f134 f10d f24c f23d f13c f10d f11c f23d f241 f10d f153 f226 f23e f1ac f10c f0f2 f23d f23c f106 f0ee f264 f23d f194 f112 f10d f1ec f23d f10a f10d f211 f23d f21f f10d f113 f23d f1ed f120 f10d f16c f23d f27f f0f1 f10f f23c f23d f0fb f108 f093 ef51 f045 f3be 0154 ffda 0029 f1a6 f0d3 f111 f247 f2c9 f239 f0a8 f23d fe07 fd1e fff9 024b f4a6 f3b1 f115 f0ee f264 f23d f194 f112 f10d f1ec f23d f10a f10d f211 f23d f21f f10d f113 f23d f1ed f120 f10d f16c f23e f281
f1e2 f1f9 f124 f142 f1bb f1f3 f1f9 f167 f142 f1ec f1f9 f11e f142 f140 f1f9 f1e4 f13f f067 f10c f20c f1a7 f22a f21e f1fd f1eb f140 f144 f22a f1f9 f184 f140 f142 f1fa f1f9 f13c f142 f230 f1f9 f20a f142 f141 f1f9 f1fb f12f f135 f0cf f116 f206 f13c f12f f2d8 f2f9 f12b f035 eeb6 f012 f40a 031a 0030 ef01 f1c6 f103 f118 f19d f266 f301 f316 f24d f1ec f099 ee7c fd47 ffaa 02b3 f896 f249 f140 f22a f1f9 f184 f140 f142 f1fa f1f9 f13c f142 f230 f1f9 f20a f142 f141 f1f9 f1fb f130 f142 f1a7 f1f7 f219
f0c1 f0ca f275 f262 f1d7 f0c5 f0ca f286 f262 f0ca f0ca f1ff f262 f244 f0ca f0d8 f15e ef77 ef0e f10d f203 f407 f561 f1d7 f0d1 f25b f272 f0e6 f0ca f177 f25f f262 f0cb f0ca f26f f262 f13e f0ca f0d9 f262 f270 f0ce f0cf f1d4 f148 ef72 ef1b f0bb f25e f243 f2bd f2db f294 f04d ef17 f32b 033a 004e f161 f0c1 f1cf ffbe 0023 0031 ffd0 feef ffe8 f4c3 f1e9 f0cb f0c4 ef97 fca3 ffc8 02cc f615 f357 f0e6 f0ca f177 f25f f262 f0cb f0ca f26f f262 f13e f0ca f0d9 f262 f270 f0ca f0cd f23c f262 f1bf f0c9 f0c9
f0f6 f0fc f252 f23f f1a6 f0f4 f0fc f24a f23f f0fa f0fc f22c f23f f250 f0f8 f0e7 ef58 ee5b f152 011c ff1e ffe1 023f f425 f229 f21f f23f f0f8 f0fc f199 f23f f23f f115 f0fc f232 f23f f11e f0fc f0fa f23f f235 f103 f023 f067 f040 efc4 f0f1 fe45 004c ff01 002b 00f1 f28e f114 f195 03b3 013d f130 f237 f2c5 005a f29c f23f f24e f0fb f038 f054 ff83 f306 f204 f182 f147 ee79 fca3 fff4 02cf f4d9 f1da f0fa f199 f23f f23f f115 f0fc f232 f23f f11e f0fc f0fa f23f f235 f0fc f11a f229 f23f f1bc f0fc f0ed
f13e f140 f228 f1fb f186 f137 f140 f235 f1fb f12e f140 f20e f1fb f1ef f139 efdc ee3f ef98 02e0 0217 fe7c fc1e ff91 02dc f407 f272 f1fb f124 f140 f1d5 f1fc f1fb f12d f140 f227 f1fb f12d f140 f150 f1fb f22c f143 ee3e ee88 f10f f7d5 00f5 0158 0093 feb3 ff48 ffff ff1a ff14 001d 02bf f9d0 f204 f3e9 0040 f1b0 f20e f1fb f1ef f140 f129 f0ff ef2a 012b f3e8 f17b f1fa f11a ee73 fd39 fff8 03c6 f3d3 f13f f1d5 f1fc f1fb f12d f140 f227 f1fb f12d f140 f150 f1fb f22c f140 f130 f20b f1fb f1ae f140 f136
f22d f23e f0fe f0fd f194 f237 f23e f125 f0fd f22f f23e f11e f0fd f0fd f238 ef14 ed7a f60e 03ad 0107 f072 ee41 f9a7 fff9 0354 f3cc f190 f250 f23e f1a8 f0fd f0fd f23c f23e f0f9 f0fd f22c f23e f251 f0fd f0ff f152 ee5e ee34 00d1 02c7 01dc 00c1 0045 f604 fb16 ffe6 fdc8 fe13 ffc0 0012 f692 f3cc 018f f233 f23e f11e f0fd f0fd f23e f225 f100 ee6d f163 02a2 f1e8 f104 f0ed f144 ee67 fcd1 02b3 0345 f323 f1a8 f0fd f0fd f23c f23e f0f9 f0fd f22c f23e f251 f0fd f0ff f23e f23e f10c f0fd f181 f23e f262
f1e4 f1f9 f12a f142 f1b3 f1f5 f1f9 f165 f142 f1ee f1f9 f11e f142 f13e f1f1 ee29 ed52 03e0 03c9 f1b2 f2aa f056 ee4e fca7 00b3 03d9 f355 f226 f1f9 f18a f140 f142 f1f8 f1f9 f13e f142 f22c f1f9 f20c f143 f146 ef33 ee3c f109 02f0 02e8 007d f27a f181 f134 f1fb f1b6 f0d3 f173 fe0f fd22 ffd2 02ae f3e8 f300 f1f8 f11e f142 f13e f1f9 f1e5 f142 f07a ef39 002f f3ac f152 f138 f1f5 ef50 ed4e ffce 03c9 f525 f192 f140 f142 f1f8 f1f9 f13e f142 f22c f1f9 f20c f142 f143 f1f9 f1fb f12a f142 f1ad f1f9 f219
f0c2 f0ca f26b f262 f195 f0c9 f0ca f273 f262 f0cc f0ca f1f0 f262 f233 f0cc ed19 eea3 03cb 03da f103 f14a f25f f18b ed98 fd5f 026b fe57 f1e7 f0cb f1a6 f25e f262 f0cd f0ca f27d f262 f13c f0cb f0f5 f165 f18a ee14 ee20 02e3 03ab 00f9 f10a f0c9 f262 f260 f01f f0cd f313 f256 f02a eea0 fd8c 000e 01f6 f3a6 f1be f1f9 f262 f233 f0ca f0c8 f261 f26f ed3c f0eb 0288 f2da f288 f0c9 f00b ef47 fc1b 021d 03b4 f2aa f25e f262 f0cd f0ca f27d f262 f13c f0ca f0fa f262 f27d f0ca f0ce f23a f262 f1ee f0ca f0c9
f0f6 f0fc f256 f23f f1a2 f0fa f0fc f244 f23f f0fc f0fc f22c f23f f24e f10c ee08 ee57 02e4 03d1 f149 f185 f23f f264 eec0 ed2b ff2a 03ee f402 f0f0 f197 f23d f23f f11b f0fc f22e f23d f11b f04a effa f010 f050 f010 f10c 03c6 02dc f1a4 f0fc f0ed f240 f22f efad f00b f39f f32f f1a3 f014 ef23 fdd2 ff16 00fc f3bd f33d f244 f24d f0fc f0f7 f23f f241 ed42 f0f2 03b5 f267 f263 f0fd f10a f090 ed6c fea5 03c2 f4f5 f23c f23f f11b f0fc f22e f23f f11e f0fc f0fe f23f f22f f0fc f11c f22b f23f f1ba f0fc f0ed
f13e f140 f22a f1fb f166 f13a f140 f205 f1fb f12f f140 f1ff f1fb f1df f14b efdd edb3 0010 03be f28b f1c0 f1fb f21b f08f ee27 f8d1 0215 03d3 f21f f1c5 f1fb f1fb f13f f140 f207 f205 f03b eed1 ef48 f128 f24a ff6c 0220 03d1 0070 f16e f140 f136 f1fe f1fb f095 ef50 fbe1 f2cf f1fe f229 f0d7 f11b f623 fe07 015a f588 f303 f1e0 f140 f127 f1fb f201 ed6b f13c 039a f23b f21b f140 f13d f1a1 ee67 f245 02ba 03e4 f2f7 f1fe f13f f140 f207 f1fb f12d f140 f152 f1fb f20b f140 f140 f20c f1fb f19e f140 f136
f247 f256 f0f0 f0e5 f188 f251 f256 f10c f0e5 f23f f256 f11f f0e5 f0ed f252 f113 ed20 f1b7 03b6 f694 f23f f0e2 f0d6 f24c f0e7 ed59 fe3d 03b4 f43e f1c0 f0e4 f0e5 f255 f256 f0f0 f00c ef52 efb7 f26b fd87 0130 fd9d 01a9 0398 f212 f173 f258 f279 f0e6 f0e5 f244 f155 f010 fd91 f165 f521 f34d f119 f017 ee6f fde1 0205 f423 f1d7 f25c f23e f0e5 f108 ee76 f257 03b6 f0e4 f0d6 f256 f246 f0dc ee66 eeb7 ff86 03f2 f3c9 f0e6 f255 f256 f0e6 f0e5 f22c f256 f264 f0e5 f0e6 f256 f257 f103 f0e5 f173 f258 f279
f218 f229 f10e f112 f19b f229 f229 f133 f112 f20e f229 f120 f112 f0fa f130 ef6b ee2b f0d6 0387 03df f29f f10c f105 f226 f1f2 ee79 f078 01bc 03bb f2af f10e f112 f229 f13c f032 ef29 ef73 f160 02ab 022b 0012 f3fb f5d7 03d6 f0f6 f192 f22d f247 f10f f111 f218 f224 f075 ee90 f72f 01d7 f543 f233 f115 f177 ee27 fe30 01dc f422 f333 f217 f112 f12f ee54 f236 035c f106 f105 f22a f21d f110 f02a ee6b fab2 03f1 03ca f12b f227 f229 f118 f112 f22c f229 f232 f112 f111 f229 f22d f118 f112 f191 f22d f247
f18d f195 f18c f197 f18b f196 f195 f186 f197 f182 f195 f1a6 f194 f084 eecd ef0c f1dc ff13 0163 03a4 f319 f163 f19f f197 f19d f088 ed59 fdde 0301 f551 f230 f191 f105 eece ef70 f16d f170 01e1 025c 004f f0f4 edd3 f537 03d6 f193 f1b1 f197 f185 f177 f195 f18d f195 f182 f0a6 ef5c fdf6 0198 f508 f23e f18b f114 eead fe24 02b7 f4ec f22d f18d f0f0 eeb1 f243 02e5 f172 f19f f197 f197 f197 f15b ee1f eeb5 02a7 03df f219 f1a4 f195 f1b6 f197 f1a4 f195 f177 f197 f1af f195 f1a9 f17d f197 f1b3 f197 f185
f0f0 f0fa f258 f241 f1a6 f0f8 f0fa f240 f241 f0fe f0fa f22d f226 ef41 ed53 f35e 02d4 ff06 fdd4 03b6 f849 f24a f269 f0fb f0fa f219 ef48 ee0c 008b 03c7 f47c f147 eed5 ee29 f17d 02e0 020c 00e3 fda1 f1f2 f1e9 ed25 f382 03df f2dd f1bd f0fa f0ed f23f f23b f0f2 f0f0 f259 f242 f0b5 ee2d fdb1 024c f4b3 f18f f0ea f073 eef2 ffb4 027e f331 f327 f028 efd7 f32f 0123 f19f f269 f0fb f0f9 f230 f239 eebe edc3 ff65 037d f447 f0f2 f0fa f22e f241 f11c f0fa f101 f241 f22c f0fa f11a f22b f241 f1ba f0fa f0ed
f12c f130 f249 f1fc f177 f12a f130 f203 f1fc f14e f130 f211 f119 ee24 ef4d 02e6 02ab fdb6 ed65 01d4 03d3 f2dc f23c f130 f12d f1f1 f0ef eda7 fc9d 029e fe0c efd5 ee58 f119 fdf1 02b7 0121 f150 f147 f1fc f1eb ed49 ee83 03df f6f0 f159 f130 f136 f1b3 f123 f0dd f209 f2e4 f1fc f177 f043 edb7 fe99 ff99 f409 f12e f19d efd3 f56a ff39 fe6c f3e5 ef92 f25e fc75 f3d9 f1ec f23c f130 f12d f1f6 f1fc f093 ed4d f849 0382 03b6 f135 f130 f1e9 f1fc f10e f130 f147 f1fc f1e9 f130 f130 f20c f1fc f19e f130 f136
f24f f25f f0e7 f0dd f189 f25a f25e f101 f0dd f249 f166 f02c ef65 ee0f f4f4 03f2 00b1 efc5 eed8 fe72 03ea f4e4 f0cc f25f f24c f0d4 f0cc ef87 ef66 fff7 0131 f018 f1a4 02f3 029e 0052 f302 f25e f274 f0dd f0cd ee69 ee2f 03da 0391 f11c f25e f18d ef65 ef16 f1c9 f390 f28e f13f f18b f2ea f056 edee 015e fc33 f2c6 f117 f03c ee26 f87a 01c1 0109 f0c0 f37d 014f f1e9 f0dc f0ce f25f f24c f0d4 f0dd f280 ee6d ed1d 02c8 03b7 f391 f25d f0d8 f0dd f22d f25e f274 f0dd f0c6 f25e f263 f101 f0dd f169 f25e f285
f228 f23b f0fc f102 f19d f23b f239 f11d f0f4 f136 ef6a ef35 f04d f00a 0069 03e5 f1a1 f0f6 f031 f0bb 01f5 03bd f1d9 f240 f22c f0fb f101 f156 ee6c fd14 ffd1 00fa 0091 02a2 00ea f100 f2dc f239 f24d f102 f0e9 ef4f ee4f 01fb 03a8 f2ad f23b ef89 ede4 f00e f5e4 010b fb4b f1b5 f19a f36b f2a5 ee77 fc18 0237 f62b f1f6 f101 f018 ef70 fe32 0049 f3e6 019d f2f2 f198 f100 f0f5 f23b f229 f0fb f102 f267 ef5f ed6c ffe8 02cd f4b1 f335 f101 f102 f22e f239 f24d f102 f0e6 f239 f244 f113 f102 f17e f239 f25e
f1d5 f1ea f143 f152 f1d7 f1dc f1da f132 f053 ef1f ef1a f155 00af fedf 02cf 03b3 f14f f0e7 f02c ee85 ff10 02bf f2f5 f20d f2ea f237 f145 f20e ef04 edd9 ff0b 02dd 033a 00d2 f1ff f1c2 f20e f1da f1ee f152 f147 f101 ee5a fe04 03e6 f3eb f133 ee58 ee33 ffa0 ffe4 0008 0049 00f7 fb99 fb4c fb40 ef7f ef4c 0018 02ed f3ae f159 f175 f102 ef97 fde1 0224 f527 f370 f1ab f151 f157 f1ea f1da f152 f152 f223 f101 ed2f fcbb 00f0 02d5 f4c9 f23e f14d f21e f1da f1ee f152 f146 f1da f22e f13e f152 f18c f1da f207
f0f8 f0fc f250 f240 f1a7 f0f9 f0fb f247 ef7e ed36 f1c0 02bc 01f9 fd3f ffeb 0318 f223 f166 ef2b eed6 f140 01b1 0137 f100 f231 f398 f324 f1d6 f00c ee3c fd2e 0321 03c4 f21e f239 f240 f11e f0fb f103 f240 f227 f120 ee45 eda4 01fb 036f ef68 ed42 f19a 0064 fffd ff23 ff11 02c9 02e3 ffe6 ffc8 fe10 fe2d ff27 01cd 01fa f25d f274 f0fb f007 ee51 ff86 03be f368 f181 f240 f261 f0fc f0fb f241 f240 f0fc f0fe edc0 ed47 0000 00f5 03c8 f549 f23d f11d f0fb f103 f240 f227 f0fb f110 f22c f240 f1c8 f0fb f0ec
f140 f140 f217 f1fd f189 f139 f13e f207 ee51 ed55 013a 03b9 00e4 eee9 ee37 0198 f19a f21e f17d f53d 0185 013b 0057 ff3f feff ff65 f329 f2e1 f13a eed8 ee4a ffb5 03db f365 f1e4 f1fd f12d f13e f156 f1fd f1e7 f14a f06b ed58 fe0c 0314 f08f ef0e ffe9 01b2 0003 fe57 fcff 02aa 03ba f14d f142 f0c5 f1ba fd4b fe24 00a2 f29c f2bf f10c f106 f256 f113 01ca 0085 f281 f1fc f20a f140 f13e f1f8 f1fd f124 f130 edd4 ee9e 00dc 0006 01fe 0367 f2b9 f127 f13e f156 f1fd f1e7 f13e f160 f20d f1fd f18e f13e f136
f255 f261 f0e4 f0db f189 f24c f251 f0fa ed26 ee49 03f0 03b1 f15e ed9d ee29 fff3 00ea fcf6 01ec 0082 009e 00cb f4a8 f0e4 f053 f6cc 00bb 004e f250 f0b4 ed5d fd53 03a0 ff68 f0cb f0db f22c f251 f275 f0db f0ca f250 f25d ee34 ed68 0086 ffef f439 03b0 002c f195 f156 ef28 ffc0 0256 f24c f251 f101 efe7 ee6e ef5d ffac fff0 0000 0000 0005 01e2 00df fda7 02b4 f4dd f13a f0c8 f261 f251 f0d3 f0db f257 f24b ee6a ed59 0158 0009 fef3 02c4 f445 f300 f251 f275 f0db f0ca f251 f261 f0fe f0db f16a f251 f287
f23f f23d f0fb f0fe f1a6 f23a f23d f105 ed3d ee8b 03e1 0335 f0f9 ee04 ee5c 0023 02d1 0295 0104 f55f f19a f0fe f0ed f23d f23d f101 f0fe f21c f23f f1a3 ed50 ed59 0262 03e5 f1dd f0fe f22c f23d f251 f0fe f0fd f23d f23d f029 ee30 fd67 ff1a febf 0279 f024 f234 f264 f12e f20c 00c9 f23a f23d f113 ee22 ef41 f24e fe6e ff14 005a fffe ffa8 00e7 02c0 f1c9 ff68 0375 f27e f0fa f23d f23d f0f8 f0fe f252 f23a f004 ed59 fecd 00fc f158 fff4 03c3 f4c2 f23e f251 f0fe f0fd f23d f23d f10f f0fe f17f f23d f261
f1f4 f1f7 f129 f144 f1c3 f1f6 f1f7 f14c ed69 ee6a 03b4 03bf f13c edc3 ee4a fc92 03d8 00ff f24d f187 f1aa f144 f138 f1f8 f1f7 f145 f144 f1f8 f1f8 f184 ee5f ed5d ffb5 03bf f468 f146 f22c f1f7 f20c f144 f13f f1f7 f1f9 f138 f049 ed50 fe01 02c8 ff9b f0f5 f2fd f021 f41f f419 f105 f1f6 f1f7 f156 ee55 f0fa 01dc fe0c fd2e 007e 00e3 fea8 ff2a 03e0 00df eea4 01ac f928 f220 f1f9 f1f7 f142 f144 f228 f1f2 f14a ed52 f36c 02c5 fcb6 fcb3 0222 03e6 f2f3 f20c f144 f13f f1f7 f1f9 f130 f144 f1a9 f1f7 f217
f0e8 f0ed f255 f24e f185 f0ed f0c5 f162 ee9c ee44 0360 03bc f25b ee7c ed8d 03d3 03cd f16e f102 f0ed f15e f24e f262 f0ef f0ed f24e f24e f0fa f0ed f196 f155 ee6a fc84 03af 037b f252 f11e f0ed f0fa f24e f23d f0ed f0ec f23d f1ab edd8 f0fd 008c fe2c f2e3 01cf fd98 010f 03d7 f114 f0ec f0ed f246 f05b f009 00fa f0c9 efed ffe7 01e2 fa0c fe2b 02db 01e7 ed4b fe2a 03e1 f5ce f0f4 f0ec f24e f24e f0fa f0ea f1a5 ee9d ed47 03b5 01ed ee8f fe59 03e7 f3dd f0ff f24e f238 f0ed f0f1 f23b f24e f1ba f0ed f0ed
f142 f144 f22a f1f7 f182 f13b eff6 ef47 f074 f008 01a6 03d1 f31a ee4c ed5a 03e7 02f3 f1f6 f132 f144 f1a7 f1f7 f217 f145 f143 f1e6 f1f7 f122 f144 f1b9 f1f5 ee42 ed7e 03d8 03cb f218 f11f f145 f139 f109 f105 f133 f146 f216 f0d0 eeca f330 00fb f160 00bc ffe1 ef8c f3b8 0386 f180 f140 f13c f0f9 f030 f040 f175 f1c5 f0e5 f170 014b f820 f243 0044 005a ee5e ed7d 01d0 01f4 f248 f142 f1e6 f1f7 f122 f144 f1b7 ee3d ee55 03cd 03b3 ef66 f098 01f0 03a0 f226 f200 f1e5 f144 f164 f209 f1f7 f192 f144 f137
f272 f272 f0e8 f0c9 f174 f216 ef50 ed8b f557 ffd9 fe2d 03e9 f467 ed71 ee58 02cf 03b3 f1c5 f24e f272 f1bd f0c9 f0c9 f272 f26f f0c3 f0c9 f256 f272 f1c7 f0c9 ed2d ee7c 03c3 03a4 f0ca f1d5 f202 f114 ee72 ef0b f242 f1ec f106 f060 f09e fdaa 02f6 f1e3 fe55 f05b fe78 f3bc 0269 f164 f26b f164 eed6 f10a f424 001b 0009 fd29 fd68 f43e 01e9 f3b0 f24b f35e f191 edc7 fde5 03b2 f566 f25e f0c3 f0c9 f256 f272 f1c7 ed1b ed16 03b6 03f9 efeb ed16 fe2e 03e8 f515 f0da f0c9 f272 f272 f0ed f0c9 f17b f272 f278
f22e f244 f102 f0f7 f18f f0c5 ee5a f04b 03c0 ff56 ee4f 020f 03bf ef58 ef7a ff8c 0222 f2da f235 f252 f20b f1b0 f190 f276 f232 f0f4 f0f7 f250 f244 f1ab f0f8 ed40 ee5b 0259 03b2 f1f5 f136 f071 f051 efee f11f 0006 ffc7 fffb 0004 ff02 ffed 027d f59a ef03 f1fd f12d 0274 01d3 f18f f241 ef50 efe6 f47d 013a f161 f12a ee5b ef76 ffb0 fec7 01ca f3c1 f32e f23e eecb ed50 02ba 03e0 f23f f0f4 f0f7 f250 f244 f1ab ed3e ed34 03e3 03ea f0fe edc8 ee10 0266 0343 f26e f0fd f244 f244 f108 f0f7 f182 f244 f265
f1e6 f205 f132 f136 f1a9 ef10 ee3a f79b 03e1 ff71 ee75 fe38 02d1 f308 f15d fb9d feb2 0005 f228 f233 f23d f391 f363 f26d f1f5 f13a f136 f224 f205 f190 f136 ed54 ee3c 00ef 02e8 f323 f03c ef96 f20a fa2a 0213 fff2 ffd6 ffd8 ffec fe1e fdd0 0000 013e f016 f62b 0044 ffba 02a9 f1a9 f11c ef1a f21a 030f f407 f1af f13a efa8 ef19 0017 f10d fded 0174 f425 f2fb f183 ed6d ffd1 0387 f2c9 f13b f136 f224 f205 f190 eda4 ed53 0387 03cb f13c ef7a ee1a feea 03be f3e1 f13f f205 f207 f122 f136 f1af f205 f21f
f113 f11c f279 f210 f163 ed75 ed55 0303 03e7 f106 ee7f eef8 ffcb 0220 f293 f0d6 f3cf fe27 0103 00d4 ff45 025e ff65 f446 f11c f211 f210 f0f9 f11c f1b6 f20f ee2b ee06 fffe 0031 0158 f01a f0d8 025d 02ed 00fa f182 f0ee f1a0 f208 f0aa f08b fe14 fe3a ff0d f118 0160 f4f3 027b f163 ee48 f014 f42e 0130 f145 efef f31b f149 f064 f316 fc25 ee79 fe0e 0022 f2a4 f2f8 ef24 efcd 0371 f436 f211 f210 f0f9 f11c f1b6 eedd ee29 02c4 03c7 f182 f1aa ed4f f3e2 039a 036f f279 f11c f11e f1fc f210 f1e9 f11c f0ee
f13c f13a f22e f201 f184 ee63 ed55 018f 03c6 f1f3 f05d f09f fc6d fef5 000d f1d7 f18f f20c 0252 020d fcde 00cc 03b9 f15d f13a f1ec f201 f124 f13a f1b1 f203 ee40 efec 00f6 fd85 ff30 00ac 0006 031c 00e3 f2c5 f13a f156 f211 f201 f190 f129 f047 f03b fd0e ff27 02c0 031c fd3f f184 ed59 f12c 0262 f2cc f1b6 ef3a f008 f25f f322 fee7 0225 f0e8 eec1 fe40 ffc4 ff54 f02f f134 025e 03e3 f1f9 f201 f124 f13a f1b1 efba ee39 fdb9 0393 f206 f253 ee52 ed49 01c6 0389 f30b f13a f156 f211 f201 f190 f13a f131
f243 f241 f0e9 f0eb f158 f141 ee4b fdad 0319 f43e f2d6 f119 f045 f452 fdf2 fe43 00dc 02c0 01e7 0138 ee2f f020 02ba f32a f23f f0e1 f0ec f24c f241 f1a4 f0f0 ee2c f1df 01e6 f125 fd05 023e 03ef 019a f17b f101 f241 f21e f110 f0eb f158 f240 f26b f009 ee09 fd46 01f8 0372 f242 f158 ee53 f235 026b f096 f809 f159 f20f fe9f 02a2 f512 fb19 f0ed f01c f116 fcba fe28 ff44 fe1a 0078 03e5 f1c2 f0ee f24c f241 f1a4 f02d ed3b fb77 0251 f2e2 f28d f1d9 ee48 fd60 03b9 f4ba f23e f21e f110 f0eb f158 f240 f269
f232 f244 f0fa f0f7 f195 f237 ef5c ed6a 0097 0352 f49b f198 f0e9 f06a f15d f6b5 0071 03b8 f7b2 f25f f0b5 ef31 00e1 f2fc f240 f0ef f0fa f25b f244 f1a5 f0fc f00e f238 00d0 ed2b ed37 037f 03eb f69e f0f7 f101 f244 f23f f10f f0f7 f176 f241 f26a f100 f00c eefa fde5 0288 f424 f195 ee61 f235 0311 f006 f410 f35e 0011 ee80 03b3 fe3d f229 f0f7 f11f f22e f245 f117 f0c4 f666 f186 03d3 f3ec f0ff f25b f244 f1a5 f107 ed3c ef66 0095 0004 f8ce f4af ee7f ee25 03c6 03c3 f242 f23f f10f f0f7 f176 f241 f26a
f1fa f202 f125 f12a f1c1 f1fb f125 eea3 fd51 00f6 fd5e f262 f1a9 f0c1 f031 ef18 f476 03dc f78e f254 f198 f041 f155 00cf f1f1 f12a f13c f24c f202 f169 f129 f12a f1cd f1ef ed6e ed8f 03e2 0393 f1ee f12a f13e f202 f1d6 f11e f12a f185 f1ff f23e f13c f128 f0fa ef35 0080 02f8 f1c1 ee3a f1ec 03b9 ee86 eeea f4be ffff f0a9 0360 0343 f1fc f12a f16a f210 f202 f19e f12a ed6d ee39 03a7 03e5 f15a f24c f202 f169 f12c ed49 f04f 00a1 fd0a 01b7 03ea f05b edfc 0265 03cc f270 f1d6 f11e f12a f185 f1ff f23e
f0fc f102 f248 f22a f19c f107 f112 f134 ee36 fe00 000e f8d5 f320 f127 ef5c f12d fe94 02ec f188 f112 f169 f22c f27c f0e4 f111 f22b f23a f0f7 f102 f180 f225 f22a f116 f032 ee7e efe5 03e8 0326 f112 f22a f24f f102 f118 f215 f22a f1ae f101 f0e3 f23a f228 f0f2 f013 f28e 011a f19c ed41 f0eb 03f3 eeff ed2c fe1b 000e 01a6 03b0 0185 f0f9 f22a f224 f118 f103 f166 f13a ee8e ee32 01df 03ed f322 f0f7 f102 f180 f221 ee3e f12b 02ba efa9 fe1b 01ec f56e ee14 ff0b 03a5 f361 f118 f215 f22a f1ae f101 f0e3
f128 f128 f232 f213 f194 f132 f128 f202 f113 f0ab fe06 fd70 ff37 f92a f7b0 020a 02d1 00bf f120 f128 f19f f213 f231 f129 f127 f200 f213 f11a f128 f1a7 f211 f213 f14e eeb8 ee2f f1e8 03b3 0011 f12b f213 f1f9 f128 f14c f21b f213 f19a f128 f11d f214 f203 f125 f128 f262 f213 f194 ee10 f037 0238 f1dd ee52 fe29 0108 032b 02b7 fbd2 f133 f218 f209 f125 f05c f092 f014 ef84 f019 00ff 03bd f491 f11b f128 f1a7 f210 ee42 f156 03cf f144 ef12 fe30 03bc f00e ef31 03c9 fd5b f14c f21b f213 f19a f128 f11d
f1fc f1fb f146 f140 f19c f1fc f1fb f0e5 f13d f20f f12c edc7 fc49 011e 02f1 0205 00bb f115 f1db f1fb f1d7 f140 f130 f1fb f1f9 f138 f140 f1f8 f1fb f1a1 f13e f134 f102 ee60 ee62 fc0c 03b2 011a f1f6 f140 f11d f1fb f21d f15f f140 f160 f1fb f212 f142 f140 f1fc f1f8 f143 f144 f195 f08b f02a fe7f f14b f00f f7cb 02e1 02c5 002f f1ca f20f f11b effc f11f f056 efca f0f2 f1c6 ffd4 fe86 02b0 023b f1fc f1fb f1a1 f13e ee7d f1fe 02fb f140 ee68 ee0a 021a ffed eeba 03a7 03f0 f21f f15f f140 f160 f1fb f212
f231 f240 f0fb f0f9 f195 f23f f242 f11b f0f9 f22e f238 ef88 edd4 fe9b 02e6 f582 f1fd f11a f22d f242 f1b9 f0fb f0ed f240 f231 f0f4 f0f9 f251 f242 f1aa f0f8 f050 ef59 ef06 f011 ffc2 03b2 03d8 f24f f0f9 f0fc f242 f243 f10d f0f9 f17d f242 f265 f0fa f0fb f231 f237 f007 f008 f274 f300 f164 f1e5 fe38 ffca f2fd 02f1 ffdb f096 f33c f32b efa4 ee50 f155 f25e f014 fec1 0199 0024 fc07 0065 03c5 f2ca f242 f1aa f0f8 f01f f240 00ff f0f1 efc9 ee57 fd94 0013 effe 038c 03e2 f247 f10d f0f9 f17d f242 f265
f1ec f1ee f124 f12b f1b2 f1f3 f1f2 f13c f12b f1fb f1f2 f0e4 ee46 f23e fff5 02d2 f3a6 f21b f300 f204 f187 f051 f03d f2c5 f2ee f12f f12b f226 f1f2 f18b f09a eeff eedc f1fe 0003 ff15 02dd 0338 f385 f12b f140 f1f2 f20e f11d f12b f199 f1f2 f21c f12b f12e f1ec f1ee ee4f ef51 f4a9 f3eb f295 f050 f002 fedc ffee 00dd ef8f ef39 f4d4 f427 ee0a ef3f f6eb 017b ffdc 0036 00b7 f23a ee28 ef59 03e4 f40c f1f2 f18b f12d f133 f20a f154 f143 f102 ee19 f0eb 0076 ff53 02b9 0390 f23b f11d f12b f199 f1f2 f21c
f0f1 f0d9 f25a f251 f1b3 f0f5 f0f9 f248 f251 f0db f0f9 f210 f157 ef3c fd08 ffa1 00f7 f3f1 f324 f131 f168 f099 f172 f370 f2e4 f256 f252 f0e6 f0f8 f198 f02c eec3 f034 fc23 ff26 fd32 00b8 036e f3c2 f291 f26e f0f9 f0cd f22e f251 f1cd f0f8 f0c8 f252 f252 f0f0 effc ee89 f141 027a 00ec f12d f232 f1ca ef20 ef94 f29a f100 f19e 03a9 006b ee68 f427 03cf 00a1 f184 f20c f318 f156 ed39 eea7 03f3 fa28 f0f9 f195 f250 f250 f0cc f109 f26e f24c ed2b ed22 01e4 ffc9 011b 038c f1b3 f22e f251 f1cd f0f8 f0c9
f0f2 f0f8 f258 f243 f1a4 f0ec f0f8 f250 f243 f0fe f0f8 f22c f244 f14e ee2e fe10 ffec 0051 0004 f24a f267 f120 f3c6 003a 00d5 f242 f245 f103 f075 f094 ef49 f053 fc52 02c9 fe45 edf6 feaa 023e 02ea f3c0 f2fb f0f4 f118 f22f f243 f1b8 f0f6 f0e9 f240 f228 effc ee38 ef79 f190 0101 f20b f115 f22f f17a f01d f420 ff37 0000 ff93 03b9 fff7 eea6 03d1 03d2 f0e9 f1a9 f243 f267 f0f9 ede6 ee2a 0331 039a f0fe f194 f241 f243 f117 f0f8 f22c f23f ed40 ed87 0366 fff2 f68b 0383 f46d f22f f243 f1b8 f0f6 f0eb
f12e f12f f238 f20c f169 f127 f12f f262 f20c f12f f12f f1f0 f20c f1d0 f04a f03a ff8b feaa fd2f 00e8 02d9 0039 00ad ffbf f12c f20b f218 f039 ef32 efac f14d f3f5 02f6 00eb f0c5 ee4c fae6 0056 0154 f81a f4b0 f210 f10f f218 f21a f194 f12f f128 f1c0 f121 ee97 ee50 f166 0001 0001 fff0 fffa 0000 ff60 0000 0000 0000 0000 000a 03cd 0022 eeee 0387 0346 f17e f18a f201 f229 f047 eea1 ef3e 0139 028f f12a f2ab f309 f20d f12f f12f f218 f20a ed8a ed6c 03d1 ffd0 edc4 03e6 00ad f21e f20c f18c f12e f136
f230 f23f f0f8 f0fc f199 f23f f23f f11d f0fc f22a f23f f11e f0fc f102 f240 f22b f0f4 f0bf ede9 f9ff 03a2 f430 f204 f247 f230 f07b eff5 eff5 efdf f122 fb0c 02e0 00da f11f f101 ed37 ee52 0005 0034 00a7 ffab f3e3 f211 f101 f12a f18f f230 f248 f040 ef1c f04d f200 ffb0 0000 0000 0000 0000 0000 0000 0000 0000 0000 0001 001c 039f ffed ef3a 0282 0215 f199 f1bb f0d2 eff6 efa1 f005 f10a f707 0026 f1bb f399 f3dc f1e8 f241 f242 f0ff f0b9 ee63 ef9c 03d3 fe0f edbe 03e7 03ce f110 f0fc f17b f23f f265
f1f6 f1fb f124 f140 f1d5 f1fc f1fb f131 f140 f1e7 f1fb f12d f140 f154 f1fb f1ec f140 f13c ee4e ee51 0299 f562 f13d f21e f202 f022 ef28 f01d f26e 02a6 02e4 00c1 f1c4 f1fb f140 ee58 ee06 ff01 0000 0003 00ff 00d0 f103 f129 f232 f207 f1eb f21a f0a8 f0e0 f640 0000 0000 0000 0000 0000 0000 0000 0000 0000 0000 0000 0002 0118 0292 fe72 f32d 03c2 faeb f24b f0d0 f00f efa6 f0fa f1df 00ce 0193 fe5c fe5a ffee 01e0 f3fe f30a f20c f142 efc2 ee13 f2a3 03b9 fd2f eddd 03c5 0320 f12f f140 f198 f1fb f22b
f0d2 f0d7 f266 f264 f1b7 f0da f0d7 f261 f264 f0d6 f0d7 f22f f264 f271 f0d7 f0da f264 f261 ee2b ed39 ff47 00df f2c6 f155 f0e7 f161 f206 f943 01cd 023e 00c9 f2b6 f0fd f0d7 f252 f166 ed27 fd0b 00f2 fffa ff0e 0003 0003 fff4 0012 ffb4 fdc2 fec0 ffe0 0000 0000 0000 0000 0000 0000 0000 0000 0000 00fd 0000 ff03 006f 0100 028f ffd4 fc65 f6c8 03f1 f0fd effc eed0 f12b f333 f304 0043 011d ff65 f21b f243 fd37 fda1 02d1 f3c8 f089 f16c efbe eef8 f7ca 02ab ee27 eeab 03b2 032f f240 f264 f1cb f0d7 f0c9
f0f7 f0f6 f24f f245 f1a9 f0fb f0f6 f241 f245 f0f8 f0f6 f232 f245 f24c f0f6 f0fa f245 f240 f01f ee55 fd21 fed8 0049 ffec fe4a ff77 028a 02eb 00d2 000a f1a1 f2d5 f115 f0f6 f234 f242 ed3a ed38 02e3 fff6 fd1d fffc 0001 fff0 fff0 0000 0000 0000 0000 0000 0002 0000 fffe 0000 0000 0000 0000 0000 02d6 00fd fe28 00df 01ed 020c fd24 ed82 0368 03e3 f02a ee39 efbd f3f2 015e 00ca f934 f382 f2a1 f104 f141 f092 ed8e ff78 02cd f06b f072 f168 f2c8 02dc 00d2 ee3c ee96 03c1 0341 f233 f245 f1b4 f0f6 f0eb
f131 f12e f216 f21c f18a f12c f12e f1f2 f21c f12d f12e f220 f21c f1cf f12e f12b f21c f1f1 f120 f050 ed7c fbff 020e 0147 fddc feb3 02d3 03d7 f220 f1c3 f21a f21c f13d f12e f236 f21a edfd ed74 035e 0095 ede7 ff0a fffc fffb 00c9 000c ff37 fff4 0000 0000 0004 00f2 0001 ff0e fffb 0003 0022 00e9 0381 020b f085 0071 00cc f9e3 ee4b ed4b 01df 0278 ef68 ef22 f353 01c5 0001 f072 f076 f228 f31a f222 f12e f1b8 ee67 ee1a 00f4 f0bf f221 fcee 0143 012a f12d ee55 ee8d 03e6 0386 f22d f21c f17f f12e f143
f23e f23f f0fb f0fc f1a7 f238 f23f f111 f0fc f22c f23f f11e f0fc f100 f23f f22a f0fc f112 f22a f238 edf2 ed4e 0338 02dc f452 fa8d fffe 03c4 f538 f1bb f0fa f0fc f243 f23f f0f5 f0fc f08c ee59 00df 02b5 ef14 fdce ffe9 fff5 01a3 ff25 fd6f ffe8 0000 0005 00ea 02ce fffc fe27 fffb ff11 ff86 02cb 0331 010d f34f f12e f0fc f102 f138 ef13 fedc 0120 f10d f25c 011f 000e efa4 f0ce f18a f15a f2f8 f428 f241 f1a8 ed39 ed38 00f0 0176 01bc 020c 00e4 f29f f247 ed35 ed44 03e9 037e f10c f0fc f183 f23f f261
f1e6 f1ec f126 f131 f1b6 f1e9 f1ec f160 f131 f1f7 f1ec f12d f131 f153 f1ec f1f9 f131 f161 f1fd f1e6 ede8 ed6e 03af 03c1 f0e6 ee88 fd23 01b8 03c3 f296 f130 f131 f202 f1ec f129 f131 f1d7 ee26 f4fd 03eb f300 f0d1 ff92 ffbf fffe fd27 f175 ff40 fffd 000a 01d8 02c6 0026 f0f6 ffb5 fe19 fee7 03ac 0105 f207 f1ec f12d f131 f153 f1e5 f0fa f0bf 0041 ff4a 0016 fe69 ef10 ef70 f326 f552 00ab 0120 00d8 f1fc f187 ed4b ed49 02a9 0323 0100 fb61 f1ec f1ec f214 ed49 edce 03c6 034b f11e f131 f1ab f1ec f1fc
f0d2 f0da f267 f261 f1b6 f0da f0da f261 f261 f0d6 f0da f22c f261 f274 f0da f0da f261 f261 f0fe f0d8 edcd ee8b 0340 03b2 f0c7 f164 efa3 fde5 01ce f5ac f35c f269 f0f1 f0da f24b f261 f134 ee19 ed20 0216 03ba f1d2 f0ee f1dc f054 eded ef24 fff9 fff0 fffd 010b 013d f360 f25f f154 ef83 f016 0397 ff25 f0d6 f0da f22c f261 f274 f0da f0da f261 f27f f0fe f0da efd2 eebc f21d fef0 017c f703 f267 f0e6 f0da f186 ee6a ee6a 03b7 03b3 f25a f261 f12d f0da f08d ee6a f05b 03b3 0230 f23c f261 f1ce f0da f0ca
f0f7 f0fc f24f f23f f1a9 f0f9 f0fc f241 f23f f0f9 f0fc f22c f23f f251 f0fc f0fa f23f f242 f10c f0fc edc3 ee59 03cc 03b5 f122 f23d f152 edb9 fe13 0229 f52c f34c f109 f0fc f22a f23f f131 f016 ed2d fe41 03a4 f3c4 f0fc f228 f13d ee40 fd32 fff0 00a8 ffeb 0041 014f 014d 00aa fec4 fd4a ffa9 03b8 fe6e f0f8 f0fc f22c f23f f251 f0fc f0fb f23f f232 f10c f0f5 ee56 eeb1 f8b4 0151 f2d3 f3a0 f24b f0fc f0fb f193 ee5b ee98 03c8 0386 f238 f23f f12d f0fc ef27 ee5c f22c 03c1 fdae f22e f23f f1b8 f0fc f0ec
f140 f140 f222 f1fb f18c f138 f140 f202 f1fb f13e f140 f22c f1fb f20c f140 f139 f1fb f203 f12a f140 ee5b ee37 034a 03e6 f116 f1f6 f1f5 ef8a ede0 feca 02e2 f579 f22d f13a f1e5 f1fb f11f f13c ee4f edf8 01f8 02e8 f21a f218 f1f8 f0b9 ed83 fe29 013a ff75 0039 00c4 ffad f713 f02e eefd f230 029c fce8 f13c f140 f22c f1fb f20c f140 f139 f1fb f203 f12a f12c edcb efa7 02c8 012d 00d7 ff76 f25b f129 f137 f0bf ee43 f0a2 03d2 026c f1be f1fb f11e f141 edd3 ee3e fcd4 03cf f274 f212 f1fb f19a f140 f134
f24e f249 f0ed f0f2 f1c1 f243 f249 f125 f0f2 f25c f249 f12d f0f2 f0fd f249 f254 f0f2 f123 f22f f249 f011 ed35 0122 03e9 f26d f0ec f0f3 f1f6 ef53 f41c fff3 02c3 f473 f335 f0e6 f0f3 f22c f244 f164 ee81 fded 01b3 f404 f20d f0ea f14f ef0d eef4 0040 f2d3 f334 f237 f0fb f114 f2f6 ef31 00a4 02e6 f26d f24c f249 f12d f0f2 f0fd f249 f254 f0f2 f123 f22f f236 ee03 f0a4 03a2 fdaf f237 f0dc f0f2 f24e f234 ee8e ed5c f34a 03e5 fd3b f11c f0f2 f22c f24e ee77 ed37 0381 03c4 f1eb f10e f0f2 f147 f249 f25e
f206 f20f f10e f12c f1ad f20f f20f f14a f12c f209 f20f f11e f12c f122 f20f f205 f12c f146 f215 f20f f138 ed52 f58a 03c0 f35e f126 f12c f243 f122 ee1a fcd3 000c 02ac f496 f200 f12f f22d f20f f227 f040 ee39 fdf8 01f0 f448 f1fe f1a9 f08c ee54 fdb5 02e0 02b7 ffdf ffeb 001a fff0 fd54 f298 039e f138 f209 f20f f11e f12c f122 f20f f205 f12c f146 f215 f209 eed0 f17e 02a2 f2a5 f1ff f128 f12d f232 f116 edcf efb2 03e3 02a5 f1c3 f124 f12c f22c f219 ee56 ed3a 03c4 038f f215 f128 f12c f197 f20f f231
f12d f12f f1b6 f20c f1c1 f130 f12f f1fe f20c f13e f12f f187 f20c f1be f12f f142 f20c f1dc f14d f12f f180 ee1a ee79 03ae fe0b f209 f20c f159 f134 f078 eec7 fd48 ff4a 03b2 f53d f213 f17b f12f f144 f20c f0ea ee54 fe05 0222 f475 f26d f0ea ee38 f239 0330 03b6 f11f f1c6 f209 eebf eedd f4c6 020a f2df f13e f12f f187 f20c f1be f12f f142 f20c f1dc f14d f12f f095 f20c 00a5 f15f f12f f20b f204 f054 ee7a efb4 f42d 02bf 00c1 f0cf f1e8 f20c f178 f129 ed8a eea0 03d8 030b f155 f1ef f20c f1a6 f12f f13f
f0f9 f100 f250 f23b f1a5 f100 f100 f241 f23b f0e6 f100 f22c f23b f253 f100 f0fc f23b f23b f10f f100 f17e ee88 ee9d 0396 02d5 f210 f23b f0fe f100 f195 f122 ef49 fd50 0191 0264 f333 f11e f100 f100 f250 f13b eee1 ee22 ffae 03e2 f53f f0ea ef8f ee85 0093 038d f1e3 f1c0 f159 eeb9 f12c 0363 fe89 f259 f0e6 f100 f22c f23b f253 f100 f0fc f23d f247 f106 f0f3 f185 f23f f271 f0ec f0ff f153 f147 eef3 ef27 f41d 0269 00d9 f0eb f100 f231 f23b f120 eff1 ed38 f177 03cd 0188 f123 f22d f23b f1b6 f100 f0f1
f144 f148 f224 f1f3 f184 f146 f148 f1fd f1f3 f12c f148 f22c f1f3 f210 f148 f13d f1f3 f1f5 f130 f148 f1ac ef8a ee65 01a2 03e7 f2f2 f1f3 f12a f148 f1b5 f1e7 f0f0 ef33 fe11 020b f445 f1f0 f13b f05b f136 f01c eeff f14e f264 0252 ff83 f1d0 f0fc ef7b f339 0198 f28d f10e f0bd f192 f36e 020f f23d f1e3 f12c f148 f22b f1f3 f211 f148 f136 f201 f127 f020 f129 f1b1 f1fc f232 f11d f136 f049 f039 f0e3 f3aa 0301 00c6 f163 f12d f148 f1f2 f1f3 f119 ee56 ed60 f566 03af f658 f166 f20d f1f3 f18a f148 f13b
f278 f287 f0eb f0d2 f1a7 f283 f287 f0db f0d2 f252 f287 f12d f0d2 f0f9 f287 f241 f0d2 f0d6 f266 f287 f1e7 f025 ed19 fb32 03e6 f3a7 f0d0 f270 f287 f1a2 f0d2 f0ce f164 eef2 fe0d 02ac f3b2 f265 ef98 ef21 f0de f101 00d3 ff0c feb3 03c4 f478 f275 f010 eefc fc49 001e f0bb f176 fc5d 01f3 fb49 f0e0 f0e4 f170 f185 f11b f0da f1f4 f37b f12e eff0 ef1c f135 f1bc f14b f0f2 f0f9 f25a f25d f159 f11d 0125 027d 011c f0d2 f0d2 f274 f287 f123 f0d2 f218 eea4 ee65 02f9 039d f307 f278 f0f4 f0d2 f161 f287 f28b
f21a f229 f108 f112 f19f f227 f229 f133 f112 f216 f229 f11e f112 f116 f229 f217 f112 f132 f223 f229 f1ac f115 ed31 edef 03d9 02ef f116 f242 f229 f19c f10e f112 f224 ef75 ee05 ffd8 025d f1ad ef89 f16b 0177 01ce 009a fd28 f200 02e7 ff0a f2d4 f104 f09e f147 f892 0005 001b 00f6 f898 f0f2 f04d f122 f067 f036 f100 f111 f301 f422 f016 ef1d f1af f378 0006 fdf2 ff4e fff9 ffdf fefd 00df 02d6 01a4 00d9 f1ec f10e f112 f230 f229 f110 f113 f141 ee52 f0f5 039d 02a4 f229 f22d f118 f112 f18f f229 f249
f191 f196 f177 f196 f1ab f196 f196 f196 f196 f192 f196 f178 f196 f1a9 f196 f196 f196 f196 f1ae f196 f179 f194 ee93 edf9 01e8 03ed f25c f1a8 f196 f181 f18f f196 f1b0 f0bb edaa fb5f 00d5 ffb9 f26c 02ab 02df 0081 f169 eda3 efaa 00b1 019e f314 f250 f240 f18f f196 f196 f199 f0bf f08a efcb efaa f267 f19b f055 fd67 fef5 0046 00af f00d f015 01fe 03da 00cf f069 ffd7 003c ff89 fcd6 fdca 03ed f565 f196 f181 f18f f196 f1b0 f196 f184 f198 eed2 eddd f2f9 03e4 ff6a f196 f1ac f17e f196 f1b1 f196 f196
f0f9 f0ff f252 f23c f1a4 f0fd f0ff f23d f23c f0fa f0ff f22c f23c f250 f0ff f0fe f23c f23e f110 f0ff f17f f23c f14c ed3c fe42 03d3 f567 f0ff f0ff f196 f239 f23c f123 f000 ee6a ef57 00a5 010f 020c 025e 00ad f01a ee44 efc1 f442 ff91 fdab fffa f39f f3bc f114 f11a f25f f224 ef81 eef1 f0fc f2f9 010c 0202 ff9b fcf7 ff26 0085 0018 0002 ff05 0000 02d8 f2d7 f1d6 f347 f1a7 efec edf2 f097 03e5 02d8 f0ff f196 f239 f23c f123 f0ff f22f f193 ed3d ede2 0375 039a f1af f0ff f120 f22c f23c f1b9 f0ff f0ef
f144 f146 f228 f1f5 f182 f140 f146 f1fa f1f5 f140 f146 f22c f1f5 f20a f146 f141 f1f5 f1fb f132 f146 f1a9 f1f5 f206 edaa ee18 02cd 0251 f1bd f146 f1b7 f1f9 f1f3 f068 ee4c ef33 f231 017a 01fe 014e 0075 f0f0 ee5b ef63 f392 02b0 ff95 ee84 fe75 ffcc fb97 f163 f16b f24c f1d9 f07a f102 0292 01c6 0028 002a f5a5 ef80 f3ba 01b5 0041 0027 fdf2 fde8 001a 000a f33d f41c f0b5 ef1d f0ba f435 02c2 00f2 f146 f1b7 f1f9 f1f5 f161 f146 f1f7 efb4 ed51 f0a1 03d9 02af f1a9 f146 f160 f20b f1f5 f190 f146 f137
f285 f285 f0e7 f0c5 f181 f27f f285 f0ea f0c5 f28d f285 f13c f0c5 f0f9 f285 f28d f0c5 f0e9 f25f f285 f1cd f0c5 f0c1 f022 eeab 0005 03af f4a4 f27b f1b8 f05f efd6 efd8 ef7a f084 02ea 0323 0100 f3a2 f092 ee0d efca f387 02d8 0013 f0e4 f0ef f0be fdc0 fe88 00a0 ff31 fc44 fe10 fe4e 01f2 0276 00c5 f077 f0a0 f354 f2b6 00ae 002a f2d4 f281 efe5 efc8 fe2c fd4f ffaa 00f7 f143 f18a fedc 02c4 00b3 f147 f285 f1b8 f0c8 f0c5 f255 f285 f0e3 ed56 ee29 fed8 03e4 0041 f0c8 f285 f255 f0ed f0c5 f16b f285 f279
f234 f245 f0fc f0f6 f191 f243 f245 f117 f0f6 f22e f245 f11e f0f6 f0fe f245 f233 f0f6 f116 f231 f245 f1b8 f0f6 f0e8 f193 ee5c f8af 030a fe2b f2f4 f0c7 ef19 ef0d f046 f15d 00b8 03c6 0286 f129 f1fd ef78 ed83 f216 0300 0091 f0d8 f17e f154 f16d f028 f182 009c fdff fe00 02e5 0321 0085 fd26 f058 edcf f20b fb52 008a f0ec f0fe f245 f234 f0f3 f0fc f16c efe9 fd83 ff13 019d 02e0 01db 00e0 f0e6 f252 f245 f1a8 f0f4 f0f6 f248 f24c f011 ed31 efca 03d8 02bb f1d6 f0f3 f245 f247 f10c f0f6 f17f f245 f265
f216 f21c f126 f12e f1b3 f21c f21c f12e f12e f216 f21c f13c f12e f161 f21c f21c f12e f12e f22d f21c f18e f12e f134 f21c ef3e ed49 009e 03ba f3b1 eedf ef41 f10b f976 ff21 ffbd 03c5 fc5a f137 f043 eede eeed f626 0118 f1ec f1d6 f17e f1ce f140 f883 f884 f8d6 ef11 ef38 02da 03e5 f2ba f1b3 ee5a ed56 f374 0328 f249 f138 f161 f21c f21c f12e f12e f22d f11d ef85 fd99 ff4b 0272 f3d3 f270 f12e f228 f21c f187 f128 f12e f225 f1ed ee3b ed88 f3bc 03b6 00cc f12e f125 f21c f222 f11e f12e f1a9 f21c f21c
f0f8 f0fe f253 f23d f1a4 f0fe f0fe f23d f23d f0f9 f0fe f22c f23d f251 f0fe f0fe f23d f23d f110 f0fe f17e f23d f261 f0fe f007 ee7b fd8e 02b3 fc67 efaa f128 02c4 01da fe1b fd47 021e 01fb ee29 eef5 f1db f67f 0042 003c 01a4 0165 ff8c ff55 ff9b 000b 0007 fec4 fcdf fefa 00de 01eb f356 f0ed eeec ef5e fff9 02c4 f4d9 f391 f312 f0fe f0fe f23d f23d f110 f0fe f102 f006 f6f7 ff3e 02b8 f525 f334 f0fd f0fe f197 f237 f23d f125 ef8d ee48 f061 03e9 0297 f0ec f23d f224 f0fe f123 f22b f23d f1b8 f0fe f0f1
f142 f144 f22a f1f7 f182 f142 f144 f1fa f1f7 f13e f144 f22c f1f7 f20c f144 f141 f1f7 f1f9 f132 f144 f1a7 f1f7 f217 f144 f13e ef68 ee8e ffd2 ff8d f20f 025e 0249 011f f006 ee75 00ae 01fe ed66 f17c 02b5 0082 0041 feb5 ff50 fde6 f238 f155 f0bf f143 f2a4 effc eeb5 f3fc 0006 fedc 00d9 f0bc f09a f225 00a0 ffcb 003a f42b f49a f1d4 f134 f201 f1f8 f132 f144 f1ad f15f eeef f737 fff4 02cf f4e1 f213 f144 f1b9 f1f5 f1f7 f067 ee0e ef7f f7c9 035d 0087 f130 f1f7 f1e3 f144 f166 f209 f1f7 f18e f144 f13b
f273 f273 f0ea f0c8 f172 f26d f273 f0cf f0c8 f26e f273 f12d f0c8 f0eb f273 f26c f0c8 f0ce f250 f273 f1bb f0c8 f0c8 f273 f271 effb ee03 fb08 ff48 0274 02e1 fec4 f288 f0fe ed87 f31f 006a ee6d fa92 029a f692 f365 f274 f0ed f0c8 f168 f271 f023 ee99 f25f f39b f1d4 00ba fedc efe8 fe07 fd52 f922 02ce 013b fe35 fd40 0023 ff23 f382 f24b f0ee f1c0 f339 f271 f1be f0cc efe7 ef45 fced ffe2 0329 f543 f279 f1c8 f0c9 f0da ef77 ee6a f1b6 039e 0200 f285 f243 f0c8 f0c8 f273 f283 f0ec f0c8 f178 f273 f29a
f230 f241 f100 f0fa f191 f23b f241 f11d f0fa f22e f241 f11e f0fa f0fe f241 f22d f0fa f11e f231 f241 f1b4 f0fa f0ed f242 f231 f0f3 f00c ee6d fd3f 02ec 0232 f106 f1ba f01a ef09 f4fc febb ef88 01e3 0122 f354 f405 f245 f10c f0fa f17d f23d efad ee83 fce8 fe37 f397 f16c f4d0 f0fe f0e4 f007 ff55 02b5 fc1b f0fc ed9f fd6c 0148 fc0b f100 f162 f2e5 f40b f347 f2b0 f0f0 f0f0 f13c ef15 fd27 01a0 03cc f34b f1a8 f0fd f020 ee58 f024 0337 02c3 fb46 f251 f24e f0fa f0f9 f241 f243 f10c f0fa f17d f241 f267
f1f7 f1fd f129 f12f f193 f1fb f1fd f14d f12f f20c f1fd f12d f12f f14e f1fd f20b f12f f14f f211 f1fd f16c f12f f136 f1ff f1fd f12d f129 ef57 ee2d 0007 0280 f2b6 f23e efdb f6d3 00eb fc3b f23c 0242 01b9 0117 001d f214 f11c f12f f1a9 f203 f12a f05d 0039 00cf 009a f112 f12f f253 f1fd f11d eefc 00e4 f37a f20e ed71 ed50 0186 0179 ff5a ff6b 005e 00de f400 f388 f127 f136 f1fb f118 ed97 fe05 0392 f54f f17f f03c ee46 ef34 f2df 03d8 0118 f1de f1fd f1ef f12f f136 f1fd f204 f11c f12f f1a9 f1fd f22c
f0f9 f0ff f253 f23c f1a3 f0ff f0ff f239 f23c f102 f0ff f22c f23c f24b f0ff f0ff f23c f23c f111 f0ff f17c f23c f262 f100 f0ff f22c f236 f009 ee63 fd27 ffd0 02b8 f4d2 fce9 f3e4 fed1 efec 030a 01ef fe1c f230 f0ff f129 f227 f23c f1ba f0ff efec f15e f2b4 f1cc f16d f1f5 f23c f1a3 f0ff f10e f0b6 f14b 0158 f16b eece ee3c 02a1 02c5 fae4 fb5e 000e fffb 00eb 00dc f17c f262 f100 f108 ef3f ed7a 01cc 03b4 f183 ef74 ef4c f11e 03ca 02a2 f1fe f11e f0ff f0fe f23c f220 f0ff f129 f227 f23c f1ba f0ff f0f1
f141 f143 f218 f1e9 f168 f141 f143 f1e9 f1e9 f150 f143 f1f0 f1e9 f1d0 f143 f140 f1e9 f1eb f12e f143 f18b f1e9 f219 f143 f142 f1e2 f1e6 f12d f057 eedc fd14 0144 0144 f197 fc66 fdb5 f359 0338 f9c5 f1e9 f1dd f143 f17b f1f8 f1e9 f19e f02d ee3d efdb f415 f3de f233 f228 f1e9 f168 f141 f143 f1a9 f1f2 f58c f12b ef59 ee26 0258 03e8 f15f f1e9 f1eb f12e f143 f18b f1e9 f219 f143 f13e f0e0 ee46 fddc 02dc f109 efc3 f1ed 02ef 0300 000f f1f9 f12d f143 f14d f1e9 f1dd f143 f17b f1f8 f1e9 f19e f143 f13b
f25f f260 f0ea f0cc f195 f257 f260 f0d5 f0cc f26c f260 f13c f0cc f0fd f260 f256 f0cc f0d5 f23c f260 f1d9 f0cc f0cd f260 f25e f0c5 f0cb f277 f262 f08a edef fdb4 0194 f848 fda5 ef6e 03a1 019d f266 f0cc f0c8 f260 f29c f0ee f0cc f17c f056 ef9a f109 0237 024d fa60 f0ea f0cc f195 f257 f260 f0d7 f0d0 f24c f220 efb6 ed19 fb74 03e7 f23e f0cc f0d5 f23c f260 f1d9 f0cc f0cd f260 f25d f0b5 ee26 eebf fffd 0003 f150 025f 0244 0138 f0cb f0cc f1e3 f260 f225 f0cc f0c9 f260 f29c f0ee f0cc f17c f260 f294
f228 f23b f104 f100 f195 f22f f23b f129 f100 f22c f23b f11e f100 f100 f23b f221 f100 f12a f22d f23b f1b0 f100 f0f5 f23b f22b f0ff f100 f24b f237 f1a6 ef56 ed31 ff22 02f6 f011 f1aa 03b6 f5de f163 f101 f1df f23a f235 f10f f100 f186 f141 f15b ffe5 00d2 00f4 f23b f104 f100 f195 f22f f23b f129 f100 f22c f23b f042 ed3b f8ce 03e3 f255 f100 f12a f22d f23b f1b0 f100 f0f5 f23b f22b f0f9 f036 eef5 fd05 00d9 02e3 02ca 00f4 f27b f0f7 f100 f231 f23b f24f f100 f0f3 f23b f235 f10f f100 f186 f23b f25b
f1e4 f1ea f156 f151 f1a6 f1e5 f1ea f1a1 f151 f1f6 f1ea f12d f151 f154 f1ea f1f4 f151 f1a1 f1fe f1ea f17a f151 f168 f1ea f1ea f154 f151 f1f6 f1ea f187 f0d0 ee6b f669 ffd2 ffa0 f3e0 03e6 f169 ef93 f153 f38b f1e9 f1af f13c f151 f1ae f1ec f1e6 f12b f161 f244 f1ea f156 f151 f1a6 f1e5 f1ea f1a1 f151 f1f6 f1ea eff5 ed6a f27a 03b4 f215 f151 f1a1 f1fe f1ea f17a f151 f168 f1ea f1ea f155 f165 ee13 ed15 02d7 03da 0102 f1a0 f1ea f139 f151 f230 f1ea f1ef f151 f13d f1ea f1af f13c f151 f1ae f1ea f1e9
f0d7 f0de f262 f25d f1b6 f0da f0de f264 f25d f0d3 f0de f22c f25d f277 f0de f0d7 f25d f261 f0fe f0de f16b f25d f286 f0de f0de f261 f25d f0e6 f0de f199 f259 f15f eee8 fd4f fe51 0294 02fb f232 efef f162 0227 f1cd f101 f238 f25d f1dd f0de f0cb f25d f25d f0d7 f0de f262 f25d f1b6 f0da f0de f264 f25d f0d3 f0de f005 ee66 faa2 03b7 f0dc f25d f261 f0fe f0de f16b f25d f286 f0de f0de f261 f25d ed13 ed1f 03aa 03ea f1d5 f0e4 f0de f24a f25d f12e f0de f0e1 f25d f249 f0de f101 f238 f25d f1dd f0de f0cc
f0fd f104 f23c f237 f1a6 f0fb f104 f244 f237 f0e5 f104 f22c f237 f256 f104 f0e8 f237 f240 f10e f104 f184 f237 f26d f104 f103 f238 f237 f0fc f104 f19d f234 f237 f085 ee98 f81c febc 0019 f346 f37b f060 f959 f3fa f1fd f225 f237 f1b8 f104 f0f4 f238 f237 f0fd f104 f23c f237 f1a6 f0fb f104 f244 f237 f0e5 f104 eef0 ee56 fbd0 03c7 f0fe f237 f240 f10e f104 f184 f237 f26d f104 f103 f238 f23c ed27 ed30 03ad 03c5 f2a2 f123 f104 f229 f237 f12d f104 f112 f237 f22a f104 f116 f225 f237 f1b8 f104 f0f4
f142 f144 f1f7 f1bb f187 f13d f144 f202 f1bb f12a f144 f22c f1bb f211 f144 f12a f1bb f1fe f12d f144 f1ad f1bb f1ea f144 f142 f1b6 f1bb f126 f144 f1b9 f1ba f1bb f152 f07d f0f2 fb59 fd3f ffd0 0286 f103 efd1 03d6 f410 f1d0 f1ba f18e f144 f13a f1bd f1bb f142 f144 f1f7 f1bb f187 f13d f144 f202 f1bb f12a f145 ee52 edff 039e 03d2 f15a f1bb f1fe f12d f144 f1ad f1bb f1ea f144 f142 f1b6 f1c4 ed4f ed85 03df 0361 f299 f161 f144 f1e7 f1bb f12d f144 f154 f1bb f1ea f144 f154 f1cd f1bb f18e f144 f13a
f233 f241 f0f5 f0fa f199 f23e f241 f10e f0fa f22d f241 f12d f0fa f10e f241 f22d f0fa f10c f229 f241 f1bf f0fa f0ea f241 f231 f0f3 f0fa f256 f241 f1a6 f0f7 f0fa f242 f241 f103 f013 eeb5 fdf4 ff4e ff2f f046 02e6 039b f1fa f0e8 f182 f241 f266 f0fb f0fa f233 f241 f0f5 f0fa f199 f23f f240 f10a f0fb f230 f231 ed57 ed4b 03b7 03a7 f22d f0fa f10c f229 f241 f1bf f0fa f0ea f241 f231 f0f0 f0c6 ee80 ee04 03e2 03b4 f0f2 f242 f241 f0f7 f0fa f22c f241 f253 f0fa f0f9 f241 f244 f10e f0fa f17b f241 f266
f1fc f1ff f11b f13c f1c9 f1fe f1ff f14c f13c f1eb f1ff f11e f13c f140 f1ff f1f0 f13c f14c f208 f1ff f1a8 f13c f130 f200 f1ff f138 f13c f230 f1ff f186 f134 f13c f204 f1ff f13a f13f f144 f097 fdf8 fd77 ff0e 00f7 02fd f421 f1f4 f1a5 f204 f221 f13c f13b f1fc f1ff f11b f13c f1c9 f200 f201 f143 f13a f1f2 f1b7 ed62 ee8e 0366 02ba f1f0 f13c f14c f208 f1ff f1a8 f13c f130 f200 f1fd f12a efdc ee65 f114 03ba 02bd f14b f204 f1ff f13a f13c f22c f1ff f210 f13c f137 f1ff f207 f12e f13c f1a1 f1ff f221
f0d3 f0da f235 f243 f1d8 f0da f0da f242 f243 f0ed f0da f21d f243 f25c f0da f0eb f243 f243 f0fa f0da f18d f243 f259 f0dc f0da f242 f243 f109 f0da f166 f23c f243 f10f f0da f25a f243 f13e f0bd effa f129 fe27 fefa 000f 02c7 f347 f2fc f190 f0ea f247 f241 f0d3 f0da f234 f243 f1d8 f0d9 eff6 f230 f337 f10c ef92 ee79 f39d 03f6 00b8 f0e8 f243 f245 f0f8 f0da f18f f242 f259 f0d4 f0b7 f139 ef3d ee72 f5d2 03af 008a f2c1 f10f f0da f25a f243 f13c f0da f0ff f243 f259 f0da f10e f220 f243 f1ab f0da f0ea
f0f2 f0f7 f251 f244 f1ac f0f8 f0f7 f23f f244 f0f8 f0f7 f22c f244 f243 f0f7 f0fc f244 f243 f108 f0f7 f180 f244 f267 f0f8 f0f7 f231 f244 f0fd f0f7 f193 f240 f244 f11d f0f7 f22a f244 f11e f0f7 f105 f14e f0df fda1 fd39 fff2 0187 f30d f38e f1d4 f24b f236 f0f2 f0f7 f251 f245 f1a3 eff9 ee8c f33c f47c f0e6 edfe ee83 f6cf 03e4 f17f f0f6 f246 f247 f106 f0f7 f182 f240 f26a efee efc4 f04f efa8 f17f 03c4 02d5 f230 f234 f11d f0f7 f22a f244 f11e f0f7 f101 f244 f22e f0f7 f119 f22f f244 f1b8 f0f7 f0eb
f12d f12d f235 f20e f19b f12d f12d f20b f20e f153 f12d f1c3 f20e f19c f12d f140 f20e f20e f118 f12d f1bb f20e f22b f12d f12d f204 f20e f128 f12d f1b4 f20a f20e f134 f12d f1f9 f20e f14b f12d f16d f20e f1e9 f04b eecc fca6 fed8 00ec fdf2 f2ff f262 f2d2 f212 f15c f205 f131 f0e6 ef1d eff3 f517 021f f03e ed4b eff1 01a4 02bd f253 f11c f223 f23b f111 f11c f1c6 f220 f249 ef2a ef11 f25b f3f9 0244 0301 0112 f20a f20e f134 f12d f1f9 f20e f14b f12d f16d f20e f1fa f12d f131 f21d f20e f18e f12d f135
f22f f233 f0fc f0f9 f1a4 f22c f233 f0f2 f0f9 f23e f233 f12d f0f9 f10b f233 f24a f0f9 f0f1 f21c f233 f1c9 f0f9 f0ec f233 f233 f0f4 f0f9 f262 f233 f1a8 f0fa f0f9 f24f f233 f0eb f0f9 f200 f233 f222 f0f9 f0f6 f236 f1a4 ee3f fe22 feee 0000 0108 f100 f28c f40c f29f f08b ef2e f013 f103 f4a8 0358 fa2d ef9e ef39 f0f2 00d3 0014 fb36 f22b f129 f0fa f20f f21f f194 f118 f10b f21e f1e5 0116 00f3 01b1 0123 f218 f0fa f0f9 f24f f233 f0eb f0f9 f200 f233 f222 f0f9 f0fb f233 f250 f10c f0f9 f17f f233 f264
f1e8 f203 f128 f138 f1b1 f1f9 f203 f162 f138 f1ed f203 f11e f138 f13e f203 f1e9 f138 f160 f210 f203 f19c f138 f134 f204 f203 f13c f138 f228 f203 f18a f13c f138 f1fc f203 f13c f138 f22e f203 f20e f138 f13d f204 f200 f039 f049 fd02 fd85 fef8 fecc 000a 0071 f55e f0d0 f160 f4d6 fe6c 015f 029f f05b ef6d f208 028c 0143 fe50 fec0 ff78 ff8f ffe2 ff74 fffb ff9a 001d 0015 015d 0175 00c1 0108 f7d8 f283 f18a f13c f138 f1fc f203 f13c f138 f22e f203 f20e f138 f13d f203 f1ff f12a f138 f1a9 f203 f21d
f0ef f0f9 f27a f242 f1b3 f0f8 f0f9 f281 f242 f0f6 f0f9 f21d f242 f261 f0f9 f0f7 f242 f280 f11f f0f9 f166 f242 f297 f0fb f0f8 f245 f243 f0e5 f0f9 f187 f240 f242 f0cd f0f9 f261 f242 f12e f0f9 f0db f242 f24e f0f9 f0ce f21e f245 f0ca efe1 fd4e fdbb 0014 ffec fff1 fffe 01f4 01e3 fdfd fe1b fff6 f119 f2bb 01d7 0250 00c1 f141 f605 ff0a ffaa 0016 ffa2 ffdf ffd4 0033 001b 00a3 00bc f2c5 f203 f0e5 f0f9 f187 f240 f242 f0cd f0f9 f261 f242 f12e f0f9 f0db f242 f24e f0f9 f0ce f21d f242 f1cf f0f8 f0c9
f0f3 f0f7 f25a f244 f1a2 f0fe f0f7 f23f f244 f0e9 f0f7 f22c f244 f251 f0f7 f0fb f244 f23f f111 f0f7 f178 f244 f266 f0f8 f0f4 f236 f247 f0f6 f0f7 f195 f23f f244 f11a f0f7 f237 f244 f11e f0f7 f0f6 f244 f22f f0f7 f11a f22d f244 f1bd f0f4 effa f149 0017 ffe8 ffeb 0014 00f0 00f2 f046 ef41 fdd6 0005 01d7 02ba 00fc f1b4 f251 f0f8 f0fa f235 f23f f0fe f1f1 f1a8 f2a4 f266 f0f8 f0f4 f236 f247 f0f6 f0f7 f195 f23f f244 f11a f0f7 f237 f244 f11e f0f7 f0f6 f244 f22f f0f7 f11a f22d f244 f1bd f0f4 f0e8
f12f f130 f23e f21a f163 f133 f130 f1ed f21a f12c f130 f20e f21a f1f1 f130 f12f f21a f1fa f122 f130 f186 f21a f22a f130 f12c f21a f22c f120 f130 f1d3 f217 f21a f143 f130 f22e f21a f11e f130 f139 f21a f217 f130 f142 f22b f21a f1b0 f12d f132 f22d f21c f12f f12e f23e f21a f163 f12b f04d f16d ff81 00e8 0018 f28e f21a f1f1 f130 f12f f21a f1fa f122 f130 f186 f21a f22a f130 f12c f21a f22c f120 f130 f1d3 f217 f21a f143 f130 f22e f21a f11e f130 f139 f21a f217 f130 f142 f22b f21a f1b0 f12d f132
f251 f24d f108 f0fd f185 f24c f24d f0f3 f0fd f23f f24d f13c f0fd f11a f24d f239 f0fd f0ef f23c f24d f1bc f0fd f0f9 f24d f24a f0f9 f10d f236 f24d f1a2 f0fc f0fd f25f f24d f0ea f0fd f1f0 f24d f214 f0fd f0fb f24d f25d f112 f0fd f17c f24c f252 f10f f0fe f251 f23d f108 f0fd f185 f24c f24e f0f1 f0f1 f25f f20d f13c f0fd f11a f24d f239 f0fd f0ef f23c f24d f1bc f0fd f0f9 f24d f24a f0f9 f10d f236 f24d f1a2 f0fc f0fd f25f f24d f0ea f0fd f1f0 f24d f214 f0fd f0fb f24d f25d f112 f0fd f17c f24c f252
f1ee f1f7 f11c f144 f1b7 f1f9 f1f7 f163 f144 f1f2 f1f7 f11e f144 f13a f1f7 f1e7 f144 f160 f20b f1f7 f198 f144 f12f f1f8 f1e7 f140 f144 f230 f1f7 f17e f142 f144 f1fc f1f7 f138 f144 f22c f1f7 f212 f144 f13f f1f7 f1f9 f136 f144 f1a1 f1f7 f219 f145 f143 f1ee f1f7 f11c f144 f1b7 f1f9 f1f7 f163 f144 f1f2 f1f7 f11e f144 f13a f1f7 f1e7 f144 f160 f20b f1f7 f198 f144 f12f f1f8 f1e7 f140 f144 f230 f1f7 f17e f142 f144 f1fc f1f7 f138 f144 f22c f1f7 f212 f144 f13f f1f7 f1f9 f136 f144 f1a1 f1f7 f219
f0d8 f0d8 f222 f281 f1c8 f0de f0d8 f25f f281 f0cd f0d8 f1d2 f281 f214 f0d8 f0cd f281 f25d f0fb f0d8 f181 f281 f246 f0da f0d8 f280 f281 f10b f0d8 f162 f278 f281 f0e4 f0d8 f26a f281 f15a f0d8 f11c f281 f266 f0d8 f0e1 f260 f281 f1aa f0d8 f0e8 f281 f27e f0d8 f0d8 f222 f281 f1c8 f0de f0d8 f25f f281 f0cd f0d8 f1d2 f281 f214 f0d8 f0cd f281 f25d f0fb f0d8 f181 f281 f246 f0da f0d8 f280 f281 f10b f0d8 f162 f278 f281 f0e4 f0d8 f26a f281 f15a f0d8 f11c f281 f266 f0d8 f0e1 f260 f281 f1aa f0d8 f0e7
