fffa 0001 0000 0000 fffd 0007 fffc 0006 fffe 0000 0004 0004 ffff fffd 0004 0000 0000 0002 0000 fffb 0006 ffff 0006 fffa 0001 0003 0002 ffff 0003 fffd 0006 0001 0002 ffff 0003 0002 ffff 0000 fffd 0002 ffff 0006 0000 0000 0003 fffb 0003 fff9 0002 0009 fffc 0009 0001 0002 0001 0000 0003 ffff 0001 0004 fffa 0005 0000 fffb 0001 fff9 0001 0000 0000 0001 0000 0000 0001 0004 0000 0000 0003 0000 0000 0000 ffff 0000 0003 fffd 0007 0002 fffa 0003 ffff fffe 0002 0001 0000 0003 fffc 0000 ffff 0001 fffd 0004 ffff ffff fffb 0003 0000 0002 fffb 0003 0002 fffc 0004 0000 0000 ffff 0000 0000 0001 ffff 0004 fffd 0000 0001 fffd 0002 0000 0000 0000 ffff 0004 fffd fffd 0002 0001 fffa fffd 0002 0000 0000 fffe 0002 fffe fffd fffd 0003 fffe fffe ffff 0000 0000 0000 0000 0002 0000 fffd 0002 0000 0000 fffe 0002 0000 0000 0000 0000 ffff 0002 fffc 0000 0001 fffd fffd 0004 fffe ffff 0000 0000 0000 0001 0000 0002 0000 fffe 0000 0001 fffd ffff 0001 0001 0001 0000 0002 fffc 0001 0001 0000 0004 ffff 0000 0003 ffff 0003 fffe 0000 0000 0000 ffff 0002 0001 fffd fffc 0004 0000 ffff 0002 0000 fffd 0005 fffd 0001 0001 fffe ffff 0001 0003 fffc 0000 fffe 0002 0000 0000 0000 fffc ffff 0000 0000 fffd 0002 ffff 0000 0000 fffe 0004 ffff 0000 fffa 0002 ffff 0000 0000 fffb 0001 0002 0000 0000 fffd fffe ffff 0000 0000 0002 0001 ffff 0000 0001 ffff 0000 0003 fffa 0002 0000 0000 fffd 0003 0000 ffff 0003 ffff 0000 0003 fffc 0000 ffff ffff 0001 0004 fffe 0000 0001 ffff 0000 0003 fffd 0001 0003 fffd 0000 fffe 0000 fffe 0004 0000 0000 fffa 0007 fffd 0004 fffe 0002 ffff fffe 0002 0000 fffe 0003 fffd fffe 0000 0000 0006
0002 0000 0000 ffff 0000 fffb 0004 fffe fffd 0000 fffd fffc 0004 0002 ffff fff9 0003 fffd 0006 fffe 0003 0004 fffc 0007 fff7 0004 0001 ffff 0005 fffe 0000 fffb 0000 ffff fffe 0000 0000 0001 0001 fffe 0003 0000 fffc 0000 0001 0002 0000 fffc 0003 fffc 0000 fff6 0003 fff9 0003 fffd 0008 fffc 0001 0000 fffe fffc 0000 0005 fffe 0004 0003 fffa 0006 0002 fffe 0007 fffe fffd fffe 0005 fff8 0007 fffc 0001 0000 0001 0001 0000 fffb 0001 fffd 0003 fffa 0001 fffe 0003 fffe fffe 0007 ffff 0001 0000 0001 0000 fffd 0003 ffff 0000 0003 0001 0003 0000 0000 fffe ffff 0000 0000 ffff 0000 ffff ffff 0000 ffff fffe 0000 0000 0000 ffff 0000 ffff 0003 0000 ffff 0001 0003 0001 fffc 0007 0000 0002 0000 ffff 0000 0000 0001 0002 0000 0000 0000 0002 0005 fffc 0003 0000 fffe 0000 0000 ffff 0000 0000 ffff 0002 ffff 0002 0003 fffd 0002 0003 fffd 0004 0004 fffe 0002 0000 fffe 0001 0002 0000 0000 0003 ffff ffff 0002 0000 ffff 0002 fffe 0004 0002 0000 0001 0000 fffe 0000 0000 0000 0002 fffe 0001 0000 fffe ffff 0001 0002 ffff 0002 0000 ffff 0001 fffc 0000 0001 0005 fffd 0001 ffff 0000 0001 ffff ffff 0002 fffe 0000 0003 0000 0004 fffa 0002 0000 ffff 0000 0005 0000 0000 0007 0002 0000 0000 0004 0000 0002 0000 0002 fffe 0003 0000 0001 0001 ffff 0003 fffe 0001 0003 fffe ffff 0000 0001 0001 0000 0002 0000 0000 ffff fffe 0004 0001 fffe 0005 fffd ffff 0001 ffff 0000 0000 0003 fff9 0003 0000 0000 0001 0000 0000 0001 0002 0000 0000 0003 fff5 0007 0000 fffd 0003 fffc 0000 0002 ffff fffd 0003 0002 ffff 0000 0001 fffc 0001 fffe 0000 0000 0001 fffe 0000 0002 0000 0000 ffff fffe 0001 fffd 0003 0002 0001 0001 fffd
fffe 0000 ffff fffe 0003 0001 0002 fffb 0000 0001 0003 fffe 0001 0005 fffc 0002 ffff 0005 fff8 0001 fffa 0001 fffe 0002 0003 ffff fffb ffff 0001 0001 fffd 0009 0000 0001 0002 ffff fffd 0000 ffff 0002 fffc 0000 0000 0004 ffff 0004 0000 fffc 0000 0000 0002 ffff 0005 0001 fffc 0000 0002 fff2 0006 0001 fffd 0001 0007 fff9 0005 0002 fffb 0003 fffe fffe 0001 fffb 0001 0000 0002 0000 0001 0000 ffff 0004 fffa ffff 0003 0000 0002 ffff 0000 0000 0003 0001 0000 ffff 0001 0002 fff9 0001 0007 fff9 0002 0000 0000 0000 0005 fffb 0000 ffff 0000 fffc 0000 ffff 0001 0000 ffff 0001 0000 0001 0005 ffff fffe 000a ffff 0000 ffff 0003 fffe 0000 0000 0002 0000 fffc fffe 0000 0002 fffd 0001 0000 fffc 0007 0000 0003 0000 0000 0000 fffe 0002 fffa 0001 0000 ffff 0000 0000 ffff 0000 ffff 0000 0000 ffff fffd 0002 fffd fffd 0003 fffd 0001 fffe fffc 0003 ffff ffff 0003 0002 0000 ffff fffe ffff fffc 0000 0000 fffe 0001 0000 fffe 0000 fffd 0000 fffe fffd 0000 ffff ffff 0000 fffc 0000 ffff 0001 fffe 0000 0000 0000 fffb 0003 ffff ffff 0000 0000 0005 0000 ffff fffa 0003 0001 ffff ffff fffe 0005 0000 0000 0005 0001 fff9 0001 0000 0002 0001 ffff 0007 fffc 0000 0001 0001 fffe ffff ffff ffff 0000 0000 0000 fffe 0001 0000 fffd 0002 fffe 0002 0003 fffb 0001 0003 0000 0002 fffe 0000 fffc 0008 fffd 0000 0001 fffc 0005 fffe 0002 fffc 0003 fffe 0000 0001 0000 0001 0000 0000 0001 fffe 0002 fffc 0003 fffc fffe 0003 ffff fffb 0001 0000 fffb 0005 fffd 0000 0001 0000 0003 fffe ffff 0005 0000 fffc 0001 0003 0000 0002 0000 0003 0000 0005 ffff 0004 0001 ffff ffff 0000 0004 ffff 0000 0000 0004 fffe fffe 0000 fffe 0000
0000 0000 0002 0000 ffff 0000 0002 0001 0008 fffb fffd 0004 fffb fffe 0003 0004 ffff ffff 0006 fffd 0000 0002 fff7 0005 fff8 0001 fffd ffff 0004 0000 fffd fffb 0005 fffc 0000 0001 0006 0004 fffd 0001 0005 fffb 0001 0001 0003 0000 ffff 0005 0003 fffe 0000 0002 fff8 0002 ffff 0004 0002 0004 0002 fffa 0003 0003 fff8 0005 ffff 0000 ffff 0004 fffc 0001 fffc 0001 0000 fffc 0000 0002 0000 ffff 0003 0000 0002 0002 fffc 0006 0001 0000 0005 fffe 0002 ffff fffd 0003 0000 fff7 0002 0000 fffa ffff 0006 ffff fffe 0003 fffa 0005 0002 0000 0001 0001 0000 0002 0000 fffd 0000 0003 fffe 0000 ffff 0003 0001 fffc 0000 0000 fffc 0001 0000 0000 0001 fffe 0002 0002 0000 fffe 0000 0002 0000 fffe 0004 fffa 0004 fffd ffff 0001 0002 0000 0001 0003 0000 0000 0000 0002 0001 0003 ffff 0001 0000 0000 0000 0002 0001 0000 0001 fffc 0001 0000 0001 0002 fffe 0000 ffff 0002 ffff 0001 ffff 0002 0000 0003 0000 0002 0002 fffe 0000 0000 0002 0000 ffff 0002 0004 0000 0001 0001 fffe 0004 0003 fffc 0000 0001 0000 0002 0002 0002 fffb 0000 fffe 0005 0001 fffa fffd 0004 0004 fff9 0002 0002 0004 0000 fffe 0000 fffe ffff 0000 0004 fffd 0003 0000 ffff fffd 0000 0000 fffb 0002 fffe fffe 0006 0000 0003 fffe fffe 0004 0001 fffe 0003 0003 fffb 0002 0001 fffe fffe 0000 fffb 0003 fff7 0004 0001 0003 fff4 0004 fffc 0001 0003 fffc 0000 0000 0000 0000 0002 0001 fffd fffd 0002 0000 ffff fffe 0001 0000 ffff 0000 0000 0002 0000 0001 0001 0001 fffa 0006 0003 0002 fffc 0005 fffd fffd 0001 0002 fffc ffff 0007 0000 fff9 fffc 0000 0003 fffc fffe 0004 fffd fffd fffb 0005 0002 fffe fffd 0000 0004 fffc fffd 0006 0000 0001 0001 0000
fffe 0000 0000 0002 ffff 0000 0000 fffe fffd 0001 0004 fffb ffff 0005 fffe ffff fffe 0004 fff8 0005 0002 0000 0002 fffe 0004 ffff 0003 0001 fffe 0001 0000 0000 fffb 0006 0000 0001 fffa 0000 ffff fffb 0000 0002 0000 fffb fff7 0004 fffa fffe fffe 0005 0000 0001 0006 fffa 0000 fffb ffff 0001 fffe 0004 fffe fffb 0003 fffd fffe 0000 0002 0000 0002 0002 0001 0000 0000 0003 0005 fff8 fffe fffe 0002 fffb fffb 0000 fffe 0000 fff8 0001 0002 fffc 0000 ffff fff8 0004 0000 0001 0003 0005 0002 fffe fffd 0001 fffb 0007 0002 fffa 0000 0000 fffb 0005 fffd 0000 0000 0004 ffff fffc 0002 fffd 0000 fffb 0000 0002 ffff 0003 ffff 0000 0003 fffe 0001 0000 0000 ffff fffe 0000 0002 fffd fffd 0000 0000 0000 0000 0000 0000 0000 fffe 0001 ffff ffff 0004 0000 fffe ffff fffc 0001 ffff 0000 0000 0000 0002 ffff 0000 ffff 0002 0001 0000 0001 0001 fffe 0005 0000 0000 0000 0000 ffff 0000 0001 0000 0000 0000 fffe 0000 0004 ffff 0000 0000 0000 0001 fffe fffe 0001 fffe 0001 0000 ffff ffff 0003 0000 0000 ffff fffe 0000 0003 0000 0001 0002 fff9 0004 0002 0000 fffd fffe 0005 0000 0000 fffa 0006 fffc 0000 0002 0000 0002 fffe 0002 fffd 0003 ffff ffff 0000 0000 0002 0000 0002 fffe 0002 0001 fffc 0002 0000 fffe fffd 0001 0001 fff9 0006 0000 fffb 0006 0003 0001 0001 0000 0007 0001 fffe fffb 0004 0002 0002 0001 fffe 0002 0000 ffff 0003 ffff fffd fffd 0001 0000 ffff 0000 0003 0001 0000 0001 0004 ffff 0004 fffc fffd 0004 fffc 0001 0002 0000 fffc fffd 0002 0001 0000 0000 fffe ffff 0000 0001 fff9 0005 0000 0001 0001 fffe 0004 fffd ffff 0000 0005 0000 ffff 0002 0000 0004 fffe fffe 0002 0008 fffa 0000 0000 0000 0004
0001 0000 fffd 0000 fffd 0000 0003 fffc 0002 0000 fff9 0006 ffff 0001 0005 fff9 0005 fffa 0008 ffff 0000 fffb 0005 0002 fffd 0002 0000 0000 0003 0004 fff7 0006 0005 fff5 0002 0000 fffb 0000 0002 0007 0002 ffef 000a 0003 0007 fff3 0006 0000 0000 0001 fff9 0002 0000 0000 0001 0002 0001 fff9 0001 0001 fffe 0003 0000 0004 fffa 0005 0001 fffe 0001 0000 0000 0000 fffa 0003 fff9 0008 0002 0000 fffd 0002 0001 0003 0006 fffc 0000 0000 fffe 0009 0000 0002 0008 fffe fffc 0003 0003 fffd ffff 0001 fffe ffff 0002 fff7 0001 0002 0000 fffe 0000 0000 0000 ffff 0000 fffc 0000 0004 ffff 0002 0000 0005 0002 fffe ffff 0000 0000 fffc 0000 ffff 0001 0000 ffff 0001 0002 fffd 0000 0001 0002 ffff fffd 0001 ffff fffd 0000 0000 fffd 0001 0001 0001 ffff 0000 0000 0002 0000 fffe 0003 0000 ffff 0000 0000 fffe fffe 0003 fffd 0000 0006 fff6 0001 ffff 0000 fffd 0001 0002 0003 fffb 0004 fffc 0002 fffd 0003 fffe 0000 fffe 0004 fffb 0001 0000 ffff 0000 0001 0001 0001 0001 0000 fffe 0002 fffd 0005 fffb 0001 0002 fffb 0000 0002 0000 0000 0004 fffe 0002 0000 0000 0000 0000 0000 fffe 0005 fffc 0001 0000 0004 fffd fffd 0002 0000 0000 fffa ffff 0005 ffff fffc 0001 0000 fffb 0002 0001 fffa 0003 fffd 0001 0000 0003 0001 fffc 0002 0002 fffc 0000 ffff ffff 0000 0002 fffd ffff fffa 0006 0000 fffe fffc 0000 0000 0000 fffc 0000 0003 fffd 0003 0001 0006 fffb 0005 0000 fffd 0000 ffff 0000 0006 fffb 0000 fffb 0002 0005 fffe ffff 0006 fffd fffd fffe 0008 fff8 0000 fffd 0005 0001 0000 0000 0002 ffff ffff 0003 0000 fffd 0001 0000 0000 0001 0001 fffd 0005 fffb 0001 fffe ffff 0005 0001 ffff 0000 fffe 0002 fffd 0003 fffa
fffd ffff 0004 fffe 0004 0002 0004 0000 ffff 0000 0002 0000 0000 fffc fffc 0002 0000 fff9 ffff 0006 fffb 0009 fffa ffff 0004 ffff 0001 0001 fff5 0000 0005 fffe fffe 0006 0001 0000 fffd 0005 fff7 ffff ffff 0008 fff8 fffb 0002 0006 0000 fffe 0004 fff8 0007 0002 0001 fffe fffc 0009 fffd 0004 0001 0000 0005 fffa 0006 fffc 0003 0000 fff7 0002 0001 0000 fffe 0000 0004 0001 0001 fffb fffe 0003 0007 0000 ffff 0002 0000 0001 fffb 0004 ffff fffa 0000 fffe fffd 0000 0000 ffff 0000 0000 0001 0003 0000 0006 fffe 0000 0000 fffc ffff 0005 ffff 0000 0002 fffe 0000 0003 0003 fffa 0001 ffff 0001 ffff fffa 0004 0002 0000 0001 0000 0001 0002 0000 0000 0003 fffe 0000 0001 0002 0000 fffd 0000 0002 0001 fffe 0001 0004 0000 0001 0001 ffff 0001 fff9 0003 0001 fffc 0000 0005 0000 ffff 0002 0003 ffff 0002 0002 fffe 0002 0000 fffe 0003 0002 fffc 0002 0000 0001 0000 fff8 0002 0000 0000 0004 0003 fffc 0000 0000 ffff fffe 0002 0000 0001 0002 0001 fffe 0002 fffd 0001 0001 0000 0000 0004 fffc 0005 0000 fffe 0007 fffc fffb 0000 0003 fff8 0002 fffd fffe 0003 fffd 0001 ffff fffc 0003 0003 0004 fffb ffff 0001 fffb 0002 ffff fffe 0006 0000 0000 0000 0002 0001 0000 0000 fffe 0000 0002 fffa 0007 fffe 0001 ffff 0000 0000 0000 0000 0001 0000 0001 0000 0003 fffd ffff 0001 0005 ffff ffff 0005 0000 fffd ffff 0001 0002 0000 fffd 0000 0000 ffff fffe 0004 0000 0000 0000 fffe 0000 fffd ffff 0001 fffb 0006 fffd fffc 0000 0000 fffa 0000 0001 0006 fffa 0005 0001 0004 fff7 0005 fffb 0000 0001 0002 0000 ffff ffff 0004 fffa fffe 0001 0000 0000 ffff fffd 0004 fff9 0002 0000 fffc 0000 fffd 0002 0000 0000 0002 0001 0000
0002 0001 0000 0001 fffe 0002 fffa fffe 0000 0005 fffc 0007 0001 fffe fffc 0003 ffff 0004 0003 fff5 0005 0000 0000 fff7 0003 fffe ffff 0000 0005 0004 fff5 0007 0000 fffd fffc 0004 ffff 0005 0005 0002 0004 ffff 0003 0002 0000 ffff fffb 0006 0002 0000 ffff fffd 0002 0003 0000 fff9 0003 fff9 0005 0000 fffb 0000 fffd 0002 ffff 0000 0003 fffd fffd 0001 0002 ffff 0000 fffc 0003 0003 fffe 0005 fff5 0009 0000 0000 fffd 0000 0005 fff9 0001 0005 0000 fffd 0007 0000 0000 0002 ffff fffc 0003 fffd 0001 fffd 0003 0001 0003 0000 0005 fffd fffe 0002 fffb 0003 0001 ffff 0000 0002 0004 fffc 0000 0000 0005 fffc 0000 fffd 0000 0000 ffff 0000 0002 0000 0000 0000 0002 ffff ffff 0003 0000 0000 ffff 0000 0000 fffe fffe 0001 0001 fffe 0000 0002 ffff 0003 0000 0001 0004 fffe fffb 0001 0000 0000 0000 0000 fffe 0000 fffe 0002 0001 fffd 0001 fffe 0002 ffff fffd ffff 0004 0000 ffff 0001 fffc 0000 0003 0000 0001 0002 0001 0000 0000 fffd fffd 0002 0001 0000 0004 ffff ffff 0001 fffd 0000 fffd ffff 0003 ffff ffff 0000 0005 fffe 0000 0003 0003 0000 0002 0000 fffe 0001 0000 0000 fffe fffc ffff 0000 0000 0002 ffff 0003 0000 0001 fffd 0000 0000 0000 fffa 0003 0004 fffb 0003 0000 0004 0002 fffc 0000 0000 0000 0000 fffe fffe 0000 0002 fffe 0003 0000 fffb 0002 fffe 0001 fffd fffe 0000 ffff 0000 0000 0002 ffff fffa 0002 0003 fffc 0002 0000 0000 0000 fffe 0001 0001 0004 fffd 0000 fffe 0003 0000 0001 0000 0002 0001 0000 0003 0000 0004 fffe 0000 fffe 0000 fffd 0003 fff9 0005 fffd fffe fffe ffff 0001 0000 0000 0003 0004 fffe 0003 fff9 0004 0000 fffc 0005 0000 fffa 0003 ffff 0002 fffd 0003 0000 ffff fffe fffd
0001 ffff fffd 0000 fffd 0000 0001 0003 0001 fffc 0005 fff7 0001 0004 0000 0001 0000 fffd 0005 0000 0000 fff8 0004 0002 0003 fffb 0007 fffd ffff ffff 0006 fff8 0003 0006 fffb 0000 0003 fff2 0005 fff8 0002 0004 fff1 0005 0000 0000 0000 0000 ffff ffff 0002 0006 fff9 0000 0004 0005 fffb 0007 fff4 0008 0000 0003 0002 fffd 0001 0002 fffb 0004 0003 fffe 0000 0001 ffff ffff 0001 fffb 0005 fff9 0003 fffc fffc fff8 0008 fffd 0002 0007 fffd 0000 fff6 0000 fffe 0001 0001 fffc 0002 0000 fffe 0007 0000 ffff fffd fffc 0001 ffff fffd 0000 0002 0000 0001 0001 ffff fffe 0001 0004 fffd 0003 0000 fffd fffd 0000 0002 0003 ffff 0004 fffe ffff fffd 0000 0000 0000 ffff 0001 0001 fffd ffff 0000 0000 0001 fffe 0002 0002 fffb 0000 ffff 0000 0002 0000 fffd 0003 fffe fff9 0001 0000 0003 fffe 0000 fffd 0000 0001 0000 0001 fffd ffff 0002 0002 fffe 0001 0002 0004 0000 fffd 0001 0004 fffc 0005 0000 fffe fffe ffff fffd 0003 0000 fffe 0001 0006 fffb 0000 0000 fffb 0002 fffd ffff 0003 0001 0000 0000 0002 0002 fffe 0000 fffe 0001 ffff 0000 fffc 0000 0003 fffe 0008 fffe 0003 ffff 0005 0000 0000 ffff 0001 0000 0000 0003 ffff fffd 0004 fffc 0001 0002 0001 0000 0000 0000 ffff 0001 fffd 0003 0001 fffb 0005 0001 0000 0000 0001 0000 0000 0000 0000 0000 0006 fffe 0000 ffff 0004 0003 0000 fffe 0000 0004 fffd 0000 0008 fffc 0000 0006 fffd 0004 fffd fffc 0003 0000 fffd ffff 0005 0000 0000 0002 fff9 0003 0002 fffd 0008 fffb fffe 0005 fffa 0000 0003 fffa 0006 0000 0000 0003 0000 0000 fffe 0005 0002 fffd 0005 fffe fffc 0006 0001 fffb 0005 0001 ffff 0005 0000 fffc 0005 ffff 0000 ffff 0003 0000 fffc 0002 0003 0000
0000 fffc 0007 0000 fffe 0000 0001 0002 0001 0000 fffc 0002 fffe 0002 fffe 0001 0005 fffa fffc 0004 0002 0003 0001 0008 fff4 0005 0000 0000 0004 ffff ffff fffa 0002 fffd 0006 fffa 0006 0000 fffc 0002 0002 fffe 0008 0000 fffd 0000 fffc 0002 0000 fff9 0000 fffe 0002 0002 ffff fffd fffc 0000 0005 fffb 0000 fffd ffff 0000 0000 fffb 0000 0001 0000 0005 fffa 0001 0001 0001 fffd 0002 fffc 0001 0002 0008 ffff 0004 fff7 0002 0001 fffa 0000 0004 0005 0002 0001 fff7 0003 0005 fffe fffe 0006 fff5 0004 0002 ffff 0004 0000 ffff 0000 0001 0000 ffff fffe 0000 0002 fffe 0002 fffa 0002 ffff 0002 0000 0002 ffff 0000 ffff 0000 0000 0001 ffff 0002 0000 0000 ffff 0001 0002 0000 fffe 0001 0001 0000 0000 0003 fffc 0004 0003 0000 0000 0000 0000 0000 fffd 0000 0003 0003 fffd 0003 fffd 0004 0000 fffd 0000 0003 fffe 0000 0001 0004 ffff fffc ffff 0000 fffe fffb 0001 0001 fffe 0000 0000 fffd 0000 0001 0001 0000 0005 fffb ffff 0000 0000 ffff fffe ffff ffff 0000 0000 0001 fffe 0000 fffd 0001 0000 fffe 0001 ffff 0001 0002 fffc 0002 0000 0002 fffe 0003 fff9 0000 0001 fffa 0003 fffe 0004 fffe 0001 0001 fffc 0000 0000 0000 0001 0000 0002 fffc fffb 0003 ffff 0000 0002 fffb ffff 0002 ffff 0000 0000 0000 ffff 0000 ffff 0001 0002 fffe fffe 0001 fffa 0000 0000 0000 0002 0000 fffe 0001 ffff 0000 0000 ffff 0003 fffd 0006 fffb 0004 fffa 0000 ffff 0005 fffd 0004 0006 fffa 0003 fffd 0002 0004 0000 fffc 0000 0000 fffb 0006 0001 fffd 0003 0003 0000 0001 ffff 0000 fffa ffff 0002 0003 0000 fffe 0002 fffd fffe 0004 fffd 0000 ffff 0004 fffd 0003 0002 fff8 0003 0003 fffd 0002 fffd ffff 0000 fffc 0003 0000 0000 0000
0002 fffe ffff 0000 0005 0001 fffc fffe 0004 0000 0005 0000 0001 0002 0003 0001 0003 fffe 0004 fffe 0001 fffd fff5 0000 0000 fffe 0004 0002 fffb 0002 0000 0008 0000 fffc 0000 0008 fff7 0007 0007 fffa fff7 0005 fffb 0003 0005 fffc 0003 0004 ffff 0001 0002 0001 0001 fff4 0007 ffff 0003 0002 0001 0000 fffb 0008 0003 0006 ffff 0003 ffff fffe 0000 fffa fffe 0007 fffc 0001 0002 fffd 0000 0002 0000 fff7 0003 fffc 0008 fff7 0004 0000 ffff 0008 fff5 0003 0002 0006 0002 0000 0000 fffc 0000 0005 fffc 0003 ffff ffff 0000 0003 ffff fffe 0001 0003 fffe 0000 fffc 0000 ffff 0002 0000 ffff 0003 0000 0003 fffb 0002 0001 0000 0000 0000 0001 0001 0000 0000 0002 ffff fffe 0000 0004 fffd 0000 fffe 0000 0001 0000 fffc 0000 0000 0001 0003 fffc 0004 fffe 0002 fffc ffff 0004 fffb 0005 fff9 0001 0006 0001 fffc 0003 0000 0000 fffb 0000 0004 0000 fffd 0002 0003 fffd 0000 0004 0000 fffe 0000 0003 ffff 0001 0001 fffd 0003 0004 0000 0002 ffff 0004 0000 0001 0002 0001 0000 0000 0000 0003 0000 ffff 0000 ffff 0001 0001 0003 fffe ffff fffe 0007 fffd 0002 fffe 0001 0000 ffff ffff 0002 fffd 0002 fffe 0005 0002 0002 0000 ffff 0000 0000 0000 0004 0002 0001 0001 0001 fffc 0003 0000 0000 0000 0000 0000 0000 0000 ffff 0000 ffff ffff 0001 0000 0000 0003 0000 0001 0001 fffa 0001 0002 0000 0001 0000 0000 0000 fffd 0001 fff9 0002 fffe 0002 0003 fffb 0003 fffd 0000 fff7 0006 0000 fffd 0004 fffd fffd 0008 fff7 0000 0006 fff3 0002 0004 0001 fffa 0000 fffc 0004 0003 0001 0004 0001 fffc 0000 ffff 0003 fffc 0004 ffff 0007 fffc 0000 fffb 0004 0000 fffb 0005 fffe 0000 0001 0002 fffe 0002 ffff 0003 fffe 0000 ffff 0000
0000 0001 0002 0000 fffd 0002 fffd 0008 fff7 0002 fff9 0002 fffd fffc fffa fffc ffff 0001 fffc 0002 0003 0003 0007 0001 0003 0000 0000 fff9 0004 ffff 0000 fff5 0002 0000 0000 fffe fff8 0002 fffc 0005 0007 fff9 0005 fff7 0001 0002 fffd fffa 0006 fffd fffb 0000 0007 0001 fffe 0002 0001 fffe 0001 fffb 0006 fff6 fffc fffd fffa 0000 0001 fffe 0006 0000 0001 ffff 0005 0001 fff9 0007 fffd fff9 0004 0000 0002 0004 0003 fffe ffff 0001 0000 fff9 0005 0000 fffb fffc 0003 fff7 0003 0001 0001 fffb 0000 0005 fffb 0002 fffe 0000 0001 0004 fffb 0002 ffff 0003 0000 0004 ffff 0004 0002 fffa 0000 0001 fffd 0003 fffe ffff 0000 ffff 0002 ffff fffd 0000 0002 fffb 0004 ffff fffb 0000 0002 0000 0000 0002 0000 fffd 0001 0002 0002 fffe fffd 0006 fffa 0000 ffff 0001 0001 0000 0003 fffc 0007 fffe fffd fffd 0005 0000 fffb 0004 0002 0002 fffa 0000 0007 fffc 0000 0000 0003 fffe 0001 0003 0003 fffe ffff 0000 0000 0000 fffd ffff 0000 fffe 0000 fffb 0000 ffff 0001 fffa 0000 0003 fffe 0003 fffe 0001 0004 0001 fffc 0000 fffc 0001 0003 0000 fffb 0001 0002 0001 0000 0000 0000 0002 0000 0000 fffb 0000 fffe 0002 fffd 0000 0000 0001 0000 0003 fffb 0005 fff8 0000 0003 fffd 0001 0002 ffff ffff 0000 0001 ffff 0002 0001 0003 ffff 0000 0001 0000 0000 0002 fffa 0001 fffe 0005 fffd 0000 0000 ffff 0000 fffc 0000 ffff ffff 0006 0001 0006 fff8 0000 0005 0000 ffff 0001 0007 fff8 0002 0001 fffc 0000 0001 fffa 0005 0002 fffe 0008 0002 fff8 0002 fffe 0006 0000 fffe 0001 0003 ffff fff9 0002 0001 0003 0001 fffd fffe 0006 fff8 0001 0002 fff9 0003 fffc 0004 0001 fffd fffc ffff 0003 0001 fffc 0002 0003 fffd 0002 fffd 0000
fffb 0004 fffa 0000 ffff fffe 0005 fff4 0009 0003 fffb fffd 0002 0008 0001 0005 ffff 0002 ffff 0000 ffff fffb fffa fffc 0006 fffc fffd 0003 ffff 0000 0001 0005 0002 0000 0003 0000 0004 0000 0003 0003 fff9 0002 0000 0006 fffe ffff 0003 0003 ffff 0000 0001 fffd fffe 0000 0000 fff8 0003 ffff 0000 0000 fffc 0005 0002 0004 ffff 0002 fffe 0001 fffb 0002 0001 fffd 0000 fffc 0000 0003 0003 0001 0004 0005 fff6 fffd fffe 0004 0006 0001 0001 0008 fff8 0004 0004 fffd 0001 0001 0002 ffff fffd 0006 fffd fffe 0002 0000 0000 0002 0000 fffd 0002 0000 0000 ffff fffe 0000 0000 fffc fffe 0004 fffb 0000 0003 fffd 0004 0000 0000 0001 0002 fffd 0002 ffff 0000 0002 ffff 0001 0000 0005 fffd 0001 fffe 0000 0002 0001 fffd 0001 fffe ffff 0000 fffe 0002 fffe 0002 0001 fffd 0001 ffff 0001 ffff 0000 0000 0002 ffff 0000 0002 0000 0000 ffff 0000 0002 0000 ffff 0002 0000 fffd 0000 fffe 0002 fffc 0000 0000 0000 0000 0000 0002 0000 0000 0000 0002 0002 ffff 0002 0000 0000 0003 0000 0001 fff7 0004 fffe ffff fffe 0001 0001 0002 0000 ffff 0000 fffb 0000 0000 0000 ffff 0002 0000 0001 0001 0000 0003 0000 0003 fff9 0002 ffff 0001 fffb 0000 fffe 0001 fffd 0002 0003 fffb 0002 0006 fff8 0001 0000 0000 0001 0000 0002 fffe fffc 0003 fffd ffff ffff ffff ffff 0000 ffff 0006 ffff ffff 0001 0000 0000 0002 0000 0001 0003 0001 0001 fffd fff9 0006 0000 fff6 0000 0000 0003 fff7 0005 0001 0000 0001 fffc 0002 0005 fffc ffff 0001 fffe fff7 0005 0000 0005 fffa 0000 0000 0000 fff8 0005 ffff fffe 0004 fff8 0002 0003 ffff ffff 0002 0000 0000 0006 0000 0004 fffc fffe 0004 0002 0000 ffff fffe 0001 0000 0000 0000 0001 0002 fffe
0002 fffc 0007 0001 fffe 0004 ffff 0005 fffc 0003 0004 ffff 0005 fff4 0006 fff7 0004 fffd 0000 ffff 0002 0003 0004 0002 fff6 0006 0003 fffa 0005 0001 fffd ffff fffe 0000 fff7 0001 fffd 0000 0003 fff9 0005 fff9 0002 0000 fffc 0000 fffe 0000 0005 fffa 0002 0000 0001 fffc 0001 0004 0000 0005 fffe 0004 0000 0000 0002 0000 0000 fffe 0005 0004 0000 0000 0000 0001 ffff 0002 0000 0001 ffff 0003 fff7 fffb 000a 0001 ffff 0004 fff9 fffb fffd fffb 0000 0000 ffff 0001 0000 0002 fffe 0002 0003 0001 ffff 0002 fffe 0000 0000 ffff 0000 0002 fffe 0001 0003 fffd 0002 0002 fffb 0003 ffff 0002 0002 fffd fffe 0006 fffc 0000 0000 0000 ffff 0001 0000 0001 0001 fffe fffe 0002 0001 fffb 0002 0000 0002 fffd 0000 fffe 0000 0000 0001 0003 0001 0000 0000 ffff 0001 ffff 0002 0000 0000 fffe 0003 0001 0002 fffd ffff 0000 ffff ffff 0003 fffe 0000 fffd 0001 0000 fffe ffff 0001 0000 0000 0001 0002 0000 0000 0000 0000 0000 fffc 0004 0000 0000 0001 fffc 0002 ffff 0004 0000 0000 0000 0000 0003 0000 0000 0002 fffc 0004 fffc ffff 0000 0003 fffc 0005 fffc 0000 0003 0000 fffe 0000 fffe fffe 0000 0002 0002 fffc 0002 0000 0004 0000 ffff 0006 0000 0000 ffff 0006 ffff 0002 fffd fffa 0003 0000 fffd 0005 0000 fff6 0004 0000 0000 0004 0000 0003 0000 0002 0003 0000 0000 fff9 0002 0004 fffc 0005 fffd ffff 0002 ffff ffff 0000 fffd ffff 0002 0000 0000 0003 0000 fffd 0002 fffe 0003 fffb 0003 0001 0002 0000 fffd 0001 ffff 0003 0001 0003 0000 0005 fff8 0001 0001 0003 ffff fffe 0001 0003 fffe fffe 0002 0001 fff8 0005 0000 fffd fffe 0003 fffd 0000 0000 fffe 0006 fffc 0001 ffff 0000 0002 0001 fffe 0001 0000 fffb 0001 0003
fffe 0003 fff9 0000 0001 0000 0000 ffff 0001 0000 fffa 0000 0000 fffe 0001 0002 0000 0004 fff8 0004 ffff 0003 fff9 0000 0004 fffc 0005 0000 0001 fffc 0000 0000 fff9 0000 0007 0003 0000 0003 ffff fffd 0002 0000 0001 0006 0003 0000 0003 0000 fffa 0004 0000 0003 fffc 0002 0002 fff8 0000 fffa 0006 fff8 ffff 0001 fffd ffff 0002 0002 fffb fffc fffb ffff 0002 0001 fffd 0002 0000 fffc 0000 fffa 0008 0002 fff6 0002 0003 fff6 0004 0001 0004 0006 fff7 0003 fffe 0003 0000 ffff 0002 fff6 0001 0002 fffa 0003 fffd 0002 0000 0001 fffe 0000 0000 0000 0000 0000 0002 fffc 0002 0002 0000 fffe 0000 0004 0002 fff3 0005 fffc ffff 0001 0001 0000 fffe 0000 fffc 0005 ffff ffff 0000 0000 0001 fffe 0000 0002 ffff 0000 0000 0001 0000 ffff 0000 0001 0000 0002 ffff 0002 0001 fffc fffe 0002 ffff fffd 0002 0000 0001 0000 fffe 0001 fffd 0000 0002 0000 0000 0000 0002 0001 0000 0000 0001 fffe fffe ffff 0001 0001 ffff fffc 0002 fffc 0002 fffb 0000 0000 0000 ffff fffe ffff 0000 fffc 0006 ffff fffc 0007 fffd 0001 ffff 0004 0000 0001 0000 0000 0004 fffe 0005 fffc 0001 0000 ffff ffff 0008 fffd 0000 0000 0005 fffb 0002 fffe 0002 0000 0000 fff8 0004 0000 fffa 0002 fffe fffd 0003 0000 0008 fffd 0000 fffd 0002 0001 0000 ffff fffd 0000 ffff fffa 0000 0000 fffc 0004 0004 0000 fffc 0003 fffe 0000 0001 0000 fffb 0005 fffd 0004 0001 0000 0002 0001 0001 0000 0002 fffd 0000 0001 0002 ffff ffff ffff 0004 0002 ffff ffff 0004 fffe 0001 0001 0000 0000 0000 0002 fffe 0000 0000 0006 fffc 0001 0000 ffff 0000 0004 fffc 0002 0005 fffc 0000 0002 0000 0001 0005 fff9 0006 fff7 0002 0002 0000 ffff 0004 fffb ffff 0007 fffe fff8
0000 0002 0000 0005 fffe 0001 0002 fffe 0000 0005 0000 0000 0003 fffe 0002 0002 0003 0000 fffb 0004 fffd 0002 0001 0001 0004 fffd 0002 0000 fffe 0000 0008 0000 0001 0002 fffb fffd 0004 fff8 0006 fffe 0001 fffc 0000 fffc fff8 000a fff9 0005 0001 fffa 0000 ffff 0000 0000 0003 0003 0005 fffe fffe 0003 0004 0002 0002 0002 0002 fffb 0001 0000 0008 0001 fffb 0001 0000 fffc fffe 0007 fffc 0002 ffff ffff 0006 fffe 0000 0000 0004 0000 fffd fffe 0002 fffe 0003 fffc 0001 ffff 0000 0004 0000 fffe 0003 ffff 0002 fffc 0002 ffff 0004 0000 0000 0002 0000 ffff ffff fffe 0002 0000 ffff 0001 0000 0000 0000 0006 0000 0001 fffc ffff 0002 fffe 0000 0005 0000 0000 ffff 0000 0003 ffff 0000 0000 0001 fffe 0000 0003 0000 fffe 0002 0003 fffb 0000 fffb 0000 0000 0000 fffe 0002 ffff 0000 0001 0000 fffe 0001 0000 ffff 0003 fffc 0002 0001 fffd 0000 0001 0001 fffe fffe 0002 0000 0000 0002 fffe 0004 fffd 0000 0002 0001 0001 0002 fffc 0002 0004 fffe 0003 ffff 0002 fffe 0003 0003 fffe 0001 0003 0000 0001 ffff 0001 fff9 0001 fffe 0000 0001 fffb 0005 0002 0000 fffd 0001 0000 0000 fffb 0000 0003 0000 fffc 0001 fffe 0002 fffd 0000 0000 0002 0000 fffd 0003 0002 0000 0001 fffc 0000 fffb fffc 0000 0001 fffe 0000 0003 0000 fffe 0004 0001 fffe 0004 0000 0007 fffd ffff 0002 fffe 0000 fffc 0000 fffc 0002 0003 fffc 0003 fffe 0000 fffe 0002 fff6 0007 ffff fffe 0004 0004 ffff ffff fffa 0005 fffb ffff 0001 0003 0000 0004 fff8 fffa 0003 ffff fffd 0001 0000 ffff 0002 ffff 0001 ffff 0002 0001 0001 fffe fffe 0008 fff6 0000 0006 fffd fffe 0001 ffff fffb 0003 fffd 0005 0000 fffc 0002 0000 fffc 0003 0000 fffd ffff 0004
ffff fffe ffff 0001 0002 0002 ffff 0003 0005 fffd 0000 0001 fff8 0007 fff6 0003 ffff fffe 0007 fffa 0006 fffd 0001 fffe 0002 fffe 0002 fffc 0002 ffff ffff 0000 0001 0002 0005 0000 0000 0002 fffe 0000 0006 0003 fffd 0005 0005 fff2 0004 0000 0002 0001 0003 fffd 0002 ffff 0001 0000 ffff ffff 0006 ffff fffc ffff ffff 0001 fffb 0002 0003 0007 fff4 0001 0006 0000 ffff 0006 fffe 0000 0000 0000 0000 0007 fff7 0004 0001 0000 fffa 0004 0003 0003 0000 0003 0001 fffe 0000 0000 0000 ffff 0001 0000 0001 0000 0000 0003 fffe 0002 0000 0000 ffff fffd 0000 ffff 0002 0001 ffff 0000 ffff 0001 ffff 0001 0002 fffe 0003 0000 0004 0001 fffd 0004 0000 fffc 0000 0000 0001 0002 fffd ffff ffff 0000 0000 ffff 0002 0000 0000 fffd 0000 0000 0001 0000 0004 0001 ffff 0000 0003 0000 0001 0000 0002 0000 0001 fffe 0002 fffe 0001 0003 fffe 0000 0003 0000 ffff 0001 fffd 0000 ffff ffff 0000 0001 0000 fffc 0000 0001 ffff 0000 0000 0000 0004 ffff 0000 0001 0000 0000 fffe 0000 0000 ffff 0001 fffa 0000 0002 fffa 0004 fffd 0004 ffff 0005 0000 ffff 0003 0000 fff9 0001 0002 0000 fffe 0000 0005 fffd 0000 0000 0002 0000 ffff 0000 fffe 0008 fffb 0002 0000 0003 ffff fffe ffff 0001 fffe 0003 0002 0004 fffe 0006 0000 0004 fff9 0003 0000 ffff 0000 0001 fffe 0002 fff7 0002 0000 0001 0000 0001 0003 0000 0003 fffa 0001 0003 fffd 0000 0000 0003 fffc 0003 fffd ffff 0003 fffe fffe fffe 0003 0005 0000 0004 0000 ffff fffd ffff 0000 0002 0001 0000 0003 fffe 0004 0002 0006 fffa 0007 fff9 0001 0003 fffb 0000 ffff 0004 fff6 0008 fffe 0003 fffa 0005 0000 0004 0003 0000 fffb 0006 fffa 0000 0000 0003 0003 ffff fffd 0004 0001 fffe
0000 0002 0004 0000 0000 fffe fffe 0000 fffb 0002 0001 ffff 0004 0003 0003 0000 fffe 0004 fff8 0004 ffff 0002 fffd 0003 0004 fff6 0000 0003 fffa 0005 0001 fff9 0003 fffe 0000 ffff 0002 0002 fffb 0008 ffea 0005 ffff 0000 0000 0006 0002 0000 fffd 0001 fffa 0005 0003 fffc 0000 fffe 0000 0004 fffa 0000 ffff 0000 0000 0000 0002 fffd 0000 fff7 0005 0000 0000 0000 fff8 0000 0000 ffff 0003 0000 fffc 0000 0002 0001 fffa 0003 ffff 0001 fff9 0006 fff6 0000 fffc 0004 0001 0001 0002 0001 fffc 0003 fffe fffd 0001 fffe 0002 fffb 0001 0001 fffe 0006 fffd 0002 fffd fffe 0000 0002 fffa 0005 fffb 0002 fffe 0000 0000 fffe 0001 fffa 0004 fffd ffff 0003 ffff fffe 0000 0000 0002 0001 0000 0001 ffff 0002 fffa 0002 fffe 0004 fffb 0002 ffff ffff 0000 fffc 0002 0000 fffe 0003 fffe 0000 0001 0000 ffff 0002 ffff 0005 0000 fffd 0003 fffe 0000 0001 0002 ffff 0002 fffb 0001 0001 0000 0000 ffff 0003 fffd 0000 0000 fffe 0000 fffe fffc 0004 fffc ffff ffff fffd 0000 0003 fffd 0000 0000 fffe 0002 fffe 0002 0001 0001 0000 0000 fffc 0000 0000 fffc 0000 0000 0002 0001 0001 0000 ffff ffff 0001 0001 fffe 0000 fffe 0003 0001 0000 fffb 0005 fffe 0000 fff9 0004 0003 0001 0000 0004 fffa 0000 0000 0005 fff8 0003 fffc 0003 0000 0000 fffc 0003 0001 fffb 0005 0003 ffff 0000 ffff fffe 0000 0002 ffff fffc 0006 0001 0000 0002 fffa 0002 0002 0002 fffa 0005 0000 fffe 0000 0000 0002 fff8 0002 0001 fff6 0000 0003 0000 0004 fffe ffff 0004 0000 fffd 0002 0000 fffc fffa 0005 fff6 0006 fffc 0000 0003 0000 0002 fffd 0006 fffd 0000 fffb 0005 fffe 0000 fffc fff8 0000 0000 0000 0002 0000 fffe fffc 0000 0000 0001 fffd 0004 ffff
fffc 0000 0000 fff7 0002 0005 fff6 0005 0003 fffa 0001 fffa 0006 fff6 0000 0003 fff8 0005 0005 fffd 0006 fffc 0002 fff7 0001 0006 0004 fffe 0005 fffc 0002 0002 fffa fffe 0000 0003 0003 fffc 0004 fffa 000a 0001 0001 0003 fffd fffe 0000 fffd 0002 0000 0004 fffe 0000 0000 0001 0000 fffb 0000 0000 ffff 0005 0001 0001 fffa 0000 0003 0000 0002 0003 fffc fffc 0005 0002 ffff 0000 0004 fffe 0000 fffb 0003 0005 fffb 0003 0002 0004 fffc 0006 fff7 0003 0002 0003 fffb 0000 0000 0000 fffb 0001 fffd 0003 0000 0000 0000 0004 fffe ffff 0000 0000 0000 0000 ffff 0002 0002 0001 fffc 0005 0000 0002 ffff 0002 fffe ffff 0003 ffff 0003 fffc 0005 ffff 0000 0001 ffff 0005 ffff ffff fffb 0002 0000 0000 0001 0000 fffe 0003 0001 fffe 0001 0000 0000 0000 0001 0001 fffe 0004 fffd 0002 0002 fffa 0001 ffff 0000 0000 fffa 0003 0001 fffc 0005 0000 0000 0000 0000 0000 0003 0002 fffe 0000 0000 ffff 0000 0002 fffe 0002 0002 0000 0000 0000 0000 ffff 0002 0001 0001 ffff 0001 0002 0000 0000 ffff 0003 fffd fffd 0000 ffff 0002 fffe 0000 0002 fffd ffff 0003 0002 fffd fffd 0004 fffe 0000 0002 0001 ffff 0000 0004 0000 ffff 0000 fffe 0006 fffc 0000 0005 ffff 0000 0000 fffe 0001 0002 0004 fffe 0003 fff7 0007 fffc 0001 0000 0000 0001 0005 ffff ffff fffc fffd 0000 0001 fffe 0000 0003 fffe 0002 fffd 0002 ffff fffc fffe ffff 0004 ffff fffb 0002 0000 fffd 0002 ffff 0005 fff9 0001 0004 fffc 0000 0006 0003 fff5 0008 fff7 0001 0004 fffc ffff 0000 0000 0000 0000 fffe 0000 0004 0003 0001 0000 0000 fffd 0003 0000 0000 0000 0003 0000 fffe 0000 fffe 0003 0003 0002 ffff 0003 ffff ffff 0004 0000 0001 0000 fffd 0003 fffe 0001
0005 fffa 0001 0004 fffc 0002 0006 fff1 0004 0004 0003 fffa 0004 fff8 0005 0004 fff6 0003 fffd 0000 fff8 0001 0005 0000 0001 fffe 0000 0000 0001 fff9 0001 fffe 0004 0007 fffd 0001 fff5 0003 0005 fffb 0003 fffc 0000 0000 ffff 0002 fffc 0004 0001 0002 fff9 0006 fff4 0003 0004 ffff 0004 0000 fffe 0001 fffe ffff ffff 0003 0001 fffd 0001 0002 fffb 0006 fffe 0000 0004 ffff 0001 0000 0000 0004 0003 0000 fff8 0003 0004 fff5 0004 fffd 0002 0001 0003 fffe fffc 0002 0002 0000 ffff 0005 0000 0000 0001 0000 0001 0001 fffd 0002 0003 0000 0000 ffff 0001 0000 0001 0000 ffff 0001 0000 0001 0002 fffb ffff 0001 0004 fffa 0000 0004 0003 fffa 0003 fffe 0000 0001 fffe 0000 0003 0002 fffe 0001 0000 0000 fffe 0003 ffff fffe 0002 0000 fffe 0000 0000 fffc 0002 0000 0000 0004 fffc fffd 0005 ffff 0004 0000 fffe 0004 fffd 0000 ffff 0000 ffff 0003 ffff fffe 0001 0000 fffd 0001 0003 ffff 0001 ffff 0001 0001 0001 fffb 0002 0003 0000 fffd 0004 0000 fffe 0002 fffe fffe 0000 0002 ffff 0002 0002 0002 0000 fffd 0007 fffc 0000 0003 0001 0000 0002 0000 fffe 0005 0001 fffd 0002 0000 fffc ffff 0000 0001 fffc 0000 0001 0000 0001 0000 0000 0005 0003 fff6 0005 fffd 0001 0003 fff8 ffff 0000 fffe 0006 fffd 0000 0000 0002 fffe 0003 fff8 ffff 0005 0005 0000 0004 0000 0000 0003 fffa 0003 fffc ffff 0001 0003 0004 0000 0002 fffc 0005 fffb 0003 0003 0000 fffa 0004 0000 0002 0004 ffff 0000 0003 0001 fffd 0007 fff8 0000 0004 fffc 0000 0004 0001 0002 0000 0005 0006 fffe 0003 fffa ffff ffff 0005 0000 fffe fffe 0001 fffe fffe 0006 fffe 0002 0003 fffd 0001 ffff fffa 0002 fffe 0003 fffc 0002 0000 0002 0000 fffd 0001 0003
fffb 000a ffff 0002 ffff 0004 0004 0004 0000 fff7 0002 0002 fffe ffff fffd ffff 0008 0000 fffd 0003 0000 0003 ffff fff9 0003 fffd 0000 ffff ffff 0008 0001 0002 fffb fff8 0005 0001 ffff 0000 fffe 0000 0002 ffff ffff fffe 0004 fffd 0001 0002 fffe 0000 fffe fffe 0006 0000 fff9 0000 ffff 0004 fffd 0009 0000 fffd 0003 0000 ffff 0002 ffff 0001 0000 fffd 0000 0003 fffa 0000 ffff 0001 0001 ffff ffff fffc 0005 0000 fffb 0007 fffd 0000 0000 0000 fffa 0004 0000 ffff 0000 fffd 0001 0000 0003 fffd 0003 fffe fffb 0004 0000 fffb 0003 ffff ffff 0001 ffff fffd ffff 0001 fffd ffff 0000 ffff 0000 0002 fffe 0001 fffa 0003 0000 fffc 0000 0001 0000 0001 0000 0001 0000 0002 fffb 0000 0000 ffff 0000 0000 0000 fffd ffff 0003 ffff 0001 0000 0000 ffff 0005 0001 fffe 0000 0000 0001 0004 fffc 0001 fffd 0000 0000 0000 0001 fffe 0000 0001 fffe fffe 0003 ffff 0000 0001 0000 0000 fffe ffff 0000 0001 fffd 0000 0000 0001 0000 0000 ffff 0000 0000 ffff fffe fff9 0005 0001 0002 fffb 0003 0002 fffb fffd 0005 0004 fff8 0001 fffd ffff fffa 0000 0000 fffe 0000 fffe 0000 0000 ffff 0000 0000 0004 0001 0000 0005 0001 fffc 0000 0000 0001 fff7 0004 fffc 0000 0000 0000 0003 0001 fffc 0008 ffff 0003 0001 ffff 0002 fffe ffff fffe 0001 0008 fffa 0005 fff6 0002 0002 fffb 0001 0001 0000 0001 0002 0005 fffd 0000 fffb 0000 fffe 0004 fffb 0005 fffd fffd 0001 0003 0000 ffff fffb fffb 0007 fffa fff5 0008 fffa 0000 0003 0003 fffa 0001 ffff 0002 0000 fffc 0005 fff8 fff8 0002 ffff 0001 0000 0004 fff8 0000 0002 0000 0002 0001 0000 fffe 0002 0003 fffd 0001 fffc 0002 0004 fffd 0000 0002 ffff fffd ffff ffff 0001 0000 0002 fff8
0001 fffc 0003 ffff 0002 fffe fff8 0003 fffe 0002 0002 0000 0003 0004 0003 0001 fffe 0001 0000 0001 0003 fff9 0003 0003 0002 0001 0000 0003 ffff ffff fffe fffa 0009 fffc 0002 0000 0003 0000 fffd 0001 0000 0000 0001 0001 0000 0002 ffff 0000 fffc 0000 0004 0002 fffe ffff 0003 0004 fffe fffe 0003 fff7 fffd 0007 fffa 0002 0000 0001 0000 fffe 0000 0001 0002 0000 fffd 0004 0003 fffa fffd 0001 0000 0001 fffe fffe 0004 ffff 0002 0000 0000 0002 0001 0000 0002 0002 0001 0000 0000 0002 fffb 0002 0000 0001 0000 ffff 0001 0002 ffff 0000 0001 0000 0000 0004 fffd 0002 0001 ffff ffff 0000 0003 0003 fffd 0000 0003 0000 fffd 0002 0000 0001 0000 ffff 0000 0000 ffff 0000 ffff 0004 0000 fffe 0002 fffe 0003 0000 ffff fffe 0002 fffc ffff 0002 ffff 0001 fff9 0000 0000 fffe fffd 0000 ffff 0000 0000 0000 0000 0004 fffd 0002 0000 0000 ffff 0002 0000 0001 0001 0000 0000 fffe 0003 0000 0000 0000 0003 0000 ffff 0001 0000 fffd 0000 ffff 0001 0002 0000 0004 0000 0001 ffff 0003 fffb fffc 0002 0001 ffff fffe 0002 0000 0002 0005 0004 0002 fffd 0004 0000 0003 ffff 0001 0003 fff9 0004 fffc 0000 fffe fffa 0000 0004 0000 0000 ffff 0004 0001 ffff 0003 0000 0003 fffc fffc 0002 0001 fffd fffd fffb 0005 fffb 0004 0002 0000 fffd 0000 0003 fffd 0000 fffc 0004 0000 0000 0000 fffb 0005 fffa 0000 0005 fff7 0007 0001 0000 fffd 0001 0001 0003 0002 0001 0000 0001 0002 0002 0008 fff8 0009 fff8 0005 0002 0000 0001 0000 fffb 0003 ffff 0006 fff4 0005 fffe 0002 0009 fff7 0007 fffe fffe fffd 0004 fffd 0000 0006 fff9 fffc 0008 fffb 0001 fff9 0002 fffe 0007 0000 0001 0002 ffff 0000 0005 fffc 0001 0000 0002 0000 ffff 0000
0000 0000 0002 fffb fffb 0002 0004 ffff 0002 0002 fffa 0001 fffd ffff 0000 ffff fffb 0000 0001 0000 fffe 0002 0000 fffe fff8 0002 0003 fffa 0000 0001 0001 0000 0002 fffc ffff ffff 0000 0000 0006 fffe 0002 fffb 0005 0002 ffef 0004 0001 ffff 0002 0001 fffa 0005 0002 fffd 0001 0000 fffd 0004 0000 fffc 0006 0002 fff7 0002 0000 0000 0002 0000 0001 fffe 0000 0000 0007 0000 fff9 0005 0003 0001 0000 0002 ffff 0004 fffb 0003 fffa 0000 0004 fffc fffc 0003 0000 fffa 0003 0001 0002 fffb 0002 0000 0005 fffb 0001 0003 fffd ffff ffff 0000 0000 0000 0003 0000 0000 0000 0000 0001 0003 fffc 0000 fffe 0002 0000 0003 fffc 0000 0000 0000 fffe 0001 0000 0000 0001 0000 0001 0002 fffc 0000 0000 0000 0000 0000 0000 0000 0001 0001 0000 0002 0002 ffff 0000 0004 0002 0000 0003 0000 0001 0001 ffff 0001 0001 0003 fffd 0000 0004 fffe 0001 0001 fffb 0001 ffff ffff 0000 0004 0003 fffd 0001 0001 ffff ffff 0000 0001 ffff 0000 ffff 0002 0001 fffd 0002 fffe 0003 fffc fffd 0003 0001 fffa 0008 ffff fffe 0000 fffc fffd 0003 0000 fffc ffff 0000 0002 fffc 0000 0000 0001 0002 0002 0001 0001 0001 0000 0001 0003 0000 fffe 0001 0001 fffc 0005 fff7 0005 0000 0005 fff7 fffd 0002 0000 ffff 0002 0007 fffe 0001 0003 fffc fffe 0001 0001 0004 fffb 0004 0003 0000 ffff 0002 fffb 0000 0009 fff7 0002 0005 fff9 0006 0000 0001 0003 0000 fffb 0003 fff8 ffff 0000 fffd fffc 0002 fffb fffd 0000 0001 0000 0006 fffc 0003 fffd fffe 0000 0003 fffd 0000 0004 0001 0000 fffa 0000 0002 fffd 0001 0001 0000 0000 0006 fffd 0000 0000 0002 ffff fffe 0000 0002 0000 0000 fff9 0005 fff7 0003 0005 fffe fffe 0005 0000 ffff 0002 fffa 0006 fff9
0000 0002 ffff 0003 0004 fffd fffe 0004 fff5 0003 0002 0005 ffff fff9 0002 0000 0004 0000 0000 0000 0000 0000 0001 fffd 0007 0002 fffc 0002 0003 ffff fffa 0009 fffd fffc 0004 0003 0002 ffff ffff 0000 0008 fff8 0001 0005 0001 0001 0001 ffff 0002 fffe 0004 fff9 0000 ffff 0000 0000 0000 0000 0001 0001 fff9 0002 0005 0000 0001 fffd ffff 0000 0003 fffc 0000 0001 fff9 0002 0001 0000 0003 ffff fffa 0000 ffff 0000 0000 0000 0001 0004 fffc ffff 0002 fffa 0000 0003 fffc 0003 fffc 0000 0006 fffa 0000 0003 0002 fffa 0005 ffff 0002 0002 0000 fffe fffd fffc 0002 0000 0000 0000 fffd 0001 fffc 0000 0000 fffe 0000 fffd 0000 0001 0000 0003 fffd 0002 0000 fffd 0001 ffff 0001 0002 fffe ffff 0004 0000 0000 ffff 0000 0001 0000 fffe 0004 fff9 0001 0003 ffff fffe 0003 ffff 0001 fffe ffff 0001 0002 fffd fffe 0001 0000 ffff 0001 fffc 0003 0000 0001 0000 ffff 0000 ffff fffb 0001 fffe fffd 0000 0000 0001 ffff 0000 0005 fffd 0000 ffff 0005 0000 fffc ffff 0006 fffb 0001 0002 ffff 0000 0000 0005 0000 0006 fffd 0002 0000 0002 0000 0000 fffe 0001 0002 ffff 0001 fffb 0000 fffc 0000 0001 0000 ffff 0000 0001 0000 ffff 0000 0002 ffff 0001 0002 fffd 0000 0002 0005 0005 fffd 0000 0000 fff9 fffb 0005 fffd 0000 0003 0000 0005 fff8 fff3 0006 0000 0000 fffe fffd 0003 0005 fff4 0007 fffe 0002 0001 0003 fff7 fffc 0000 0001 0001 0003 0000 0005 0000 0001 0003 0004 fffa 0001 0004 fff9 0001 fff8 0002 fffe 0001 0004 ffff 0002 fffe fffc ffff 0000 fffe 0003 0002 0006 fff8 0004 0000 0002 fffc fffc 0007 0000 0004 fffe 0006 0000 0002 fffb 0003 0001 0000 0000 0002 fffd fff8 0003 0003 fff7 0000 0000 fffe 0002 fffd 0003
fffd 0003 0000 fffe 0000 fffd 0003 0004 ffff 0003 fffc fffe 0002 0006 fff9 0004 fffb 0000 fffb 0000 0000 0000 0000 0000 ffff fffb 0002 fffe 0000 fffe 0009 fffc fffd 0002 0003 fff6 0000 0002 fffd fffd fffb 0005 fffc 0000 0001 ffff 0004 fffe fffd 0000 ffff 0004 0000 fffd 0002 0000 0001 0000 fffc 0007 ffff 0000 0000 0000 0000 0000 0000 ffff 0002 0002 fffc 0003 0003 0000 0000 fffe fffb 0002 0003 fffe 0000 0006 fff7 0004 fffc 0001 fffd 0004 0000 0001 fffe 0003 0003 ffff ffff ffff 0000 0003 ffff fffb 0000 0003 fffc 0003 ffff 0000 fffe 0005 0000 0004 0002 fff7 0006 fffe fffe 0001 0005 ffff 0000 fffe 0001 0002 ffff 0004 ffff fffd 0002 ffff 0000 0001 0001 fffe fffe 0002 0002 fffe 0000 ffff fffe 0004 fffd fffd 0006 0002 fffe 0002 fffe 0000 0000 0001 fffe 0002 fffe 0003 0000 0000 0000 0001 0002 0002 0000 0004 0000 0000 0002 ffff 0004 0000 0004 0001 0001 0004 fffe 0004 0001 0000 0002 0000 0001 ffff fffd 0001 ffff 0002 ffff fffd 000b fffe 0001 0003 ffff fffb 0003 fffe 0000 fffa 0008 fffc 0002 0001 0000 ffff 0000 ffff 0002 0002 fffd 0004 ffff fffe 0006 0000 fffd 0000 ffff 0000 0001 ffff ffff 0000 fffe ffff 0004 fffd 0000 0004 fff8 0001 fff9 fff9 0002 fffe ffff 0005 0004 fffc 0000 0006 fff9 fffd 0000 0004 0008 fff8 0004 fffd 0005 0002 ffff ffff 0004 ffff fffb 0002 0001 0001 0004 0003 0000 ffff 0004 fff9 fffc fffa 0003 0000 fffb ffff 0002 0004 0000 0005 ffff 0002 ffff 0003 ffff 0001 0000 fffe 0004 0001 0000 0002 0000 ffff fffa 0004 0000 ffff 0002 fffc fffd 0001 fffb 0001 fffe fffd 0000 ffff 0003 fffc 0000 0004 fffd fffc 0004 0001 0002 fffd fffe 0006 0001 0000 0000 0003 ffff fffe
0001 0000 fffc ffff 0004 ffff fffe ffff 0004 0002 0000 fffd 0002 fffd 0000 0001 0000 0002 0004 ffff ffff fffe 0003 0000 0003 0003 0004 0000 0005 0003 fff5 0007 0000 0000 fffe 0005 0001 0000 0001 0002 0002 0003 0001 fffc 0000 0000 fffc 0002 0001 fffe 0007 fffb 0003 fffd 0002 0000 fffe 0002 0003 fff9 0004 0000 0002 ffff 0001 0000 ffff 0001 fffe fffd 0001 0000 fffd fffe 0004 ffff 0000 fffe 0002 0004 0000 0000 0003 0002 0003 fffe 0001 0002 ffff 0003 0001 fffd 0000 0002 0001 0000 0000 0001 0000 0002 0000 ffff 0002 ffff 0000 0001 0000 fffb 0003 ffff 0000 0004 fffc 0001 0000 0000 0003 fffd 0000 0002 fffe 0001 fffd ffff ffff 0002 0002 ffff 0000 0001 ffff 0003 0000 fffd 0000 0000 0000 0002 0000 ffff 0002 0003 fffa fffd 0002 0001 0001 0002 0001 0002 0000 0000 0008 0003 0005 0001 0006 0003 0000 0006 0003 0000 0006 0002 0003 0002 0001 0001 0004 0000 0003 ffff fffe 0000 0000 0000 ffff 0004 fffb 0000 0004 0001 0000 fffb 0001 0004 fff1 0004 0000 fffe 0000 0002 ffff 0000 0000 0004 fffb fffd ffff ffff 0001 fffe 0002 0000 ffff ffff fffd 0000 ffff 0005 fffb 0002 0005 0000 0000 0002 ffff 0000 0002 ffff ffff 0000 ffff 0001 0000 fffc 0006 0001 0002 0002 0002 0002 0003 fffd 0000 0000 0000 ffff 0004 0001 ffff fffe 0000 0002 ffff 0000 fffb fffe 0004 fff6 0005 fffa 0004 0005 fff6 0001 ffff fffd 0003 0000 ffff 0000 0001 0003 fffe fffd 0004 fffe 0005 fff6 0003 0002 fffc 0008 fff9 0001 ffff 0003 fffe fffb fffe 0000 ffff 0004 0000 fffc 0004 0000 0002 fff4 0004 0003 0003 0002 0000 0001 0000 0002 fffe 0001 fffe fffe 0005 0000 0002 0002 fffd 0001 fffe 0004 fffe 0000 0000 fffc 0003 fffb 0004 0002
0003 fffb 0003 0001 ffff 0000 0004 fffc 0003 fff4 0003 fffe 0007 fffd 0002 0001 0000 0000 fffc 0002 0002 0002 0002 fffa 0004 fffb fff8 0000 ffff fffe 0000 fffe 0002 0000 0000 fffe 0001 0000 0000 0001 fff7 fffb 0003 0000 0004 0000 0000 0003 fff8 0004 fff8 0005 0000 0000 ffff 0000 0001 ffff fffd 0007 fffe fffd 0001 fffb 0000 0005 ffff ffff 0005 0000 fffe 0001 fffe 0001 fffd 0000 0004 0002 fffd fffe 0000 ffff fffe fffc 0000 0002 0000 fffd 0000 0000 0000 ffff fffd ffff 0001 0001 0000 0000 0000 0001 fffe 0001 0000 ffff 0000 0001 fffe 0001 fffd fffe 0001 ffff 0002 0001 0000 fffc 0000 fffe 0000 0002 fffe ffff 0001 0002 0000 fffd 0000 0001 fffe 0001 0000 0000 fffd 0004 0000 0001 0000 fffd 0006 fffd 0003 0002 0000 0007 0000 0005 0002 0006 0001 0001 0004 0002 fff7 fffb fff9 fffe fff9 fff9 fffd fffc fffa fffd fff7 fffc fffe fffb fffe 0000 fff9 0001 0001 0003 0006 0000 0002 0002 0005 0000 0000 0008 fff9 0004 fffd 0006 fffd 0002 0007 0003 fff7 0009 0001 fffd 0000 0003 0002 fffc 0002 0004 fffe 0000 0000 fffe 0003 ffff ffff 0001 0002 0005 fffd ffff 0000 0001 fffd fffc 0000 fffe 0004 fffa 0004 ffff 0004 0001 fffc 0001 0000 0000 0002 fff9 ffff 0001 fffe 0002 fffd fffe 0001 0004 fffb 0004 fffa 0001 fffd 0000 0003 fffd 0003 fffd 0004 0000 fffe 0009 0000 0001 0002 fff8 000e ffef 0008 0006 fff5 0001 0002 0006 fffc 0006 0000 0000 ffff 0004 fffb 0004 0005 fff2 0008 0000 0002 ffff 0000 fffe 0008 fffc 0005 ffff 0004 fffd 0001 0005 fff7 0009 ffff 0005 0001 0000 fffc 0003 0001 fffd 0002 fffe 0000 0003 fffe 0000 fff7 0000 0001 0002 fffd 0002 0004 fff8 0005 fffb 0001 0002 0000 0000 0000 fffe
0001 0004 0000 fffe 0000 0006 fffa 0002 0001 0004 0000 0005 fff7 0002 0000 fffe 0000 fffc 0005 fffd 0001 0004 fff6 0007 0000 0002 ffff 0003 ffff ffff 0003 0000 0000 0001 0001 fffd 0004 fffe ffff 0001 0005 0002 0002 fffb 0001 0001 fffe ffff 0008 0000 0003 ffff ffff 0003 0003 0000 ffff 0003 ffff 0000 fffa 0006 0000 0003 0002 fffc 0001 fffc 0002 0001 fffb 0004 fffd 0000 0000 0004 fff8 0003 0001 ffff 0000 0000 0000 0002 0002 0000 0000 0002 fffe fffe 0002 0001 0001 0001 0001 fffd 0001 0001 fff8 0000 0001 ffff 0004 fff9 0002 0002 fffe 0003 0000 0004 fffd 0003 0001 fffd 0003 fff9 0002 ffff 0005 fffa 0001 0000 0002 0000 0000 ffff 0004 fffc 0001 0001 0000 0000 0001 0000 fffd 0002 0003 0000 0003 0001 ffff 0005 0003 fffe fffd fffe ffff fff9 ffff fffb fffd fffa 0001 0002 0000 0005 0001 0002 0001 ffff ffff 0005 0007 fffc 0000 0001 0000 fffd fffc ffff fff9 fffe fff9 0007 fffd fffd 0000 0001 0009 fffa 0008 fffc 0005 ffff 0003 fff9 0000 fffe 0006 ffff fffb 0006 ffff fffc 0000 0000 0000 0000 0002 0002 0002 ffff 0000 fffe ffff 0000 fffd fffd 0004 fffe 0000 ffff ffff 0001 0000 0003 fffd 0005 fffe 0001 fffe 0000 0001 0002 fffd 0000 0000 0003 0000 0002 0004 fffb 0004 0001 0000 fffb 0008 0000 fffb 0004 0002 0005 fffc fffd 0001 0003 fffc 0003 0002 fffa fffd 0007 fff4 000d fff4 000a 0001 fff4 0004 0000 0000 fffe 0002 fff8 fffd 0004 0003 0002 fffb fffc fffd 0006 fffb 0004 0001 ffff 0000 0000 0002 fffd 0000 fffb 0001 0002 fffc fffe 0002 fff7 0000 0002 fffd fffd 0003 fffd 0002 0000 0000 ffff 0000 0000 0004 0000 0003 0002 ffff fff9 000a fff2 0005 0004 fffd 0000 0001 fffe ffff 0000 fffc 0006
fffa ffff 0003 0003 fffc 0000 fffb 0001 fffe fffd fffe 0000 0002 0003 fffe 0002 0006 fffd 0000 0004 0000 ffff 0001 fffe 0002 fffd 0004 fffd 0004 0000 fffb 0004 ffff 0002 ffff fffd 0003 ffff 0003 fffe fffe fffe 0002 fffa 0001 ffff 0001 fffc fffa 0000 fffa 0000 0005 fff7 0000 0002 fffd 0002 fffc 0002 0000 fffe 0000 ffff 0000 0002 fffe 0004 fff8 0001 0003 ffff 0004 0004 fffb 0003 fffe ffff ffff 0002 ffff 0002 0001 fffe ffff 0000 fffe fffe 0001 0001 0000 fffe 0003 fffe 0003 fffc 0000 0002 0004 0000 0000 0004 fffa 0005 0001 fffa 0002 ffff 0000 ffff 0002 fffc 0002 0002 fffe 0005 0000 0000 ffff 0000 0000 0000 fffd ffff ffff 0006 fff9 0003 0000 fffd 0001 fffe 0003 ffff 0004 ffff 0002 0002 0000 0002 ffff fffc fffe 0000 fffe fffd 0001 fffc 0000 0000 0002 0001 ffff 0000 fffe 0001 fffe 0003 0001 fffe 0000 fffe 0000 0002 0002 0000 ffff 0000 0001 ffff 0001 0000 0001 fffa ffff fffe fffe fffd fffa ffff ffff 0000 0000 000b fffa 0007 0005 0004 fffa ffff 0008 fff6 0005 0000 0002 0000 fffe 0000 0004 fffb 0002 ffff 0003 0001 0003 ffff 0000 0000 0000 0000 0002 0000 0003 0001 0001 0000 0002 ffff ffff ffff 0002 0002 0000 fffc 0004 0001 0001 fffa 0006 fff9 fff9 0005 fffb fffd 0001 ffff 0000 0000 0004 fffe 0004 fffd 0003 0000 0005 fff9 0003 fffb fffe 0008 ffff 0001 0008 fff6 0004 ffff 0001 0002 ffff 0003 0003 fffd fffc 0005 fffe 0002 fffa 0001 0000 0003 fffd 0000 0006 fff8 0000 0001 fffe 0005 fff5 0002 0001 0005 fffd fffe 0008 ffff ffff 0004 0001 fffe 0002 0001 fffd 0000 0000 fffd 0003 0001 0001 fffe fffe 0003 fffe 0003 0005 ffff ffff 0009 fffe fffb 0006 0002 0000 0004 fffe 0004 0003 fffd
0002 0003 fff9 0003 fffd 0001 0005 fffa 0001 0005 0000 0002 0002 fffd fffe 0000 fffd 0004 fffb fff9 0003 0000 fffe 0002 0001 fffe 0002 0003 fff8 0001 0004 0004 fffb fffe 0006 fff8 ffff 0001 fffe 0001 0000 0002 0000 0000 0000 0001 0001 ffff 0004 0004 ffff 0001 0000 0003 ffff 0004 fffd 0000 0000 0000 0000 fffd 0004 fffc 0000 0002 0001 ffff 0007 0002 fffd fffd fffd 0000 0002 0000 0001 0000 0002 fffd fffb 0003 0000 0000 0002 fffc 0003 0003 fffc 0000 0002 fffb fffd ffff 0003 0003 fffc 0000 fff9 0002 0000 fffc 0000 0000 0000 0001 0002 0000 0002 0000 fffe fffd 0000 0004 0000 fffc 0000 fffe 0003 0001 fffe 0001 0003 0000 0002 fffd 0006 0002 0001 fffe 0002 0004 0002 0003 0002 0007 fff9 0003 fff8 fffe 0000 fffc 0000 fffb fffe 0003 fffe 0000 ffff 0000 0001 0000 0001 fffd 0001 fffd 0000 0004 fffe 0000 0003 fffe ffff 0000 0002 fffe 0001 0001 0000 0002 fffe ffff 0000 0000 ffff 0001 fffe 0000 0005 0000 0000 fffa fffb fffd fffd 0000 0001 0002 0007 0001 0000 0000 fffe 0005 fffe 0000 0002 0003 fff9 0000 0000 0000 ffff ffff ffff 0004 fffd 0000 0000 0003 fffb 0001 ffff fffd 0000 0000 0001 fffe 0003 0001 fff6 0006 fffe 0005 fffe fffd 0002 ffff 0000 0002 0006 fffb 0002 0000 ffff 0003 0000 fff7 0003 fffc 0000 fffe fffe 0000 fffe fffb 0001 fffc 000b fff4 0004 0000 fff9 0006 0002 fff2 0002 0000 0000 0000 fffe 0000 0000 0003 fffd 0000 fffc 0003 0000 0000 0005 ffff fffb 0003 0004 fffb 0005 fffd 0006 fffd 0006 fff8 0004 0000 ffff 0001 ffff 0000 0000 0006 fff6 0008 fffe 0003 fffd 0005 0000 fffe fffe 0005 ffff fff9 0000 fffe 0002 fffe fffb fffe 0000 fffe fffd 0000 0001 fffb 0002 0001 fff9 0000
fff8 0002 0000 0007 fffa 0000 0000 0000 0004 fffc 0000 0002 ffff 0003 0000 0000 0000 ffff 0002 0001 0004 ffff 0002 0000 ffff fffe 0003 fffc 0003 ffff 0002 fffa 0004 fffd 0002 0000 0000 0001 0000 0000 fffd 0003 0003 0000 0003 fffe 0000 0000 ffff 0002 fffe 0000 0000 0000 0001 fffb 0003 0000 fffc 0001 0000 0004 ffff 0000 0002 fff7 0000 0003 fff7 0000 0002 0000 0001 0001 fffd 0000 0002 fffe 0000 0000 0004 0000 fffd fffe fffe 0001 0001 0000 fffe 0003 0000 0000 fffd 0007 fff6 0001 0001 0000 0001 0000 0000 0001 0002 0003 fff9 0004 fffe fffa fffa 0002 0001 fffe 0003 fffb 0002 0000 0000 0002 0000 0000 0000 0000 0000 0002 fffc 0003 fff9 0002 ffff 0003 0000 0001 fffb 0003 fffa fffd ffff ffff fffe 0000 0000 0002 fffa 0005 0000 ffff 0004 0003 0000 ffff ffff 0000 0000 0001 ffff 0000 0000 fffd ffff 0000 fffe 0000 fffe 0001 fffe fffc 0002 0001 0000 0003 0000 0004 0001 0000 0000 fffe 0000 0003 fffd 0001 fffd 0001 0002 0001 fffe 0000 fff9 0000 fffc 0004 0000 0003 0006 fff3 0000 0003 0001 fffa 0004 0000 0002 0000 fffd 0000 0005 fffc 0000 0002 0000 ffff 0003 fffe 0002 0001 fffc 0001 fffd 0004 fffc 0000 0006 fffc 0000 fffd 0001 fffe 0001 0001 0001 fffe 0000 0001 0001 0002 0002 0000 0002 0004 fffc 0003 0000 0000 0002 ffff 0000 0006 0000 0000 fffa 0004 fffc 0002 0001 0005 fff5 0007 0003 0001 0001 ffff 0002 0000 0004 fffe ffff 0000 0009 fffb 0000 0003 0000 fffc 0004 0003 fff9 0004 fff9 0000 0004 ffff fffb 0008 fff8 0002 0003 0000 0001 fffd 0001 fffb 0004 fff9 0005 0000 fffe fffd 0001 0000 0006 fff9 0004 0005 0000 fffd 0002 fffa 0004 0003 0001 fffd 0005 fffa 0000 0000 0000 0003 0002 fffe
0005 ffff fffe fff8 0009 fffb 0001 fffa 0000 0001 0000 fff6 0005 fffa fffe ffff 0002 0002 fffd 0001 fffd 0005 fffb 0000 0002 0002 fff9 0003 0001 0004 fffc fff9 0005 0001 ffff 0000 0005 fffc 0003 0000 0002 fffc 0000 fffc fffe 0003 fffc 0000 0000 0000 fffe 0002 0000 0001 fffe 0006 ffff 0005 0003 0000 0000 fff9 0004 fffe 0001 fffe 0003 0000 0000 0000 0000 0001 ffff 0001 0000 fffe 0003 0000 0001 0002 fffc ffff 0002 0001 0002 fffb 0002 0002 fffd 0001 0002 fffe 0000 0001 0000 0001 0000 0000 0002 ffff 0001 0000 0001 fffd 0004 ffff 0002 0003 0000 0001 0002 0002 0001 0000 fffe 0000 0000 ffff 0003 fffe 0000 0002 fffd 0004 0000 0000 0003 0003 ffff 0000 0008 0001 fffc fffd 0000 0000 ffff fffe fffe 0000 0000 ffff 0007 fffc 0001 0006 0000 fffd ffff 0000 ffff 0003 fffe 0000 0000 fffe 0000 0002 0000 0000 ffff 0000 0000 0000 0000 0005 fffe fffe 0000 0000 fffe fffd 0001 0004 ffff 0004 0002 0000 ffff fffe 0001 fffe 0000 fffd 0002 fffc 0003 fffc fffe fffe fffa 0006 0003 0004 0004 fffd 0002 0003 fffe 0003 ffff fffd 0003 ffff ffff 0001 fffe 0004 0000 0003 0000 fffd 0002 0000 0003 fffd 0003 fffe 0003 0000 0002 fff9 0004 fffd 0000 0001 fffd 0002 fffe 0000 ffff 0000 0002 fffd 0000 0000 0000 0000 0004 fffb ffff 0004 0000 0004 fffd fffd 0001 ffff 0009 fffc 0001 0000 0000 ffff 0005 0002 fff4 0004 fffe 0000 fffd 0004 fffc 0000 0002 0000 fffc 0003 fffe fffe fffe 0000 0001 fffd 0003 ffff 0007 0000 fffb 0000 0005 fff8 0007 fffd 0001 fffc fffe 0004 0003 fffe 0004 fffd 0000 0000 0005 fffd 0002 0000 fffb 0000 0004 fff9 0000 0004 fffe 0001 0000 0001 fffe 0002 0001 0005 fffc fffe 0007 fff8 0002 fffe
0000 0002 0004 0000 0002 fffc 0003 0008 0003 0001 0002 0008 fffb 0005 fffe 0000 0002 0000 0000 0000 ffff fffb 0004 0000 ffff 0002 ffff 0000 0000 fffb 0003 0000 fffd 0000 0002 fffd 0000 0000 0000 fffc 0003 0000 0001 0001 0001 ffff 0002 0000 0000 fffd 0002 0000 0003 fffa 0002 fffb 0001 fffd 0000 0004 0000 0003 0001 0000 0001 0001 0002 0000 0003 fffc 0004 0000 0002 fffe 0000 0001 fff9 0004 fffc 0004 ffff 0002 0000 fffd 0001 0002 fffd 0003 0000 fffe 0002 0005 0001 0003 0000 0000 0004 fffc 0000 0000 0000 fffc 0003 0000 0000 ffff 0000 fffd 0002 fffc fffe 0000 fffc 0005 ffff fffe ffff 0000 fffc 0000 0002 fff9 0006 fffd 0000 0000 0001 fffd 0005 0000 fffb fffb ffff 0000 fffd 0000 ffff 0000 0004 fffe ffff 0000 0000 0001 0000 fffe fffe 0001 0001 ffff 0003 ffff 0001 ffff 0000 0001 0000 0000 0000 fffe 0000 0001 ffff 0000 ffff 0000 ffff 0002 ffff fffe 0006 fffe ffff ffff fffe 0000 0000 0000 0004 0003 0003 0002 fffd 0002 0000 fffe 0000 0004 fffd fffc 0002 fffa 0000 0001 0004 fffe 0002 0000 0001 fffd 0001 0005 ffff fffe ffff 0001 0000 0000 fffc ffff fffd 0004 fffe 0000 fff8 0001 0000 fffc 0003 fffc fffe 0003 fffc 0004 0000 fffc 0001 0001 ffff 0001 0005 ffff ffff fffc 0000 0003 fffc fffe 0000 0007 fffd fffe 0000 ffff fffe 0004 fff9 0004 fffa 0000 0000 fffd 0002 fffe fffc 0002 0002 fffe 0001 ffff 0001 ffff 0000 0001 fff9 0002 0000 0002 ffff 0004 fffc 0005 fffc 0001 fffe ffff fffe fffc 0001 0002 fff9 0005 0001 fffd fffd 0002 0002 0002 fffb 0004 ffff 0005 ffff fffd 0001 fffe 0001 fffd 0005 fffd 0002 0003 0000 ffff fffe 0002 0000 fff9 0005 fff9 0004 fffe ffff 0000 fffe 0004 0000 0003
ffff ffff fffe 0000 ffff 0002 0000 0000 fff6 fffd 0001 fff3 0009 0001 0000 0005 fffc 0000 ffff ffff 0004 0004 fff8 0007 ffff fffd ffff 0000 ffff ffff 0009 fffc 0001 0002 fff7 0005 0004 fffa 0000 0004 fffb 0001 0000 0003 0001 fffe 0001 fffe 0003 ffff 0000 ffff 0000 0002 0000 0000 fffd 0003 fff7 fffa 0003 ffff fffa 0004 fffe ffff ffff 0000 fffc 0005 ffff fffe 0002 0002 0002 fffc 0007 fffb 0005 fffe ffff 0001 ffff 0005 ffff 0000 0005 fff9 0000 0002 fffa fffc 0000 fffb 0003 fffe 0000 0000 0002 ffff 0000 0000 fffd 0004 ffff 0003 0000 0003 0000 0002 0001 ffff 0001 0000 0000 0000 0001 0000 0002 0003 fffa 0007 fffb 0000 0005 0000 0001 0002 fffc fffc fffd 0000 0000 0000 0000 0000 0003 0000 fffd 0006 fffc 0004 0000 0003 0000 0001 0001 0000 0002 ffff fffe 0004 0000 0001 0000 ffff 0000 0001 0000 0001 0000 0000 ffff 0002 ffff 0001 0000 0000 0004 0001 fffd 0000 0000 0001 ffff 0000 fffd 0001 ffff fffd 0000 0005 fffe 0003 0002 0000 fffe 0000 0000 0004 fffd fffd fffd 0000 fff7 000a 0000 0000 ffff 0003 fffe 0000 0000 0001 0007 fffc 0001 0001 0000 0000 0003 0000 0000 0001 0000 0000 0003 0000 0000 0000 0000 0000 0002 0000 ffff 0007 fffd 0000 0002 fff9 fffe 0004 0001 0000 0003 fffa 0001 0004 fffd fffe 0003 0001 0000 0002 0002 0002 0006 fffb 0005 0003 ffff 0002 fffb 0003 0001 0001 0002 0000 0002 0001 0000 0000 0000 0000 0004 fffd 0003 0000 0001 fffe 0003 fffa 0005 ffff 0000 0007 ffff 0003 0002 fffd 0005 fffd 0000 0003 0000 0000 0000 fffc 0000 0000 0002 fffb ffff 0003 0001 fffd 0000 0003 fffc 0002 ffff fffd 0000 0002 fffc 0005 fffd 0004 0000 ffff 0003 ffff 0002 0005 fffd 0000 0000 fffd
0004 fffd 0004 0004 fff8 0004 fffc fffe 0003 0003 0000 0005 fffe fffa 0004 0001 fffb 0003 0000 0002 0004 fffd 0006 fff7 0004 ffff 0006 0002 0005 fffe fffd 0000 fffe 0002 0005 fffb fffe 0006 0001 ffff ffff 0000 fffd fffe ffff fffe 0004 ffff 0000 0000 0000 0003 0000 fffc 0000 0004 fffe 0002 0004 0001 0000 0000 0000 0001 fffd 0001 fffd 0001 0004 ffff fffe fffe fffd fffd fffd 0001 fffd 0002 0001 fffe 0000 0003 ffff ffff 0003 0000 fffb 0007 fff9 0003 0006 0002 ffff 0001 ffff fffc 0000 ffff 0001 0000 0003 0000 fffd fffe 0002 0000 0000 fffd fffe 0001 fffa 0008 fffb 0000 0004 ffff 0004 fffe 0000 0001 ffff ffff 0005 fffe ffff 0009 fffc fffc fffc 0002 0001 ffff ffff 0001 0000 0000 fffe 0001 0002 fffe 0000 ffff 0001 ffff 0000 fffe 0004 0000 ffff 0002 0000 fffe 0001 fffd 0002 ffff fffe 0000 0000 0000 ffff 0002 0000 0000 0000 0001 0000 ffff 0000 fffd 0003 0001 ffff ffff 0004 0000 0000 ffff 0000 0001 fffd fffe 0002 ffff 0001 0003 fffe 0000 0001 0000 0002 0001 0002 fffc 0000 fff9 fffd 000e 0002 0000 0001 ffff 0001 0001 fffb 0001 fffe 0000 0000 0003 fffc 0003 0000 fffc 0005 ffff ffff 0001 0003 0000 fffe 0000 fff8 0000 0006 fffb 0003 0002 0003 0002 ffff ffff 0000 0002 fff7 0007 0000 0000 ffff 0005 0000 fffb 0003 0000 fffb fff9 fffd 0006 fffc 0001 fffc 0004 0001 0000 0000 fffd ffff 0000 fffe fffd 0002 0000 0002 0001 fffe 0002 fffc ffff 0003 fffd 0002 0003 0000 fffe 0001 fffc 0003 fffe ffff 0004 fffc 0001 0000 0001 0001 fffe 0002 fffd 0003 0000 fffe 0003 0002 0000 fffd 0003 fffd ffff 0004 fffe fffc 0005 0003 0000 0006 fff9 0004 fffc 0002 0001 fffc fffd ffff ffff 0002 fffc 0005 ffff
ffff 0001 fffe fffa 0005 0000 0000 0005 ffff fffe 0005 0001 0000 0003 fff8 fff9 0003 fffc 0000 fffa 0000 fffd 0007 fff8 0001 ffff fffd ffff fffe 0003 0000 0002 0002 ffff fffb 0006 0002 fffc ffff 0002 fffd 0004 0003 0000 fffe 0002 0001 ffff fffe 0002 0000 fffd 0006 0000 0000 0002 0000 fff8 0002 0005 ffff 0001 0000 0000 0002 0000 0001 ffff fffd 0000 0001 fffe 0005 0000 0000 0002 fffe 0001 fffb 0005 ffff fffe 0002 0000 ffff ffff 0003 fffe 0001 0001 fffc 0005 fffa 0003 ffff 0003 0003 0001 fffb 0001 0001 fffe 0001 0002 fffa fffe 0000 0001 0001 0000 0002 0000 0002 fffe fffe 0000 0001 fffc 0003 fffe 0001 0001 fffe 0007 0004 fff3 0000 fffe 0003 ffff fffe 0003 0004 0000 fffe 0000 0002 fffd ffff 0002 fffa 0005 0000 fffe 0002 0000 fffb ffff 0000 fffe fffe 0002 0000 ffff 0000 0000 0001 0000 0000 0002 0003 ffff ffff 0000 ffff 0002 0001 fffe 0004 0001 fffe 0000 0000 ffff 0000 ffff 0001 ffff 0000 ffff 0000 0000 ffff fffe ffff fffe 0005 fffe 0002 0000 fffc 0000 0000 0000 ffff ffff ffff fff9 fffc 0005 ffff 0004 0000 fff9 0004 fffd 0001 0004 0000 0000 fffe ffff 0000 0003 fffc 0000 0001 fffe fff9 0002 0002 0001 0001 0004 fffb 0004 fffa fffd fffc 0001 0002 0000 0000 ffff 0001 0000 0000 fffe 0001 fffb 0002 0000 0002 fffb 0002 0007 0000 ffff 0002 0003 fff7 0000 0000 ffff 0001 fffe 0001 0000 0003 0000 0002 fffd ffff 0000 0002 fffc 0001 0000 ffff 0000 0000 0000 fffe 0000 0001 ffff 0004 fffb 0005 fffd 0000 0001 0000 0000 fffd 0003 0000 0003 0000 0004 0001 fffc 0000 0000 0001 0000 0001 0001 fffd 0002 0000 fffe 0000 fffc fffe 0000 0003 fffc 0002 fffe 0005 0001 0000 0000 0004 0000 ffff 0000
0000 0000 0002 0002 ffff 0000 0000 0000 fffa 0003 fff5 0002 fff9 0000 0006 0000 0004 0002 0000 0000 0000 0007 fff8 0005 fffe 0005 0000 0005 fffe fffc 0001 ffff fffc 0001 0000 0000 fffd 0001 0002 0001 ffff fffc 0000 0003 0000 0002 fffd fffc 0002 0003 ffff 0000 fff3 0005 0003 fffb 0002 0000 0002 fffb 0000 0003 fffd fffe 0000 fffe ffff 0001 0000 0003 0001 0006 fffa ffff 0003 fffd 0000 0001 0002 fffc 0000 0002 fffa 0002 fffd 0003 fffc 0005 fff9 0002 0002 fffe 0000 fffc 0000 0000 fffe 0003 0000 0000 ffff 0001 0001 0000 0002 0000 0000 0000 ffff 0002 fffd 0002 fffc 0002 fffd 0004 fffc 0004 0000 0005 0001 0001 0003 fffc fffb 0008 0000 0000 0002 0002 fffd ffff ffff 0002 0002 fffc ffff 0000 0002 fffd 0009 fff9 0007 0003 0000 ffff 0000 0001 ffff 0002 0005 fffd 0003 0000 ffff 0002 0004 fffe 0000 0000 ffff 0000 0003 0000 ffff 0001 fffd 0001 fffd 0001 0003 ffff fffd 0003 0000 ffff 0000 0000 0000 0002 fffe 0001 ffff 0001 0000 0001 fffc 0005 fffc 0000 0004 ffff 0000 0000 0000 0000 0000 0000 ffff fff8 000a 0000 fffc 0005 0001 0003 fffd fffc 0002 ffff fffc 0003 0000 fffe 0002 0000 0002 0002 0000 0001 0002 ffff 0001 ffff ffff 0002 0002 0003 0001 0000 fffb 0001 0001 0001 0003 fffb 0000 ffff 0003 0002 ffff 0002 fffe 0003 0001 fffc fffd 0001 0003 fff5 0009 0000 0000 0003 ffff 0001 0003 0000 fffe 0000 fffe 0000 0003 fffc 0002 0001 fffc 0004 0000 0000 0002 fffe fffc 0002 0000 0001 fffa 0004 fff9 0004 ffff ffff 0002 0000 fffe 0003 fffd 0000 0002 fffb ffff 0002 0003 fffe 0002 fff9 0001 0002 fffc 0001 0002 0001 0000 0004 0002 0001 fffe fffe 0002 0003 fffd fffc 0002 0000 fffe ffff 0000 0000
0003 fffc 0000 0001 0000 0003 fffd 0002 0007 fff8 0006 0007 fffb 0006 fffe fffd fffd 0007 fffa 0000 ffff fffe 0003 0001 0002 fff9 0002 fffa 0003 0001 0000 0002 0000 fffe 0000 0000 0001 0001 fffe 0000 0001 0004 0002 ffff 0000 fffb 0001 0000 ffff 0002 ffff 0004 0006 ffff 0000 0003 0000 0002 0001 fffe 0003 ffff 0004 fffc ffff 0004 0001 0001 ffff 0001 0000 fffa 0005 0004 fffe 0000 0002 0000 0000 0002 fffe ffff 0001 fffe 0002 0000 0000 0002 ffff 0006 fff7 0000 0001 0002 0000 0000 0002 0000 0001 fffb 0001 fffd 0005 fffe 0003 ffff 0001 0000 fffe 0002 fffe fffc 0002 fffd 0002 0003 ffff fffb 0002 0002 fffc 0001 fffd fffd 0000 fffe 0002 fffd ffff 0002 0000 0002 0000 0000 ffff 0006 0000 ffff 0000 0000 0001 ffff fffe fffe 0002 0002 0000 0000 0001 fffe 0000 ffff ffff ffff 0001 0000 0000 0001 fffe 0004 0000 0000 ffff 0000 0000 0003 0001 ffff 0004 ffff ffff 0000 0004 fffd 0000 0000 ffff 0001 0000 0000 0002 0000 0002 0000 fffe 0001 0001 fffc 0004 0001 0000 0000 0000 0000 0002 fffe 0000 0000 ffff fffc fffd 0006 0006 0002 0000 fffc 0006 0000 fffc 0002 0004 fffe 0003 0000 fffe 0004 fffc 0002 ffff 0000 fff8 0004 fffc 0006 fffc 0000 fffd 0003 fff9 0001 0003 0000 ffff 0000 fffd 0000 ffff 0002 0000 fffb 0003 fffe 0003 fffe 0004 0004 fffe 0000 0003 0000 0001 0001 ffff ffff 0002 ffff 0001 fffc 0001 0000 fffd 0002 ffff 0001 fffe 0002 0002 fffa 0004 0001 fff9 0009 fffd fffe 0000 0002 0000 0002 0001 0000 0002 ffff ffff fffc 0006 fffc ffff 0000 0000 ffff 0003 0000 fffc 0000 0002 0003 ffff 0000 0001 0000 0000 0003 fffd 0000 fffe fffc 0001 0005 ffff fff7 0004 0002 fffd 0004 fff9 0005 ffff 0000
0000 fffc 0005 fff9 0004 0000 ffff 0000 fffc 0005 0002 fff6 0005 0003 fff9 0002 fffc ffff 0001 0003 0005 fffd fffc 0000 fffd 0004 fffe 0004 0000 0000 fffe 0000 0001 0000 0000 0002 0002 fffe 0003 fffe 0000 fffe 0000 fffd 0005 ffff 0003 0001 0000 0000 fffc 0004 fff8 0000 0001 0000 0000 fffa 0000 ffff 0000 fffc ffff 0008 0000 fffe 0000 fffd 0000 fffe 0001 0003 fffa 0000 0000 fffe ffff 0002 0000 0001 0001 0001 0002 0002 ffff 0000 0004 fffd fffb 0000 0003 0001 fffd 0001 0000 0000 fffe 0000 0001 0000 0000 ffff fffe 0000 0000 fffd ffff 0000 ffff 0001 0005 ffff 0004 0003 0001 fffc 0004 fffe 0009 fff9 0001 0000 fffe ffff 0000 0002 fffe 0000 0001 0002 0000 0000 ffff 0001 fffe fffc 0000 ffff fffe 0000 ffff 0002 fffc ffff fffb fffe 0000 ffff fffc 0000 0001 ffff 0001 0000 fffd fffe 0000 fffe 0000 fffe 0000 0001 0002 fffe 0002 fffe 0000 ffff 0000 fffd 0000 0001 0000 0001 fffe 0001 ffff 0002 ffff 0000 0000 fffd 0000 0000 0000 ffff ffff 0000 fffd 0002 fffe 0000 0000 0000 ffff ffff 0000 ffff 0003 ffff 0000 fffa fffb 0007 0001 0000 0002 fffc 0005 0004 fff9 0001 fffe fffe 0002 0000 ffff 0002 0000 0000 0000 0000 0001 0001 fffe 0001 0000 0000 0003 0004 0000 0000 0001 fffc 0003 0005 0000 fffe 0001 0000 0002 ffff fffd 0007 fff7 fffe 0006 0002 fff9 0001 0002 fff9 0000 fffe ffff 0001 0000 0002 0000 ffff 0002 ffff fffc 0001 0004 ffff 0000 0000 fffd 0000 0000 ffff 0001 0004 fffe 0000 0003 ffff fffe fffe 0002 0002 0004 ffff ffff 0002 0000 0003 ffff 0000 0000 ffff 0004 fffb ffff ffff 0000 fffd 0002 fffd 0005 fff9 0000 0002 0002 fffe 0003 fffb 0003 0006 fff9 0002 0004 ffff 0003 fffc 0003 0002
0001 0003 0002 0000 fffd 0007 0000 fff7 0004 0002 fffd 0002 0001 fffc 0006 0004 0001 0003 0000 fffb 0000 fffe 0007 fffd 0000 0004 0000 0002 fff9 0004 fffe 0006 0000 0000 0002 fffa 0000 0002 ffff fffe 0001 0004 fffc 0002 0001 fffd 0000 fffd 0000 0001 0000 ffff 0001 0001 fff6 0003 0001 0001 0001 0001 fffe 0000 0004 fff7 0006 fffb 0003 0003 0004 0000 fffe ffff 0002 0003 fffd 0001 0002 fffe fffd 0001 fffd 0000 ffff 0000 fffc 0007 fff9 0002 ffff 0000 ffff 0003 0001 fffc 0002 0001 fffa 0004 fffe 0002 0001 0002 0000 0000 0002 fffc 0006 fffc 0000 0000 fffd 0002 fffa 0000 ffff 0005 fffe 000a fff1 000e fffc fffd 0000 0003 ffff ffff 0002 0000 fffc 0000 ffff fffc 0000 fffd 0000 0000 fffc 0000 fffe 0000 0005 fffc 0000 0003 0000 fffc fffa 0001 ffff fffd fffd fffe fffd fffd 0000 0000 0000 fffe 0000 ffff fffe fffd 0000 ffff 0001 ffff 0001 0000 0003 0002 fffe 0000 fffe 0000 0001 0001 0000 ffff 0000 ffff 0003 0000 0001 0000 ffff 0001 0000 0000 0002 fffe 0001 0000 ffff 0000 0002 0000 0000 0000 ffff ffff 0000 0000 fffe fffb 0005 0001 0001 0002 fffb fffe 0001 0003 0001 0000 ffff 0001 0000 ffff 0002 0001 0001 0002 0000 0000 0003 fffe 0000 0000 fff6 0005 fffa 0001 0000 0004 fffb ffff fffc 0003 fffc 0004 fffd 0002 0002 fff9 0000 0000 fffb 0005 0000 0000 0000 0002 0000 0000 0001 fffe 0003 0000 0000 0001 fffa 0002 0002 0000 ffff 0000 ffff 0000 0003 0001 0001 0000 fffd ffff 0002 fffd fffd 0003 0002 fff9 0000 0001 fffe ffff 0001 fffe 0005 fffa ffff 0003 ffff 0000 fffc 0006 0004 0000 ffff 0004 fffe fffd ffff 0007 ffff fffc 0004 fffd 0005 ffff fffb 0000 0006 fffb ffff fffc 0002 ffff 0001 fffc
0001 0000 fff8 0007 0000 fff6 0007 ffff 0004 fffb 0002 fff7 0005 0003 fffb ffff 0000 fffd 0002 0000 0002 0000 0000 fff9 0006 fff4 0004 fffe 0000 0000 ffff fffd ffff ffff fffe 0000 ffff ffff fffd 0004 ffff 0001 0000 fffd 0002 0000 0002 0000 0003 0000 0001 0005 fffa 0000 0002 ffff 0004 0001 fffa 0004 0000 ffff 0003 fffa 0006 0000 0000 fffb 0002 fffe 0001 0000 0001 fffe 0005 0004 fffd 0000 0000 0004 0000 0001 fffd 0007 ffff fffb 0000 0003 fffd 0005 0000 fffd 0001 0001 fffe 0005 fffd 0000 0005 0000 0000 ffff fffe 0000 0000 0000 fffe 0001 0003 fffb 0006 0000 0000 0000 0003 fffd 0002 fff7 0006 fff8 fffd 0004 ffff fffd 0003 0000 ffff ffff fffe ffff ffff fffe 0001 0000 0000 0000 0005 ffff 0004 fffd fffc 0008 0001 0003 0002 0009 0004 0001 0000 0001 0001 0005 0002 0000 0004 0000 0002 0000 fffd ffff 0000 0002 ffff fffe 0003 0000 0000 0000 0000 0000 0001 0000 0000 0001 fffe 0000 0000 0000 0001 ffff ffff 0001 0000 0000 0000 0000 0000 0000 0000 0000 0000 0000 fffe 0001 0001 0000 0000 0000 0000 0001 0000 0000 ffff fffd ffff 0003 0000 0003 fffe 0001 0001 ffff 0003 fffd 0003 fff9 0004 ffff fffe fffc 0001 fffc 0002 fff7 0003 ffff fff5 0004 0007 fffa 0003 fffc 0001 0001 0004 fffd 0004 0000 0002 fffc 0003 fffd 0002 0004 0000 0002 fffd ffff 0001 0001 ffff 0001 0000 fffe 0002 fffd 0000 ffff 0001 0000 0000 0003 fffc 0003 ffff ffff 0002 0001 fffe fffe 0001 0002 0000 0003 fffc 0001 0002 fffe 0002 0007 0001 fffb 0002 0000 0000 0002 fffa 0004 0000 0002 fff8 0002 0002 fffc fff9 0003 0002 fff8 0003 0001 0000 0000 fffb 0003 0000 0000 fffd fffd 0007 fffe fffb 0007 0001 fffe 0003 ffff 0000 0002
0003 fff6 0007 fff8 ffff 0003 fffa 0006 fffc 0002 0003 0001 ffff ffff 0003 fffb 0001 ffff 0000 0000 0002 fffc 0003 0002 fffa 0007 fffe 0003 ffff 0005 0000 0002 fffe 0002 0000 0004 0002 0002 0000 0000 0000 0000 0004 fffc 0003 0004 fffb 0002 fff9 0000 0001 fffa 0005 0000 0001 0003 fffd fffc 0004 ffff 0000 0001 0000 0004 fff8 0000 0003 fffa ffff ffff 0000 0001 ffff 0001 fffc fffd 0001 0001 0001 0000 ffff 0000 0000 fffd 0000 0002 0003 0000 fffe 0002 0000 0000 0003 0003 fffb ffff 0003 0000 fffc 0000 0001 fffe 0006 fffe 0001 0001 0000 ffff 0000 0000 0000 fffe 0000 fffc 0003 fffe 0008 0000 fffc 0000 0002 fffd 0001 fffd fffe fffb fffd fffd 0005 fffe 0004 0000 0003 fffa 0001 0000 fffd 0005 0002 0000 0004 fff9 ffff fff9 0000 fffc ffff 0002 ffff ffff 0000 0000 0004 ffff 0000 0001 0000 0000 0000 0002 0002 fffc 0002 fffc fffd ffff fffc 0004 fffc 0000 ffff fffe 0000 ffff 0000 0000 0000 0000 0000 0000 0001 0000 0000 0000 0000 0001 0000 ffff 0001 ffff 0000 0000 0000 0000 0000 0000 0000 0001 0002 fffd 0002 0000 0000 0000 fffc fffb 0005 0002 0000 0002 0002 ffff 0000 0000 0003 0001 0000 0000 0002 0003 fffe 0003 0001 fffd 0007 0003 0004 0004 fff7 0004 fffe 0005 fffd fffc ffff 0003 fffe 0005 fffe 0002 fffd 0001 0000 0000 fffd 0002 0002 0001 fffe 0000 0003 fffe 0000 0000 0000 0000 0001 ffff 0000 0001 0000 fffc 0001 0000 0001 fffe ffff 0002 0000 0001 0000 0001 ffff fffc 0002 0001 fffd 0006 fffc fffc 0003 0000 0000 0002 0000 fffe 0005 fffd 0002 0000 0006 ffff ffff 0000 0003 fffe fffc 0004 0000 0000 0001 0000 0005 fff7 0007 fffc 0001 0004 0000 0000 0005 fff8 0006 0004 fffd 0002 0005 fffc
0000 0002 0003 0002 0000 0006 0002 fffd 0000 0002 fff8 0008 fffc 0001 fffa 0000 0005 0004 0000 fffe fffe 0000 fffe 0003 ffff 0001 0000 0001 fff8 0000 0001 0000 0004 ffff ffff fff9 0000 fffb 0001 0001 fffa 0002 0000 0002 0001 fffd 0002 0000 0000 0000 0001 0004 fffe 0000 0001 fffc 0002 0001 ffff fffe 0003 fffd 0004 0000 0001 0000 0005 0000 0002 0002 0000 0002 0000 fffe 0003 0000 fffe 0000 fff8 0001 0000 fffc 0002 0002 0001 fffe 0000 0002 fff9 0001 0000 0001 0000 fffd ffff 0008 fffc 0000 0000 0000 0000 0001 fffb 0001 ffff 0000 0000 0002 0001 fffe 0000 0001 0007 0001 0004 0000 fffd fffc 0005 0000 0000 0000 fffb 0000 0002 0007 ffff 0008 fffe fffe 0002 0003 0003 0005 0000 0002 0002 0001 fffe fffe 0000 0005 0006 000c 0000 0000 0000 0001 0001 0009 ffff 0001 0000 0001 0000 0001 0003 0000 0000 0000 0000 0003 0000 0003 0000 0001 0000 0001 ffff 0002 0000 ffff 0000 ffff 0001 0000 fffe 0000 0000 0000 0000 fffe 0001 0000 0000 ffff 0000 0000 0000 0000 ffff 0001 0000 ffff 0001 ffff 0002 fffe 0000 0004 fffd 0000 0000 0000 0000 fffc fffc 0007 fffe 0004 0000 fff6 0003 fffd fffd 0000 0000 0000 0000 fffe 0001 fffc 0005 fffc ffff 0001 fffd fffe 0005 0002 0000 fffa 0004 0002 0000 fffc 0001 fffd 0002 0001 fffd fffd 0002 0000 0002 fffd 0001 0000 0001 fffa 0000 fffe 0001 0001 ffff ffff 0002 0001 fffc 0002 0000 0002 fffd 0003 0000 0000 0001 fffd 0001 0002 fffd 0000 ffff fffe ffff 0002 0002 fffa 0002 0002 fffa 0004 fffe 0001 fffe 0001 fff6 0007 0001 fffa ffff 0000 ffff 0002 0000 0001 0001 0001 fffd 0002 ffff 0001 fffe 0000 fffd 0008 fff6 0002 0000 fffa 0002 fffe fffd 0000 fffc 0001 fffa 0003
0002 0000 0001 fffa 0001 fff7 0000 0003 0000 0000 ffff 0001 0000 0000 0003 0004 fff9 fffc 0002 0002 0000 0005 0001 fffd 0009 fffd 0001 0001 0000 0002 0000 0000 0004 fffc 0008 fffe 0000 0005 fffe 0003 fffb 0002 fff7 0001 0003 0005 fffa ffff 0002 0000 0001 fff7 0007 fffe 0003 fffd 0002 0001 0000 0000 fffd ffff fffd 0000 0001 fffd fffe fffc 0005 fffa 0002 fff8 0000 0002 0000 fffe 0002 0001 0003 0003 0000 0000 ffff 0001 0004 fffe 0000 ffff 0003 fffa 0003 fffd fffc 0002 ffff ffff 0001 0001 fffd 0000 0000 0000 0001 fffc 0006 fffe 0002 0000 0003 fffe 0006 fffe 0000 fff8 0008 fffa ffff 0006 fffb 0000 fff8 0002 0005 0003 fffe fffe 0004 fffd 0008 0003 0004 fffb ffff 0001 0002 fffd fff8 fffc ffff 0001 fffe 0001 fff2 fffb 0005 fff9 0005 fffe fffe fffa fffb 0000 fffc fffa 0000 ffff fffc 0000 0005 fffd 0001 0001 fffc 0002 0001 fffe 0000 0001 0000 ffff fffe 0001 0004 0000 fffe 0000 0000 0001 0000 0000 0000 0002 fffe 0000 0000 0002 fffe 0001 0000 0002 fffe 0001 0000 0000 0001 0001 fffe 0000 0000 ffff 0001 ffff 0001 ffff 0000 0000 0000 fffb 0001 0004 ffff 0006 0000 0000 0005 0002 fffa 0003 ffff 0000 0000 0000 0003 0000 0004 fffa 0004 0001 fffa 0006 0000 ffff 0001 0005 fffb 0006 0000 fffd fffd fffd 0003 0006 ffff 0001 0000 fffe 0000 0003 fffb 0006 0001 fffd 0005 0001 0000 fffe 0003 0000 0000 0001 fffb 0003 fffe 0000 fffc 0001 0000 0005 fffd ffff 0000 0003 fff9 000c fffd fff9 0000 0002 ffff 0003 0002 0003 0000 0000 fffd 0007 0001 fffc 0000 0000 0001 0000 0000 0001 ffff ffff 0000 0001 ffff fffe 0000 0001 ffff 0005 fff9 0000 0004 0001 0001 0000 0000 fffc 0006 0000 0005 fffd 0002 0000
0003 0001 0002 fff9 0002 0003 0000 0002 fffd 0005 ffff 0001 0000 0000 0003 fffb 0000 0008 fff6 0001 fffe fffe fffd 0001 fffb fffd fffe 0000 0001 0001 0000 fffd 0000 0000 fffe 0003 0005 fff9 0002 fffe 0001 0004 0004 fffd fffd ffff ffff 0002 0000 0000 0000 0003 fff7 0004 0000 fffd 0005 fffc ffff 0003 0000 0002 0000 0002 0000 0001 0001 0000 fffe ffff 0001 0005 0002 ffff 0003 ffff 0001 0000 ffff ffff 0000 0000 0001 ffff fffb 0001 0003 0001 0000 0001 0000 0000 fffe 0000 0000 0002 0001 fffd 0002 ffff 0000 0000 ffff 0001 0000 fffe ffff fffc 0001 0003 fffb ffff 0000 000c fff6 0001 fffe fffe fffb 0000 0003 ffff 0001 0000 0002 0007 0003 fff2 fff6 0001 ffff 0001 fffa 0005 fffe 0005 0004 0000 0004 0004 fffc 0005 000a fff7 0000 0000 0000 0002 0002 0000 0003 0001 0003 0005 fffe ffff 0004 fffa 0001 0001 fffc 0004 0000 ffff 0000 fffd 0001 ffff fffe 0002 0001 0000 fffd 0001 ffff 0000 0000 fffd 0000 0001 0000 ffff 0000 ffff 0000 ffff 0001 0000 0000 ffff 0002 fffe ffff 0000 ffff ffff 0002 ffff 0002 fffe 0002 ffff 0000 0001 0002 ffff fffd ffff fffe 0001 0002 0002 0002 0002 fff8 0001 0003 ffff ffff 0000 ffff 0002 fffc 0001 0002 fffc 0003 fffc fffe 0000 fffe 0003 fffe fffd 0004 fffd ffff 0001 0000 0006 0000 fff9 0000 ffff 0004 0001 0002 fffe 0005 fffd 0000 0005 fff7 ffff 0002 0002 fffc 0000 0001 fffe 0003 fffe 0005 0000 0000 ffff 0004 fffd fffc 0003 fffc ffff 0009 fff3 0005 0005 fffd 0003 0003 fff4 0003 0000 fff9 0002 0003 fffa 0000 0005 ffff 0004 fffb 0004 fff8 0002 0003 0000 fffe 0000 0000 0003 ffff 0000 0005 fffb 0006 fffa fffd 0006 fffe 0000 0009 fff6 0002 0000 0000 0000 0004 fffd
fffa 0001 fffa 0009 ffff fffe 0003 ffff fffe fffc 0004 fffd 0001 0000 fffd 0004 0001 fff9 0008 0001 fffe 0001 0002 ffff 0001 ffff 0001 0002 fffa 0001 0000 0002 0002 ffff 0001 fffd 0000 ffff 0003 fffe 0004 fffb 0004 fff8 0003 0002 0002 fffc 0000 0002 fffc 0003 0002 ffff 0002 0001 fff9 0003 0000 fffc 0002 0000 fffd 0003 0002 fffe 0002 0002 fffc 0001 0003 fffd fffc 0000 fffe 0001 fffd 0002 fffe 0000 fffe 0001 0000 fffd 0000 0001 fff9 0002 fffe 0003 0001 0000 ffff 0003 0000 0000 0000 0000 0001 fffe 0000 0001 0000 0001 0001 0000 ffff 0001 0000 fffd 0001 0001 0008 fffb ffff 0003 0000 fffd 0005 0002 0000 0001 fffc fffd ffff fff8 ffff 0005 0005 fffb 0008 0001 0003 fffb 0004 fffd 0002 0003 0001 fff9 0000 0000 0000 0003 fffe 0004 0002 0000 0003 0000 ffff 0002 0000 fffe 0004 0002 0004 0005 fffb 0006 0000 fffe ffff 0002 0000 0000 0001 0000 0002 0001 fffd 0000 fffe 0002 0000 0001 0000 0001 fffc 0000 0003 fffe 0002 0000 ffff 0000 0000 0000 0000 0000 0000 fffe 0003 fffe 0002 0000 0001 0000 ffff ffff ffff 0003 0000 0000 fffe 0000 0002 fffc fffe fffe 0000 0000 0000 fffb 0004 0000 fffe 0000 0002 0001 0002 fffc 0001 fffd 0000 0002 0000 0001 0000 0000 0001 0002 ffff 0001 fffe 0003 fffd 0002 ffff 0003 fff5 0005 0003 fffd ffff ffff 0000 0001 fffa 0003 0001 ffff 0004 0001 0002 fffc 0003 0000 0000 0000 0000 ffff 0000 fffb 0002 0002 0000 ffff 0003 fffb 0006 0000 fffe 0009 fffb fffc 0002 0000 fffa 0006 0004 fff7 0003 0002 fff8 0007 ffff ffff 0000 fff6 0006 0000 0002 0005 fff7 0003 0002 0000 0000 0000 0004 fff4 0001 0005 fffe ffff 0008 fff7 0005 0000 fff9 0003 0003 fff9 0000 0000 ffff fffc
fffe 0001 0007 fffc 0002 fffd 0003 0002 fff8 0006 fffd fffd 0000 0003 fffc 0001 0002 0003 fffd 0000 0000 0002 fffd 0000 0002 0002 ffff 0002 fffe 0000 0005 fff7 0002 fffb 0001 0002 0002 0000 0001 fffd 0001 fffe 0002 0000 0006 fffd 0003 0000 0002 0000 0001 ffff 0001 0005 fff8 0001 0000 0004 0002 ffff 0002 fffb 0005 fffb 0000 0003 0000 fffc 0003 ffff 0001 0000 0001 fffc 0001 0001 0003 fffc 0002 0000 0003 0000 0000 0002 0000 0000 0001 0000 fffe 0000 ffff 0002 0000 fffe 0002 fffe 0000 0002 0000 0002 0001 ffff 0000 fffe 0002 ffff 0005 0000 0004 fffe fffe 0006 fffb fffe 0000 ffff fffd 0002 ffff fffa ffff 0005 fffb 0002 0001 0003 0004 0002 ffff 0007 fff8 ffff 0008 fffe 0000 0001 fffe fffd fffe 0005 fff9 0004 0000 fffb ffff 0000 0003 fff6 fffd 0000 0004 ffff 0000 0000 ffff ffff fffc fffe 0001 fffc 0002 0001 0001 0000 fffe 0001 0000 0000 0000 0000 0000 0002 0002 0000 0000 fffe 0000 ffff 0004 0000 fffe 0000 0002 0000 0000 0000 ffff 0000 0000 0000 0000 0000 0000 0000 0000 0002 fffe 0001 0002 0000 0000 0002 ffff 0000 0001 0001 0000 0001 ffff fffe fffc 0009 0001 0002 0001 0000 fffd 0002 0002 ffff ffff 0000 fffd 0005 fffc 0001 0003 0000 fff9 0005 0003 fff7 0006 0002 ffff 0000 0002 0000 0000 fffe 0006 0000 fffe 0001 0001 0003 fffe 0000 0004 fffd 0001 fffd 0003 fffb 0002 0000 0000 ffff 0002 0000 ffff 0000 0000 0000 0000 fffb 0000 0001 ffff 0003 fffa 0000 0003 fffa 0005 fffe ffff 0000 0000 fffe fffd 0007 fffe 0000 0004 fff7 0001 0005 0000 0004 fffd fffd 0004 fffd 0004 fffd 0000 fffa 0004 fffe 0000 0006 0006 fff7 0003 ffff 0000 fffd 0002 fffe 0005 0000 0001 ffff 0001 0004 fffc 0002
0007 fffd fff9 0003 0000 fffe fffa 0001 0004 fffe 0003 0000 0000 0000 0001 fffd 0000 fffc 0008 fffd 0001 0000 fffd 0001 0003 0000 fffe 0005 0000 fffc 0001 0004 fffc 0003 fffb 0001 0000 fffd 0000 0000 0003 fffe 0003 fffd ffff fffd 0001 fffc fffe ffff 0000 ffff ffff fff7 0007 0000 0001 fffd fffc 0000 0003 ffff 0004 0000 fffd 0001 0000 0000 0000 fffc 0002 ffff 0002 0000 0002 fffd 0001 fffe 0001 fff7 fffe ffff 0000 0001 0000 0000 0008 0000 ffff 0002 fffe 0000 fffe 0003 0000 ffff 0000 fffe 0000 ffff ffff 0003 ffff 0003 fffd 0001 fffe 0000 0000 ffff 0003 fffc 0000 0000 0003 0000 fffc 0000 0000 0002 0002 ffff 0005 ffff 0001 fffa fffa 0005 0000 0002 fffa 0006 fff1 0004 0004 fff8 0006 0001 0001 ffff 0003 fffc 0004 fffd 0005 0002 fffd 0003 0001 0000 fffe ffff 0001 0000 0005 0000 0003 0003 0000 0002 0001 fffc 0002 0000 0001 0001 0001 0001 0000 0001 ffff fffe 0001 fffd 0001 ffff 0002 ffff 0000 0000 0001 0000 fffe ffff 0001 ffff 0001 0000 0000 0000 0001 ffff 0000 0000 fffd 0000 0000 0000 0000 0000 0000 0000 0000 0000 fffe 0000 0000 0001 fffe fffe 0000 fffa fffd 0004 fffd 0004 0002 fffd ffff 0001 ffff 0002 0001 ffff 0003 0001 fffd ffff 0002 fffd 0003 0004 ffff fff6 0003 fffe 0000 fffb 0000 0005 fffe fffd 0000 0005 fffb fff8 0002 0000 fffb 0004 fffa 0007 fffe fffe 0001 0002 fff7 0004 fffc 0000 0001 0000 0000 0004 fffe 0003 ffff 0000 0000 0001 0001 fffd 0001 0003 fffb 0006 fffc 0002 0002 0005 fff9 0001 0001 0001 0001 0003 0000 fffa 0001 0000 0000 0000 ffff fffe 0000 0001 0000 0001 fffe 0003 0000 fffc fff8 0006 fffa 0003 0002 0000 ffff 0002 fff9 0007 fff7 0003 0003 0000 ffff 0000
fffc 0007 fffd ffff 0000 000a fffe 0001 0001 0000 ffff 0000 0000 0000 ffff 0002 fffa fffd 0000 fffe 0003 0000 0002 0000 fffd fffc 0003 0000 ffff 0003 0001 ffff ffff 0003 0004 0000 fffd 0002 0002 fffd 0002 0000 fff8 0003 0003 fffc 0002 0002 fffd 0004 0001 0001 ffff 0004 fffc 0004 0001 ffff 0003 0000 0003 0000 fffa 0003 0000 fffe 0000 0000 0001 0001 0001 fffd ffff 0002 0000 0002 0000 ffff 0003 0000 0001 0001 0000 fffe ffff 0000 fff6 0001 0000 ffff 0004 0000 0000 fffe 0000 ffff 0003 ffff 0003 fffe 0000 0001 fffe 0000 0000 0000 0000 0000 0001 ffff 0001 0001 0002 ffff fffd fffe 0000 0004 0000 fffd 0005 fffb fffc 0003 0003 0002 0001 0000 fffe 0004 fffb 0000 0004 0000 0002 0000 0000 0000 0000 ffff 0004 fffe 0001 0000 0000 0000 0003 0000 0000 0003 0000 0001 0002 fffe 0000 fffd 0000 0000 0000 ffff 0000 0001 0000 0000 0002 fffd 0000 ffff fffe 0000 0003 0000 ffff 0001 0000 0000 0000 0000 0002 ffff 0000 0001 ffff 0001 ffff 0001 ffff ffff 0000 0001 0001 0000 0000 0000 0000 0001 0001 0000 0000 0000 0001 ffff 0000 0000 0002 ffff 0000 0001 0000 0000 fffd 0000 0005 fffe fffd 0001 0000 0001 ffff fffe 0001 0004 fffb 0002 fffe 0000 0002 0003 fffc 0002 ffff fff9 0002 0004 0002 0000 0000 0006 fffd 0003 fffd 0005 ffff ffff 0002 0001 0000 0003 0001 0000 0000 ffff 0000 0000 0002 ffff 0005 fffe 0000 0002 0001 ffff ffff 0003 fffd 0003 ffff ffff ffff 0000 fffd 0006 fffd fffd 0001 fffd 0002 0003 fffc 0000 0003 0002 fff5 0002 0000 0002 0001 ffff 0006 ffff fffe 0002 0000 fffe 0004 0000 ffff 0002 0001 fffa 0006 0000 0003 0001 0002 0002 fff3 0008 0000 ffff 0006 fffc 0007 0002 fff9 0003 0000 ffff
0000 0002 fffc 0005 0006 fff6 0002 fffa 0000 0002 0000 0003 0000 0002 fffc 0001 0004 0000 0000 0003 fffe 0001 fffe 0000 0005 fffb 0001 ffff ffff 0000 0000 0000 0003 fffd fffc 0006 0000 fffd 0000 0000 ffff 0000 0002 0001 fffb 0003 fffc 0007 0000 ffff fffd 0000 0000 0000 0000 ffff 0002 ffff 0002 fffc 0000 0000 0004 fffd fffe 0005 0002 fffe 0003 fffe fffc 0003 0004 fff0 0006 ffff fffe 0000 0000 0002 0004 fffc 0001 0001 0000 0001 0007 fffd fffd 0001 fffe 0000 0000 0005 fffd 0004 fffd fffd 0000 0003 fffe fffd 0003 ffff 0000 0000 0000 0004 0000 0001 0004 fffa fffe 0000 ffff 0001 fffd 0002 0001 0003 fffe 0004 0001 0004 0000 ffff 0003 fffc 0001 0001 0000 0000 0002 0000 0000 fffb 0000 fffc 0004 ffff fffe 0002 fffd 0002 0002 ffff fffa 0004 0003 fffa ffff 0000 fffb 0000 0000 0003 fffb 0003 fffe 0001 ffff 0000 0000 ffff 0001 0000 0003 fffe 0004 0000 fffe fffe 0001 ffff 0000 0000 0000 0000 ffff 0000 0000 0002 0000 0000 0000 0000 0000 0001 0000 ffff ffff ffff 0001 ffff 0000 0000 0000 ffff 0000 0000 0000 0001 0001 ffff 0000 0000 0001 0000 0001 ffff 0001 0000 fff7 000c 0000 0003 ffff 0000 0000 0002 0003 fffc fffe fffe fffe 0001 0001 fffb 0003 0000 0001 0003 ffff 0000 fffa 0001 0001 fffd ffff 0000 0003 fffe 0000 0001 fffb 0006 0001 fffe 0001 0000 0000 ffff 0000 0001 0001 fffb 0002 ffff 0001 fffd 0000 ffff 0003 0002 fffc ffff 0001 0003 ffff 0002 0003 0000 0002 0000 0001 fffe 0001 fffb 0003 fffe 0001 fffc 0008 fffe 0003 fff8 0001 0000 fffb 0005 fffc 0001 0001 0001 fffc 0002 0000 0000 0001 0002 fffc fffd 0006 fffb 0001 0000 0000 0003 fffc fffd fffc 0007 fff4 0001 0003 fffb 0005 fffc
fff7 0006 fff9 ffff ffff fffb 0005 0001 0000 0002 fffe 0000 fffa 0004 0000 fffe 0001 0001 0003 0000 0000 fffe fffd 0001 fffe 0002 ffff 0003 ffff 0000 0000 0000 fffc 0000 0000 fffe 0001 fffe 0006 fffc 0004 fffe 0000 0000 0003 fffc 0006 fff9 0002 0005 0000 ffff 0001 ffff 0000 0000 0000 0000 fffc 0006 fffd fffe 0003 ffff 0004 fffa 0005 fffd 0002 0001 0004 ffff 0000 0006 ffff 0006 ffff fffe 0002 0000 fffc 0001 0001 0002 fffe ffff 0001 0001 fffd 0000 0002 ffff ffff fffe fffe 0000 0000 0003 0000 0002 ffff 0001 fffe 0002 0004 fffc 0001 0001 0000 0004 fff6 ffff 0003 fffe fffd 0000 0001 fffe fffd 0000 0000 ffff 0002 fff5 0002 0002 ffff 0003 0002 ffff fffc 0004 ffff 0002 fffa 0003 0001 fffe 0001 0000 0001 0000 0003 ffff 0000 0000 0002 fff9 0002 0001 ffff 0003 0000 0000 0004 0000 0000 0000 ffff 0003 fffe 0000 fffc 0003 fffd 0000 0000 0000 fffc 0001 0003 ffff 0000 0003 ffff 0002 ffff 0001 0000 0000 ffff 0000 ffff 0001 0001 fffd 0004 ffff ffff 0000 0002 0000 ffff 0000 ffff 0000 0000 0000 ffff 0000 0002 ffff 0001 0000 0000 fffe 0000 ffff 0000 0000 ffff ffff 0000 fff7 0005 0000 0001 0001 0002 ffff fffc 0003 0000 0002 0003 fffc 0003 0001 0000 fffe 0002 fffa 0000 0001 0003 ffff fffc 0003 0000 0000 ffff 0002 fffe 0000 0001 fffc fffb 0003 0000 0000 fffe 0000 0001 0000 0000 0000 0000 0001 fffe 0000 0003 fffd fffe 0000 0000 0001 0001 0000 fffd ffff ffff ffff 0000 0001 ffff 0002 0000 ffff 0003 ffff 0002 ffff 0000 fffe 0002 0004 fffe fffe 0003 fffb 0003 0000 ffff 0001 ffff 0002 fffc 0000 ffff ffff 0004 0001 fffb 0005 fffe 0006 fffe fffd 0004 0002 0000 fffd 0006 0004 ffff 0004 fffd 0003
0005 0000 0002 0004 0001 0004 fffc ffff 0002 0000 fffc 0002 fffe 0002 fffd 0003 fffe 0000 fffe 0000 0003 ffff ffff ffff ffff 0004 0001 0001 0000 0000 0002 fffc 0004 fffc 0003 0003 0001 0000 fffc 0002 fffc 0004 fffa 0001 0000 fffd 0003 fff8 0002 fff7 0001 0002 0001 0000 fffd 0000 fffd fffe 0000 0000 0004 fffb 0000 ffff 0000 0000 fffa 0002 0001 fffb 0000 0000 ffff ffff 0000 fffb 0000 ffff 0000 0000 0002 ffff 0003 0001 fffd 0006 0002 0003 fffe 0003 fffa 0001 0003 0000 0005 fffc 0001 0000 0000 0000 0003 0003 0003 fffd fffc 0004 0001 0005 fff7 0001 0000 0000 0000 0000 0001 0000 0000 0001 0000 0000 fffe 0001 0002 0005 fffe 0003 fffd 0000 fffb 0004 fffd 0001 0000 0000 fffe 0003 0001 0001 ffff ffff 0000 0001 0001 0002 fff9 0001 0002 0001 0000 0002 0001 0001 fffc 0004 fffa 0003 fffe 0000 0002 0000 0000 0003 0004 0000 0003 ffff 0002 0000 0001 fffe 0001 0000 0000 0001 ffff fffc 0002 0000 fffe 0000 0005 fffd 0001 0000 0000 0000 0000 0000 fffd 0004 fffe ffff ffff 0001 ffff 0000 0000 0000 ffff ffff ffff ffff 0002 ffff 0000 0002 ffff 0000 0000 0001 0000 ffff 0000 fff9 0007 0000 0000 0000 0000 ffff 0001 0001 ffff ffff 0000 0001 ffff 0002 ffff 0005 fffb 0008 0000 0001 fffc 0000 0001 0000 0000 0000 0001 fffe 0000 0001 fffd 0002 0001 fffd 0003 0000 0000 0000 ffff 0000 0001 0001 ffff 0001 0000 0000 fffd 0004 fffd ffff fffe ffff 0004 fff8 0001 0004 fffb 0000 0002 0001 fffe 0002 fffe 0004 ffff fffb 0001 0001 0000 0000 fffe 0002 0000 ffff 0004 0001 fffe 0002 fffc 0005 fffd 0001 ffff 0001 fffd 0000 0000 fffb 0004 0000 ffff fff9 0000 0002 fffc 0001 0008 0000 fff9 ffff fffd 0000 0001 ffff
0000 0002 ffff fffc 0004 0000 0000 0000 0002 fffc 0004 ffff 0001 0004 fffe ffff 0000 0000 fffd 0000 0000 0000 0007 fffe 0002 fffd ffff 0001 0004 fff9 0006 0000 fffe 0003 fffd fffb 0003 0000 0002 0000 0002 fffb 0002 0000 0001 0001 0000 0003 0004 0001 0000 ffff 0000 0001 0000 ffff 0002 0002 0000 0003 fffc 0000 0003 0003 fffe 0004 0000 fffe 0004 fffc 0003 fffa 0002 0002 0000 fffe 0004 ffff 0002 0000 0002 ffff ffff fffe ffff fffe fffc fffe fffe 0005 fffd 0000 0000 0000 ffff fffd 0003 fffa 0004 fffd fffc ffff 0000 0001 0001 0000 0004 fff6 0003 0000 fffc 0000 0001 fffd 0000 0004 0002 0000 0000 ffff fffe 0002 0000 0000 0002 0002 fff9 0003 0002 fffe 0007 fff8 0002 0005 fff7 0001 0003 fffb 0003 0001 0001 0000 fffd 0001 fffe 0004 fffb 0002 0000 0001 0000 fffb 0005 fffc 0004 ffff 0003 ffff 0000 fffe 0001 0002 fffc 0000 ffff 0000 ffff 0000 0000 0001 0000 fffe 0002 0000 0000 0005 fffe 0002 0000 0000 fffe 0001 ffff ffff 0000 0002 fffe 0000 0002 0001 0000 0005 0000 fffc 0002 0000 0000 0000 0002 0000 ffff 0000 ffff 0000 ffff 0003 ffff 0000 0000 0000 0000 0000 ffff 0003 fff2 0008 fffe 0002 0000 fffd 0002 0000 0000 0002 0001 0000 ffff 0000 0000 0000 0002 fffd 0001 ffff 0001 0002 0000 0000 0001 fffe 0004 ffff fffe 0004 0001 0000 0003 0001 fffe fffd 0004 ffff 0002 0000 0000 ffff 0000 ffff 0006 fffb 0003 ffff 0002 0002 ffff 0000 0000 0006 fffe 0000 0003 ffff ffff 0003 ffff 0000 0001 ffff 0000 0001 0001 0001 0000 0000 0005 fffa 0000 0002 ffff fffe 0001 0001 0000 0000 0001 0003 0000 0001 0000 0000 0003 fffd 0003 ffff 0000 0006 0002 0003 fffd 0002 fff6 0003 0001 fffd 0003 0000 fffd 0001
0002 0002 ffff 0003 fff8 0004 0000 0000 0000 0005 fffb 0002 0001 fffd 0002 0001 fffd 0005 0002 ffff 0000 0004 fffc 0000 0001 0000 0000 0000 fffc 0004 ffff fffd 0001 0002 0000 0003 ffff fffe fffd 0002 0001 0004 0000 0002 0000 ffff 0000 ffff fffd 0002 fffd 0001 0000 0002 0000 0002 0000 ffff 0000 0001 fffe 0000 fffe ffff fffe 0001 0001 0000 0000 0000 0003 0001 0000 0001 ffff 0005 fffa 0000 ffff 0000 fffd 0000 0000 0001 0000 fffe 0004 0003 fffd 0006 ffff fffc 0002 0000 0001 0004 0003 ffff ffff 0004 fffd 0004 fffe 0001 0006 fffa fffe 0000 0002 0008 fffc 0000 ffff ffff 0000 0000 fffe 0002 ffff 0008 fffd 0004 0000 fffc fffe 0000 fffe 0003 ffff 0003 fffc 0003 0001 0001 fffe 0005 0004 fff4 0001 0005 fff8 0005 fffa 0003 fffd 0002 0000 fffd 0000 0003 fffe 0002 fffd 0003 fffb 0001 ffff 0000 0000 0003 ffff fffb 0002 0000 0000 0000 0000 0000 0000 fffe 0000 0003 fffc 0000 fffe 0001 0000 0000 fffe 0001 0000 ffff 0000 0001 fffe 0000 ffff 0000 0000 ffff fffe 0003 fffe 0003 fffc 0004 fffe 0000 ffff 0000 0002 0000 0000 0000 ffff 0001 0000 ffff 0000 0000 ffff 0000 0000 0000 fffc 0008 0003 fffd 0002 0001 0000 fffe 0002 0000 ffff 0000 0001 ffff fffd 0001 fffb 0000 fffc 0001 0000 ffff 0000 0000 0002 0001 0000 ffff 0004 fffb fffb 0005 fffd 0000 0000 0002 0000 0000 fffd 0000 0000 0000 0003 0003 fffb 0001 0000 0000 fffe 0000 0000 0000 0000 fffe 0001 fffe 0002 ffff ffff fffe 0002 0001 fffd 0002 0000 0000 0000 ffff 0002 fffd fffc 0006 0000 0000 fffe 0004 fffc 0001 fffc 0000 0000 fffe ffff 0003 ffff 0000 fffe 0000 0002 fffb 0002 fff8 0003 0000 0000 fffd 0001 0003 ffff 0006 fffb 0000 0002 0000
ffff 0000 0000 0000 0005 fff9 0001 0004 fffd 0002 0000 0003 ffff 0003 0000 0002 0001 0000 fffd 0003 ffff 0000 fffd 0002 0001 fffd 0000 0004 ffff 0000 0000 0001 ffff 0000 fffd 0000 fffd 0003 0001 ffff 0000 fffc 0002 fffa 0003 0002 fff9 0002 0001 0000 0001 0000 0000 fffc 0004 fffc 0002 0006 fffc ffff 0002 0003 ffff 0000 0002 0000 ffff ffff 0000 0000 fffe 0000 ffff 0002 ffff ffff 0000 0003 0002 0002 0000 0001 0000 0002 fffc 0002 fffe 0000 fffd 0000 0003 fffd 0000 0001 fff8 0001 fffd 0000 0000 0003 fffe fffe 0002 0003 fffe 0001 0000 0000 0002 0000 fffb 0000 0001 fffd 0000 fffe ffff ffff fffc 0000 0000 fffd 0001 0001 fffe 0003 0002 ffff 0000 ffff 0001 0002 fffa 0006 fffb fffe fffa 000a ffff 0001 fff8 0005 0000 0004 fffd 0003 ffff 0002 fffd 0001 0000 0000 0003 0001 0000 0002 fffe fffd 0003 fffb 0002 ffff 0001 0000 0001 0000 0000 ffff 0002 0001 0000 0000 0000 0001 ffff 0001 fffc 0000 ffff 0000 0000 0000 0000 0000 0002 fffc 0006 0001 fffc 0004 0000 fffd 0002 0000 0005 fffe 0000 0000 0001 ffff 0000 0000 0000 0001 ffff 0001 0000 0000 0001 0000 0000 0000 0000 0000 ffff fff5 000d ffff 0000 0000 0001 0000 ffff 0000 fffd 0002 0001 0000 0001 0001 0004 0000 0002 0000 0000 0001 ffff fffd 0003 0000 fffe fffb 0006 0000 0002 fffd 0000 0001 0001 ffff 0007 fffe 0001 0001 0001 ffff 0003 fff9 0002 0002 fffb 0005 ffff ffff 0003 fffe 0000 0001 fffd 0000 ffff 0004 ffff 0003 0000 ffff ffff 0000 0002 0002 fffe 0002 0000 0001 0000 0000 fffc 0003 0000 0002 0002 fffd 0003 ffff 0003 fffe 0003 fffb 0000 0003 0001 fffe 0000 0002 0000 0000 ffff fff8 0004 0003 0000 ffff 0002 fff9 0000 0002 fffd 0000
fffe 0001 0003 fffe 0006 0001 fffb 0000 0000 0002 fffa fffd 0002 0002 fffc fffc 0000 0003 fffb ffff 0000 0000 fffe 0002 fffe 0005 0000 fffb 0001 0003 fffe 0006 0000 0001 0000 fffe 0002 ffff 0001 0002 fffe 0003 0000 0000 0004 fff8 0003 0000 ffff 0004 fffd 0000 fffe 0001 fffb 0003 fffd 0001 0000 ffff 0000 0003 0000 fffe ffff 0002 0000 0005 0002 fff9 0001 0000 0006 fff6 0002 0000 0002 0000 fffe 0000 fffe fffe 0002 fffb 0007 fffd ffff 0005 fffd fffe 0002 fffe 0001 0002 0001 ffff 0003 0000 0000 0000 0005 0002 0007 fff9 fffd 0000 0002 0000 0000 fffd 0000 fffe 0000 ffff 0003 0003 0001 ffff 0004 0000 0002 fffe fffd 0004 0001 ffff 0001 0002 ffff 0000 0001 fffd 0005 fffd 0005 0000 0006 fffa 0002 0003 0000 ffff fffd 0000 0002 fffb 0002 ffff 0002 fffd ffff 0002 fffc 0004 fffc ffff 0001 0005 ffff 0002 fffd 0001 0000 0000 fffd 0002 fffd 0003 fffc 0000 0002 0000 0000 0001 ffff fffd 0003 0000 ffff 0001 0000 fffe 0002 fffc 0002 0000 fffe 0001 0001 fffd ffff 0002 ffff fffe ffff fffd 0004 ffff fffe 0000 0000 0000 0000 ffff 0000 0000 ffff 0000 0000 ffff 0001 ffff 0000 0000 ffff fffb 0003 fffe 0009 fff9 0002 0002 fffa 0007 fffa 0004 0000 ffff 0000 ffff fff9 0000 fffe 0006 fffb 0004 0000 0004 fff5 0006 0001 0000 0000 fffb 0003 0001 0000 0002 fffc 0000 fffe 0000 fff7 0006 fff9 0004 fff9 0000 ffff 0004 0001 fffd 0002 0002 fffe 0002 0002 fffd 0001 0000 0000 fffe ffff fffe fffe 0001 0000 0002 fffe fffd 0000 0000 0000 0000 0002 0000 0000 0000 ffff 0000 fffe 0001 ffff 0002 fffe 0003 fffe 0003 0002 fffa 0005 0000 fffb 0003 0001 fffe 0002 0002 fffe 0002 fffa 0006 fffe 0002 0001 0001 ffff 0002
0000 0002 fffe ffff 0000 fffd 0008 fff7 0002 0000 0005 0002 0000 ffff 0002 0004 fffd 0003 fffc 0006 ffff 0006 fffd 0000 0002 fff7 0001 0002 0001 fffe 0000 fffc 0002 0001 fffe 0004 0000 fffe 0002 0001 fffb 0000 0000 ffff ffff 0002 0001 fffc 0001 ffff 0001 0005 fffd 0002 0000 0001 0000 ffff 0000 ffff 0001 fffc 0000 0000 0000 0001 fffe fff8 0005 0000 0000 0000 fffc 0004 0003 0000 fffe 0000 ffff 0003 ffff 0003 0000 0001 fffa 0003 0002 0001 0004 ffff 0005 ffff fffd 0002 ffff 0002 0000 0000 0003 fffc fffb 0006 fff1 0004 0000 0000 0003 0000 0000 0002 fffd 0000 0004 fffc ffff fffe 0000 0000 0003 0003 fffd 0006 fffa 0000 0001 0004 fffc fffd 0000 0003 0000 0003 fff8 0006 fff9 0004 fffb 0006 fffc 0001 0002 0000 fffe 0000 0001 ffff 0001 0000 fffd 0005 0000 fffd 0001 ffff 0000 0000 0006 fff9 0003 0002 0005 ffff 0001 0000 0000 0002 0001 0004 fffc 0001 ffff ffff 0003 fffe 0000 ffff 0001 0001 0000 fffe 0000 0000 ffff 0003 0000 fffe 0001 ffff ffff 0001 0000 0000 0001 fffe 0000 0004 fffc 0001 0002 ffff 0000 0000 0000 0000 0001 ffff 0000 0000 0000 0000 0000 0000 0000 0000 0000 0000 fffb 0004 ffff 0003 0000 0001 0004 fffe fffc 0005 fffe 0001 0001 0001 0002 0005 0000 0000 0009 fff4 0002 fffe 0000 0000 fffb 0001 0000 0002 fffe 0000 0003 fffe 0001 0002 fffa 0004 0001 ffff 0006 0001 0001 0000 0003 fffd 0001 0000 ffff 0001 0000 0001 0001 0002 0000 0003 0000 0002 0000 0002 0000 0000 0000 fffd 0003 0001 0001 ffff 0000 0001 fffe 0000 0000 0000 fffe 0001 0001 fffe 0000 ffff 0002 fffd 0002 ffff fffd 0004 fffd 0007 fff8 0002 0002 ffff 0003 fffe ffff 0000 0000 fffc 0001 ffff 0000 0000 ffff 0001
0006 0000 ffff 0007 0001 0005 fffa 0005 0000 ffff ffff 0003 ffff ffff 0001 ffff 0004 ffff fffe 0000 ffff 0002 ffff 0001 fffe 000a fff6 0003 fffc 0003 0006 fff7 0000 fffe 0001 0000 ffff 0001 fffd fffb 0002 fffd 0004 0000 0002 fffd 0001 ffff 0005 0006 0000 fffd 0007 fffd 0000 0000 0001 fffe 0002 0003 0001 fffd 0001 0000 ffff 0002 0000 0002 ffff 0000 fffe 0002 fffe fffb 0000 0002 ffff ffff 0000 0001 0002 0000 0000 0000 fffe 0003 fff8 0004 fff3 fffd 0004 0000 fffc 0004 fffc fffd 0003 fffc 0001 0001 0003 fffc 0000 0000 0003 0000 fffe fffc fffd 0005 fffe 0003 fffe fffa 0008 0000 0000 ffff fff9 0001 fffe 0004 ffff 0004 fffc 0001 ffff 0002 0003 fff6 0007 fffd 0003 0000 fffa 0003 ffff fffd 0001 0000 0001 0000 0000 0000 0000 0003 0000 0000 fffe 0000 ffff 0004 0004 fff5 0006 fffe fffc 0005 fffb fffb fffb 0002 fffd fffd 0004 fff9 0000 fffa 0003 0000 0002 ffff fffe 0000 0003 0000 ffff 0000 0002 0005 0000 fffd 0002 0000 0000 fffe 0001 0001 0002 0000 fffe 0000 0000 0002 fffe ffff 0001 0001 ffff 0000 ffff ffff 0002 0000 ffff 0001 0000 ffff 0000 0000 fffe 0002 0000 0000 fffe 0001 fffa 0003 fffa 0002 0002 ffff fffb ffff 0005 fffb 0003 ffff 0000 0000 0001 fffb 0000 fff5 0003 0006 fffe fffe 0005 ffff ffff 0003 fffe 0001 0000 0001 fffa 0002 fffe 0001 0002 fff9 0000 0004 fffb ffff ffff fffd 0002 0001 fffd 0002 fffd fffe fffe 0000 fffd 0004 fff5 ffff 0000 0000 fffd 0001 0000 0000 ffff 0000 fffe 0000 ffff 0001 0005 fffb 0004 0002 fffe 0003 fffe 0000 0002 fffd 0001 0000 0000 ffff 0000 0003 fffe 0000 0000 fffd 0001 0001 fff9 0007 0002 fffa 0005 0000 0000 0001 fffe 0004 fffe 0002 0001 0000
0000 ffff 0000 0001 fff6 fffd 0001 0001 0002 fffc 0001 fffb 0007 0001 fffd ffff 0003 fffe 0000 0001 0001 fffe 0003 0000 0000 fffd 0003 0003 ffff 0003 ffff 0002 0001 0004 fffd 0001 0000 0003 0001 ffff 0002 0003 fffb 0000 0001 0002 0003 0004 fff9 fffd 0002 ffff fffa 0007 fffd 0002 0000 0002 ffff ffff 0000 0003 fffe 0003 0001 fffe 0001 0000 ffff 0000 0000 0002 0003 0001 0001 fffe 0002 0003 0000 fffd ffff 0001 0001 ffff 0004 0001 0005 fffe fffe 0006 0000 fffd 0001 0003 fffe 0004 fffe 0001 0000 0008 fff4 0007 fffd 0005 0000 fffd fffc 0005 ffff fffe 0006 fffb 0000 0002 fffe 0006 ffff ffff 0003 0000 0000 0000 0001 fffd ffff ffff 0002 0000 0003 0000 fff7 0001 0004 fffd 0001 0004 fffa 0004 0003 fff7 0002 0001 fffd 0003 0000 fffd ffff 0002 0000 0002 0000 0000 fffd 0003 0000 0000 fffe 0002 fff9 0004 0000 0003 fffe 0003 0000 0004 0000 0003 fffc 0007 fffc 0002 ffff 0004 fffc 0002 0002 fffd 0000 fffb 0002 0002 fffe 0000 0001 0001 0000 fffe fffe 0001 0001 0001 ffff 0001 fffe 0001 fffe 0000 0000 0002 0000 0000 ffff 0000 0000 0000 0000 0000 0002 0000 0002 ffff 0000 0000 fffe 0001 fffd 0005 0005 fffd 0000 fffd 0000 0006 fffc 0000 0000 0002 0002 fffd 0001 0002 0003 0002 fffc 0000 0001 ffff 0000 0000 0000 fffb 0000 0001 fffe 0000 0003 fffc 0003 0001 ffff fffd 0003 fffe 0002 0004 ffff 0000 0000 0000 0004 ffff 0001 0002 0001 0000 0000 0001 0000 0004 fffe ffff 0003 fffe 0001 fffe 0006 0000 0000 0000 0001 fffd fffd 0001 ffff ffff 0003 fffe 0002 0001 fffe 0002 0000 0001 0002 fffe 0000 0000 0001 0001 ffff 0000 0005 fffc 0009 fff7 fffc 0003 ffff 0001 0005 0000 0000 fffd 0001 0001 0001 0001
fffc fffe 0000 0000 0003 0005 fffe ffff 0001 0006 0006 ffff fffc 0007 0001 0000 0002 0000 0004 0000 fffe ffff fffe 0000 fffe 0001 fffe fffb 0003 0002 fffe 0000 fffb 0000 ffff 0004 ffff fffe fffe 0002 0002 fffc 0004 0001 0000 0000 fffc fffd 0001 ffff ffff ffff fffd fffc 0001 0000 0000 0001 fffd 0003 0001 0000 ffff 0000 0000 0000 0004 fffe 0001 fffd 0001 fffe 0000 fff9 0002 fffd fffe 0000 0000 0002 fffe 0000 fffe 0001 fffe 0000 fff7 0005 fffd 0001 0002 0001 fffc 0005 fffd 0004 0000 0000 0000 0009 fffc ffff 0000 0003 fffc fffe 0004 fffe 0000 0003 fffb 0003 fffc 0000 ffff fffd ffff 0002 fffb ffff 0007 fffc 0001 0003 0000 fffd 0000 0000 ffff 0000 0004 0006 fff3 0005 0003 0000 fff9 0004 fffd 0004 0001 fffe 0001 fffe 0002 ffff ffff 0006 fff9 0000 0001 0002 0002 0000 0001 0004 0000 fffe 0007 0005 fff8 0007 0000 ffff 0003 fffe 0001 ffff 0003 fffb ffff 0002 0001 0000 fffe 0003 fffa 0003 ffff 0004 fffc 0001 0001 0000 ffff 0002 fffd 0001 0000 ffff 0000 0000 0000 0000 0001 0002 ffff 0003 fffe 0000 0001 ffff 0000 0000 0000 0001 0000 ffff 0000 0000 0000 0000 0000 0000 0007 fffe ffff fffe 0000 0003 fffe 0000 0001 0002 fffa 0000 0000 0002 fffb 0000 fffa 0000 0002 0002 0002 0000 fffe 0001 fffa 0002 0001 0002 0000 0001 0002 0001 0000 0000 ffff 0000 0000 0000 0000 0000 ffff 0001 0004 fff9 ffff ffff 0000 ffff 0001 0003 ffff 0000 0001 0000 0000 0000 0001 0000 0000 fffe 0001 0000 0001 fffd ffff ffff 0000 0000 0003 fffd 0000 0004 fffd 0000 0001 fffe 0000 0000 0001 ffff fffe 0003 0001 0000 0000 fffd 0000 fffc 0000 0007 fff4 000a 0000 0001 0002 fffc fffb 0003 0001 0000 0000 0000 ffff 0001
0004 0002 0002 0003 0000 fffb 0003 0001 fff8 0001 fffd fffd ffff fffd 0000 0000 fffc fffe fffc 0000 fffc 0005 fffe 0001 0000 0002 fffa 0006 fff9 0004 0000 0002 0000 fffe 0000 0001 ffff 0003 0000 0000 ffff 0003 0003 fffa 0002 ffff 0000 0001 0000 ffff 0005 0001 fffc 0007 fffb 0004 0000 fffd 0000 fffd 0001 0001 ffff fffc 0001 ffff ffff 0001 0000 ffff 0005 fffa 0000 0004 fffd 0000 0004 ffff 0002 fffb 0001 0001 0000 0004 fff7 0003 0007 0000 0000 0001 0000 0000 0000 fffc 0000 ffff 0000 0000 0005 fff2 0001 0001 0003 fffd 0008 ffff ffff 0002 0002 fffd 0001 fffd ffff 0006 fffe 0006 ffff 0002 0006 fff9 0000 fffa 0004 0002 fff9 0007 fffb 0000 0004 0000 0000 fffe 0006 0000 fffb 0002 0000 fffd 0005 fffa 0001 ffff 0002 0002 0001 0000 0002 ffff ffff 0000 ffff fffe fffd 0003 fffc 0000 0000 fff9 0006 fff5 ffff 0002 fff7 0003 fffe 0001 fffc 0004 0000 0002 0003 ffff fffe 0001 0000 ffff 0004 0002 ffff 0000 0004 0001 0000 ffff 0000 0004 ffff 0000 fffe 0003 fffe 0000 0001 fffe 0001 ffff 0000 ffff 0002 0000 ffff 0002 0001 ffff 0001 ffff 0000 0003 0000 ffff 0000 0000 0000 0000 fffe 0000 ffff fffd 0001 fffd 0002 0006 fffe 0000 0000 0000 0000 fffe 0002 0005 0003 fffd ffff fffd 000a fff8 0003 ffff 0006 0000 fffc 0000 0000 0001 fffe 0004 fffa 0006 0002 fffa 0002 0002 fffd 0000 0000 0000 0003 fffe 0000 0005 fffb 0002 fffb 0002 0000 fffa ffff 0003 fffe 0000 ffff 0001 0000 0000 ffff 0000 fffd 0005 0002 fffd ffff 0001 0002 fffc 0001 fffb 0004 0000 fffe 0000 0002 fffe fffb 0002 fffb 0002 ffff 0001 0000 0002 0003 0000 0001 0000 0000 fffa 0001 0000 fff7 0003 0005 fffc 0000 0000 fffe 0000 0000 0000
ffff 0000 fffc fffb ffff 0006 fff8 0001 0007 fffb 0000 0002 0001 0000 fff4 0009 0001 0001 0005 fffc 0007 fff6 0001 0000 0000 fff9 0009 0001 0001 fffb 0000 0002 0002 0006 fff8 0002 0002 0004 fffe 0000 fffc 0005 ffff 0000 0000 0005 fff8 0007 0000 fffd fffd 0007 fffd 0001 0000 ffff 0000 0003 0002 0004 ffff fffc 0002 0004 0000 0003 fffc fffe 0003 fffe fffe 0005 ffff 0001 0002 0000 fffb 0000 0002 0000 0003 0000 0002 0001 fffb 0002 fffa 0001 0000 fffd 0004 fffd fffe 0003 0000 0003 fffd 0000 0000 0000 0000 0000 0004 fffa fffa 0003 0000 ffff 0000 ffff 0000 0003 fffd 0000 0000 0000 0003 fffd 0002 0002 0000 0009 fff9 fff8 0009 ffff 0006 fffe fffc 0004 0001 fff8 0001 fffe 0006 ffff 0002 0003 0000 0000 0001 0002 fffc ffff 0001 0002 fffd ffff 0001 0003 0000 0004 fffa 0003 fffe 0000 0001 0002 0002 0004 0005 0001 0000 0000 0005 0000 fffe fffe 0004 ffff 0001 0001 0001 ffff 0000 0003 0001 fffc 0001 0002 ffff fffc 0001 0000 fffd 0001 0001 0000 0004 fffc 0001 0001 ffff 0000 0000 0000 fffe 0000 fffe 0001 ffff 0000 0000 0000 ffff 0002 fffe 0000 ffff 0003 0000 0000 0000 0000 0001 fffe 0003 fffa 000a 0000 0002 fffd ffff fffb 0000 0004 ffff 0005 ffff fffe fffc 0003 fff9 fffc fff7 0004 0000 fff9 0004 fffc 0002 0000 0002 0003 fffe 0001 0001 ffff ffff ffff 0000 0005 ffff 0002 0002 fffe fffe 0000 0002 fff6 0007 0002 0004 fffc fffd 0005 0000 fffd 0001 0000 0001 fffd 0006 ffff 0004 fffe 0002 fffc 0001 0004 0000 0002 fffe 0001 0001 0001 0000 ffff 0003 ffff fffd 0000 0005 0003 0000 fffe ffff 0000 0000 0000 ffff 0000 0000 0002 0001 0004 fffd 0002 0004 0000 0000 0003 fff9 0005 0003 ffff 0000 0004
