0000 0000 0000 0000 0000 0000 0000 0000 0000 0000 0000 0000
0000 008b 0125 010d 0058 0009 0000 0000 0000 0000 0000 0000
0000 020a 02e4 0358 0322 03ca 03e0 03e0 03e4 023d 0069 0000
0000 039d 0398 0000 0000 0055 00ad 009c 0174 0041 0003 0000
0000 03b2 0336 013e 0202 001c 0000 03bf 038e 0000 0000 0000
0000 0000 0000 0000 0083 0069 017a 06e9 057d 0000 0000 0000
0000 0000 0000 0000 0000 0025 0609 06c1 0000 0000 0000 0000
0000 0000 0000 0000 0000 01da 073b 0598 0000 0000 0000 0000
0000 0000 0000 0000 0063 060f 0682 0000 0000 0000 0000 0000
0000 0000 0000 0032 0525 06ad 03d8 0000 0000 0000 0000 0000
0000 0000 0000 0154 0714 075d 0000 0000 0000 0000 0000 0000
0000 0000 0000 0403 076f 0178 0000 0000 0000 0000 0000 0000
