0000 0000 0000 0000 0000 0000 0000 0000 0000 0000 0000 0000
0000 002b 0103 0003 0000 0000 0000 0000 0000 0000 0000 0000
0000 007e 0233 010b 00ac 0000 0000 0000 0000 0000 0000 0000
0000 0084 04a6 0493 062b 05c2 0574 0528 07f3 03d7 0000 0000
0000 0000 0000 00aa 023f 0292 02da 02be 0652 03ea 0169 0000
0000 0000 0000 0000 0000 0000 0000 03be 02ec 01eb 016e 0000
0000 0000 0000 0000 0000 0000 00ac 03b8 00fa 01c0 0067 0000
0000 0000 0000 0000 0000 0041 02b9 0241 01a3 0174 0000 0000
0000 0000 0000 0000 0000 0276 0293 00e4 01a3 0036 0000 0000
0000 0000 0000 0000 006d 0397 0158 020a 0174 0000 0000 0000
0000 0000 0000 0000 0393 03ef 0000 0180 0036 0000 0000 0000
0000 0000 0000 0000 03eb 04ba 02c7 0081 0000 0000 0000 0000
